<pad>	0
[UNK]	0
▁,	-0
▁的	-1
▁。	-2
▁、	-3
▁一	-4
▁在	-5
▁1	-6
▁了	-7
▁和	-8
▁中	-9
▁有	-10
▁是	-11
▁人	-12
▁为	-13
▁大	-14
▁这	-15
▁国	-16
▁新	-17
▁发	-18
▁全	-19
▁生	-20
▁不	-21
▁9	-22
▁农	-23
▁经	-24
▁文	-25
▁中国	-26
▁以	-27
▁我	-28
▁与	-29
▁建	-30
▁0	-31
▁他	-32
▁开	-33
▁19	-34
▁地	-35
▁出	-36
▁自	-37
▁2	-38
▁主	-39
▁工	-40
▁年	-41
▁同	-42
▁多	-43
▁政	-44
▁两	-45
▁3	-46
▁华	-47
▁各	-48
▁(	-49
▁)	-50
▁重	-51
▁关	-52
▁水	-53
▁进	-54
▁就	-55
▁发展	-56
▁经济	-57
▁:	-58
▁小	-59
▁记	-60
▁上	-61
▁美	-62
▁学	-63
▁8	-64
▁《	-65
▁》	-66
▁之	-67
▁也	-68
▁成	-69
▁着	-70
▁们	-71
▁对	-72
▁民	-73
▁世	-74
▁市	-75
▁7	-76
▁其	-77
▁历	-78
▁作	-79
▁日	-80
▁高	-81
▁加	-82
▁改	-83
▁公	-84
▁5	-85
▁6	-86
▁实	-87
▁时	-88
▁;	-89
▁产	-90
▁总	-91
▁本	-92
▁来	-93
▁万	-94
▁使	-95
▁家	-96
▁特	-97
▁共	-98
▁南	-99
▁方	-100
▁记者	-101
▁交	-102
▁人民	-103
▁事	-104
▁基	-105
▁而	-106
▁香	-107
▁建设	-108
▁北	-109
▁下	-110
▁历史	-111
▁我们	-112
▁创	-113
▁香港	-114
▁个	-115
▁十	-116
▁提	-117
▁说	-118
▁企	-119
▁将	-120
▁还	-121
▁企业	-122
▁平	-123
▁计	-124
▁党	-125
▁已	-126
▁农业	-127
▁国家	-128
▁可	-129
▁广	-130
▁村	-131
▁精	-132
▁4	-133
▁推	-134
▁现	-135
▁社	-136
▁第	-137
▁部	-138
▁世界	-139
▁政府	-140
▁从	-141
▁并	-142
▁三	-143
▁增	-144
▁当	-145
▁无	-146
▁正	-147
▁要	-148
▁合	-149
▁表	-150
▁资	-151
▁一个	-152
▁全国	-153
▁利	-154
▁到	-155
▁前	-156
▁工作	-157
▁书	-158
▁外	-159
▁如	-160
▁安	-161
▁活	-162
▁电	-163
▁西	-164
▁通	-165
▁理	-166
▁起	-167
▁10	-168
▁会	-169
▁分	-170
▁结	-171
▁集	-172
▁生育	-173
▁今	-174
▁保	-175
▁老	-176
▁00	-177
▁元	-178
▁图	-179
▁所	-180
▁最	-181
▁组	-182
▁行	-183
▁青	-184
▁本报	-185
▁代	-186
▁又	-187
▁形	-188
▁报	-189
▁更	-190
▁北京	-191
▁举	-192
▁投	-193
▁明	-194
▁联	-195
▁被	-196
▁解	-197
▁长	-198
▁后	-199
▁祖	-200
▁等	-201
▁统	-202
▁领	-203
▁传	-204
▁每	-205
▁气	-206
▁群	-207
▁面	-208
▁军	-209
▁战	-210
▁职	-211
▁一年	-212
▁南非	-213
▁活动	-214
▁计划	-215
▁优	-216
▁深	-217
▁管	-218
▁近	-219
▁问	-220
▁首	-221
▁祖国	-222
▁回	-223
▁山	-224
▁机	-225
▁两岸	-226
▁新年	-227
▁先	-228
▁去	-229
▁困	-230
▁指	-231
▁收	-232
▁但	-233
▁原	-234
▁参	-235
▁好	-236
▁此	-237
▁相	-238
▁过	-239
▁都	-240
▁生活	-241
▁五	-242
▁用	-243
▁目	-244
▁文明	-245
▁治	-246
▁继	-247
▁金	-248
▁地区	-249
▁工程	-250
▁社会	-251
▁进行	-252
▁向	-253
▁坚	-254
▁思	-255
▁情	-256
▁那	-257
▁华社	-258
▁职工	-259
▁体	-260
▁她	-261
▁干	-262
▁服	-263
▁节	-264
▁里	-265
▁关系	-266
▁改革	-267
▁水利	-268
▁内	-269
▁几	-270
▁天	-271
▁心	-272
▁由	-273
▁能	-274
▁出版	-275
▁实现	-276
▁群众	-277
▁动	-278
▁展	-279
▁带	-280
▁引	-281
▁把	-282
▁江	-283
▁维	-284
▁龙	-285
▁农民	-286
▁问题	-287
▁二	-288
▁制	-289
▁得	-290
▁认	-291
▁达	-292
▁音	-293
▁统一	-294
▁199	-295
▁乡	-296
▁亿	-297
▁古	-298
▁强	-299
▁意	-300
▁转	-301
▁12	-302
▁举行	-303
▁市场	-304
▁严	-305
▁千	-306
▁反	-307
▁史	-308
▁据	-309
▁支	-310
▁画	-311
▁系	-312
▁中华	-313
▁创作	-314
▁精神	-315
▁九	-316
▁取	-317
▁城	-318
▁完	-319
▁整	-320
▁种	-321
▁设	-322
▁走	-323
▁银	-324
▁交通	-325
▁开始	-326
▁生产	-327
▁组织	-328
▁青年	-329
▁音乐	-330
▁协	-331
▁卢	-332
▁四	-333
▁规	-334
▁贫	-335
▁代表	-336
▁困难	-337
▁文化	-338
▁东	-339
▁些	-340
▁再	-341
▁团	-342
▁欢	-343
▁海	-344
▁环	-345
▁20	-346
▁30	-347
▁同时	-348
▁服务	-349
▁专	-350
▁决	-351
▁县	-352
▁名	-353
▁处	-354
▁委	-355
▁它	-356
▁演	-357
▁盛	-358
▁致	-359
▁良	-360
▁读	-361
▁路	-362
▁风	-363
▁中央	-364
▁元旦	-365
▁去年	-366
▁文学	-367
▁结合	-368
▁银行	-369
▁领导	-370
▁双	-371
▁张	-372
▁感	-373
▁科	-374
▁稳	-375
▁英	-376
▁国际	-377
▁管理	-378
▁丛	-379
▁八	-380
▁只	-381
▁教	-382
▁比	-383
▁没	-384
▁爱	-385
▁真	-386
▁祝	-387
▁积	-388
▁给	-389
▁许	-390
▁世纪	-391
▁事业	-392
▁产业	-393
▁今天	-394
▁共同	-395
▁卢布	-396
▁方面	-397
▁村民	-398
▁自己	-399
▁?	-400
▁俄	-401
▁副	-402
▁少	-403
▁巴	-404
▁帮	-405
▁性	-406
▁泽	-407
▁货	-408
▁连	-409
▁一步	-410
▁我国	-411
▁第一	-412
▁继续	-413
▁美国	-414
▁业	-415
▁划	-416
▁努	-417
▁台	-418
▁因	-419
▁应	-420
▁技	-421
▁效	-422
▁条	-423
▁样	-424
▁省	-425
▁知	-426
▁考	-427
▁艺	-428
▁讲	-429
▁话	-430
▁调	-431
▁飞	-432
▁传统	-433
▁报道	-434
▁民族	-435
▁美元	-436
▁重要	-437
▁力	-438
▁很	-439
▁放	-440
▁次	-441
▁武	-442
▁物	-443
▁百	-444
▁直	-445
▁看	-446
▁研	-447
▁空	-448
▁花	-449
▁选	-450
▁项	-451
▁努力	-452
▁发表	-453
▁学者	-454
▁投资	-455
▁环境	-456
▁积极	-457
▁位	-458
▁做	-459
▁尽	-460
▁影	-461
▁快	-462
▁手	-463
▁数	-464
▁编	-465
▁车	-466
▁退	-467
▁道	-468
▁钱	-469
▁加强	-470
▁表示	-471
▁贫困	-472
▁资金	-473
▁写	-474
▁区	-475
▁升	-476
▁半	-477
▁志	-478
▁户	-479
▁扶	-480
▁接	-481
▁李	-482
▁法	-483
▁立	-484
▁紧	-485
▁红	-486
▁观	-487
▁马	-488
▁丛书	-489
▁主要	-490
▁作品	-491
▁取得	-492
▁基础	-493
▁盛云	-494
▁目前	-495
▁研究	-496
▁稳定	-497
▁艺术	-498
▁!	-499
▁七	-500
▁义	-501
▁依	-502
▁信	-503
▁具	-504
▁兼	-505
▁减	-506
▁办	-507
▁厂	-508
▁受	-509
▁女	-510
▁才	-511
▁拉	-512
▁摄	-513
▁步	-514
▁版	-515
▁谋	-516
▁迎	-517
▁一些	-518
▁万元	-519
▁产品	-520
▁基本	-521
▁增长	-522
▁干部	-523
▁影响	-524
▁总统	-525
▁现代	-526
▁重庆	-527
▁金融	-528
▁光	-529
▁变	-530
▁喜	-531
▁宁	-532
▁希	-533
▁常	-534
▁必	-535
▁慰	-536
▁或	-537
▁清	-538
▁激	-539
▁热	-540
▁然	-541
▁繁	-542
▁较	-543
▁保持	-544
▁全面	-545
▁公司	-546
▁可以	-547
▁坚持	-548
▁技术	-549
▁投入	-550
▁支持	-551
▁日电	-552
▁许多	-553
▁通过	-554
▁于	-555
▁亚	-556
▁克	-557
▁务	-558
▁奋	-559
▁孔	-560
▁孙	-561
▁宣	-562
▁彩	-563
▁想	-564
▁春	-565
▁标	-566
▁田	-567
▁艰	-568
▁运	-569
▁随	-570
▁革	-571
▁鲜	-572
▁书记	-573
▁参加	-574
▁同志	-575
▁同胞	-576
▁已经	-577
▁建立	-578
▁开放	-579
▁收入	-580
▁泽民	-581
▁起来	-582
▁集团	-583
▁乐	-584
▁云	-585
▁伟	-586
▁兴	-587
▁别	-588
▁化	-589
▁占	-590
▁却	-591
▁及	-592
▁周	-593
▁定	-594
▁巨	-595
▁持	-596
▁故	-597
▁斯	-598
▁期	-599
▁未	-600
▁极	-601
▁歌	-602
▁澳	-603
▁程	-604
▁罗	-605
▁脱	-606
▁航	-607
▁论	-608
▁该	-609
▁贸	-610
▁费	-611
▁难	-612
▁题	-613
▁99	-614
▁上海	-615
▁人士	-616
▁人物	-617
▁以及	-618
▁合作	-619
▁团结	-620
▁安全	-621
▁完成	-622
▁形成	-623
▁慰问	-624
▁提供	-625
▁提高	-626
▁日本	-627
▁时间	-628
▁理论	-629
▁设施	-630
▁部门	-631
▁集体	-632
00	-633
▁仪	-634
▁任	-635
▁促	-636
▁包	-637
▁印	-638
▁商	-639
▁流	-640
▁确	-641
▁称	-642
▁纪	-643
▁色	-644
▁藏	-645
▁警	-646
▁评	-647
▁负	-648
▁非	-649
▁11	-650
▁人们	-651
▁以来	-652
▁仪式	-653
▁其琛	-654
▁农村	-655
▁各地	-656
▁回归	-657
▁图片	-658
▁年来	-659
▁广大	-660
▁开发	-661
▁得到	-662
▁思想	-663
▁扶贫	-664
▁提出	-665
▁政协	-666
▁政治	-667
▁考古	-668
▁音乐会	-669
▁.	-670
▁价	-671
▁兵	-672
▁劳	-673
▁场	-674
▁子	-675
▁导	-676
▁布	-677
▁往	-678
▁权	-679
▁林	-680
▁河	-681
▁游	-682
▁火	-683
▁照	-684
▁状	-685
▁独	-686
▁王	-687
▁逐	-688
▁采	-689
▁韩	-690
▁15	-691
▁下降	-692
▁人口	-693
▁人员	-694
▁今年	-695
▁优势	-696
▁先生	-697
▁全部	-698
▁关心	-699
▁其中	-700
▁决定	-701
▁家庭	-702
▁希望	-703
▁帮助	-704
▁教育	-705
▁每年	-706
▁澳门	-707
▁解决	-708
▁读者	-709
▁货币	-710
▁资源	-711
▁产业化	-712
▁%	-713
▁亲	-714
▁仍	-715
▁健	-716
▁充	-717
▁冷	-718
▁吕	-719
▁土	-720
▁奇	-721
▁客	-722
▁尼	-723
▁居	-724
▁庆	-725
▁探	-726
▁早	-727
▁曾	-728
▁油	-729
▁温	-730
▁献	-731
▁珍	-732
▁示	-733
▁纳	-734
▁背	-735
▁茶	-736
▁落	-737
▁讯	-738
▁谈	-739
▁财	-740
▁超	-741
▁身	-742
▁送	-743
▁造	-744
▁邓	-745
▁队	-746
▁黄	-747
▁50	-748
▁一种	-749
▁一起	-750
▁两国	-751
▁中心	-752
▁九九	-753
▁乡镇	-754
▁促进	-755
▁全区	-756
▁公路	-757
▁减少	-758
▁创造	-759
▁华人	-760
▁增加	-761
▁外交	-762
▁宁夏	-763
▁小平	-764
▁开展	-765
▁推进	-766
▁条件	-767
▁来自	-768
▁英雄	-769
▁谋略	-770
▁进入	-771
▁韩国	-772
▁京	-773
▁仅	-774
▁令	-775
▁低	-776
▁养	-777
▁切	-778
▁则	-779
▁功	-780
▁危	-781
▁友	-782
▁召	-783
▁吸	-784
▁命	-785
▁园	-786
▁存	-787
▁岁	-788
▁庄	-789
▁恢	-790
▁按	-791
▁根	-792
▁格	-793
▁波	-794
▁注	-795
▁浩	-796
▁片	-797
▁至	-798
▁贺	-799
▁遗	-800
▁防	-801
▁阶	-802
▁一条	-803
▁全球	-804
▁兼并	-805
▁危机	-806
▁大使	-807
▁大部	-808
▁委员	-809
▁山区	-810
▁成功	-811
▁推动	-812
▁水平	-813
▁治区	-814
▁生态	-815
▁由于	-816
▁科技	-817
▁美术	-818
▁脱贫	-819
▁良好	-820
▁西藏	-821
▁话会	-822
▁费县	-823
▁过去	-824
▁部分	-825
▁『	-826
▁停	-827
▁刘	-828
▁初	-829
▁卡	-830
▁即	-831
▁品	-832
▁头	-833
▁密	-834
▁富	-835
▁寒	-836
▁底	-837
▁度	-838
▁徐	-839
▁承	-840
▁抓	-841
▁拥	-842
▁振	-843
▁敬	-844
▁旅	-845
▁旧	-846
▁显	-847
▁晚	-848
▁景	-849
▁智	-850
▁死	-851
▁消	-852
▁满	-853
▁点	-854
▁瑞	-855
▁界	-856
▁登	-857
▁眼	-858
▁突	-859
▁粮	-860
▁级	-861
▁虽	-862
▁边	-863
▁远	-864
▁追	-865
▁郑	-866
▁际	-867
▁需	-868
▁七年	-869
▁严重	-870
▁中共	-871
▁之一	-872
▁亚洲	-873
▁会议	-874
▁使用	-875
▁先进	-876
▁全市	-877
▁发生	-878
▁合国	-879
▁学术	-880
▁对于	-881
▁带来	-882
▁强调	-883
▁志愿	-884
▁指导	-885
▁故事	-886
▁正式	-887
▁经营	-888
▁老人	-889
▁自然	-890
▁规模	-891
▁革命	-892
▁项目	-893
▁出版社	-894
▁丰	-895
▁众	-896
▁你	-897
▁儿	-898
▁入	-899
▁典	-900
▁勒	-901
▁厚	-902
▁哈	-903
▁币	-904
▁怎	-905
▁扎	-906
▁拍	-907
▁拿	-908
▁普	-909
▁树	-910
▁汇	-911
▁焦	-912
▁筹	-913
▁者	-914
▁胜	-915
▁著	-916
▁街	-917
▁让	-918
▁谁	-919
▁象	-920
▁贷	-921
▁适	-922
▁间	-923
▁阿	-924
▁雪	-925
泾村	-926
▁一九	-927
▁主义	-928
▁主席	-929
▁交流	-930
▁人均	-931
▁亿元	-932
▁作出	-933
▁全县	-934
▁八年	-935
▁公斤	-936
▁军人	-937
▁农场	-938
▁分别	-939
▁利益	-940
▁制度	-941
▁十分	-942
▁华侨	-943
▁台湾	-944
▁各种	-945
▁国防	-946
▁城乡	-947
▁基金	-948
▁大学	-949
▁奋斗	-950
▁学生	-951
▁实施	-952
▁实行	-953
▁广场	-954
▁形式	-955
▁恢复	-956
▁情况	-957
▁推出	-958
▁改值	-959
▁政策	-960
▁旅游	-961
▁明天	-962
▁气温	-963
▁系列	-964
▁繁荣	-965
▁维护	-966
▁色列	-967
▁节日	-968
▁要求	-969
▁负责	-970
▁贷款	-971
▁达到	-972
▁进程	-973
▁连续	-974
▁重点	-975
▁志愿者	-976
▁临	-977
▁互	-978
▁伤	-979
▁值	-980
▁冬	-981
▁医	-982
▁博	-983
▁启	-984
▁告	-985
▁塔	-986
▁太	-987
▁套	-988
▁审	-989
▁座	-990
▁德	-991
▁摆	-992
▁救	-993
▁曲	-994
▁济	-995
▁港	-996
▁率	-997
▁甚	-998
▁留	-999
▁短	-1000
▁神	-1001
▁笔	-1002
▁米	-1003
▁约	-1004
▁纯	-1005
▁终	-1006
▁耶	-1007
▁荣	-1008
▁融	-1009
▁责	-1010
▁贵	-1011
▁趋	-1012
▁跨	-1013
▁违	-1014
▁配	-1015
▁附	-1016
▁顺	-1017
▁预	-1018
▁驻	-1019
▁鸣	-1020
万元	-1021
▁一次	-1022
▁上午	-1023
▁专家	-1024
▁之间	-1025
▁以上	-1026
▁众多	-1027
▁作用	-1028
▁作者	-1029
▁使馆	-1030
▁健康	-1031
▁党委	-1032
▁全村	-1033
▁公里	-1034
▁关于	-1035
▁农田	-1036
▁包括	-1037
▁华文	-1038
▁原则	-1039
▁发挥	-1040
▁召开	-1041
▁各国	-1042
▁各界	-1043
▁各类	-1044
▁地震	-1045
▁城市	-1046
▁如何	-1047
▁少年	-1048
▁拍卖	-1049
▁探索	-1050
▁整理	-1051
▁方案	-1052
▁方针	-1053
▁时代	-1054
▁期间	-1055
▁气氛	-1056
▁状况	-1057
▁示范	-1058
▁管制	-1059
▁系统	-1060
▁组成	-1061
▁耶德	-1062
▁藏文	-1063
▁虽然	-1064
▁表演	-1065
▁记录	-1066
▁讲话	-1067
▁谈判	-1068
▁违章	-1069
▁退伍	-1070
▁重大	-1071
▁重视	-1072
▁一九九	-1073
▁争	-1074
▁亩	-1075
▁什	-1076
▁介	-1077
▁冲	-1078
▁刚	-1079
▁另	-1080
▁号	-1081
▁员	-1082
▁呼	-1083
▁型	-1084
▁复	-1085
▁夜	-1086
▁央	-1087
▁尔	-1088
▁忘	-1089
▁排	-1090
▁控	-1091
▁措	-1092
▁搞	-1093
▁散	-1094
▁旗	-1095
▁既	-1096
▁望	-1097
▁横	-1098
▁浙	-1099
▁福	-1100
▁离	-1101
▁素	-1102
▁纽	-1103
▁综	-1104
▁绿	-1105
▁蒙	-1106
▁见	-1107
▁角	-1108
▁证	-1109
▁请	-1110
▁轻	-1111
▁辉	-1112
▁针	-1113
▁门	-1114
▁阳	-1115
▁阵	-1116
▁鱼	-1117
▁鼓	-1118
▁1.	-1119
▁不同	-1120
▁两制	-1121
▁个人	-1122
▁主题	-1123
▁义务	-1124
▁五大	-1125
▁介绍	-1126
▁任务	-1127
▁党派	-1128
▁军事	-1129
▁出席	-1130
▁出现	-1131
▁务院	-1132
▁劳动	-1133
▁反映	-1134
▁古代	-1135
▁古籍	-1136
▁同样	-1137
▁喜庆	-1138
▁四川	-1139
▁地方	-1140
▁多少	-1141
▁大利	-1142
▁大家	-1143
▁存款	-1144
▁平均	-1145
▁广西	-1146
▁庆祝	-1147
▁建交	-1148
▁引起	-1149
▁必须	-1150
▁怎样	-1151
▁总理	-1152
▁持续	-1153
▁指出	-1154
▁据新	-1155
▁推广	-1156
▁措施	-1157
▁改善	-1158
▁未来	-1159
▁机场	-1160
▁武器	-1161
▁油画	-1162
▁浙江	-1163
▁焦作	-1164
▁物质	-1165
▁特色	-1166
▁电子	-1167
▁电视	-1168
▁粮食	-1169
▁综合	-1170
▁罗斯	-1171
▁道路	-1172
▁阶段	-1173
▁首都	-1174
▁基础上	-1175
▁现代化	-1176
▁考古学	-1177
▁贫困县	-1178
▁丝	-1179
▁乌	-1180
▁伊	-1181
▁伴	-1182
▁何	-1183
▁佳	-1184
▁便	-1185
▁修	-1186
▁六	-1187
▁势	-1188
▁卫	-1189
▁均	-1190
▁培	-1191
▁墨	-1192
▁壮	-1193
▁夫	-1194
▁尊	-1195
▁尤	-1196
▁局	-1197
▁左	-1198
▁悲	-1199
▁愿	-1200
▁扩	-1201
▁批	-1202
▁挑	-1203
▁捐	-1204
▁描	-1205
▁斗	-1206
▁朋	-1207
▁松	-1208
▁欣	-1209
▁沙	-1210
▁烈	-1211
▁玉	-1212
▁白	-1213
▁石	-1214
▁破	-1215
▁秩	-1216
▁窗	-1217
▁签	-1218
▁篇	-1219
▁类	-1220
▁纷	-1221
▁胡	-1222
▁莫	-1223
▁蔬	-1224
▁补	-1225
▁装	-1226
▁视	-1227
▁贡	-1228
▁赞	-1229
▁跑	-1230
▁速	-1231
▁量	-1232
▁销	-1233
▁陈	-1234
▁降	-1235
▁雷	-1236
▁馆	-1237
一个	-1238
年来	-1239
我们	-1240
▁一日	-1241
▁万人	-1242
▁人类	-1243
▁什么	-1244
▁作家	-1245
▁信息	-1246
▁内容	-1247
▁利用	-1248
▁力量	-1249
▁加工	-1250
▁北大	-1251
▁发行	-1252
▁各项	-1253
▁吕梁	-1254
▁因此	-1255
▁国内	-1256
▁国旗	-1257
▁实际	-1258
▁并购	-1259
▁广泛	-1260
▁建成	-1261
▁开馆	-1262
▁形势	-1263
▁总结	-1264
▁战略	-1265
▁报告	-1266
▁支部	-1267
▁改变	-1268
▁时刻	-1269
▁明显	-1270
▁朋友	-1271
▁机制	-1272
▁来说	-1273
▁标准	-1274
▁根据	-1275
▁欢迎	-1276
▁民主	-1277
▁江南	-1278
▁深圳	-1279
▁火山	-1280
▁然而	-1281
▁版社	-1282
▁特别	-1283
▁特区	-1284
▁独立	-1285
▁理解	-1286
▁用水	-1287
▁真正	-1288
▁知识	-1289
▁科学	-1290
▁秩序	-1291
▁程度	-1292
▁空气	-1293
▁第二	-1294
▁紧密	-1295
▁结构	-1296
▁联合	-1297
▁联系	-1298
▁致富	-1299
▁艰苦	-1300
▁节目	-1301
▁蔬菜	-1302
▁表现	-1303
▁解放	-1304
▁贡献	-1305
▁财政	-1306
▁责任	-1307
▁资产	-1308
▁追求	-1309
▁逐步	-1310
▁部署	-1311
▁重新	-1312
▁需要	-1313
▁顺利	-1314
▁领域	-1315
▁198	-1316
▁委员会	-1317
▁丁	-1318
▁丽	-1319
▁久	-1320
▁供	-1321
▁偏	-1322
▁准	-1323
▁凡	-1324
▁单	-1325
▁善	-1326
▁喷	-1327
▁夏	-1328
▁失	-1329
▁妇	-1330
▁妻	-1331
▁孤	-1332
▁察	-1333
▁怀	-1334
▁找	-1335
▁抗	-1336
▁担	-1337
▁拱	-1338
▁挤	-1339
▁月	-1340
▁朝	-1341
▁木	-1342
▁朱	-1343
▁梁	-1344
▁毛	-1345
▁永	-1346
▁求	-1347
▁沧	-1348
▁沼	-1349
▁泰	-1350
▁淡	-1351
▁渠	-1352
▁灌	-1353
▁狂	-1354
▁益	-1355
▁监	-1356
▁矛	-1357
▁禁	-1358
▁竞	-1359
▁纸	-1360
▁翻	-1361
▁耕	-1362
▁聚	-1363
▁舞	-1364
▁若	-1365
▁言	-1366
▁访	-1367
▁质	-1368
▁赢	-1369
▁跃	-1370
▁迈	-1371
▁透	-1372
▁钟	-1373
▁限	-1374
▁雅	-1375
▁震	-1376
▁齐	-1377
人民	-1378
▁13	-1379
▁14	-1380
▁16	-1381
▁98	-1382
▁一定	-1383
▁一直	-1384
▁不断	-1385
▁事故	-1386
▁价格	-1387
▁优先	-1388
▁保护	-1389
▁信心	-1390
▁做好	-1391
▁全体	-1392
▁关注	-1393
▁关键	-1394
▁养殖	-1395
▁农户	-1396
▁决心	-1397
▁几乎	-1398
▁分析	-1399
▁利于	-1400
▁到中	-1401
▁制定	-1402
▁加坡	-1403
▁区域	-1404
▁协会	-1405
▁南京	-1406
▁卫生	-1407
▁吸引	-1408
▁呼吁	-1409
▁园区	-1410
▁土地	-1411
▁地位	-1412
▁大业	-1413
▁大会	-1414
▁她们	-1415
▁如今	-1416
▁妻子	-1417
▁学习	-1418
▁小型	-1419
▁小扎	-1420
▁居民	-1421
▁巨大	-1422
▁年代	-1423
▁广州	-1424
▁形象	-1425
▁意义	-1426
▁成果	-1427
▁战争	-1428
▁战斗	-1429
▁振兴	-1430
▁接受	-1431
▁效益	-1432
▁散文	-1433
▁敬老	-1434
▁文物	-1435
▁文献	-1436
▁斯坦	-1437
▁新疆	-1438
▁方式	-1439
▁日益	-1440
▁时期	-1441
▁明确	-1442
▁更加	-1443
▁武装	-1444
▁汇率	-1445
▁沼气	-1446
▁泾村	-1447
▁渠道	-1448
▁演出	-1449
▁照片	-1450
▁特困	-1451
▁现实	-1452
▁理会	-1453
▁理想	-1454
▁甚至	-1455
▁目标	-1456
▁直接	-1457
▁看到	-1458
▁矛盾	-1459
▁祝贺	-1460
▁突破	-1461
▁经过	-1462
▁经验	-1463
▁结束	-1464
▁统计	-1465
▁继承	-1466
▁美好	-1467
▁自叙	-1468
▁自治	-1469
▁落实	-1470
▁蒙古	-1471
▁行政	-1472
▁认识	-1473
▁调查	-1474
▁走出	-1475
▁辉煌	-1476
▁遗存	-1477
▁面临	-1478
▁面积	-1479
▁题材	-1480
▁飞机	-1481
▁飞行	-1482
▁高举	-1483
▁企业家	-1484
▁大使馆	-1485
▁买	-1486
▁件	-1487
▁份	-1488
▁住	-1489
▁倒	-1490
▁倡	-1491
▁兑	-1492
▁勇	-1493
▁口	-1494
▁吴	-1495
▁呈	-1496
▁哲	-1497
▁唱	-1498
▁围	-1499
▁圣	-1500
▁堵	-1501
▁夕	-1502
▁始	-1503
▁官	-1504
▁容	-1505
▁待	-1506
▁循	-1507
▁惊	-1508
▁执	-1509
▁招	-1510
▁挂	-1511
▁摊	-1512
▁施	-1513
▁族	-1514
▁术	-1515
▁板	-1516
▁构	-1517
▁果	-1518
▁查	-1519
▁核	-1520
▁概	-1521
▁模	-1522
▁洪	-1523
▁湖	-1524
▁玲	-1525
▁盘	-1526
▁站	-1527
▁竟	-1528
▁缩	-1529
▁苦	-1530
▁范	-1531
▁获	-1532
▁菲	-1533
▁营	-1534
▁董	-1535
▁血	-1536
▁觉	-1537
▁贯	-1538
▁踏	-1539
▁遇	-1540
▁邮	-1541
▁除	-1542
▁隆	-1543
▁雨	-1544
▁靠	-1545
▁骨	-1546
▁鲁	-1547
主义	-1548
实地	-1549
秦华	-1550
▁0%	-1551
▁18	-1552
▁3.	-1553
▁5%	-1554
▁一位	-1555
▁一切	-1556
▁一套	-1557
▁一面	-1558
▁三十	-1559
▁上年	-1560
▁主权	-1561
▁事迹	-1562
▁产党	-1563
▁人心	-1564
▁人生	-1565
▁代化	-1566
▁令人	-1567
▁价值	-1568
▁位于	-1569
▁体系	-1570
▁保证	-1571
▁元月	-1572
▁内外	-1573
▁出口	-1574
▁出台	-1575
▁切实	-1576
▁前进	-1577
▁千万	-1578
▁升起	-1579
▁协商	-1580
▁发出	-1581
▁史籍	-1582
▁各级	-1583
▁基地	-1584
▁多年	-1585
▁大街	-1586
▁如果	-1587
▁它们	-1588
▁安排	-1589
▁完善	-1590
▁客人	-1591
▁导致	-1592
▁尊老	-1593
▁尔滨	-1594
▁尽快	-1595
▁展示	-1596
▁工业	-1597
▁左右	-1598
▁应当	-1599
▁开拓	-1600
▁当地	-1601
▁当时	-1602
▁循环	-1603
▁快速	-1604
▁总额	-1605
▁感到	-1606
▁扩大	-1607
▁拱坝	-1608
▁指挥	-1609
▁按照	-1610
▁控制	-1611
▁提前	-1612
▁整治	-1613
▁日报	-1614
▁晚会	-1615
▁来到	-1616
▁林顿	-1617
▁格局	-1618
▁沙漠	-1619
▁波兰	-1620
▁流通	-1621
▁演员	-1622
▁用笔	-1623
▁登高	-1624
▁相信	-1625
▁祝愿	-1626
▁福利	-1627
▁精心	-1628
▁红旗	-1629
▁纷纷	-1630
▁而且	-1631
▁联欢	-1632
▁胜利	-1633
▁能源	-1634
▁自我	-1635
▁自豪	-1636
▁航班	-1637
▁英国	-1638
▁著名	-1639
▁行动	-1640
▁西亚	-1641
▁西哥	-1642
▁认真	-1643
▁访问	-1644
▁评论	-1645
▁贸易	-1646
▁赢得	-1647
▁走向	-1648
▁趋势	-1649
▁车辆	-1650
▁边防	-1651
▁达成	-1652
▁迎新	-1653
▁进步	-1654
▁退休	-1655
▁速度	-1656
▁造成	-1657
▁那里	-1658
▁部队	-1659
▁采取	-1660
▁长城	-1661
▁阳光	-1662
▁雷达	-1663
▁非常	-1664
▁首先	-1665
▁高效	-1666
▁高达	-1667
▁鲜花	-1668
▁一年里	-1669
▁会主义	-1670
▁历史上	-1671
▁敬老院	-1672
▁第一天	-1673
▁记者王	-1674
▁话会上	-1675
▁问题上	-1676
▁伍	-1677
▁余	-1678
▁俊	-1679
▁冒	-1680
▁剖	-1681
▁午	-1682
▁压	-1683
▁吗	-1684
▁听	-1685
▁呢	-1686
▁响	-1687
▁嘉	-1688
▁声	-1689
▁奖	-1690
▁奶	-1691
▁姐	-1692
▁孩	-1693
▁层	-1694
▁属	-1695
▁岗	-1696
▁峰	-1697
▁崇	-1698
▁川	-1699
▁庭	-1700
▁异	-1701
▁式	-1702
▁归	-1703
▁微	-1704
▁忠	-1705
▁忧	-1706
▁态	-1707
▁恭	-1708
▁打	-1709
▁挺	-1710
▁揭	-1711
▁援	-1712
▁撤	-1713
▁暖	-1714
▁曹	-1715
▁杨	-1716
▁梅	-1717
▁欠	-1718
▁毅	-1719
▁汉	-1720
▁沉	-1721
▁浪	-1722
▁润	-1723
▁潜	-1724
▁潮	-1725
▁灿	-1726
▁爆	-1727
▁爸	-1728
▁础	-1729
▁简	-1730
▁羊	-1731
▁股	-1732
▁胆	-1733
▁脚	-1734
▁芳	-1735
▁苏	-1736
▁荒	-1737
▁蕊	-1738
▁议	-1739
▁课	-1740
▁载	-1741
▁输	-1742
▁辞	-1743
▁钥	-1744
▁铁	-1745
▁闻	-1746
▁陀	-1747
▁饲	-1748
▁验	-1749
氏度	-1750
▁0.	-1751
▁24	-1752
▁96	-1753
▁一样	-1754
▁三年	-1755
▁不能	-1756
▁东部	-1757
▁两个	-1758
▁个月	-1759
▁丰富	-1760
▁主体	-1761
▁主张	-1762
▁主持	-1763
▁二十	-1764
▁云南	-1765
▁交部	-1766
▁产生	-1767
▁人数	-1768
▁优秀	-1769
▁优质	-1770
▁伟大	-1771
▁伤亡	-1772
▁体制	-1773
▁体现	-1774
▁保障	-1775
▁倡议	-1776
▁值得	-1777
▁儿童	-1778
▁充分	-1779
▁充满	-1780
▁克服	-1781
▁公布	-1782
▁典型	-1783
▁分子	-1784
▁利税	-1785
▁加大	-1786
▁北部	-1787
▁医院	-1788
▁十五	-1789
▁午夜	-1790
▁华南	-1791
▁协议	-1792
▁单位	-1793
▁印度	-1794
▁历程	-1795
▁原子	-1796
▁友好	-1797
▁反对	-1798
▁发现	-1799
▁发达	-1800
▁只要	-1801
▁可能	-1802
▁号召	-1803
▁合理	-1804
▁同意	-1805
▁名人	-1806
▁周围	-1807
▁喷发	-1808
▁回到	-1809
▁国民	-1810
▁地域	-1811
▁增强	-1812
▁处于	-1813
▁多次	-1814
▁大事	-1815
▁大型	-1816
▁奇迹	-1817
▁如此	-1818
▁宣布	-1819
▁尽管	-1820
▁山西	-1821
▁崇高	-1822
▁工人	-1823
▁带动	-1824
▁帮扶	-1825
▁干道	-1826
▁平衡	-1827
▁应该	-1828
▁引导	-1829
▁心灵	-1830
▁思路	-1831
▁恭城	-1832
▁意识	-1833
▁战员	-1834
▁技法	-1835
▁拉萨	-1836
▁改造	-1837
▁文艺	-1838
▁斗争	-1839
▁新建	-1840
▁方法	-1841
▁普及	-1842
▁智囊	-1843
▁更多	-1844
▁核心	-1845
▁死亡	-1846
▁每个	-1847
▁气象	-1848
▁水费	-1849
▁没收	-1850
▁沧桑	-1851
▁泰国	-1852
▁泽东	-1853
▁济南	-1854
▁海外	-1855
▁温暖	-1856
▁演奏	-1857
▁灌溉	-1858
▁灿烂	-1859
▁爱幼	-1860
▁爸爸	-1861
▁状态	-1862
▁狂欢	-1863
▁生命	-1864
▁画家	-1865
▁相对	-1866
▁真情	-1867
▁祝福	-1868
▁等地	-1869
▁筹集	-1870
▁纽约	-1871
▁终于	-1872
▁经历	-1873
▁经费	-1874
▁美德	-1875
▁致以	-1876
▁融入	-1877
▁西方	-1878
▁角度	-1879
▁解困	-1880
▁记忆	-1881
▁设计	-1882
▁调整	-1883
▁贵阳	-1884
▁起降	-1885
▁超过	-1886
▁路子	-1887
▁转变	-1888
▁迎接	-1889
▁逐渐	-1890
▁那样	-1891
▁邮电	-1892
▁针织	-1893
▁钥匙	-1894
▁长江	-1895
▁难以	-1896
▁面对	-1897
▁一年中	-1898
▁世界上	-1899
▁北大荒	-1900
▁多万元	-1901
▁慰问金	-1902
▁摄氏度	-1903
▁浙江省	-1904
▁生育户	-1905
▁解放军	-1906
▁重庆市	-1907
▁音乐厅	-1908
▁么	-1909
▁享	-1910
▁付	-1911
▁佐	-1912
▁佩	-1913
▁侨	-1914
▁假	-1915
▁冰	-1916
▁净	-1917
▁凝	-1918
▁勃	-1919
▁卷	-1920
▁吐	-1921
▁坐	-1922
▁垦	-1923
▁境	-1924
▁奔	-1925
▁妥	-1926
▁宪	-1927
▁宾	-1928
▁寄	-1929
▁寡	-1930
▁屋	-1931
▁履	-1932
▁岸	-1933
▁峡	-1934
▁巩	-1935
▁幅	-1936
▁延	-1937
▁录	-1938
▁律	-1939
▁忙	-1940
▁恩	-1941
▁恶	-1942
▁悟	-1943
▁截	-1944
▁房	-1945
▁抢	-1946
▁拓	-1947
▁拘	-1948
▁挖	-1949
▁搜	-1950
▁攻	-1951
▁敞	-1952
▁斑	-1953
▁断	-1954
▁易	-1955
▁星	-1956
▁映	-1957
▁昭	-1958
▁材	-1959
▁某	-1960
▁桥	-1961
▁检	-1962
▁榭	-1963
▁毕	-1964
▁毫	-1965
▁汪	-1966
▁沟	-1967
▁洁	-1968
▁派	-1969
▁浓	-1970
▁涉	-1971
▁淀	-1972
▁濒	-1973
▁烟	-1974
▁牡	-1975
▁牵	-1976
▁男	-1977
▁疑	-1978
▁睦	-1979
▁硬	-1980
▁祥	-1981
▁秀	-1982
▁穿	-1983
▁窥	-1984
▁筑	-1985
▁篆	-1986
▁细	-1987
▁绘	-1988
▁绝	-1989
▁缓	-1990
▁缺	-1991
▁肉	-1992
▁肩	-1993
▁膨	-1994
▁般	-1995
▁蓄	-1996
▁蓬	-1997
▁衷	-1998
▁覆	-1999
▁览	-2000
▁誉	-2001
▁誓	-2002
▁诚	-2003
▁详	-2004
▁谢	-2005
▁谱	-2006
▁购	-2007
▁赠	-2008
▁赶	-2009
▁越	-2010
▁足	-2011
▁轨	-2012
▁软	-2013
▁迟	-2014
▁逾	-2015
▁遣	-2016
▁醒	-2017
▁阅	-2018
▁陆	-2019
▁零	-2020
▁顶	-2021
▁飘	-2022
▁驱	-2023
▁黑	-2024
归者	-2025
政区	-2026
新年	-2027
旗帜	-2028
来到	-2029
胀率	-2030
衣厂	-2031
▁17	-2032
▁一下	-2033
▁一件	-2034
▁一份	-2035
▁一项	-2036
▁万亩	-2037
▁三个	-2038
▁不仅	-2039
▁不可	-2040
▁不懈	-2041
▁不管	-2042
▁不过	-2043
▁专门	-2044
▁两次	-2045
▁严格	-2046
▁严禁	-2047
▁中东	-2048
▁中文	-2049
▁主户	-2050
▁之际	-2051
▁书法	-2052
▁书画	-2053
▁书籍	-2054
▁二月	-2055
▁五星	-2056
▁产量	-2057
▁亲切	-2058
▁人大	-2059
▁人次	-2060
▁以往	-2061
▁会员	-2062
▁传记	-2063
▁伴随	-2064
▁依多	-2065
▁依托	-2066
▁光辉	-2067
▁全年	-2068
▁全民	-2069
▁全镇	-2070
▁公安	-2071
▁兴建	-2072
▁兵书	-2073
▁其实	-2074
▁再次	-2075
▁军委	-2076
▁军队	-2077
▁冲击	-2078
▁几年	-2079
▁出发	-2080
▁出来	-2081
▁出租	-2082
▁刚刚	-2083
▁创汇	-2084
▁别行	-2085
▁到来	-2086
▁前景	-2087
▁加元	-2088
▁加入	-2089
▁动员	-2090
▁勃勃	-2091
▁北风	-2092
▁十大	-2093
▁十年	-2094
▁半年	-2095
▁南部	-2096
▁即将	-2097
▁历代	-2098
▁压力	-2099
▁发菜	-2100
▁受到	-2101
▁变化	-2102
▁另一	-2103
▁史上	-2104
▁合影	-2105
▁吸收	-2106
▁周年	-2107
▁命运	-2108
▁回应	-2109
▁因素	-2110
▁国会	-2111
▁地委	-2112
▁垦区	-2113
▁城区	-2114
▁堵塞	-2115
▁增产	-2116
▁处理	-2117
▁多个	-2118
▁多人	-2119
▁多名	-2120
▁大地	-2121
▁大批	-2122
▁大雨	-2123
▁天津	-2124
▁女儿	-2125
▁妇女	-2126
▁始终	-2127
▁孩子	-2128
▁安门	-2129
▁家乡	-2130
▁密切	-2131
▁富强	-2132
▁对象	-2133
▁展中	-2134
▁履行	-2135
▁巩固	-2136
▁市民	-2137
▁布厂	-2138
▁带头	-2139
▁平等	-2140
▁年产	-2141
▁年前	-2142
▁年好	-2143
▁并不	-2144
▁并且	-2145
▁开创	-2146
▁当今	-2147
▁当代	-2148
▁当前	-2149
▁当局	-2150
▁往来	-2151
▁得不	-2152
▁德国	-2153
▁忘记	-2154
▁思考	-2155
▁想到	-2156
▁意见	-2157
▁成效	-2158
▁成立	-2159
▁成绩	-2160
▁所画	-2161
▁所谓	-2162
▁报纸	-2163
▁担心	-2164
▁拿出	-2165
▁挑战	-2166
▁挖掘	-2167
▁描述	-2168
▁搜集	-2169
▁搞好	-2170
▁摆脱	-2171
▁摊位	-2172
▁收回	-2173
▁放军	-2174
▁整个	-2175
▁文字	-2176
▁新风	-2177
▁旗帜	-2178
▁无法	-2179
▁日前	-2180
▁旧币	-2181
▁时候	-2182
▁曲目	-2183
▁最佳	-2184
▁最后	-2185
▁最大	-2186
▁机关	-2187
▁极大	-2188
▁标志	-2189
▁树立	-2190
▁根本	-2191
▁格外	-2192
▁欢乐	-2193
▁欢庆	-2194
▁此次	-2195
▁民航	-2196
▁消息	-2197
▁淀粉	-2198
▁湖州	-2199
▁激动	-2200
▁濒临	-2201
▁热烈	-2202
▁爱国	-2203
▁牡丹	-2204
▁特点	-2205
▁率先	-2206
▁现象	-2207
▁理性	-2208
▁瑞士	-2209
▁瑞环	-2210
▁生动	-2211
▁生存	-2212
▁用于	-2213
▁直门	-2214
▁相比	-2215
▁真实	-2216
▁知道	-2217
▁短短	-2218
▁石油	-2219
▁确保	-2220
▁社论	-2221
▁社评	-2222
▁种种	-2223
▁秦华	-2224
▁立场	-2225
▁竞争	-2226
▁等级	-2227
▁筑路	-2228
▁筹资	-2229
▁篆刻	-2230
▁紧张	-2231
▁纪实	-2232
▁纪录	-2233
▁纪念	-2234
▁纽带	-2235
▁经典	-2236
▁经常	-2237
▁绿化	-2238
▁老年	-2239
▁而不	-2240
▁耕地	-2241
▁背景	-2242
▁能力	-2243
▁自身	-2244
▁至少	-2245
▁致使	-2246
▁良性	-2247
▁艰难	-2248
▁蓬勃	-2249
▁行业	-2250
▁行署	-2251
▁街道	-2252
▁表明	-2253
▁观念	-2254
▁规划	-2255
▁规定	-2256
▁象征	-2257
▁质量	-2258
▁贯彻	-2259
▁转业	-2260
▁达岭	-2261
▁迈出	-2262
▁迎来	-2263
▁连年	-2264
▁适应	-2265
▁遇到	-2266
▁遣散	-2267
▁部长	-2268
▁采用	-2269
▁销售	-2270
▁长期	-2271
▁阅读	-2272
▁阵线	-2273
▁限制	-2274
▁隆重	-2275
▁面貌	-2276
▁预计	-2277
▁领下	-2278
▁首批	-2279
▁验收	-2280
▁高兴	-2281
▁龙江	-2282
▁200	-2283
▁998	-2284
▁上海市	-2285
▁交部长	-2286
▁到中雨	-2287
▁北京市	-2288
▁十五大	-2289
▁双泾村	-2290
▁可归者	-2291
▁大学生	-2292
▁大旗帜	-2293
▁恢复对	-2294
▁我们将	-2295
▁本报驻	-2296
▁第一个	-2297
▁艺术家	-2298
▁表演队	-2299
▁记者刘	-2300
▁记者李	-2301
▁记者说	-2302
▁记者陈	-2303
▁负责人	-2304
▁贫困户	-2305
▁别行政区	-2306
10	-2307
12	-2308
▁a	-2309
▁b	-2310
▁』	-2311
▁乎	-2312
▁习	-2313
▁乱	-2314
▁乳	-2315
▁似	-2316
▁储	-2317
▁像	-2318
▁允	-2319
▁冉	-2320
▁凯	-2321
▁击	-2322
▁列	-2323
▁刻	-2324
▁剩	-2325
▁助	-2326
▁卖	-2327
▁右	-2328
▁叶	-2329
▁司	-2330
▁吃	-2331
▁含	-2332
▁味	-2333
▁咱	-2334
▁啊	-2335
▁喝	-2336
▁塘	-2337
▁士	-2338
▁夺	-2339
▁奉	-2340
▁奥	-2341
▁姑	-2342
▁姜	-2343
▁威	-2344
▁宏	-2345
▁宗	-2346
▁宽	-2347
▁寺	-2348
▁尉	-2349
▁尝	-2350
▁岚	-2351
▁岛	-2352
▁差	-2353
▁己	-2354
▁师	-2355
▁库	-2356
▁康	-2357
▁弥	-2358
▁彭	-2359
▁彻	-2360
▁征	-2361
▁徘	-2362
▁急	-2363
▁惠	-2364
▁愉	-2365
▁扬	-2366
▁护	-2367
▁拜	-2368
▁换	-2369
▁授	-2370
▁掉	-2371
▁掌	-2372
▁插	-2373
▁播	-2374
▁撰	-2375
▁操	-2376
▁敏	-2377
▁旋	-2378
▁旨	-2379
▁昆	-2380
▁昌	-2381
▁昨	-2382
▁杰	-2383
▁架	-2384
▁柏	-2385
▁栋	-2386
▁桂	-2387
▁案	-2388
▁棉	-2389
▁棚	-2390
▁植	-2391
▁欧	-2392
▁止	-2393
▁毁	-2394
▁池	-2395
▁泄	-2396
▁泳	-2397
▁洋	-2398
▁洲	-2399
▁浇	-2400
▁测	-2401
▁涌	-2402
▁渡	-2403
▁源	-2404
▁滋	-2405
▁滚	-2406
▁滴	-2407
▁潘	-2408
▁灭	-2409
▁灵	-2410
▁灾	-2411
▁炸	-2412
▁燃	-2413
▁父	-2414
▁狠	-2415
▁玩	-2416
▁班	-2417
▁甘	-2418
▁畅	-2419
▁畜	-2420
▁瞩	-2421
▁礼	-2422
▁祈	-2423
▁秋	-2424
▁秘	-2425
▁租	-2426
▁竖	-2427
▁童	-2428
▁笑	-2429
▁累	-2430
▁纲	-2431
▁线	-2432
▁练	-2433
▁织	-2434
▁绵	-2435
▁缔	-2436
▁置	-2437
▁聪	-2438
▁肯	-2439
▁育	-2440
▁胸	-2441
▁腹	-2442
▁艳	-2443
▁艾	-2444
▁菜	-2445
▁蒸	-2446
▁蓝	-2447
▁蔓	-2448
▁蔚	-2449
▁虎	-2450
▁袭	-2451
▁触	-2452
▁训	-2453
▁识	-2454
▁词	-2455
▁诗	-2456
▁语	-2457
▁诸	-2458
▁诺	-2459
▁谨	-2460
▁豆	-2461
▁账	-2462
▁贴	-2463
▁贾	-2464
▁迅	-2465
▁逛	-2466
▁遥	-2467
▁邻	-2468
▁酒	-2469
▁钢	-2470
▁铺	-2471
▁镇	-2472
▁镕	-2473
▁闪	-2474
▁闹	-2475
▁阔	-2476
▁院	-2477
▁险	-2478
▁雄	-2479
▁露	-2480
▁颇	-2481
▁频	-2482
▁颜	-2483
▁饮	-2484
▁驾	-2485
▁鬼	-2486
▁鹏	-2487
▁麻	-2488
▁黎	-2489
▁默	-2490
一月	-2491
万个	-2492
个月	-2493
中国	-2494
乔石	-2495
人们	-2496
共同	-2497
利亚	-2498
北风	-2499
同地	-2500
商联	-2501
地区	-2502
好者	-2503
妈妈	-2504
学生	-2505
懂得	-2506
方米	-2507
日起	-2508
现出	-2509
艺界	-2510
谈会	-2511
都要	-2512
000	-2513
▁2%	-2514
▁21	-2515
▁26	-2516
▁65	-2517
▁8%	-2518
▁8.	-2519
▁9%	-2520
▁97	-2521
▁一场	-2522
▁一大	-2523
▁一度	-2524
▁一座	-2525
▁一张	-2526
▁一批	-2527
▁一支	-2528
▁一点	-2529
▁一番	-2530
▁一百	-2531
▁一致	-2532
▁一辆	-2533
▁一道	-2534
▁丁玉	-2535
▁万吨	-2536
▁三位	-2537
▁三次	-2538
▁上下	-2539
▁上月	-2540
▁下乡	-2541
▁下午	-2542
▁下游	-2543
▁不会	-2544
▁不少	-2545
▁不开	-2546
▁专业	-2547
▁业绩	-2548
▁东方	-2549
▁两地	-2550
▁两年	-2551
▁个性	-2552
▁中型	-2553
▁主人	-2554
▁主导	-2555
▁丽舍	-2556
▁举措	-2557
▁义诊	-2558
▁之作	-2559
▁之后	-2560
▁之路	-2561
▁乐队	-2562
▁九届	-2563
▁九年	-2564
▁事件	-2565
▁事情	-2566
▁互补	-2567
▁亚胡	-2568
▁些年	-2569
▁交给	-2570
▁产值	-2571
▁亲人	-2572
▁人群	-2573
▁仍然	-2574
▁从而	-2575
▁以前	-2576
▁以北	-2577
▁以后	-2578
▁以大	-2579
▁件事	-2580
▁优惠	-2581
▁会费	-2582
▁位置	-2583
▁体化	-2584
▁你们	-2585
▁佳节	-2586
▁使命	-2587
▁侨胞	-2588
▁假日	-2589
▁做起	-2590
▁停止	-2591
▁停车	-2592
▁健身	-2593
▁允许	-2594
▁全乡	-2595
▁公园	-2596
▁公益	-2597
▁关怀	-2598
▁兵法	-2599
▁其它	-2600
▁其次	-2601
▁内涵	-2602
▁冉冉	-2603
▁军装	-2604
▁冬季	-2605
▁准备	-2606
▁几个	-2607
▁出于	-2608
▁分忧	-2609
▁分成	-2610
▁前夕	-2611
▁前往	-2612
▁剖析	-2613
▁力度	-2614
▁务必	-2615
▁动人	-2616
▁动迁	-2617
▁劳斯	-2618
▁势头	-2619
▁勇敢	-2620
▁千余	-2621
▁千名	-2622
▁半数	-2623
▁华夏	-2624
▁协力	-2625
▁协调	-2626
▁卖主	-2627
▁南方	-2628
▁印尼	-2629
▁即使	-2630
▁厂房	-2631
▁厂里	-2632
▁原因	-2633
▁县长	-2634
▁双方	-2635
▁双边	-2636
▁发动	-2637
▁发扬	-2638
▁发放	-2639
▁受伤	-2640
▁古学	-2641
▁另外	-2642
▁只能	-2643
▁史实	-2644
▁合并	-2645
▁合格	-2646
▁向前	-2647
▁启发	-2648
▁员工	-2649
▁命名	-2650
▁商业	-2651
▁商品	-2652
▁喜悦	-2653
▁因而	-2654
▁团体	-2655
▁困境	-2656
▁国歌	-2657
▁国驻	-2658
▁图像	-2659
▁场所	-2660
▁场面	-2661
▁坚信	-2662
▁坚决	-2663
▁坚实	-2664
▁培养	-2665
▁外地	-2666
▁外长	-2667
▁多数	-2668
▁多种	-2669
▁大中	-2670
▁大军	-2671
▁大力	-2672
▁大厅	-2673
▁大国	-2674
▁大大	-2675
▁大田	-2676
▁大量	-2677
▁大陆	-2678
▁天下	-2679
▁夫妇	-2680
▁女士	-2681
▁奶奶	-2682
▁妇联	-2683
▁妥协	-2684
▁孔玲	-2685
▁孙其	-2686
▁学到	-2687
▁学院	-2688
▁安惠	-2689
▁完全	-2690
▁官员	-2691
▁定要	-2692
▁审议	-2693
▁宣誓	-2694
▁家中	-2695
▁寒冬	-2696
▁对待	-2697
▁尉健	-2698
▁小区	-2699
▁小厂	-2700
▁小康	-2701
▁小说	-2702
▁展出	-2703
▁展开	-2704
▁展望	-2705
▁山川	-2706
▁岁月	-2707
▁岁末	-2708
▁岚清	-2709
▁工会	-2710
▁已成	-2711
▁市区	-2712
▁布局	-2713
▁布置	-2714
▁常委	-2715
▁干警	-2716
▁平静	-2717
▁年轻	-2718
▁庄严	-2719
▁庄乡	-2720
▁延长	-2721
▁建华	-2722
▁建管	-2723
▁建起	-2724
▁引述	-2725
▁强大	-2726
▁彩旗	-2727
▁彩虹	-2728
▁彻底	-2729
▁很大	-2730
▁律宾	-2731
▁徘徊	-2732
▁心愿	-2733
▁忙碌	-2734
▁忧其	-2735
▁快富	-2736
▁态度	-2737
▁总数	-2738
▁悲鸿	-2739
▁愉快	-2740
▁感谢	-2741
▁成长	-2742
▁战役	-2743
▁截至	-2744
▁户办	-2745
▁户户	-2746
▁所以	-2747
▁才能	-2748
▁扶持	-2749
▁批发	-2750
▁承包	-2751
▁承担	-2752
▁抓住	-2753
▁投产	-2754
▁抢救	-2755
▁拉瓜	-2756
▁拿大	-2757
▁指数	-2758
▁捐赠	-2759
▁推向	-2760
▁收集	-2761
▁攻坚	-2762
▁放水	-2763
▁效果	-2764
▁救助	-2765
▁救援	-2766
▁敞开	-2767
▁整洁	-2768
▁文告	-2769
▁新型	-2770
▁新闻	-2771
▁无论	-2772
▁日子	-2773
▁日起	-2774
▁明珠	-2775
▁显著	-2776
▁显露	-2777
▁晚上	-2778
▁普遍	-2779
▁景仰	-2780
▁最终	-2781
▁最近	-2782
▁服从	-2783
▁服装	-2784
▁机构	-2785
▁机遇	-2786
▁李鹏	-2787
▁构成	-2788
▁栋梁	-2789
▁模范	-2790
▁欣赏	-2791
▁欧洲	-2792
▁此外	-2793
▁步入	-2794
▁武警	-2795
▁毅仁	-2796
▁每天	-2797
▁每月	-2798
▁每次	-2799
▁比赛	-2800
▁毫不	-2801
▁民间	-2802
▁气球	-2803
▁永远	-2804
▁江淮	-2805
▁江西	-2806
▁河北	-2807
▁治局	-2808
▁治港	-2809
▁治理	-2810
▁法国	-2811
▁注意	-2812
▁海南	-2813
▁润五	-2814
▁深入	-2815
▁深刻	-2816
▁深化	-2817
▁温棚	-2818
▁港人	-2819
▁游客	-2820
▁滋润	-2821
▁满足	-2822
▁激光	-2823
▁激情	-2824
▁激越	-2825
▁爆竹	-2826
▁物价	-2827
▁物品	-2828
▁狠抓	-2829
▁玉茭	-2830
▁珍贵	-2831
▁理事	-2832
▁生意	-2833
▁生机	-2834
▁电脑	-2835
▁画院	-2836
▁画面	-2837
▁界限	-2838
▁百家	-2839
▁监控	-2840
▁监督	-2841
▁相聚	-2842
▁看望	-2843
▁眼下	-2844
▁瞩目	-2845
▁破坏	-2846
▁础上	-2847
▁确实	-2848
▁确立	-2849
▁祈祷	-2850
▁称谓	-2851
▁程序	-2852
▁空中	-2853
▁突出	-2854
▁第三	-2855
▁签订	-2856
▁简单	-2857
▁篇章	-2858
▁米兰	-2859
▁精彩	-2860
▁素质	-2861
▁累计	-2862
▁繁森	-2863
▁纲领	-2864
▁练市	-2865
▁结果	-2866
▁绘画	-2867
▁缓解	-2868
▁缔造	-2869
▁罗马	-2870
▁羊肉	-2871
▁群体	-2872
▁老区	-2873
▁联酋	-2874
▁聪明	-2875
▁肯定	-2876
▁背篓	-2877
▁腹地	-2878
▁自主	-2879
▁自发	-2880
▁自家	-2881
▁自觉	-2882
▁至此	-2883
▁航空	-2884
▁良知	-2885
▁艰巨	-2886
▁艰辛	-2887
▁节煤	-2888
▁节约	-2889
▁苏联	-2890
▁若干	-2891
▁范围	-2892
▁荣誉	-2893
▁获得	-2894
▁蔓延	-2895
▁行使	-2896
▁行曲	-2897
▁街头	-2898
▁补贴	-2899
▁表达	-2900
▁西岸	-2901
▁覆盖	-2902
▁见到	-2903
▁规范	-2904
▁警察	-2905
▁议题	-2906
▁讲解	-2907
▁设备	-2908
▁话剧	-2909
▁诸多	-2910
▁课题	-2911
▁调动	-2912
▁谱写	-2913
▁象角	-2914
▁贺词	-2915
▁资助	-2916
▁资料	-2917
▁走访	-2918
▁走进	-2919
▁跑道	-2920
▁路线	-2921
▁身边	-2922
▁轨道	-2923
▁转让	-2924
▁软禁	-2925
▁输入	-2926
▁迅速	-2927
▁过后	-2928
▁过好	-2929
▁过程	-2930
▁运作	-2931
▁运河	-2932
▁运用	-2933
▁还要	-2934
▁进口	-2935
▁进展	-2936
▁送去	-2937
▁适当	-2938
▁选定	-2939
▁选择	-2940
▁透视	-2941
▁通信	-2942
▁通告	-2943
▁郑州	-2944
▁都市	-2945
▁采访	-2946
▁镕基	-2947
▁问候	-2948
▁间接	-2949
▁间隔	-2950
▁队伍	-2951
▁防治	-2952
▁阵阵	-2953
▁随笔	-2954
▁难题	-2955
▁集中	-2956
▁零下	-2957
▁面值	-2958
▁面前	-2959
▁面向	-2960
▁风格	-2961
▁风采	-2962
▁饲养	-2963
▁首次	-2964
▁驱车	-2965
▁骨鸡	-2966
▁高产	-2967
▁高峰	-2968
▁高度	-2969
▁高架	-2970
▁高涨	-2971
▁鲜活	-2972
▁鸣枪	-2973
▁鼓舞	-2974
▁齐心	-2975
▁10.	-2976
▁三十部	-2977
▁产品等	-2978
▁作品中	-2979
▁依多金	-2980
▁偏北风	-2981
▁其琛说	-2982
▁养殖业	-2983
▁原则下	-2984
▁工商联	-2985
▁广场上	-2986
▁座谈会	-2987
▁旅游业	-2988
▁村民们	-2989
▁演艺界	-2990
▁焦作市	-2991
▁爱好者	-2992
▁生活中	-2993
▁研究所	-2994
▁福利院	-2995
▁立方米	-2996
▁经济林	-2997
▁自治区	-2998
▁让我们	-2999
▁记者温	-3000
▁贵阳市	-3001
▁边防军	-3002
▁退伍兵	-3003
▁陀利亚	-3004
▁领导人	-3005
19	-3006
▁丧	-3007
▁乾	-3008
▁例	-3009
▁侠	-3010
▁俗	-3011
▁倘	-3012
▁倾	-3013
▁偿	-3014
▁催	-3015
▁兆	-3016
▁剧	-3017
▁割	-3018
▁卉	-3019
▁厅	-3020
▁叙	-3021
▁叫	-3022
▁吨	-3023
▁哪	-3024
▁圆	-3025
▁坪	-3026
▁垫	-3027
▁堪	-3028
▁备	-3029
▁奠	-3030
▁娱	-3031
▁字	-3032
▁寂	-3033
▁寻	-3034
▁席	-3035
▁序	-3036
▁彦	-3037
▁忽	-3038
▁恰	-3039
▁扮	-3040
▁拒	-3041
▁拔	-3042
▁拖	-3043
▁择	-3044
▁挣	-3045
▁损	-3046
▁握	-3047
▁搭	-3048
▁摘	-3049
▁摸	-3050
▁敲	-3051
▁旱	-3052
▁旺	-3053
▁昂	-3054
▁朗	-3055
▁束	-3056
▁杭	-3057
▁柳	-3058
▁桑	-3059
▁梦	-3060
▁森	-3061
▁歧	-3062
▁殃	-3063
▁残	-3064
▁氛	-3065
▁沪	-3066
▁沿	-3067
▁泉	-3068
▁泥	-3069
▁泪	-3070
▁洒	-3071
▁洗	-3072
▁洞	-3073
▁洼	-3074
▁渐	-3075
▁湾	-3076
▁漫	-3077
▁灶	-3078
▁烧	-3079
▁煤	-3080
▁爷	-3081
▁狭	-3082
▁玛	-3083
▁球	-3084
▁病	-3085
▁瘫	-3086
▁眉	-3087
▁矿	-3088
▁砖	-3089
▁硕	-3090
▁磨	-3091
▁票	-3092
▁私	-3093
▁秧	-3094
▁税	-3095
▁穷	-3096
▁竹	-3097
▁答	-3098
▁粗	-3099
/3	-3100
▁且	-3101
▁乃	-3102
▁予	-3103
▁仁	-3104
▁仆	-3105
▁休	-3106
▁兄	-3107
▁凌	-3108
▁募	-3109
▁喇	-3110
▁嘴	-3111
▁塑	-3112
▁弦	-3113
▁戎	-3114
▁斌	-3115
▁杂	-3116
▁湿	-3117
▁熟	-3118
▁疏	-3119
▁硝	-3120
▁究	-3121
▁纵	-3122
▁纺	-3123
▁绩	-3124
▁续	-3125
▁绳	-3126
▁缅	-3127
▁缤	-3128
▁罕	-3129
▁翰	-3130
▁耀	-3131
▁腮	-3132
▁舍	-3133
▁茵	-3134
▁萝	-3135
▁萧	-3136
▁蕴	-3137
▁虚	-3138
▁蛋	-3139
▁诞	-3140
▁谦	-3141
▁贤	-3142
▁贪	-3143
▁赖	-3144
▁赤	-3145
▁赫	-3146
▁跌	-3147
▁轮	-3148
▁述	-3149
▁途	-3150
▁郁	-3151
▁野	-3152
▁钻	-3153
▁锋	-3154
▁锦	-3155
▁闭	-3156
▁阐	-3157
▁阴	-3158
▁阻	-3159
▁陪	-3160
▁须	-3161
▁饱	-3162
▁饺	-3163
▁鸟	-3164
▁鸿	-3165
一位	-3166
万名	-3167
不再	-3168
世纪	-3169
中版	-3170
丽生	-3171
之中	-3172
之路	-3173
亩地	-3174
亿元	-3175
仓库	-3176
仿佛	-3177
伙子	-3178
会晤	-3179
元旦	-3180
全党	-3181
区大	-3182
华夏	-3183
协商	-3184
卫县	-3185
发达	-3186
可泣	-3187
地说	-3188
多位	-3189
多名	-3190
多户	-3191
妹妹	-3192
委员	-3193
媒体	-3194
家中	-3195
对于	-3196
将以	-3197
岗亭	-3198
崭新	-3199
▁·	-3200
▁井	-3201
▁亮	-3202
▁册	-3203
▁否	-3204
▁宿	-3205
▁届	-3206
▁床	-3207
▁披	-3208
▁抵	-3209
▁烂	-3210
▁熊	-3211
▁瓦	-3212
▁翼	-3213
▁荡	-3214
▁订	-3215
▁趣	-3216
▁跋	-3217
▁跳	-3218
▁践	-3219
▁轰	-3220
▁辣	-3221
▁遍	-3222
▁锡	-3223
▁闯	-3224
▁骄	-3225
一些	-3226
今天	-3227
兰堡	-3228
农场	-3229
园区	-3230
国内	-3231
多个	-3232
大街	-3233
川市	-3234
年大	-3235
年度	-3236
年版	-3237
应当	-3238
当地	-3239
待会	-3240
忠心	-3241
情地	-3242
成新	-3243
报纸	-3244
拉尔	-3245
摇地	-3246
收入	-3247
文化	-3248
斯坦	-3249
日电	-3250
旧币	-3251
月份	-3252
海横	-3253
深地	-3254
痕迹	-3255
百年	-3256
看到	-3257
级偏	-3258
美联	-3259
舆论	-3260
西亚	-3261
豫剧	-3262
贵乎	-3263
路子	-3264
辐射	-3265
辖市	-3266
迟不	-3267
重视	-3268
长盛	-3269
额达	-3270
龚学	-3271
▁/3	-3272
▁23	-3273
▁28	-3274
▁54	-3275
▁55	-3276
▁6%	-3277
▁6.	-3278
▁7%	-3279
▁70	-3280
▁76	-3281
▁80	-3282
▁84	-3283
▁9.	-3284
▁90	-3285
▁91	-3286
▁一体	-3287
▁一元	-3288
▁一国	-3289
▁一块	-3290
▁一幅	-3291
▁一律	-3292
▁一本	-3293
▁一段	-3294
▁一流	-3295
▁一群	-3296
▁一般	-3297
▁一路	-3298
▁一边	-3299
▁仰	-3300
▁勋	-3301
▁厦	-3302
▁妙	-3303
▁婚	-3304
▁封	-3305
▁尚	-3306
▁屏	-3307
▁斐	-3308
▁汽	-3309
▁溪	-3310
▁滞	-3311
▁灯	-3312
▁犹	-3313
▁猪	-3314
▁羽	-3315
▁耳	-3316
▁船	-3317
▁逝	-3318
▁陵	-3319
▁隐	-3320
▁额	-3321
▁鹰	-3322
书长	-3323
南非	-3324
民族	-3325
盛云	-3326
能够	-3327
钞票	-3328
▁一家	-3329
▁七十	-3330
▁万头	-3331
▁万户	-3332
▁三人	-3333
▁上学	-3334
▁上市	-3335
▁上来	-3336
▁上涨	-3337
▁上演	-3338
▁下到	-3339
▁下去	-3340
▁下子	-3341
▁下来	-3342
▁下车	-3343
▁不但	-3344
▁不再	-3345
▁不必	-3346
▁不忘	-3347
▁不想	-3348
▁不时	-3349
▁不相	-3350
▁不衰	-3351
▁不足	-3352
▁专程	-3353
▁专访	-3354
▁世行	-3355
▁世间	-3356
▁东北	-3357
▁东西	-3358
▁丝毫	-3359
▁丝绸	-3360
▁两亩	-3361
▁两件	-3362
▁两位	-3363
▁两者	-3364
▁严寒	-3365
▁严峻	-3366
▁中南	-3367
▁中标	-3368
▁中港	-3369
▁丰收	-3370
▁临时	-3371
▁主任	-3372
▁主办	-3373
▁主编	-3374
▁举世	-3375
▁举办	-3376
▁久前	-3377
▁义演	-3378
▁之争	-3379
▁之前	-3380
▁之处	-3381
▁之外	-3382
▁之年	-3383
▁之手	-3384
▁乌大	-3385
▁乐团	-3386
▁乐趣	-3387
▁乔石	-3388
▁习惯	-3389
▁乡村	-3390
▁书局	-3391
▁书馆	-3392
▁买提	-3393
▁予以	-3394
▁争取	-3395
▁事务	-3396
▁事录	-3397
▁二重	-3398
▁互利	-3399
▁亡	-3400
▁借	-3401
▁固	-3402
▁块	-3403
▁塞	-3404
▁墙	-3405
▁宋	-3406
▁帷	-3407
▁幸	-3408
▁悠	-3409
▁懈	-3410
▁摧	-3411
▁添	-3412
▁漾	-3413
▁琼	-3414
▁缘	-3415
▁苍	-3416
▁萨	-3417
▁锤	-3418
▁隔	-3419
全国	-3420
军委	-3421
加元	-3422
双向	-3423
土造	-3424
大家	-3425
戈比	-3426
撰者	-3427
而不	-3428
▁34	-3429
▁一代	-3430
▁一堂	-3431
▁一把	-3432
▁一片	-3433
▁万多	-3434
▁中英	-3435
▁么多	-3436
▁之夜	-3437
▁互相	-3438
▁五国	-3439
▁五年	-3440
▁五次	-3441
▁五项	-3442
▁交融	-3443
▁产权	-3444
▁享受	-3445
▁享誉	-3446
▁京城	-3447
▁人才	-3448
▁人文	-3449
▁人车	-3450
▁人静	-3451
▁亿万	-3452
▁今后	-3453
▁仍不	-3454
▁从事	-3455
▁从军	-3456
▁仓库	-3457
▁以下	-3458
▁以恒	-3459
▁以江	-3460
▁份额	-3461
▁仿佛	-3462
▁伊始	-3463
▁伍兵	-3464
▁休眠	-3465
▁优化	-3466
▁优良	-3467
▁会见	-3468
▁会长	-3469
▁传授	-3470
▁传神	-3471
▁传送	-3472
▁伴唱	-3473
▁似乎	-3474
▁低于	-3475
▁体委	-3476
▁体育	-3477
▁何况	-3478
▁使其	-3479
▁使我	-3480
▁依次	-3481
▁依法	-3482
▁依然	-3483
▁保卫	-3484
▁保留	-3485
▁信念	-3486
▁修筑	-3487
▁倒闭	-3488
▁做到	-3489
▁储备	-3490
▁儿女	-3491
▁兄弟	-3492
▁先后	-3493
▁先河	-3494
▁光荣	-3495
▁兑换	-3496
▁党刊	-3497
▁党报	-3498
▁党政	-3499
▁入境	-3500
▁全书	-3501
▁全党	-3502
▁全军	-3503
▁全厂	-3504
▁全局	-3505
▁全新	-3506
▁全省	-3507
▁全程	-3508
▁全长	-3509
▁八项	-3510
▁公共	-3511
▁公正	-3512
▁六十	-3513
▁兴县	-3514
▁兴致	-3515
▁兴起	-3516
▁兵器	-3517
▁兵学	-3518
▁其间	-3519
▁具备	-3520
▁典籍	-3521
▁养鱼	-3522
▁写下	-3523
▁写到	-3524
▁写成	-3525
▁农妇	-3526
▁冲突	-3527
▁冷却	-3528
▁净化	-3529
▁准确	-3530
▁凝聚	-3531
▁几天	-3532
▁几条	-3533
▁出自	-3534
▁出资	-3535
▁分流	-3536
▁分社	-3537
▁分类	-3538
▁分裂	-3539
▁划拨	-3540
▁刚果	-3541
▁创业	-3542
▁创办	-3543
▁创建	-3544
▁创意	-3545
▁初步	-3546
▁利亚	-3547
▁利落	-3548
▁到处	-3549
▁制宜	-3550
▁制衣	-3551
▁前提	-3552
▁前锋	-3553
▁办公	-3554
▁办水	-3555
▁功夫	-3556
▁加上	-3557
▁加以	-3558
▁动辄	-3559
▁募捐	-3560
▁化成	-3561
▁北国	-3562
▁区县	-3563
▁十个	-3564
▁半本	-3565
▁华大	-3566
▁华清	-3567
▁占地	-3568
▁卡翁	-3569
▁卡车	-3570
▁印象	-3571
▁厂长	-3572
▁厚重	-3573
▁原本	-3574
▁县县	-3575
▁参展	-3576
▁参股	-3577
▁友人	-3578
▁双泾	-3579
▁反复	-3580
▁反腐	-3581
▁发电	-3582
▁发起	-3583
▁取代	-3584
▁取消	-3585
▁变得	-3586
▁古城	-3587
▁只身	-3588
▁可从	-3589
▁可见	-3590
▁各以	-3591
▁各族	-3592
▁合同	-3593
▁合唱	-3594
▁同台	-3595
▁同学	-3596
▁同期	-3597
▁名字	-3598
▁名著	-3599
▁后来	-3600
▁听说	-3601
▁呈现	-3602
▁员会	-3603
▁周锡	-3604
▁命令	-3605
▁咱们	-3606
▁品格	-3607
▁品种	-3608
▁响应	-3609
▁哲学	-3610
▁商会	-3611
▁喇叭	-3612
▁喜欢	-3613
▁喜爱	-3614
▁喷出	-3615
▁四十	-3616
▁四大	-3617
▁四家	-3618
▁四岁	-3619
▁回忆	-3620
▁回来	-3621
▁回荡	-3622
▁围绕	-3623
▁国人	-3624
▁国外	-3625
▁国营	-3626
▁地利	-3627
▁地同	-3628
▁地图	-3629
▁地处	-3630
▁坚守	-3631
▁坚强	-3632
▁坚韧	-3633
▁培育	-3634
▁培训	-3635
▁基会	-3636
▁塑造	-3637
▁塔尼	-3638
▁境界	-3639
▁增添	-3640
▁处处	-3641
▁处罚	-3642
▁复苏	-3643
▁夏季	-3644
▁外债	-3645
▁外国	-3646
▁外来	-3647
▁外部	-3648
▁多元	-3649
▁多边	-3650
▁多达	-3651
▁多项	-3652
▁大义	-3653
▁大众	-3654
▁大开	-3655
▁大成	-3656
▁大桥	-3657
▁大门	-3658
▁天内	-3659
▁天空	-3660
▁太多	-3661
▁失传	-3662
▁失衡	-3663
▁头案	-3664
▁奇卢	-3665
▁奋战	-3666
▁奠定	-3667
▁她那	-3668
▁好事	-3669
▁好像	-3670
▁好评	-3671
▁好转	-3672
▁好运	-3673
▁如同	-3674
▁如常	-3675
▁如愿	-3676
▁如画	-3677
▁妈妈	-3678
▁妹妹	-3679
▁姑妈	-3680
▁委会	-3681
▁娱乐	-3682
▁媒体	-3683
▁子女	-3684
▁字样	-3685
▁孤本	-3686
▁学会	-3687
▁学校	-3688
▁宁区	-3689
▁完整	-3690
▁宗旨	-3691
▁官兵	-3692
▁定期	-3693
▁实况	-3694
▁审慎	-3695
▁审视	-3696
▁客商	-3697
▁客观	-3698
▁宣传	-3699
▁家园	-3700
▁家庄	-3701
▁家族	-3702
▁家禽	-3703
▁宾逊	-3704
▁宿舍	-3705
▁寒风	-3706
▁对党	-3707
▁导下	-3708
▁导人	-3709
▁少生	-3710
▁尚未	-3711
▁尝试	-3712
▁尤其	-3713
▁尼拉	-3714
▁尽早	-3715
▁局部	-3716
▁局长	-3717
▁局面	-3718
▁居多	-3719
▁屋后	-3720
▁展到	-3721
▁展现	-3722
▁属下	-3723
▁山水	-3724
▁崭新	-3725
▁川籍	-3726
▁工厂	-3727
▁工艺	-3728
▁工资	-3729
▁巨幅	-3730
▁巨额	-3731
▁已达	-3732
▁巴黎	-3733
▁市斤	-3734
▁市里	-3735
▁希萨	-3736
▁带领	-3737
▁席卷	-3738
▁帮带	-3739
▁常化	-3740
▁干脆	-3741
▁平稳	-3742
▁年初	-3743
▁并茂	-3744
▁广播	-3745
▁序幕	-3746
▁底子	-3747
▁度过	-3748
▁庭院	-3749
▁建军	-3750
▁建筑	-3751
▁建议	-3752
▁建造	-3753
▁开局	-3754
▁开通	-3755
▁引下	-3756
▁引人	-3757
▁引发	-3758
▁引水	-3759
▁引进	-3760
▁弥补	-3761
▁强劲	-3762
▁当家	-3763
▁当年	-3764
▁当选	-3765
▁形态	-3766
▁彩色	-3767
▁影视	-3768
▁往事	-3769
▁往往	-3770
▁待遇	-3771
▁很好	-3772
▁很少	-3773
▁得以	-3774
▁得多	-3775
▁微笑	-3776
▁心中	-3777
▁必要	-3778
▁怀揣	-3779
▁怎么	-3780
▁思念	-3781
▁悟出	-3782
▁情节	-3783
▁惊喜	-3784
▁想象	-3785
▁感人	-3786
▁感受	-3787
▁愿望	-3788
▁懂得	-3789
▁成人	-3790
▁成员	-3791
▁我军	-3792
▁战胜	-3793
▁房前	-3794
▁才智	-3795
▁扎实	-3796
▁执法	-3797
▁执行	-3798
▁找准	-3799
▁找到	-3800
▁承贷	-3801
▁把手	-3802
▁抗日	-3803
▁报国	-3804
▁担任	-3805
▁拉开	-3806
▁拒绝	-3807
▁拥挤	-3808
▁拿起	-3809
▁挑选	-3810
▁换届	-3811
▁据悉	-3812
▁授权	-3813
▁探讨	-3814
▁接触	-3815
▁接过	-3816
▁控股	-3817
▁推开	-3818
▁推行	-3819
▁描绘	-3820
▁提倡	-3821
▁插图	-3822
▁援助	-3823
▁摆到	-3824
▁支付	-3825
▁支柱	-3826
▁收到	-3827
▁收取	-3828
▁收购	-3829
▁政局	-3830
▁故乡	-3831
▁效地	-3832
▁效应	-3833
▁救灾	-3834
▁教学	-3835
▁教授	-3836
▁数字	-3837
▁整体	-3838
▁整顿	-3839
▁文中	-3840
▁文兼	-3841
▁文史	-3842
▁斐然	-3843
▁斑斓	-3844
▁斑鸠	-3845
▁斯基	-3846
▁斯科	-3847
▁新春	-3848
▁新版	-3849
▁新航	-3850
▁新高	-3851
▁新鲜	-3852
▁方向	-3853
▁方米	-3854
▁无主	-3855
▁无数	-3856
▁无疑	-3857
▁既不	-3858
▁日元	-3859
▁日常	-3860
▁早已	-3861
▁早年	-3862
▁早期	-3863
▁旺盛	-3864
▁昌盛	-3865
▁明代	-3866
▁明白	-3867
▁易辙	-3868
▁春联	-3869
▁春节	-3870
▁昨天	-3871
▁显然	-3872
▁显示	-3873
▁普通	-3874
▁景观	-3875
▁智慧	-3876
▁暖亮	-3877
▁最早	-3878
▁最高	-3879
▁木齐	-3880
▁未能	-3881
▁本书	-3882
▁本地	-3883
▁本法	-3884
▁本身	-3885
▁机会	-3886
▁杂志	-3887
▁权益	-3888
▁材料	-3889
▁村办	-3890
▁村宅	-3891
▁村庄	-3892
▁村里	-3893
▁束缚	-3894
▁条例	-3895
▁来宾	-3896
▁来抓	-3897
▁来源	-3898
▁来看	-3899
▁来越	-3900
▁杰出	-3901
▁松鼠	-3902
▁极不	-3903
▁极其	-3904
▁林果	-3905
▁架次	-3906
▁某些	-3907
▁查处	-3908
▁柳林	-3909
▁标语	-3910
▁桂林	-3911
▁桥本	-3912
▁桥梁	-3913
▁梅塔	-3914
▁检查	-3915
▁检阅	-3916
▁概念	-3917
▁概括	-3918
▁模式	-3919
▁欢快	-3920
▁欢聚	-3921
▁歌剧	-3922
▁正义	-3923
▁正常	-3924
▁此举	-3925
▁步伐	-3926
▁步飞	-3927
▁步骤	-3928
▁死于	-3929
▁殃及	-3930
▁每人	-3931
▁每周	-3932
▁比克	-3933
▁比额	-3934
▁毕竟	-3935
▁气候	-3936
▁气质	-3937
▁水产	-3938
▁水果	-3939
▁水浜	-3940
▁水面	-3941
▁汽车	-3942
▁沉稳	-3943
▁沟通	-3944
▁河南	-3945
▁法律	-3946
▁法案	-3947
▁波波	-3948
▁注目	-3949
▁注重	-3950
▁泳三	-3951
▁洪水	-3952
▁活力	-3953
▁流利	-3954
▁流行	-3955
▁浇地	-3956
▁测量	-3957
▁浩歌	-3958
▁浩田	-3959
▁浪潮	-3960
▁海口	-3961
▁消灭	-3962
▁消防	-3963
▁涉及	-3964
▁深处	-3965
▁清华	-3966
▁清晨	-3967
▁清醒	-3968
▁渡过	-3969
▁温馨	-3970
▁滚动	-3971
▁满意	-3972
▁潜力	-3973
▁点评	-3974
▁烂漫	-3975
▁热情	-3976
▁然村	-3977
▁照耀	-3978
▁燃放	-3979
▁爱心	-3980
▁物馆	-3981
▁牵头	-3982
▁特大	-3983
▁特定	-3984
▁特技	-3985
▁特殊	-3986
▁特罗	-3987
▁独特	-3988
▁献给	-3989
▁献身	-3990
▁献辞	-3991
▁玛干	-3992
▁环节	-3993
▁现场	-3994
▁珍惜	-3995
▁班子	-3996
▁甚少	-3997
▁生前	-3998
▁生部	-3999
▁电力	-4000
▁男女	-4001
▁画雄	-4002
▁留念	-4003
▁畜牧	-4004
▁痕迹	-4005
▁瘫痪	-4006
▁登山	-4007
▁百分	-4008
▁百年	-4009
▁百炼	-4010
▁盛顿	-4011
▁目睹	-4012
▁直线	-4013
▁相互	-4014
▁省市	-4015
▁省柴	-4016
▁省长	-4017
▁真丝	-4018
▁眼光	-4019
▁睦邻	-4020
▁知名	-4021
▁硝烟	-4022
▁礼物	-4023
▁社长	-4024
▁祝辞	-4025
▁禁区	-4026
▁禁止	-4027
▁离开	-4028
▁私房	-4029
▁科教	-4030
▁科研	-4031
▁秧歌	-4032
▁积累	-4033
▁空军	-4034
▁空域	-4035
▁窗户	-4036
▁窥视	-4037
▁立传	-4038
▁立即	-4039
▁竖起	-4040
▁笑声	-4041
▁笔墨	-4042
▁笔触	-4043
▁等国	-4044
▁等等	-4045
▁签署	-4046
▁粮豆	-4047
▁精粹	-4048
▁红叶	-4049
▁红灯	-4050
▁约旦	-4051
▁纪事	-4052
▁纸上	-4053
▁纸币	-4054
▁纺织	-4055
▁细节	-4056
▁终极	-4057
▁经理	-4058
▁结论	-4059
▁统揽	-4060
▁维修	-4061
▁维持	-4062
▁绵绵	-4063
▁缅怀	-4064
▁编写	-4065
▁编者	-4066
▁编著	-4067
▁编辑	-4068
▁缤纷	-4069
▁缩小	-4070
▁缩影	-4071
▁缺乏	-4072
▁罕见	-4073
▁罗干	-4074
▁置于	-4075
▁美丽	-4076
▁美化	-4077
▁美食	-4078
▁群山	-4079
▁而上	-4080
▁而更	-4081
▁而言	-4082
▁联户	-4083
▁联邦	-4084
▁胸怀	-4085
▁能够	-4086
▁脚下	-4087
▁膨胀	-4088
▁自清	-4089
▁自由	-4090
▁舆论	-4091
▁航线	-4092
▁色彩	-4093
▁花生	-4094
▁苦功	-4095
▁莫大	-4096
▁菲卫	-4097
▁萝卜	-4098
▁落后	-4099
▁著作	-4100
▁藏族	-4101
▁行列	-4102
▁行长	-4103
▁行驶	-4104
▁衣厂	-4105
▁补助	-4106
▁表妹	-4107
▁衷地	-4108
▁衷心	-4109
▁袭人	-4110
▁装帧	-4111
▁西北	-4112
▁西瓜	-4113
▁西部	-4114
▁观光	-4115
▁观察	-4116
▁观点	-4117
▁观看	-4118
▁规律	-4119
▁视台	-4120
▁觉得	-4121
▁角村	-4122
▁誓词	-4123
▁警方	-4124
▁计生	-4125
▁让人	-4126
▁训练	-4127
▁记述	-4128
▁讲述	-4129
▁诚挚	-4130
▁话题	-4131
▁诞生	-4132
▁该市	-4133
▁详细	-4134
▁语言	-4135
▁说法	-4136
▁请到	-4137
▁读书	-4138
▁读物	-4139
▁谈到	-4140
▁谢意	-4141
▁豫剧	-4142
▁负担	-4143
▁购买	-4144
▁贯穿	-4145
▁贵州	-4146
▁贺年	-4147
▁贺电	-4148
▁资本	-4149
▁赞赏	-4150
▁赶到	-4151
▁起步	-4152
▁趋向	-4153
▁足球	-4154
▁跋涉	-4155
▁路上	-4156
▁路口	-4157
▁路段	-4158
▁身世	-4159
▁身体	-4160
▁轰动	-4161
▁较好	-4162
▁辐射	-4163
▁辣椒	-4164
▁过渡	-4165
▁运动	-4166
▁近代	-4167
▁近日	-4168
▁进取	-4169
▁送给	-4170
▁选购	-4171
▁透过	-4172
▁逐年	-4173
▁通史	-4174
▁通胀	-4175
▁通讯	-4176
▁造福	-4177
▁道理	-4178
▁遗憾	-4179
▁邻里	-4180
▁配合	-4181
▁配置	-4182
▁酒会	-4183
▁醒目	-4184
▁里木	-4185
▁重任	-4186
▁重建	-4187
▁金色	-4188
▁针对	-4189
▁钞票	-4190
▁钟声	-4191
▁钟楼	-4192
▁钢架	-4193
▁锦绣	-4194
▁长官	-4195
▁长篇	-4196
▁长远	-4197
▁门外	-4198
▁防线	-4199
▁防部	-4200
▁阶级	-4201
▁阿姨	-4202
▁阿里	-4203
▁降低	-4204
▁降到	-4205
▁险阻	-4206
▁随之	-4207
▁随后	-4208
▁随意	-4209
▁难关	-4210
▁雪域	-4211
▁震动	-4212
▁震撼	-4213
▁露脸	-4214
▁青史	-4215
▁青联	-4216
▁非法	-4217
▁面世	-4218
▁面料	-4219
▁面额	-4220
▁预报	-4221
▁领略	-4222
▁频频	-4223
▁颜色	-4224
▁风景	-4225
▁饲料	-4226
▁饺子	-4227
▁首相	-4228
▁首脑	-4229
▁首长	-4230
▁马恩	-4231
▁驾车	-4232
▁骄傲	-4233
▁高于	-4234
▁鬼神	-4235
▁鲜明	-4236
▁麻雀	-4237
▁黄山	-4238
▁默默	-4239
▁龚学	-4240
美联社	-4241
▁10°	-4242
▁120	-4243
▁14.	-4244
▁196	-4245
▁30%	-4246
▁50%	-4247
▁650	-4248
▁下降到	-4249
▁中华活	-4250
▁中卫县	-4251
▁中国人	-4252
▁中国去	-4253
▁中国画	-4254
▁中国驻	-4255
▁主户头	-4256
▁主题性	-4257
▁书记刘	-4258
▁书记处	-4259
▁二十年	-4260
▁云南省	-4261
▁产党员	-4262
▁代表团	-4263
▁以国内	-4264
▁仪式上	-4265
▁会议第	-4266
▁伤亡却	-4267
▁作品展	-4268
▁使命感	-4269
▁兼并额	-4270
▁分析家	-4271
▁创作中	-4272
▁初中版	-4273
▁利用率	-4274
▁制衣厂	-4275
▁加强对	-4276
▁务委员	-4277
▁动摇地	-4278
▁勃勃地	-4279
▁区域性	-4280
▁十年来	-4281
▁原子钟	-4282
▁发展同	-4283
▁后一个	-4284
▁向前进	-4285
▁国内外	-4286
▁塔拉尔	-4287
▁增长率	-4288
▁外交官	-4289
▁外长恩	-4290
▁多年来	-4291
▁大使王	-4292
▁央军委	-4293
▁妻子丁	-4294
▁妻子胡	-4295
▁安排好	-4296
▁实实地	-4297
▁小农场	-4298
▁小学生	-4299
▁尼西亚	-4300
▁带头人	-4301
▁常委会	-4302
▁建成后	-4303
▁彩虹花	-4304
▁总理兼	-4305
▁总统府	-4306
▁我们党	-4307
▁承百年	-4308
▁招待会	-4309
▁推广到	-4310
▁政府将	-4311
▁政府要	-4312
▁文化中	-4313
▁斯兰堡	-4314
▁新路子	-4315
▁旅游局	-4316
▁显著成	-4317
▁显露出	-4318
▁朋友们	-4319
▁服务于	-4320
▁极大地	-4321
▁歌可泣	-4322
▁毅仁等	-4323
▁每一个	-4324
▁气温将	-4325
▁沧海横	-4326
▁河北省	-4327
▁治协商	-4328
▁海南省	-4329
▁涌现出	-4330
▁深深地	-4331
▁湖州市	-4332
▁火山灰	-4333
▁生产率	-4334
▁生育相	-4335
▁由中国	-4336
▁电视台	-4337
▁示范户	-4338
▁科学院	-4339
▁秘书长	-4340
▁积极性	-4341
▁程度上	-4342
▁第一条	-4343
▁纪念馆	-4344
▁纯收入	-4345
▁结合部	-4346
▁结束后	-4347
▁结束对	-4348
▁给我们	-4349
▁编撰者	-4350
▁老年病	-4351
▁而同地	-4352
▁胆忠心	-4353
▁背土造	-4354
▁背景下	-4355
▁膨胀率	-4356
▁自然村	-4357
▁自觉性	-4358
▁舞全党	-4359
▁节煤灶	-4360
▁表现出	-4361
▁记者张	-4362
▁记者林	-4363
▁记者贾	-4364
▁记者龚	-4365
▁许多人	-4366
▁象角村	-4367
▁迟迟不	-4368
▁退休后	-4369
▁通胀率	-4370
▁道路上	-4371
▁重要而	-4372
▁随笔书	-4373
▁高丽生	-4374
▁龙江省	-4375
▁1000	-4376
▁2000	-4377
▁人民共同	-4378
▁代表秦华	-4379
▁北京一月	-4380
▁发美联社	-4381
▁示范园区	-4382
▁首脑会晤	-4383
/10	-4384
▁·8	-4385
▁丝都	-4386
▁丧失	-4387
▁丧生	-4388
▁买光	-4389
▁乳品	-4390
▁乳透	-4391
▁争做	-4392
▁争先	-4393
▁争抢	-4394
▁争艳	-4395
▁亡之	-4396
▁亩均	-4397
▁付款	-4398
▁付钱	-4399
▁临县	-4400
▁临川	-4401
▁临终	-4402
▁互访	-4403
▁互贺	-4404
▁伊兹	-4405
▁伤后	-4406
▁似路	-4407
▁住址	-4408
▁住宅	-4409
▁住进	-4410
▁佐证	-4411
▁何以	-4412
▁余件	-4413
▁余悸	-4414
▁余项	-4415
▁佩特	-4416
▁佩饰	-4417
▁例子	-4418
▁供应	-4419
▁便宜	-4420
▁修水	-4421
▁倒不	-4422
▁倘佯	-4423
▁借以	-4424
▁借助	-4425
▁倡廉	-4426
▁偏于	-4427
▁偏失	-4428
▁偿还	-4429
▁储量	-4430
▁催人	-4431
▁兆头	-4432
▁六路	-4433
▁冒雨	-4434
▁冬寒	-4435
▁冬日	-4436
▁冰心	-4437
▁冰雕	-4438
▁准线	-4439
▁凡响	-4440
▁凡户	-4441
▁列化	-4442
▁剖学	-4443
▁剧院	-4444
▁剩下	-4445
▁势力	-4446
▁医务	-4447
▁医马	-4448
▁卉则	-4449
▁卉时	-4450
▁博大	-4451
▁博物	-4452
▁卫国	-4453
▁叙述	-4454
▁口中	-4455
▁口号	-4456
▁口岸	-4457
▁号码	-4458
▁司马	-4459
▁吃一	-4460
▁吃过	-4461
▁吐乌	-4462
▁否则	-4463
▁含量	-4464
▁听到	-4465
▁听话	-4466
▁启对	-4467
▁启彬	-4468
▁告诉	-4469
▁告辞	-4470
▁告重	-4471
▁员长	-4472
▁呼吸	-4473
▁呼声	-4474
▁哲人	-4475
▁唱家	-4476
▁善于	-4477
▁善算	-4478
▁嘉奖	-4479
▁嘴脸	-4480
▁嘴里	-4481
▁固定	-4482
▁圆满	-4483
▁圣陶	-4484
▁均因	-4485
▁坐到	-4486
▁型水	-4487
▁垫上	-4488
▁垫支	-4489
▁堪忧	-4490
▁塞北	-4491
▁境外	-4492
▁墙上	-4493
▁士兵	-4494
▁壮丽	-4495
▁壮歌	-4496
▁壮烈	-4497
▁壮而	-4498
▁声中	-4499
▁丰产	-4500
▁停刊	-4501
▁入你	-4502
▁入冬	-4503
▁入手	-4504
▁入点	-4505
▁入股	-4506
▁卡比	-4507
▁即从	-4508
▁即以	-4509
▁厚植	-4510
▁厚礼	-4511
▁品性	-4512
▁哈托	-4513
▁哈蒂	-4514
▁哈马	-4515
▁塘坝	-4516
▁声音	-4517
▁复原	-4518
▁复始	-4519
▁复由	-4520
▁夏秋	-4521
▁夜晚	-4522
▁太华	-4523
▁太空	-4524
▁失之	-4525
▁头号	-4526
▁头请	-4527
▁夺取	-4528
▁夺目	-4529
▁奉献	-4530
▁奔腾	-4531
▁奔赴	-4532
▁奖励	-4533
▁奖给	-4534
▁套书	-4535
▁套传	-4536
▁奶粉	-4537
▁妥善	-4538
▁始皇	-4539
▁姐夫	-4540
▁姐妹	-4541
▁姑姑	-4542
▁威对	-4543
▁威胁	-4544
▁婚姻	-4545
▁婚育	-4546
▁宏伟	-4547
▁宏观	-4548
▁宗素	-4549
▁官邸	-4550
▁审美	-4551
▁宪梓	-4552
▁容纳	-4553
▁宾朋	-4554
▁寂寞	-4555
▁密度	-4556
▁富互	-4557
▁寒冷	-4558
▁寒峭	-4559
▁寒气	-4560
▁寒趣	-4561
▁寺院	-4562
▁寻求	-4563
▁封面	-4564
▁尔法	-4565
▁尔街	-4566
▁尝到	-4567
▁尤以	-4568
▁层面	-4569
▁屋内	-4570
▁屋外	-4571
▁屏不	-4572
▁屏幕	-4573
▁属于	-4574
▁岸边	-4575
▁左图	-4576
▁师长	-4577
▁底前	-4578
▁底色	-4579
▁底谷	-4580
▁度上	-4581
▁座山	-4582
▁延伸	-4583
▁异地	-4584
▁异域	-4585
▁归来	-4586
▁归队	-4587
▁录入	-4588
▁彭珮	-4589
▁微而	-4590
▁德烈	-4591
▁忘童	-4592
▁忠于	-4593
▁忠实	-4594
▁忧伤	-4595
▁忧虑	-4596
▁忽视	-4597
▁急剧	-4598
▁急速	-4599
▁京剧	-4600
▁亲手	-4601
▁亲自	-4602
▁令禁	-4603
▁令观	-4604
▁低下	-4605
▁充当	-4606
▁充裕	-4607
▁充足	-4608
▁养猪	-4609
▁冷静	-4610
▁切尔	-4611
▁切换	-4612
▁切断	-4613
▁则于	-4614
▁则徐	-4615
▁功章	-4616
▁友朋	-4617
▁友谊	-4618
▁召集	-4619
▁命力	-4620
▁命脉	-4621
▁存量	-4622
▁客车	-4623
▁岁尾	-4624
▁岁钱	-4625
▁恢宏	-4626
▁恩仇	-4627
▁恩来	-4628
▁恶劣	-4629
▁恶化	-4630
▁恶性	-4631
▁悟空	-4632
▁悠久	-4633
▁悲哀	-4634
▁悲愤	-4635
▁悲欢	-4636
▁惊天	-4637
▁惊险	-4638
▁愿干	-4639
▁戎同	-4640
▁截流	-4641
▁扎比	-4642
▁扎达	-4643
▁打动	-4644
▁打开	-4645
▁扮演	-4646
▁批评	-4647
▁抓紧	-4648
▁抗战	-4649
▁抗英	-4650
▁抢劫	-4651
▁抵京	-4652
▁抵达	-4653
▁拔高	-4654
▁拘泥	-4655
▁拘留	-4656
▁招人	-4657
▁招收	-4658
▁招标	-4659
▁择上	-4660
▁择业	-4661
▁拿到	-4662
▁挂彩	-4663
▁挂起	-4664
▁按出	-4665
▁挤住	-4666
▁振明	-4667
▁振铎	-4668
▁挺拔	-4669
▁挺秀	-4670
▁捐款	-4671
▁捐献	-4672
▁捐衣	-4673
▁损及	-4674
▁损害	-4675
▁授牌	-4676
▁掉头	-4677
▁掉队	-4678
▁掌上	-4679
▁掌声	-4680
▁排上	-4681
▁排好	-4682
▁排放	-4683
▁排起	-4684
▁描写	-4685
▁揭发	-4686
▁揭开	-4687
▁揭牌	-4688
▁援救	-4689
▁援韩	-4690
▁搞活	-4691
▁摆上	-4692
▁摘登	-4693
▁摧毁	-4694
▁撤军	-4695
▁撤出	-4696
▁撤换	-4697
▁撰稿	-4698
▁操持	-4699
▁.4	-4700
▁.5	-4701
▁亲们	-4702
▁亲友	-4703
▁仆人	-4704
▁任何	-4705
▁促成	-4706
▁包袱	-4707
▁印证	-4708
▁告后	-4709
▁商场	-4710
▁商界	-4711
▁商谈	-4712
▁园林	-4713
▁场道	-4714
▁子夜	-4715
▁子荣	-4716
▁子里	-4717
▁容地	-4718
▁往日	-4719
▁往里	-4720
▁敏感	-4721
▁敏捷	-4722
▁救济	-4723
▁敬乡	-4724
▁敬意	-4725
▁斗力	-4726
▁施工	-4727
▁施政	-4728
▁施琅	-4729
▁旋律	-4730
▁旋门	-4731
▁旋风	-4732
▁旗杆	-4733
▁旧岁	-4734
▁早于	-4735
▁早市	-4736
▁早晨	-4737
▁旱田	-4738
▁昆明	-4739
▁昆等	-4740
▁星形	-4741
▁星移	-4742
▁映成	-4743
▁昨晚	-4744
▁昭一	-4745
▁晚年	-4746
▁普托	-4747
▁景区	-4748
▁景气	-4749
▁智三	-4750
▁智力	-4751
▁智而	-4752
▁曹志	-4753
▁曹禺	-4754
▁曾受	-4755
▁曾敏	-4756
▁曾经	-4757
▁朗氏	-4758
▁木材	-4759
▁木简	-4760
▁术学	-4761
▁术家	-4762
▁术界	-4763
▁权威	-4764
▁权归	-4765
▁权责	-4766
▁松劲	-4767
▁板前	-4768
▁果园	-4769
▁某一	-4770
▁某种	-4771
▁查到	-4772
▁查阅	-4773
▁树新	-4774
▁树脂	-4775
▁核发	-4776
▁根堆	-4777
▁桂冠	-4778
▁案仅	-4779
▁案头	-4780
▁梦想	-4781
▁棉厂	-4782
▁棚外	-4783
▁森林	-4784
▁植业	-4785
▁植物	-4786
▁横吹	-4787
▁横幅	-4788
▁横戈	-4789
▁横渡	-4790
▁横滚	-4791
▁欣悦	-4792
▁欣慰	-4793
▁止于	-4794
▁死鱼	-4795
▁残疾	-4796
▁毁坏	-4797
▁毕业	-4798
▁毕生	-4799
▁久不	-4800
▁乐业	-4801
▁乐声	-4802
▁乐曲	-4803
▁于其	-4804
▁云宣	-4805
▁云岩	-4806
▁云峰	-4807
▁云集	-4808
▁亚于	-4809
▁克林	-4810
▁克瓦	-4811
▁兴修	-4812
▁兴国	-4813
▁兴奋	-4814
▁兴盛	-4815
▁兴趣	-4816
▁别国	-4817
▁别看	-4818
▁务员	-4819
▁务实	-4820
▁务性	-4821
▁包装	-4822
▁化解	-4823
▁占领	-4824
▁却都	-4825
▁及早	-4826
▁周六	-4827
▁周日	-4828
▁场景	-4829
▁坐上	-4830
▁孔书	-4831
▁定会	-4832
▁宣告	-4833
▁宣读	-4834
▁巨变	-4835
▁巨著	-4836
▁巨龙	-4837
▁彩墨	-4838
▁彩灯	-4839
▁彩玲	-4840
▁彩球	-4841
▁想必	-4842
▁想法	-4843
▁想见	-4844
▁拜年	-4845
▁持久	-4846
▁持开	-4847
▁春事	-4848
▁春张	-4849
▁春意	-4850
▁春来	-4851
▁春秋	-4852
▁期内	-4853
▁期望	-4854
▁期限	-4855
▁极一	-4856
▁极受	-4857
▁极生	-4858
▁标题	-4859
▁毫米	-4860
▁氛围	-4861
▁永黄	-4862
▁求援	-4863
▁求新	-4864
▁求精	-4865
▁求进	-4866
▁汇报	-4867
▁汉简	-4868
▁池塘	-4869
▁河水	-4870
▁河畔	-4871
▁河边	-4872
▁油田	-4873
▁油菜	-4874
▁沿线	-4875
▁泄不	-4876
▁泄于	-4877
▁波卡	-4878
▁波及	-4879
▁泥路	-4880
▁注视	-4881
▁注销	-4882
▁泪下	-4883
▁泪满	-4884
▁洋葱	-4885
▁洒脱	-4886
▁洒遍	-4887
▁洗车	-4888
▁洞箫	-4889
▁洲文	-4890
▁洲镇	-4891
▁洲际	-4892
▁洼地	-4893
▁洼田	-4894
▁流弹	-4895
▁流畅	-4896
▁流量	-4897
▁测定	-4898
▁济国	-4899
▁七月	-4900
▁七赴	-4901
▁依恋	-4902
▁依据	-4903
▁依赖	-4904
▁光大	-4905
▁光彩	-4906
▁光明	-4907
▁光英	-4908
▁具初	-4909
▁兼具	-4910
▁兼备	-4911
▁减灾	-4912
▁减税	-4913
▁减缓	-4914
▁减轻	-4915
▁厂矿	-4916
▁厂逐	-4917
▁变更	-4918
▁喜迎	-4919
▁女孩	-4920
▁女校	-4921
▁女生	-4922
▁女结	-4923
▁宁静	-4924
▁容量	-4925
▁希思	-4926
▁常任	-4927
▁常常	-4928
▁常年	-4929
▁常给	-4930
▁必及	-4931
▁必将	-4932
▁必然	-4933
▁才名	-4934
▁才图	-4935
▁才把	-4936
▁才真	-4937
▁才等	-4938
▁拉克	-4939
▁拉扬	-4940
▁摄像	-4941
▁步兵	-4942
▁步子	-4943
▁步行	-4944
▁注册	-4945
▁济林	-4946
▁浓郁	-4947
▁浩然	-4948
▁浩繁	-4949
▁浩荡	-4950
▁浪费	-4951
▁涉猎	-4952
▁淡化	-4953
▁淡雅	-4954
▁清代	-4955
▁清剿	-4956
▁清唱	-4957
▁清香	-4958
▁渐趋	-4959
▁渡期	-4960
▁游园	-4961
▁游泳	-4962
▁游鱼	-4963
▁湿气	-4964
▁源泉	-4965
▁溪镇	-4966
▁滚滚	-4967
▁滞后	-4968
▁滞销	-4969
▁满仓	-4970
▁满脸	-4971
▁滴雨	-4972
▁漫步	-4973
▁漾出	-4974
▁潜能	-4975
▁潮难	-4976
▁激发	-4977
▁激烈	-4978
▁激起	-4979
▁灌区	-4980
▁火台	-4981
▁火炮	-4982
▁火车	-4983
▁灭亡	-4984
▁灯笼	-4985
▁灶上	-4986
▁灶间	-4987
▁灾害	-4988
▁灾民	-4989
▁灾难	-4990
▁点染	-4991
▁点率	-4992
▁烈斯	-4993
▁烟海	-4994
▁热气	-4995
▁热潮	-4996
▁热点	-4997
▁热门	-4998
▁照相	-4999
▁位前	-5000
▁位数	-5001
▁做工	-5002
▁写上	-5003
▁写信	-5004
▁写出	-5005
▁写意	-5006
▁写照	-5007
▁写生	-5008
▁区开	-5009
▁区情	-5010
▁升到	-5011
▁升旗	-5012
▁升机	-5013
▁半岛	-5014
▁半斤	-5015
▁半身	-5016
▁半躺	-5017
▁半部	-5018
▁场合	-5019
▁夫人	-5020
▁尽责	-5021
▁志丹	-5022
▁志娇	-5023
▁快乐	-5024
▁快感	-5025
▁户占	-5026
▁户头	-5027
▁户带	-5028
▁手中	-5029
▁手抄	-5030
▁手拿	-5031
▁手捧	-5032
▁手法	-5033
▁手相	-5034
▁手脚	-5035
▁手臂	-5036
▁扶桑	-5037
▁接再	-5038
▁接到	-5039
▁数据	-5040
▁数点	-5041
▁数百	-5042
▁数额	-5043
▁李升	-5044
▁法官	-5045
▁法庭	-5046
▁法治	-5047
▁法规	-5048
▁照顾	-5049
▁爆发	-5050
▁爆炸	-5051
▁父亲	-5052
▁片中	-5053
▁片般	-5054
▁犹太	-5055
▁犹如	-5056
▁独创	-5057
▁狭义	-5058
▁狭窄	-5059
▁献艺	-5060
▁献词	-5061
▁率省	-5062
▁玉米	-5063
▁王宫	-5064
▁玩到	-5065
▁玲坐	-5066
▁珍本	-5067
▁班迪	-5068
▁球化	-5069
▁琼斯	-5070
▁甘岭	-5071
▁甘愿	-5072
▁甚高	-5073
▁田林	-5074
▁畅销	-5075
▁畅顺	-5076
▁留地	-5077
▁留水	-5078
▁登上	-5079
▁白两	-5080
▁白菜	-5081
▁监狱	-5082
▁盘旋	-5083
▁眼于	-5084
▁眼前	-5085
▁眼帘	-5086
▁眼界	-5087
▁眼睛	-5088
▁石膏	-5089
▁砖瓦	-5090
▁硕士	-5091
▁硬件	-5092
▁确认	-5093
▁磨合	-5094
▁示意	-5095
▁神话	-5096
▁神韵	-5097
▁票价	-5098
▁票面	-5099
▁乱差	-5100
▁乾坤	-5101
▁俄近	-5102
▁六位	-5103
▁划策	-5104
▁副总	-5105
▁力抓	-5106
▁力护	-5107
▁力气	-5108
▁努达	-5109
▁台柱	-5110
▁台用	-5111
▁台胞	-5112
▁少到	-5113
▁少奇	-5114
▁少量	-5115
▁巴以	-5116
▁巴建	-5117
▁巴望	-5118
▁巴自	-5119
▁巴说	-5120
▁帮困	-5121
▁应由	-5122
▁应邀	-5123
▁很多	-5124
▁很强	-5125
▁很难	-5126
▁性能	-5127
▁放弃	-5128
▁放慢	-5129
▁放炮	-5130
▁放飞	-5131
▁条心	-5132
▁条流	-5133
▁条约	-5134
▁条长	-5135
▁样一	-5136
▁次要	-5137
▁武昌	-5138
▁物换	-5139
▁物理	-5140
▁物种	-5141
▁百元	-5142
▁百强	-5143
▁百计	-5144
▁直到	-5145
▁直前	-5146
▁直播	-5147
▁直觉	-5148
▁省区	-5149
▁看护	-5150
▁研制	-5151
▁福建	-5152
▁离合	-5153
▁秀丽	-5154
▁秋波	-5155
▁称赞	-5156
▁税收	-5157
▁究竟	-5158
▁空前	-5159
▁空手	-5160
▁空管	-5161
▁空运	-5162
▁穿越	-5163
▁立下	-5164
▁立业	-5165
▁立体	-5166
▁立断	-5167
▁立派	-5168
▁立足	-5169
▁竞标	-5170
▁竟然	-5171
▁竟达	-5172
▁童话	-5173
▁笔来	-5174
▁笔者	-5175
▁笔耕	-5176
▁笔记	-5177
▁答案	-5178
▁简明	-5179
▁米多	-5180
▁类同	-5181
▁类型	-5182
▁素以	-5183
▁紧紧	-5184
▁繁华	-5185
▁繁殖	-5186
▁红木	-5187
▁红柿	-5188
▁约翰	-5189
▁纪元	-5190
▁纯真	-5191
▁纳新	-5192
▁纵死	-5193
▁纵线	-5194
▁纷飞	-5195
▁纸鸢	-5196
▁线中	-5197
▁细细	-5198
▁终令	-5199
▁专事	-5200
▁专文	-5201
▁专致	-5202
▁专题	-5203
▁争端	-5204
▁伊尔	-5205
▁八七	-5206
▁决不	-5207
▁剖示	-5208
▁县孝	-5209
▁双层	-5210
▁双手	-5211
▁双民	-5212
▁双重	-5213
▁只会	-5214
▁只需	-5215
▁台上	-5216
▁名列	-5217
▁名曲	-5218
▁名流	-5219
▁名誉	-5220
▁名馨	-5221
▁处可	-5222
▁委托	-5223
▁它对	-5224
▁它还	-5225
▁忠市	-5226
▁感地	-5227
▁感性	-5228
▁感悟	-5229
▁感慨	-5230
▁感染	-5231
▁教子	-5232
▁教材	-5233
▁教训	-5234
▁昭示	-5235
▁果永	-5236
▁比较	-5237
▁比邻	-5238
▁演唱	-5239
▁演练	-5240
▁演者	-5241
▁演队	-5242
▁爱县	-5243
▁爱子	-5244
▁王朝	-5245
▁真解	-5246
▁稳中	-5247
▁稳步	-5248
▁终将	-5249
▁终端	-5250
▁绘制	-5251
▁给她	-5252
▁给战	-5253
▁给本	-5254
▁给水	-5255
▁给黄	-5256
▁绝不	-5257
▁绝对	-5258
▁续展	-5259
▁绳勒	-5260
▁绿叶	-5261
▁绿影	-5262
▁缓缓	-5263
▁编印	-5264
▁编纂	-5265
▁编选	-5266
▁编队	-5267
▁缺少	-5268
▁罗织	-5269
▁置身	-5270
▁羊毛	-5271
▁羊油	-5272
▁羽毛	-5273
▁翻译	-5274
▁翻读	-5275
▁考虑	-5276
▁考量	-5277
▁耕田	-5278
▁耕耘	-5279
▁聚居	-5280
▁聚集	-5281
▁肉色	-5282
▁肩勒	-5283
▁肩负	-5284
▁胆识	-5285
▁背起	-5286
▁胜多	-5287
▁胡乱	-5288
▁胡花	-5289
▁胸臆	-5290
▁脚印	-5291
▁致力	-5292
▁致死	-5293
▁致词	-5294
▁舞动	-5295
▁航天	-5296
▁航已	-5297
▁航管	-5298
▁良多	-5299
▁业于	-5300
▁东洋	-5301
▁东渐	-5302
▁严令	-5303
▁久便	-5304
▁九旱	-5305
▁九时	-5306
▁些许	-5307
▁再度	-5308
▁千个	-5309
▁千亩	-5310
▁千人	-5311
▁千元	-5312
▁千古	-5313
▁千斤	-5314
▁千里	-5315
▁协作	-5316
▁反三	-5317
▁反党	-5318
▁反差	-5319
▁反应	-5320
▁取向	-5321
▁取缔	-5322
▁史所	-5323
▁史新	-5324
▁史育	-5325
▁四周	-5326
▁四次	-5327
▁四海	-5328
▁四部	-5329
▁团团	-5330
▁团拜	-5331
▁城关	-5332
▁城里	-5333
▁挂山	-5334
▁据以	-5335
▁据胡	-5336
▁据英	-5337
▁据记	-5338
▁排开	-5339
▁整套	-5340
▁欢度	-5341
▁海区	-5342
▁炸掉	-5343
▁画坛	-5344
▁画好	-5345
▁盘算	-5346
▁破船	-5347
▁种植	-5348
▁繁多	-5349
▁良心	-5350
▁良田	-5351
▁良种	-5352
▁艺专	-5353
▁花园	-5354
▁花城	-5355
▁花江	-5356
▁花篮	-5357
▁花香	-5358
▁芳坐	-5359
▁芳香	-5360
▁苍雄	-5361
▁若要	-5362
▁苦难	-5363
▁英尺	-5364
▁英语	-5365
▁范化	-5366
▁茶色	-5367
▁荒地	-5368
▁荒山	-5369
▁荒水	-5370
▁荣立	-5371
▁荣郭	-5372
▁莫如	-5373
▁莫若	-5374
▁获益	-5375
▁营镇	-5376
▁萨卡	-5377
▁萨尔	-5378
▁落海	-5379
▁落进	-5380
▁董事	-5381
▁蒸汽	-5382
▁蓄水	-5383
▁蓄满	-5384
▁蓝天	-5385
▁蓝色	-5386
▁蔚蓝	-5387
▁蕴涵	-5388
▁藏医	-5389
▁藏民	-5390
▁虎门	-5391
▁虚掩	-5392
▁虽名	-5393
▁蛋鸡	-5394
▁血压	-5395
▁血栓	-5396
▁血糖	-5397
▁街里	-5398
▁补充	-5399
▁乐园	-5400
▁乡冯	-5401
▁乡情	-5402
▁乡水	-5403
▁乡石	-5404
▁二年	-5405
▁二愿	-5406
▁二百	-5407
▁二等	-5408
▁亿人	-5409
▁体验	-5410
▁内地	-5411
▁内斯	-5412
▁内新	-5413
▁内水	-5414
▁几位	-5415
▁几十	-5416
▁几群	-5417
▁制作	-5418
▁制品	-5419
▁制服	-5420
▁力作	-5421
▁动作	-5422
▁动地	-5423
▁动性	-5424
▁动脑	-5425
▁动车	-5426
▁厂高	-5427
▁古稀	-5428
▁古迹	-5429
▁天地	-5430
▁天清	-5431
▁天湖	-5432
▁天祥	-5433
▁她从	-5434
▁展由	-5435
▁展翼	-5436
▁干杯	-5437
▁强权	-5438
▁强渡	-5439
▁强烈	-5440
▁强盛	-5441
▁得好	-5442
▁得知	-5443
▁得者	-5444
▁心事	-5445
▁心意	-5446
▁心理	-5447
▁心眼	-5448
▁快上	-5449
▁意于	-5450
▁意味	-5451
▁意愿	-5452
▁搭起	-5453
▁数年	-5454
▁毛球	-5455
▁江湖	-5456
▁浓眉	-5457
▁然增	-5458
▁由发	-5459
▁由平	-5460
▁由张	-5461
▁由此	-5462
▁能从	-5463
▁能否	-5464
▁能手	-5465
▁节前	-5466
▁节能	-5467
▁苦瓜	-5468
▁袭击	-5469
▁装备	-5470
▁装甲	-5471
▁观感	-5472
▁观摩	-5473
▁规化	-5474
▁规章	-5475
▁视察	-5476
▁视觉	-5477
▁视野	-5478
▁览馆	-5479
▁觉世	-5480
▁觉悟	-5481
▁觉泪	-5482
▁角尖	-5483
▁角落	-5484
▁言表	-5485
▁警卫	-5486
▁警示	-5487
▁认知	-5488
▁议员	-5489
▁议政	-5490
▁讯一	-5491
▁讯中	-5492
▁讯据	-5493
▁讲义	-5494
▁讲台	-5495
▁讲究	-5496
▁许会	-5497
▁论家	-5498
▁论战	-5499
▁五中	-5500
▁但以	-5501
▁但将	-5502
▁但当	-5503
▁体味	-5504
▁体地	-5505
▁先辈	-5506
▁内事	-5507
▁别同	-5508
▁原先	-5509
▁原初	-5510
▁原华	-5511
▁原来	-5512
▁原由	-5513
▁原苏	-5514
▁去世	-5515
▁参考	-5516
▁参观	-5517
▁向大	-5518
▁向往	-5519
▁困扰	-5520
▁困窘	-5521
▁土豆	-5522
▁好地	-5523
▁山路	-5524
▁山间	-5525
▁帷幄	-5526
▁心把	-5527
▁思危	-5528
▁思变	-5529
▁思悟	-5530
▁思维	-5531
▁情丝	-5532
▁情势	-5533
▁情形	-5534
▁情思	-5535
▁情感	-5536
▁情民	-5537
▁指令	-5538
▁指标	-5539
▁摧残	-5540
▁收养	-5541
▁收成	-5542
▁收支	-5543
▁收益	-5544
▁收获	-5545
▁机修	-5546
▁机坪	-5547
▁机型	-5548
▁机械	-5549
▁机电	-5550
▁机长	-5551
▁果敢	-5552
▁歌舞	-5553
▁此刻	-5554
▁此前	-5555
▁此物	-5556
▁此而	-5557
▁此间	-5558
▁治县	-5559
▁治国	-5560
▁治安	-5561
▁治山	-5562
▁治疗	-5563
▁治病	-5564
▁用途	-5565
▁目光	-5566
▁目秀	-5567
▁相当	-5568
▁继日	-5569
▁论点	-5570
▁论证	-5571
▁论足	-5572
▁设想	-5573
▁设标	-5574
▁设滚	-5575
▁证券	-5576
▁评分	-5577
▁评家	-5578
▁评比	-5579
▁识到	-5580
▁词上	-5581
▁词时	-5582
▁诗喜	-5583
▁诗坛	-5584
▁该人	-5585
▁该刊	-5586
▁该县	-5587
▁该局	-5588
▁该报	-5589
▁详实	-5590
▁请求	-5591
▁诺说	-5592
▁读本	-5593
▁读来	-5594
▁读罢	-5595
▁调低	-5596
▁调剂	-5597
▁调控	-5598
▁调聘	-5599
▁举枪	-5600
▁于一	-5601
▁代理	-5602
▁传世	-5603
▁传来	-5604
▁传部	-5605
▁停地	-5606
▁军区	-5607
▁军属	-5608
▁列入	-5609
▁卢巴	-5610
▁参照	-5611
▁史大	-5612
▁右手	-5613
▁后一	-5614
▁后属	-5615
▁后果	-5616
▁后者	-5617
▁回京	-5618
▁回升	-5619
▁回去	-5620
▁回声	-5621
▁回家	-5622
▁回族	-5623
▁回生	-5624
▁回顾	-5625
▁回首	-5626
▁山五	-5627
▁山县	-5628
▁山城	-5629
▁山装	-5630
▁情操	-5631
▁战国	-5632
▁战法	-5633
▁投劳	-5634
▁投诉	-5635
▁投降	-5636
▁报社	-5637
▁拉机	-5638
▁明号	-5639
▁明媚	-5640
▁明星	-5641
▁更弦	-5642
▁更新	-5643
▁更生	-5644
▁更迭	-5645
▁此一	-5646
▁每一	-5647
▁每三	-5648
▁每亩	-5649
▁气概	-5650
▁气魄	-5651
▁深受	-5652
▁深层	-5653
▁深沉	-5654
▁深知	-5655
▁祖宾	-5656
▁等于	-5657
▁等值	-5658
▁等功	-5659
▁给予	-5660
▁统友	-5661
▁职能	-5662
▁联大	-5663
▁联结	-5664
▁解体	-5665
▁解到	-5666
▁解呢	-5667
▁解脱	-5668
▁认定	-5669
▁调色	-5670
▁谈会	-5671
▁谋成	-5672
▁谋臣	-5673
▁谋计	-5674
▁谨慎	-5675
▁财富	-5676
▁财长	-5677
▁货源	-5678
▁货车	-5679
▁货运	-5680
▁质朴	-5681
▁贪全	-5682
▁贪多	-5683
▁贫中	-5684
▁贫穷	-5685
▁购进	-5686
▁贸然	-5687
▁费力	-5688
▁费用	-5689
▁贺信	-5690
▁贺元	-5691
▁贺卡	-5692
▁赖于	-5693
▁赞同	-5694
▁赞最	-5695
▁赞誉	-5696
▁赠给	-5697
▁赠订	-5698
▁赢利	-5699
▁严泽	-5700
▁久久	-5701
▁书名	-5702
▁书形	-5703
▁书立	-5704
▁会仍	-5705
▁会到	-5706
▁会形	-5707
▁位都	-5708
▁保安	-5709
▁保深	-5710
▁保险	-5711
▁分摊	-5712
▁分管	-5713
▁商报	-5714
▁图书	-5715
▁图文	-5716
▁图集	-5717
▁外出	-5718
▁外头	-5719
▁外环	-5720
▁外访	-5721
▁外销	-5722
▁头脑	-5723
▁如织	-5724
▁安定	-5725
▁安局	-5726
▁安心	-5727
▁感动	-5728
▁所属	-5729
▁所编	-5730
▁执拗	-5731
▁接待	-5732
▁揭示	-5733
▁最初	-5734
▁最新	-5735
▁条理	-5736
▁武义	-5737
▁活捉	-5738
▁活跃	-5739
▁活鱼	-5740
▁焦虑	-5741
▁理之	-5742
▁理化	-5743
▁电线	-5744
▁电网	-5745
▁看病	-5746
▁组建	-5747
▁结冰	-5748
▁结缘	-5749
▁老化	-5750
▁老家	-5751
▁老幼	-5752
▁老总	-5753
▁老辣	-5754
▁老院	-5755
▁老马	-5756
▁联手	-5757
▁行到	-5758
▁行石	-5759
▁西安	-5760
▁西欧	-5761
▁西湖	-5762
▁西风	-5763
▁起先	-5764
▁起因	-5765
▁起始	-5766
▁起家	-5767
▁起点	-5768
▁起立	-5769
▁起色	-5770
▁起飞	-5771
▁超出	-5772
▁超越	-5773
▁越岭	-5774
▁趋于	-5775
▁趋缓	-5776
▁足迹	-5777
▁跃欲	-5778
▁跃然	-5779
▁跃王	-5780
▁跌到	-5781
▁跌至	-5782
▁跑前	-5783
▁跑进	-5784
▁跨入	-5785
▁路人	-5786
▁路小	-5787
▁踏步	-5788
▁踏花	-5789
▁身影	-5790
▁车主	-5791
▁车外	-5792
▁车点	-5793
▁车牌	-5794
▁车道	-5795
▁车间	-5796
▁转产	-5797
▁转化	-5798
▁转向	-5799
▁48	-5800
▁49	-5801
▁丁玲	-5802
▁三代	-5803
▁三元	-5804
▁三大	-5805
▁三层	-5806
▁三愿	-5807
▁三方	-5808
▁三晋	-5809
▁三点	-5810
▁三通	-5811
▁临头	-5812
▁修正	-5813
▁停留	-5814
▁兴亡	-5815
▁决策	-5816
▁利院	-5817
▁到人	-5818
▁到家	-5819
▁到水	-5820
▁前已	-5821
▁前巷	-5822
▁前瓦	-5823
▁前程	-5824
▁前胸	-5825
▁前身	-5826
▁前途	-5827
▁口都	-5828
▁合江	-5829
▁合资	-5830
▁增多	-5831
▁增大	-5832
▁增收	-5833
▁增进	-5834
▁好奇	-5835
▁并后	-5836
▁并能	-5837
▁并重	-5838
▁并非	-5839
▁当个	-5840
▁当我	-5841
▁当班	-5842
▁所长	-5843
▁无不	-5844
▁无多	-5845
▁无情	-5846
▁无权	-5847
▁无比	-5848
▁无穷	-5849
▁无线	-5850
▁村级	-5851
▁村貌	-5852
▁村边	-5853
▁村通	-5854
▁正值	-5855
▁正按	-5856
▁正气	-5857
▁正点	-5858
▁永恒	-5859
▁海市	-5860
▁游人	-5861
▁现任	-5862
▁现出	-5863
▁现已	-5864
▁现役	-5865
▁百姓	-5866
▁第九	-5867
▁第五	-5868
▁第十	-5869
▁精确	-5870
▁精简	-5871
▁精致	-5872
▁翻开	-5873
▁表象	-5874
▁表首	-5875
▁要上	-5876
▁要把	-5877
▁要比	-5878
▁资等	-5879
▁转型	-5880
▁转播	-5881
▁转译	-5882
▁转轨	-5883
▁轻度	-5884
▁轻易	-5885
▁轻柔	-5886
▁轻视	-5887
▁载而	-5888
▁载舞	-5889
▁较强	-5890
▁辉映	-5891
▁输到	-5892
▁输送	-5893
▁辞典	-5894
▁边陲	-5895
▁过于	-5896
▁迈进	-5897
▁迎上	-5898
▁运地	-5899
▁下令	-5900
▁下开	-5901
▁下级	-5902
▁下辖	-5903
▁个从	-5904
▁个富	-5905
▁个村	-5906
▁个米	-5907
▁党却	-5908
▁创下	-5909
▁创利	-5910
▁创新	-5911
▁北方	-5912
▁区所	-5913
▁十七	-5914
▁十二	-5915
▁十倍	-5916
▁十元	-5917
▁十本	-5918
▁十载	-5919
▁十部	-5920
▁可买	-5921
▁可先	-5922
▁可掬	-5923
▁可观	-5924
▁可证	-5925
▁可谓	-5926
▁可象	-5927
▁可达	-5928
▁如腮	-5929
▁将之	-5930
▁将会	-5931
▁将其	-5932
▁将军	-5933
▁将对	-5934
▁将才	-5935
▁将来	-5936
▁将相	-5937
▁将至	-5938
▁已不	-5939
▁已于	-5940
▁已婚	-5941
▁已患	-5942
▁已然	-5943
▁已超	-5944
▁平原	-5945
▁平地	-5946
▁平方	-5947
▁平日	-5948
▁广东	-5949
▁广阔	-5950
▁库低	-5951
▁怀药	-5952
▁排水	-5953
▁提法	-5954
▁提琴	-5955
▁机组	-5956
▁村三	-5957
▁村串	-5958
▁村农	-5959
▁村村	-5960
▁老舍	-5961
▁而知	-5962
▁而起	-5963
▁而过	-5964
▁而道	-5965
▁行山	-5966
▁说不	-5967
▁说都	-5968
▁运行	-5969
▁近似	-5970
▁近千	-5971
▁还具	-5972
▁还分	-5973
▁还到	-5974
▁还搜	-5975
▁还用	-5976
▁还给	-5977
▁远眺	-5978
▁连同	-5979
▁连接	-5980
▁连片	-5981
▁连连	-5982
▁述古	-5983
▁追溯	-5984
▁退化	-5985
▁送出	-5986
▁送到	-5987
▁送进	-5988
▁适于	-5989
▁适合	-5990
▁适龄	-5991
▁选举	-5992
▁选准	-5993
▁选段	-5994
▁透出	-5995
▁途经	-5996
▁通幽	-5997
▁通监	-5998
▁通车	-5999
▁万只	-6000
▁万名	-6001
▁万国	-6002
▁万字	-6003
▁万方	-6004
▁万计	-6005
▁万里	-6006
▁事宜	-6007
▁事态	-6008
▁事求	-6009
▁事项	-6010
▁交往	-6011
▁交接	-6012
▁交管	-6013
▁交镇	-6014
▁使一	-6015
▁使原	-6016
▁使节	-6017
▁共商	-6018
▁共背	-6019
▁共计	-6020
▁共赏	-6021
▁南两	-6022
▁南国	-6023
▁南宁	-6024
▁南宝	-6025
▁南昌	-6026
▁南疆	-6027
▁南缘	-6028
▁基伦	-6029
▁家人	-6030
▁家伙	-6031
▁家务	-6032
▁家可	-6033
▁家吃	-6034
▁家国	-6035
▁家宝	-6036
▁家级	-6037
▁家给	-6038
▁寺庙	-6039
▁导航	-6040
▁总计	-6041
▁总责	-6042
▁恰逢	-6043
▁放开	-6044
▁方可	-6045
▁本丛	-6046
▁本功	-6047
▁本国	-6048
▁本套	-6049
▁本月	-6050
▁本末	-6051
▁本港	-6052
▁本版	-6053
▁本质	-6054
▁本镇	-6055
▁来临	-6056
▁来水	-6057
▁特产	-6058
▁特制	-6059
▁田野	-6060
▁留给	-6061
▁管局	-6062
▁而从	-6063
▁而归	-6064
▁而得	-6065
▁而恰	-6066
▁荒草	-6067
▁详考	-6068
▁践中	-6069
▁通邮	-6070
▁逛农	-6071
▁逝世	-6072
▁逝去	-6073
▁速写	-6074
▁造出	-6075
▁造厂	-6076
▁造型	-6077
▁逾期	-6078
▁遍山	-6079
▁道主	-6080
▁道合	-6081
▁道德	-6082
▁遗址	-6083
▁遗忘	-6084
▁遗风	-6085
▁遥控	-6086
▁遥祝	-6087
▁那个	-6088
▁那么	-6089
▁那位	-6090
▁那座	-6091
▁那时	-6092
▁那片	-6093
▁那肉	-6094
▁那自	-6095
▁邻国	-6096
▁郑重	-6097
▁部由	-6098
▁配到	-6099
▁4.	-6100
▁5°	-6101
▁60	-6102
▁64	-6103
▁6°	-6104
▁7.	-6105
▁71	-6106
▁74	-6107
▁75	-6108
▁79	-6109
▁7°	-6110
▁世俗	-6111
▁世所	-6112
▁产中	-6113
▁产地	-6114
▁产物	-6115
▁产销	-6116
▁们采	-6117
▁作业	-6118
▁作战	-6119
▁作栋	-6120
▁作法	-6121
▁作物	-6122
▁倾听	-6123
▁公寓	-6124
▁公报	-6125
▁公证	-6126
▁其以	-6127
▁其做	-6128
▁其冲	-6129
▁其挤	-6130
▁其爪	-6131
▁其生	-6132
▁加剧	-6133
▁加深	-6134
▁加现	-6135
▁加速	-6136
▁加重	-6137
▁加霜	-6138
▁历经	-6139
▁套色	-6140
▁实事	-6141
▁实实	-6142
▁实质	-6143
▁对外	-6144
▁对此	-6145
▁对策	-6146
▁对跨	-6147
▁市中	-6148
▁市容	-6149
▁市政	-6150
▁市都	-6151
▁市长	-6152
▁平川	-6153
▁总之	-6154
▁总局	-6155
▁感觉	-6156
▁改成	-6157
▁改组	-6158
▁改道	-6159
▁日丽	-6160
▁日来	-6161
▁日用	-6162
▁日等	-6163
▁时值	-6164
▁时近	-6165
▁民党	-6166
▁民共	-6167
▁民军	-6168
▁民办	-6169
▁民宅	-6170
▁民安	-6171
▁民工	-6172
▁民币	-6173
▁民应	-6174
▁民建	-6175
▁民情	-6176
▁爱乐	-6177
▁用来	-6178
▁那剥	-6179
▁邮政	-6180
▁配套	-6181
▁配方	-6182
▁配舞	-6183
▁配齐	-6184
▁采购	-6185
▁里夫	-6186
▁里将	-6187
▁量著	-6188
▁金大	-6189
▁针叶	-6190
▁钟爱	-6191
▁铁盆	-6192
▁铁路	-6193
▁银川	-6194
▁银花	-6195
▁铺叙	-6196
▁铺盖	-6197
▁铺筑	-6198
▁销往	-6199
▁44	-6200
▁82	-6201
▁86	-6202
▁87	-6203
▁88	-6204
▁8°	-6205
▁上前	-6206
▁上周	-6207
▁上将	-6208
▁上曾	-6209
▁上村	-6210
▁上正	-6211
▁上百	-6212
▁上空	-6213
▁上级	-6214
▁上缴	-6215
▁上门	-6216
▁之上	-6217
▁之下	-6218
▁之中	-6219
▁之久	-6220
▁之以	-6221
▁之内	-6222
▁之时	-6223
▁之林	-6224
▁之梦	-6225
▁之滨	-6226
▁之笔	-6227
▁之行	-6228
▁之道	-6229
▁之风	-6230
▁五百	-6231
▁们不	-6232
▁们以	-6233
▁们先	-6234
▁们实	-6235
▁们认	-6236
▁依靠	-6237
▁关牧	-6238
▁关税	-6239
▁军营	-6240
▁学位	-6241
▁学界	-6242
▁学科	-6243
▁学良	-6244
▁学过	-6245
▁学透	-6246
▁小可	-6247
▁小家	-6248
▁小巷	-6249
▁小水	-6250
▁小组	-6251
▁小贩	-6252
▁小车	-6253
▁小金	-6254
▁成交	-6255
▁成风	-6256
▁成高	-6257
▁挺胸	-6258
▁权利	-6259
▁比亚	-6260
▁民兵	-6261
▁水价	-6262
▁水田	-6263
▁水积	-6264
▁水稻	-6265
▁水高	-6266
▁登八	-6267
▁美以	-6268
▁美满	-6269
▁美院	-6270
▁获取	-6271
▁记处	-6272
▁记载	-6273
▁进藏	-6274
▁销烟	-6275
▁锋芒	-6276
▁长一	-6277
▁长于	-6278
▁长大	-6279
▁长安	-6280
▁长张	-6281
▁长街	-6282
▁长达	-6283
▁门口	-6284
▁闭路	-6285
▁问过	-6286
▁闯过	-6287
▁闻名	-6288
▁阐述	-6289
▁队员	-6290
▁队设	-6291
▁防冻	-6292
▁防报	-6293
▁防汛	-6294
▁防风	-6295
▁阳三	-6296
▁阳坡	-6297
▁阴雨	-6298
▁阶层	-6299
▁22	-6300
▁39	-6301
▁3‰	-6302
▁两只	-6303
▁两季	-6304
▁两家	-6305
▁两支	-6306
▁两部	-6307
▁主城	-6308
▁主攻	-6309
▁二分	-6310
▁关念	-6311
▁出乎	-6312
▁出勤	-6313
▁出去	-6314
▁出差	-6315
▁出生	-6316
▁出身	-6317
▁华北	-6318
▁华医	-6319
▁华屋	-6320
▁华澳	-6321
▁可信	-6322
▁各个	-6323
▁各大	-6324
▁各异	-6325
▁同一	-6326
▁同下	-6327
▁同以	-6328
▁同声	-6329
▁同赏	-6330
▁团化	-6331
▁地点	-6332
▁地缘	-6333
▁地评	-6334
▁地说	-6335
▁地面	-6336
▁多万	-6337
▁多传	-6338
▁多册	-6339
▁多则	-6340
▁多地	-6341
▁多多	-6342
▁多天	-6343
▁多幅	-6344
▁多彩	-6345
▁多方	-6346
▁多极	-6347
▁多架	-6348
▁多瑙	-6349
▁多谋	-6350
▁工笔	-6351
▁年人	-6352
▁年仅	-6353
▁年份	-6354
▁年华	-6355
▁年历	-6356
▁年多	-6357
▁年年	-6358
▁年近	-6359
▁年逾	-6360
▁年间	-6361
▁引资	-6362
▁政区	-6363
▁政变	-6364
▁施展	-6365
▁时而	-6366
▁翻印	-6367
▁自动	-6368
▁自审	-6369
▁自新	-6370
▁自珍	-6371
▁自立	-6372
▁自营	-6373
▁自谋	-6374
▁触到	-6375
▁转转	-6376
▁较快	-6377
▁重托	-6378
▁重造	-6379
▁重逢	-6380
▁重量	-6381
▁阶平	-6382
▁阻力	-6383
▁阻挡	-6384
▁附近	-6385
▁陆机	-6386
▁陆续	-6387
▁陈辞	-6388
▁降幅	-6389
▁降温	-6390
▁限于	-6391
▁院系	-6392
▁除学	-6393
▁险家	-6394
▁陪我	-6395
▁陵墓	-6396
▁陵江	-6397
▁隆冬	-6398
▁随手	-6399
▁虬	-6400
家孙	-6401
▁92	-6402
▁95	-6403
▁不以	-6404
▁不便	-6405
▁不变	-6406
▁不已	-6407
▁不应	-6408
▁不很	-6409
▁不怕	-6410
▁不易	-6411
▁不朽	-6412
▁不算	-6413
▁不舍	-6414
▁乐部	-6415
▁以一	-6416
▁以不	-6417
▁以其	-6418
▁以军	-6419
▁以农	-6420
▁以加	-6421
▁以形	-6422
▁以成	-6423
▁以探	-6424
▁以效	-6425
▁以美	-6426
▁以至	-6427
▁以街	-6428
▁们便	-6429
▁全线	-6430
▁公开	-6431
▁军重	-6432
▁农副	-6433
▁农委	-6434
▁农水	-6435
▁前者	-6436
▁发包	-6437
▁发并	-6438
▁发愁	-6439
▁国两	-6440
▁国大	-6441
▁国学	-6442
▁国相	-6443
▁国立	-6444
▁国耻	-6445
▁国话	-6446
▁国道	-6447
▁国首	-6448
▁地做	-6449
▁地对	-6450
▁地山	-6451
▁地理	-6452
▁大埔	-6453
▁大屏	-6454
▁大山	-6455
▁大川	-6456
▁大师	-6457
▁大德	-6458
▁大步	-6459
▁大渡	-6460
▁大米	-6461
▁大纲	-6462
▁大跌	-6463
▁大道	-6464
▁孤独	-6465
▁建直	-6466
▁建舟	-6467
▁开怀	-6468
▁开朗	-6469
▁开来	-6470
▁开阔	-6471
▁我从	-6472
▁我家	-6473
▁我爱	-6474
▁我驻	-6475
▁战线	-6476
▁文选	-6477
▁水中	-6478
▁深切	-6479
▁生姜	-6480
▁生来	-6481
▁生率	-6482
▁虬曲	-6483
▁长征	-6484
▁隐患	-6485
▁隐秘	-6486
▁难得	-6487
▁难成	-6488
▁难村	-6489
▁雄劲	-6490
▁雄踞	-6491
▁雅乐	-6492
▁集会	-6493
▁雨点	-6494
▁需感	-6495
▁需求	-6496
▁露面	-6497
▁青春	-6498
▁青海	-6499
▁吹	-6500
▁颂	-6501
▁颖	-6502
▁驰	-6503
▁骅	-6504
▁骤	-6505
▁魄	-6506
▁魅	-6507
▁鸡	-6508
▁鼐	-6509
上最	-6510
冷雪	-6511
备期	-6512
姻缘	-6513
而至	-6514
能等	-6515
食油	-6516
餐桌	-6517
驶员	-6518
骑士	-6519
鲤鱼	-6520
鲶鱼	-6521
▁1·	-6522
▁一串	-6523
▁一举	-6524
▁一十	-6525
▁一名	-6526
▁一向	-6527
▁一响	-6528
▁一堆	-6529
▁一多	-6530
▁一封	-6531
▁一庄	-6532
▁一愿	-6533
▁一期	-6534
▁一格	-6535
▁一水	-6536
▁一洗	-6537
▁一眼	-6538
▁一股	-6539
▁一脸	-6540
▁一车	-6541
▁一页	-6542
▁一首	-6543
▁一齐	-6544
▁中原	-6545
▁中天	-6546
▁中层	-6547
▁中庄	-6548
▁中旬	-6549
▁中期	-6550
▁中秋	-6551
▁中阳	-6552
▁人亡	-6553
▁人伦	-6554
▁人还	-6555
▁伤财	-6556
▁使之	-6557
▁全载	-6558
▁共鸣	-6559
▁其总	-6560
▁十位	-6561
▁姻缘	-6562
▁学贤	-6563
▁已踞	-6564
▁干些	-6565
▁应变	-6566
▁情愫	-6567
▁成群	-6568
▁持下	-6569
▁灯辉	-6570
▁百位	-6571
▁称做	-6572
▁精深	-6573
▁系正	-6574
▁经由	-6575
▁美人	-6576
▁英模	-6577
▁轻率	-6578
▁运送	-6579
▁部经	-6580
▁非凡	-6581
▁非洲	-6582
▁非首	-6583
▁面广	-6584
▁革英	-6585
▁音响	-6586
▁音速	-6587
▁顶上	-6588
▁顺应	-6589
▁颂扬	-6590
▁预期	-6591
▁预测	-6592
▁颇丰	-6593
▁颇具	-6594
▁颖而	-6595
▁题字	-6596
▁题词	-6597
▁风中	-6598
▁风云	-6599
▁凶	-6600
▁忍	-6601
▁昼	-6602
▁辈	-6603
▁迄	-6604
▁迭	-6605
▁迹	-6606
▁遏	-6607
▁遒	-6608
▁遮	-6609
▁邕	-6610
▁邵	-6611
▁郊	-6612
▁释	-6613
▁钦	-6614
▁钩	-6615
▁链	-6616
▁锁	-6617
▁键	-6618
▁镜	-6619
▁镶	-6620
▁隶	-6621
▁雏	-6622
▁雯	-6623
▁鞭	-6624
▁页	-6625
一件	-6626
份制	-6627
军属	-6628
印上	-6629
士学	-6630
多不	-6631
嵌出	-6632
年代	-6633
所能	-6634
美洲	-6635
而无	-6636
至求	-6637
过剩	-6638
遵循	-6639
雷奥	-6640
霸水	-6641
静地	-6642
韵味	-6643
顿开	-6644
▁丝厂	-6645
▁以偿	-6646
▁作市	-6647
▁佳作	-6648
▁保定	-6649
▁像个	-6650
▁军魂	-6651
▁冷峻	-6652
▁凶杀	-6653
▁前辈	-6654
▁受益	-6655
▁启迪	-6656
▁奋力	-6657
▁如对	-6658
▁少云	-6659
▁差距	-6660
▁带队	-6661
▁忍痛	-6662
▁提升	-6663
▁春天	-6664
▁昼夜	-6665
▁木尔	-6666
▁步步	-6667
▁水土	-6668
▁浪队	-6669
▁秋种	-6670
▁辈出	-6671
▁迄今	-6672
▁迭起	-6673
▁迹象	-6674
▁遏制	-6675
▁遒劲	-6676
▁遮掩	-6677
▁遵循	-6678
▁邕江	-6679
▁郊县	-6680
▁释放	-6681
▁钦佩	-6682
▁链条	-6683
▁锁定	-6684
▁镜子	-6685
▁隶书	-6686
▁雏形	-6687
▁霸水	-6688
▁鞭炮	-6689
▁韵味	-6690
▁顿开	-6691
▁风情	-6692
▁风气	-6693
▁风波	-6694
▁风筝	-6695
▁风貌	-6696
▁风险	-6697
▁风雨	-6698
▁风骚	-6699
▁滨	-6700
▁犯	-6701
▁端	-6702
▁苹	-6703
▁茫	-6704
▁莎	-6705
▁萍	-6706
▁蒂	-6707
▁薛	-6708
▁袖	-6709
▁裕	-6710
▁讨	-6711
▁试	-6712
▁谊	-6713
▁谷	-6714
▁豪	-6715
▁赋	-6716
▁赐	-6717
▁陷	-6718
下而	-6719
个村	-6720
其道	-6721
吉县	-6722
坎坷	-6723
尔斯	-6724
尸马	-6725
年货	-6726
授过	-6727
茅盾	-6728
茨基	-6729
药等	-6730
莅渝	-6731
葫芦	-6732
衔接	-6733
贝尔	-6734
赵玉	-6735
门岩	-6736
▁两侧	-6737
▁中午	-6738
▁中去	-6739
▁从不	-6740
▁农垦	-6741
▁几亿	-6742
▁发地	-6743
▁国贾	-6744
▁坎坷	-6745
▁备齐	-6746
▁大更	-6747
▁如一	-6748
▁常务	-6749
▁当属	-6750
▁心武	-6751
▁收不	-6752
▁政权	-6753
▁新泾	-6754
▁沙特	-6755
▁洗厂	-6756
▁滨江	-6757
▁犯罪	-6758
▁界对	-6759
▁苹果	-6760
▁茅盾	-6761
▁茨基	-6762
▁茫茫	-6763
▁药等	-6764
▁莅渝	-6765
▁莎白	-6766
▁葫芦	-6767
▁衔接	-6768
▁裕村	-6769
▁讨论	-6770
▁试点	-6771
▁说我	-6772
▁豪华	-6773
▁贝尔	-6774
▁贫富	-6775
▁赵玉	-6776
▁转而	-6777
▁里氏	-6778
▁陷入	-6779
▁飘扬	-6780
▁飘香	-6781
▁飞向	-6782
▁飞抵	-6783
▁飞越	-6784
▁食油	-6785
▁饮水	-6786
▁饱满	-6787
▁馆牌	-6788
▁首位	-6789
▁首尾	-6790
▁首届	-6791
▁首犹	-6792
▁首迎	-6793
▁香槟	-6794
▁马上	-6795
▁马列	-6796
▁马文	-6797
▁马斯	-6798
▁马烽	-6799
▁俨	-6800
▁粒	-6801
▁粪	-6802
▁糅	-6803
▁索	-6804
▁紫	-6805
▁纶	-6806
▁绍	-6807
▁网	-6808
▁署	-6809
▁翔	-6810
▁翠	-6811
▁耘	-6812
▁肖	-6813
▁肤	-6814
▁脸	-6815
▁腊	-6816
▁腰	-6817
▁腾	-6818
▁膀	-6819
▁臾	-6820
▁芝	-6821
▁芭	-6822
▁芹	-6823
▁苋	-6824
▁锲	-6825
七名	-6826
之美	-6827
以示	-6828
度比	-6829
抛弃	-6830
权力	-6831
浦江	-6832
海里	-6833
疗费	-6834
粉碎	-6835
粲然	-6836
纠纷	-6837
绑架	-6838
绒等	-6839
绕不	-6840
脉络	-6841
舒心	-6842
谢丁	-6843
▁3%	-6844
▁不敢	-6845
▁俨然	-6846
▁养成	-6847
▁加快	-6848
▁只用	-6849
▁告说	-6850
▁心脏	-6851
▁抛弃	-6852
▁整箱	-6853
▁文卫	-6854
▁温洁	-6855
▁满怀	-6856
▁爷爷	-6857
▁疗费	-6858
▁神情	-6859
▁粉碎	-6860
▁粪便	-6861
▁粲然	-6862
▁糅于	-6863
▁索存	-6864
▁紫蓝	-6865
▁纠纷	-6866
▁绍祖	-6867
▁绑架	-6868
▁绒等	-6869
▁绕不	-6870
▁网络	-6871
▁肤色	-6872
▁脉络	-6873
▁脸上	-6874
▁腊梅	-6875
▁腰包	-6876
▁腾空	-6877
▁膀上	-6878
▁至于	-6879
▁舒心	-6880
▁芭蕾	-6881
▁花鲜	-6882
▁芹菜	-6883
▁苋菜	-6884
▁超乱	-6885
▁陀瑞	-6886
▁马路	-6887
▁马那	-6888
▁驱使	-6889
▁驻足	-6890
▁骑士	-6891
▁骤然	-6892
▁骨干	-6893
▁高声	-6894
▁高处	-6895
▁高奏	-6896
▁高层	-6897
▁高档	-6898
▁高雅	-6899
▁傅	-6900
▁彼	-6901
▁校	-6902
▁略	-6903
▁瘠	-6904
▁盆	-6905
▁盎	-6906
▁盗	-6907
▁眷	-6908
▁眺	-6909
▁砍	-6910
▁碑	-6911
▁碰	-6912
▁磊	-6913
▁磋	-6914
▁秒	-6915
▁稀	-6916
▁笃	-6917
▁笛	-6918
▁舟	-6919
▁贱	-6920
▁赭	-6921
▁魂	-6922
主任	-6923
去看	-6924
孩曲	-6925
文时	-6926
症结	-6927
石市	-6928
砚田	-6929
禽鸟	-6930
稍逊	-6931
竣工	-6932
笋岗	-6933
蜕变	-6934
蜜罐	-6935
辖下	-6936
送来	-6937
▁一二	-6938
▁中学	-6939
▁临之	-6940
▁二日	-6941
▁交叉	-6942
▁产摊	-6943
▁傅全	-6944
▁利钦	-6945
▁历时	-6946
▁备受	-6947
▁大局	-6948
▁大荒	-6949
▁奇袭	-6950
▁山高	-6951
▁年会	-6952
▁年轮	-6953
▁彼此	-6954
▁忽然	-6955
▁总部	-6956
▁手活	-6957
▁执棒	-6958
▁满载	-6959
▁画集	-6960
▁症结	-6961
▁百里	-6962
▁盆景	-6963
▁盎然	-6964
▁真心	-6965
▁眷念	-6966
▁眺望	-6967
▁砚田	-6968
▁硬币	-6969
▁磋商	-6970
▁禽鸟	-6971
▁稀少	-6972
▁稍逊	-6973
▁竣工	-6974
▁笃信	-6975
▁笋岗	-6976
▁笛子	-6977
▁约而	-6978
▁老少	-6979
▁胜于	-6980
▁蜕变	-6981
▁蜜罐	-6982
▁言谈	-6983
▁魄力	-6984
▁鲜事	-6985
▁鲜红	-6986
▁鲤鱼	-6987
▁鸟之	-6988
▁鸟画	-6989
▁鸣禽	-6990
▁鸣笛	-6991
▁鹏城	-6992
▁麻袋	-6993
▁黄河	-6994
▁黄海	-6995
▁黄淮	-6996
▁黄色	-6997
▁黄菊	-6998
▁黎明	-6999
▁桌	-7000
▁淌	-7001
▁淳	-7002
▁溉	-7003
▁溜	-7004
▁溧	-7005
▁滥	-7006
▁炎	-7007
▁烁	-7008
▁烽	-7009
▁牛	-7010
▁猛	-7011
▁珠	-7012
▁珮	-7013
▁琛	-7014
▁琦	-7015
▁瓜	-7016
▁阑	-7017
偷盗	-7018
吟到	-7019
弟弟	-7020
母亲	-7021
水县	-7022
混称	-7023
渊流	-7024
澄澄	-7025
澳台	-7026
灰暗	-7027
炽热	-7028
熔一	-7029
燕赵	-7030
爱吃	-7031
牺牲	-7032
矿等	-7033
能从	-7034
苗再	-7035
钓鱼	-7036
门对	-7037
降解	-7038
餐椅	-7039
▁4°	-7040
▁一册	-7041
▁一失	-7042
▁一新	-7043
▁一旦	-7044
▁主控	-7045
▁事会	-7046
▁偷盗	-7047
▁加之	-7048
▁取舍	-7049
▁吟到	-7050
▁启蒙	-7051
▁国维	-7052
▁圣战	-7053
▁外商	-7054
▁大楼	-7055
▁大涨	-7056
▁如按	-7057
▁威武	-7058
▁弟弟	-7059
▁我好	-7060
▁来个	-7061
▁桌边	-7062
▁母亲	-7063
▁洪洋	-7064
▁淳厚	-7065
▁混称	-7066
▁渊流	-7067
▁滥觞	-7068
▁潮流	-7069
▁澄澄	-7070
▁灰暗	-7071
▁炎黄	-7072
▁炽热	-7073
▁熔一	-7074
▁燕赵	-7075
▁爱兰	-7076
▁版面	-7077
▁牺牲	-7078
▁猛增	-7079
▁珠尔	-7080
▁瓜果	-7081
▁精华	-7082
▁素养	-7083
▁纯朴	-7084
▁苗再	-7085
▁西晋	-7086
▁论文	-7087
▁证据	-7088
▁钓鱼	-7089
▁默化	-7090
▁鼓楼	-7091
▁齐全	-7092
▁齐备	-7093
▁龙从	-7094
▁龙听	-7095
▁龙当	-7096
▁龙舞	-7097
个月大	-7098
人民以	-7099
▁殖	-7100
▁殷	-7101
▁氢	-7102
▁汗	-7103
▁汝	-7104
▁汾	-7105
▁沂	-7106
▁沫	-7107
▁泣	-7108
▁津	-7109
▁浑	-7110
▁浸	-7111
▁涂	-7112
▁涅	-7113
▁涪	-7114
▁涵	-7115
▁绚	-7116
▁裹	-7117
▁返	-7118
人郭	-7119
头村	-7120
底所	-7121
污染	-7122
沈安	-7123
沥血	-7124
泸定	-7125
视性	-7126
▁不失	-7127
▁中外	-7128
▁中每	-7129
▁出访	-7130
▁刘华	-7131
▁升高	-7132
▁半径	-7133
▁子劲	-7134
▁对照	-7135
▁巴金	-7136
▁干净	-7137
▁年军	-7138
▁排排	-7139
▁正直	-7140
▁殷墟	-7141
▁汗竹	-7142
▁污染	-7143
▁汾阳	-7144
▁沂蒙	-7145
▁沈安	-7146
▁沥血	-7147
▁沫若	-7148
▁法论	-7149
▁泸定	-7150
▁涅夫	-7151
▁涪陵	-7152
▁烟花	-7153
▁究知	-7154
▁竖吹	-7155
▁笔下	-7156
▁类似	-7157
▁繁重	-7158
▁绚丽	-7159
▁见你	-7160
▁请无	-7161
▁谋士	-7162
▁过来	-7163
▁返航	-7164
▁还做	-7165
▁都要	-7166
▁随便	-7167
▁鸣谢	-7168
人郭景	-7169
亿加元	-7170
以至求	-7171
冷雪里	-7172
凸现出	-7173
厂长盛	-7174
原上最	-7175
多万个	-7176
奏华夏	-7177
山区大	-7178
山来到	-7179
应当从	-7180
沟之中	-7181
等年货	-7182
脑海里	-7183
腕底所	-7184
踵而至	-7185
部门对	-7186
雷奥迪	-7187
静静地	-7188
▁000	-7189
▁100	-7190
▁103	-7191
▁106	-7192
▁108	-7193
▁10‰	-7194
▁11%	-7195
▁12%	-7196
▁12.	-7197
▁16.	-7198
▁165	-7199
▁旦	-7200
▁晤	-7201
▁晨	-7202
▁暗	-7203
▁曼	-7204
▁替	-7205
▁末	-7206
▁枝	-7207
▁枪	-7208
▁染	-7209
▁柘	-7210
▁柴	-7211
▁柿	-7212
▁栏	-7213
▁桃	-7214
▁档	-7215
▁梭	-7216
▁梯	-7217
▁棋	-7218
▁楚	-7219
▁移	-7220
▁觑	-7221
▁贬	-7222
▁钧	-7223
三幅	-7224
园共	-7225
屈服	-7226
性地	-7227
插进	-7228
曝光	-7229
更新	-7230
杜比	-7231
樊如	-7232
此间	-7233
渤海	-7234
然地	-7235
独具	-7236
省区	-7237
而解	-7238
陶潜	-7239
▁下面	-7240
▁不尽	-7241
▁不见	-7242
▁人不	-7243
▁先机	-7244
▁兵家	-7245
▁功力	-7246
▁动容	-7247
▁台阶	-7248
▁史诗	-7249
▁奋进	-7250
▁学里	-7251
▁屈服	-7252
▁手指	-7253
▁晨光	-7254
▁暗红	-7255
▁曝光	-7256
▁替代	-7257
▁杜比	-7258
▁极富	-7259
▁枝杈	-7260
▁枪声	-7261
▁柿椒	-7262
▁档次	-7263
▁梯田	-7264
▁棋不	-7265
▁樊如	-7266
▁水乡	-7267
▁渤海	-7268
▁满分	-7269
▁生肖	-7270
▁管道	-7271
▁贬值	-7272
▁车之	-7273
▁追寻	-7274
▁阐明	-7275
▁陶潜	-7276
▁雅韵	-7277
刃而解	-7278
盛云龙	-7279
零三幅	-7280
▁170	-7281
▁194	-7282
▁195	-7283
▁20.	-7284
▁204	-7285
▁24.	-7286
▁26.	-7287
▁300	-7288
▁312	-7289
▁340	-7290
▁443	-7291
▁500	-7292
▁55‰	-7293
▁600	-7294
▁658	-7295
▁70‰	-7296
▁800	-7297
▁92.	-7298
▁972	-7299
▁刷	-7300
▁府	-7301
▁拟	-7302
▁拦	-7303
▁拮	-7304
▁拼	-7305
▁挥	-7306
▁挨	-7307
▁挫	-7308
▁搬	-7309
▁摇	-7310
▁攀	-7311
▁敢	-7312
▁料	-7313
▁斡	-7314
▁旁	-7315
▁豌	-7316
▁辅	-7317
一间	-7318
之师	-7319
之星	-7320
于向	-7321
八个	-7322
刻都	-7323
小莫	-7324
币将	-7325
干线	-7326
撷拾	-7327
攥满	-7328
敌对	-7329
款国	-7330
穿塔	-7331
莽莽	-7332
车从	-7333
▁一跃	-7334
▁上旬	-7335
▁不甚	-7336
▁二道	-7337
▁全力	-7338
▁八一	-7339
▁冬前	-7340
▁击手	-7341
▁分会	-7342
▁刷厂	-7343
▁同文	-7344
▁复一	-7345
▁宪章	-7346
▁山要	-7347
▁徐义	-7348
▁思中	-7349
▁总共	-7350
▁打通	-7351
▁拟定	-7352
▁拮据	-7353
▁拼搏	-7354
▁挥洒	-7355
▁挫伤	-7356
▁握手	-7357
▁搬迁	-7358
▁撷拾	-7359
▁攀登	-7360
▁攥满	-7361
▁敌对	-7362
▁整齐	-7363
▁斡旋	-7364
▁新兵	-7365
▁旁通	-7366
▁气红	-7367
▁没落	-7368
▁演绎	-7369
▁漫灌	-7370
▁画论	-7371
▁细致	-7372
▁背上	-7373
▁莽莽	-7374
▁营销	-7375
▁要少	-7376
▁记下	-7377
▁记得	-7378
▁谨严	-7379
▁豌豆	-7380
▁辅币	-7381
▁顺差	-7382
▁高挂	-7383
一间并	-7384
主干线	-7385
每刻都	-7386
▁997	-7387
▁一个个	-7388
▁一九六	-7389
▁一代表	-7390
▁一块块	-7391
▁一定会	-7392
▁一家却	-7393
▁一幅幅	-7394
▁一年内	-7395
▁一年来	-7396
▁一把手	-7397
▁一条条	-7398
▁一次次	-7399
▁怨	-7400
▁息	-7401
▁恺	-7402
▁悉	-7403
▁悦	-7404
▁悬	-7405
▁憾	-7406
▁扑	-7407
▁托	-7408
▁扭	-7409
▁抠	-7410
▁抽	-7411
▁拙	-7412
▁欲	-7413
▁歼	-7414
▁煌	-7415
▁牙	-7416
▁牢	-7417
▁肃	-7418
▁跷	-7419
交国	-7420
当亦	-7421
徽因	-7422
心态	-7423
志做	-7424
怜恤	-7425
恍如	-7426
恨水	-7427
悄然	-7428
惶惶	-7429
憨态	-7430
数户	-7431
格套	-7432
框架	-7433
焦于	-7434
空气	-7435
颗都	-7436
▁53	-7437
▁不减	-7438
▁不帮	-7439
▁中坚	-7440
▁之才	-7441
▁们所	-7442
▁到户	-7443
▁动荡	-7444
▁升平	-7445
▁县乡	-7446
▁发掘	-7447
▁各主	-7448
▁堵车	-7449
▁大笑	-7450
▁始起	-7451
▁山花	-7452
▁幸福	-7453
▁徽因	-7454
▁怜恤	-7455
▁恍如	-7456
▁恨水	-7457
▁息支	-7458
▁悄然	-7459
▁悉心	-7460
▁悬浮	-7461
▁惶惶	-7462
▁憨态	-7463
▁憾可	-7464
▁扭转	-7465
▁抠开	-7466
▁抽象	-7467
▁拙见	-7468
▁挣扎	-7469
▁摄取	-7470
▁收复	-7471
▁框架	-7472
▁深地	-7473
▁牢记	-7474
▁环脱	-7475
▁画展	-7476
▁良机	-7477
▁都说	-7478
▁队列	-7479
▁颗都	-7480
交国家	-7481
聚焦于	-7482
▁一点即	-7483
▁一直把	-7484
▁一面面	-7485
▁万人次	-7486
▁万加元	-7487
▁上下级	-7488
▁上门来	-7489
▁下一个	-7490
▁下开展	-7491
▁下车来	-7492
▁不但要	-7493
▁不发达	-7494
▁不同本	-7495
▁不应当	-7496
▁不想到	-7497
▁不时地	-7498
▁不相识	-7499
▁夹	-7500
▁尾	-7501
▁岱	-7502
▁崖	-7503
▁崛	-7504
▁嵩	-7505
▁巡	-7506
▁巧	-7507
▁帧	-7508
▁帽	-7509
▁幕	-7510
▁廉	-7511
▁弱	-7512
▁彬	-7513
▁扇	-7514
▁汤	-7515
▁畔	-7516
▁芍	-7517
▁谭	-7518
之友	-7519
之大	-7520
吴宗	-7521
场等	-7522
屡屡	-7523
常地	-7524
废气	-7525
开来	-7526
春事	-7527
神妙	-7528
笔画	-7529
第三	-7530
箴等	-7531
美学	-7532
运到	-7533
▁一式	-7534
▁下调	-7535
▁中西	-7536
▁五条	-7537
▁亚太	-7538
▁今晚	-7539
▁传出	-7540
▁几手	-7541
▁凯旋	-7542
▁十几	-7543
▁南省	-7544
▁号称	-7545
▁唱起	-7546
▁多样	-7547
▁大庆	-7548
▁夹雪	-7549
▁好好	-7550
▁尾气	-7551
▁屡屡	-7552
▁崛起	-7553
▁嵩周	-7554
▁巧妙	-7555
▁帽子	-7556
▁幕前	-7557
▁年纪	-7558
▁废气	-7559
▁我建	-7560
▁战车	-7561
▁文丛	-7562
▁欠账	-7563
▁法特	-7564
▁窗框	-7565
▁等待	-7566
▁脚步	-7567
▁腮壳	-7568
▁芍药	-7569
▁门下	-7570
▁雪洗	-7571
之大都	-7572
▁不能不	-7573
▁专业村	-7574
▁专家所	-7575
▁专程从	-7576
▁专访时	-7577
▁世界第	-7578
▁世界级	-7579
▁世间最	-7580
▁丛书内	-7581
▁东部及	-7582
▁东部将	-7583
▁个富国	-7584
▁中央还	-7585
▁中每篇	-7586
▁中秋节	-7587
▁中美洲	-7588
▁临之际	-7589
▁临川市	-7590
▁临终前	-7591
▁主城区	-7592
▁主席对	-7593
▁主席李	-7594
▁举行罗	-7595
▁久不衰	-7596
▁之外我	-7597
▁之年仅	-7598
▁之间以	-7599
▁奴	-7600
▁娓	-7601
▁媳	-7602
▁孚	-7603
▁孝	-7604
▁宝	-7605
▁寨	-7606
▁尖	-7607
▁尘	-7608
▁尺	-7609
▁帜	-7610
▁晓	-7611
▁菠	-7612
▁锻	-7613
▁闸	-7614
▁顾	-7615
不染	-7616
奏感	-7617
嫁给	-7618
射下	-7619
市民	-7620
扎户	-7621
扫除	-7622
新老	-7623
羊肉	-7624
议都	-7625
问暖	-7626
面时	-7627
▁一床	-7628
▁一连	-7629
▁万县	-7630
▁人畜	-7631
▁今人	-7632
▁代人	-7633
▁们各	-7634
▁们还	-7635
▁功臣	-7636
▁厚度	-7637
▁回音	-7638
▁围住	-7639
▁奴役	-7640
▁娓娓	-7641
▁媳妇	-7642
▁嫁给	-7643
▁孝通	-7644
▁学诚	-7645
▁宝贵	-7646
▁寄寓	-7647
▁寨沟	-7648
▁射下	-7649
▁尖锐	-7650
▁尤具	-7651
▁尺寸	-7652
▁归航	-7653
▁必如	-7654
▁扫除	-7655
▁无非	-7656
▁晓颜	-7657
▁更不	-7658
▁法制	-7659
▁涉足	-7660
▁深色	-7661
▁游首	-7662
▁生平	-7663
▁益者	-7664
▁看做	-7665
▁看管	-7666
▁童稚	-7667
▁菠菜	-7668
▁记住	-7669
▁跳出	-7670
▁锻炼	-7671
▁长跑	-7672
▁降落	-7673
会议都	-7674
城市民	-7675
▁三年内	-7676
▁之间既	-7677
▁之际由	-7678
▁乐队由	-7679
▁九世纪	-7680
▁习惯于	-7681
▁乡镇以	-7682
▁乡镇对	-7683
▁书立传	-7684
▁书籍等	-7685
▁书记黄	-7686
▁事故中	-7687
▁二等功	-7688
▁于今天	-7689
▁云岩区	-7690
▁产值超	-7691
▁产党人	-7692
▁产量逾	-7693
▁人们对	-7694
▁人们用	-7695
▁人口占	-7696
▁人员中	-7697
▁人员到	-7698
▁人员对	-7699
36	-7700
▁刊	-7701
▁呕	-7702
▁咨	-7703
▁哀	-7704
▁哄	-7705
▁哩	-7706
▁喻	-7707
▁嘱	-7708
▁址	-7709
▁坡	-7710
▁垃	-7711
▁垠	-7712
▁埃	-7713
▁堑	-7714
▁箫	-7715
▁误	-7716
▁赴	-7717
▁铭	-7718
▁鞋	-7719
上看	-7720
南街	-7721
叫刘	-7722
呼声	-7723
喧天	-7724
垂直	-7725
垄断	-7726
堂皇	-7727
声中	-7728
夜晚	-7729
宗对	-7730
房里	-7731
洁地	-7732
谱先	-7733
136	-7734
▁85	-7735
▁一书	-7736
▁不上	-7737
▁刊登	-7738
▁动感	-7739
▁发点	-7740
▁叫我	-7741
▁台商	-7742
▁名村	-7743
▁咨询	-7744
▁哀乐	-7745
▁哄抬	-7746
▁喧天	-7747
▁喻广	-7748
▁嘱托	-7749
▁困户	-7750
▁坡陡	-7751
▁垂直	-7752
▁垃圾	-7753
▁垄断	-7754
▁埃及	-7755
▁堂皇	-7756
▁大县	-7757
▁康生	-7758
▁怀里	-7759
▁情却	-7760
▁拖欠	-7761
▁挣一	-7762
▁武陟	-7763
▁民乐	-7764
▁气体	-7765
▁深远	-7766
▁精炼	-7767
▁经国	-7768
▁聚力	-7769
▁讯海	-7770
▁误差	-7771
▁足比	-7772
▁高明	-7773
镇南街	-7774
▁302	-7775
▁85.	-7776
▁一书中	-7777
▁一宗对	-7778
▁中华总	-7779
▁人士共	-7780
▁人士詹	-7781
▁人数逾	-7782
▁人民之	-7783
▁人民币	-7784
▁人民布	-7785
▁人民应	-7786
▁人民致	-7787
▁今后更	-7788
▁仍不顾	-7789
▁代妈妈	-7790
▁代表她	-7791
▁代表秦	-7792
▁令观者	-7793
▁以一首	-7794
▁以下无	-7795
▁以军从	-7796
▁以农业	-7797
▁以加快	-7798
▁以大办	-7799
14	-7800
▁劫	-7801
▁勉	-7802
▁勘	-7803
▁勾	-7804
▁匆	-7805
▁卿	-7806
▁厌	-7807
▁澈	-7808
▁甫	-7809
▁申	-7810
▁穆	-7811
▁绪	-7812
▁肿	-7813
▁邱	-7814
之余	-7815
劲儿	-7816
匠心	-7817
卧山	-7818
叩击	-7819
叫我	-7820
号码	-7821
委等	-7822
得散	-7823
旁观	-7824
材于	-7825
步从	-7826
珊瑚	-7827
糊地	-7828
▁一会	-7829
▁一笔	-7830
▁不妨	-7831
▁专以	-7832
▁中版	-7833
▁侠骨	-7834
▁入秋	-7835
▁前启	-7836
▁劲儿	-7837
▁勉励	-7838
▁勘探	-7839
▁勾起	-7840
▁匆匆	-7841
▁匠心	-7842
▁卧山	-7843
▁厌倦	-7844
▁发乎	-7845
▁叩击	-7846
▁司法	-7847
▁土建	-7848
▁场路	-7849
▁多吨	-7850
▁大片	-7851
▁天气	-7852
▁奋起	-7853
▁寂静	-7854
▁巴嘎	-7855
▁应征	-7856
▁性格	-7857
▁支撑	-7858
▁朱德	-7859
▁梁山	-7860
▁灭菌	-7861
▁珊瑚	-7862
▁申请	-7863
▁百米	-7864
▁目礼	-7865
▁经社	-7866
▁舞台	-7867
▁要去	-7868
▁那些	-7869
▁野火	-7870
▁阔别	-7871
之余还	-7872
得散文	-7873
▁0.6	-7874
▁964	-7875
▁一会儿	-7876
▁以当地	-7877
▁以形式	-7878
▁以往对	-7879
▁以探索	-7880
▁以来一	-7881
▁以来由	-7882
▁以美国	-7883
▁以街办	-7884
▁仪式后	-7885
▁仪式由	-7886
▁们之中	-7887
▁们先后	-7888
▁们实施	-7889
▁们采取	-7890
▁件事我	-7891
▁价格便	-7892
▁任何人	-7893
▁企业化	-7894
▁企业等	-7895
▁伊始刊	-7896
▁优先向	-7897
▁会员国	-7898
▁会形成	-7899
▁俱	-7900
▁倔	-7901
▁候	-7902
▁倪	-7903
▁僧	-7904
▁僵	-7905
▁儒	-7906
▁免	-7907
▁兰	-7908
▁凤	-7909
▁判	-7910
▁剑	-7911
▁剪	-7912
▁劈	-7913
▁劣	-7914
▁咏	-7915
▁嘹	-7916
▁娶	-7917
▁帐	-7918
▁掏	-7919
▁衍	-7920
▁跟	-7921
▁邹	-7922
俯贻	-7923
分都	-7924
削减	-7925
厚型	-7926
怒火	-7927
收拾	-7928
武安	-7929
理兼	-7930
翁达	-7931
茄子	-7932
▁38	-7933
▁一例	-7934
▁一月	-7935
▁三只	-7936
▁下三	-7937
▁乌黑	-7938
▁代客	-7939
▁俯贻	-7940
▁倔强	-7941
▁僵硬	-7942
▁免费	-7943
▁全飞	-7944
▁关天	-7945
▁判断	-7946
▁削减	-7947
▁剩余	-7948
▁剪纸	-7949
▁劈成	-7950
▁加达	-7951
▁劣势	-7952
▁嘹亮	-7953
▁多户	-7954
▁大厦	-7955
▁子孙	-7956
▁岁首	-7957
▁巨型	-7958
▁帐内	-7959
▁应收	-7960
▁弦乐	-7961
▁怒火	-7962
▁总体	-7963
▁懈怠	-7964
▁战火	-7965
▁文之	-7966
▁歧异	-7967
▁治学	-7968
▁环保	-7969
▁经贸	-7970
▁翁达	-7971
▁茄子	-7972
▁荒滩	-7973
▁观象	-7974
▁论今	-7975
▁该国	-7976
▁跟不	-7977
▁还未	-7978
▁重返	-7979
▁问暖	-7980
▁需个	-7981
▁鱼以	-7982
▁龙说	-7983
堂收拾	-7984
▁105	-7985
▁代客对	-7986
▁伟大而	-7987
▁传记而	-7988
▁伤亡者	-7989
▁似路人	-7990
▁但一个	-7991
▁但当她	-7992
▁住址及	-7993
▁体系使	-7994
▁何况要	-7995
▁作品每	-7996
▁作家们	-7997
▁作战略	-7998
▁作者将	-7999
▁亏	-8000
▁仔	-8001
▁伏	-8002
▁估	-8003
▁侧	-8004
▁俏	-8005
▁励	-8006
▁嘘	-8007
▁岂	-8008
▁径	-8009
▁患	-8010
▁漓	-8011
▁裁	-8012
▁铣	-8013
▁错	-8014
亦会	-8015
代代	-8016
兵学	-8017
四座	-8018
城县	-8019
夜却	-8020
改革	-8021
求从	-8022
流量	-8023
疫病	-8024
锣鼓	-8025
阳区	-8026
鲜菜	-8027
▁一架	-8028
▁东海	-8029
▁二亿	-8030
▁亏字	-8031
▁亦会	-8032
▁仔猪	-8033
▁估计	-8034
▁侧目	-8035
▁保健	-8036
▁共产	-8037
▁利率	-8038
▁十下	-8039
▁后世	-8040
▁后找	-8041
▁困苦	-8042
▁大都	-8043
▁天荒	-8044
▁太好	-8045
▁奇士	-8046
▁她说	-8047
▁实深	-8048
▁年中	-8049
▁引入	-8050
▁救国	-8051
▁时时	-8052
▁活页	-8053
▁漓江	-8054
▁疫病	-8055
▁矿工	-8056
▁种田	-8057
▁租车	-8058
▁而农	-8059
▁职业	-8060
▁英台	-8061
▁裁军	-8062
▁设立	-8063
▁送上	-8064
▁锣鼓	-8065
▁鲶鱼	-8066
▁齐下	-8067
▁一改革	-8068
▁丝毫减	-8069
▁交城县	-8070
▁亦会较	-8071
▁产鲜菜	-8072
▁人流量	-8073
▁今夜却	-8074
▁令四座	-8075
▁你们所	-8076
▁使一些	-8077
▁使我们	-8078
▁供求从	-8079
▁依法治	-8080
▁侠骨恐	-8081
▁保持国	-8082
▁保险金	-8083
▁保障金	-8084
▁元旦前	-8085
▁元月份	-8086
▁充分地	-8087
▁先进党	-8088
▁先进村	-8089
▁光辉战	-8090
▁克林顿	-8091
▁兑成新	-8092
▁兑换新	-8093
▁党派爱	-8094
▁全国性	-8095
▁全球化	-8096
▁全飞行	-8097
▁公司对	-8098
▁公司里	-8099
▁丈	-8100
▁乘	-8101
▁怕	-8102
▁惬	-8103
▁肥	-8104
▁薄	-8105
▁豁	-8106
▁鉴	-8107
▁黔	-8108
一家	-8109
一派	-8110
一直	-8111
上村	-8112
中最	-8113
主导	-8114
之外	-8115
之重	-8116
人龙	-8117
冶镇	-8118
区按	-8119
厂等	-8120
夫高	-8121
巾帕	-8122
拢嘴	-8123
望您	-8124
海拔	-8125
自禁	-8126
高峰	-8127
鲫鱼	-8128
▁一对	-8129
▁之例	-8130
▁之声	-8131
▁内话	-8132
▁几句	-8133
▁南下	-8134
▁国徽	-8135
▁基层	-8136
▁大至	-8137
▁如泉	-8138
▁定居	-8139
▁少儿	-8140
▁展览	-8141
▁巾帕	-8142
▁平时	-8143
▁惬意	-8144
▁房门	-8145
▁攻读	-8146
▁放宽	-8147
▁放电	-8148
▁无人	-8149
▁构筑	-8150
▁水围	-8151
▁洪涝	-8152
▁消费	-8153
▁版本	-8154
▁电源	-8155
▁相似	-8156
▁经受	-8157
▁而亡	-8158
▁蕴藉	-8159
▁薄雾	-8160
▁补偿	-8161
▁豁达	-8162
▁转弯	-8163
▁过上	-8164
▁途径	-8165
▁雨雪	-8166
▁鲁迅	-8167
▁鲫鱼	-8168
▁黔江	-8169
夫高丽	-8170
成人龙	-8171
自禁地	-8172
▁一对四	-8173
▁一高峰	-8174
▁万望您	-8175
▁上冶镇	-8176
▁不拢嘴	-8177
▁中之重	-8178
▁八年将	-8179
▁公园内	-8180
▁六年来	-8181
▁关天培	-8182
▁关念于	-8183
▁关税区	-8184
▁关系中	-8185
▁关系像	-8186
▁兵书可	-8187
▁其以北	-8188
▁其做法	-8189
▁其总额	-8190
▁其爪部	-8191
▁养殖户	-8192
▁内斯堡	-8193
▁军事家	-8194
▁军人那	-8195
▁军重新	-8196
▁农业部	-8197
▁农垦局	-8198
▁农民乐	-8199
27	-8200
30	-8201
▁‰	-8202
▁债	-8203
▁讴	-8204
▁郭	-8205
▁阖	-8206
余万	-8207
余部	-8208
分田	-8209
受损	-8210
只手	-8211
各界	-8212
多亩	-8213
大学	-8214
家庭	-8215
年后	-8216
年岁	-8217
日晚	-8218
脚下	-8219
节目	-8220
谈到	-8221
▁一半	-8222
▁七个	-8223
▁不乏	-8224
▁两台	-8225
▁之材	-8226
▁什上	-8227
▁以免	-8228
▁俄中	-8229
▁债务	-8230
▁决堤	-8231
▁别要	-8232
▁功过	-8233
▁只见	-8234
▁可到	-8235
▁台澎	-8236
▁喝彩	-8237
▁国界	-8238
▁大专	-8239
▁大明	-8240
▁太阳	-8241
▁套间	-8242
▁强者	-8243
▁怀抱	-8244
▁旅客	-8245
▁时不	-8246
▁本领	-8247
▁气势	-8248
▁洁净	-8249
▁游历	-8250
▁疏导	-8251
▁竟沾	-8252
▁粗茶	-8253
▁考验	-8254
▁蔚成	-8255
▁讴歌	-8256
▁遗产	-8257
▁部书	-8258
▁金石	-8259
▁金龙	-8260
▁钻石	-8261
▁阖家	-8262
▁非同	-8263
年岁末	-8264
▁427	-8265
▁一分田	-8266
▁不会像	-8267
▁令禁止	-8268
▁冬寒爱	-8269
▁决定于	-8270
▁决定从	-8271
▁决定向	-8272
▁决定将	-8273
▁冷峻来	-8274
▁冷空气	-8275
▁凝聚力	-8276
▁几天前	-8277
▁凯旋门	-8278
▁凸现出	-8279
▁出乎白	-8280
▁出版受	-8281
▁出版界	-8282
▁出生率	-8283
▁出租给	-8284
▁刃而解	-8285
▁分别到	-8286
▁分别占	-8287
▁分别将	-8288
▁切换出	-8289
▁划分都	-8290
▁刘华清	-8291
▁创作而	-8292
▁判断其	-8293
▁利益及	-8294
▁制度化	-8295
▁制度及	-8296
▁前胸袋	-8297
▁剑武安	-8298
▁副主任	-8299
▁况	-8300
▁叔	-8301
▁朴	-8302
▁皎	-8303
▁秤	-8304
之快	-8305
公德	-8306
州市	-8307
年内	-8308
清偿	-8309
终始	-8310
美术	-8311
迪凯	-8312
▁5.	-8313
▁一旁	-8314
▁一曲	-8315
▁上对	-8316
▁下设	-8317
▁不到	-8318
▁东京	-8319
▁乎情	-8320
▁以方	-8321
▁况下	-8322
▁几只	-8323
▁击机	-8324
▁发言	-8325
▁各业	-8326
▁后于	-8327
▁固众	-8328
▁土上	-8329
▁多岁	-8330
▁审验	-8331
▁尼国	-8332
▁州市	-8333
▁待到	-8334
▁思潮	-8335
▁所未	-8336
▁挤入	-8337
▁振作	-8338
▁数度	-8339
▁明亮	-8340
▁景点	-8341
▁朴实	-8342
▁棚内	-8343
▁比如	-8344
▁比拉	-8345
▁汉子	-8346
▁畅通	-8347
▁白昼	-8348
▁直观	-8349
▁看看	-8350
▁确定	-8351
▁租金	-8352
▁结对	-8353
▁继光	-8354
▁苦乐	-8355
▁街区	-8356
▁警力	-8357
▁评价	-8358
▁车上	-8359
▁轨迹	-8360
▁辖市	-8361
▁过多	-8362
▁近人	-8363
▁还会	-8364
▁迪凯	-8365
▁里面	-8366
▁首肯	-8367
▁鲁番	-8368
年大旱	-8369
▁一曲曲	-8370
▁万多人	-8371
▁办公室	-8372
▁办公楼	-8373
▁加厚型	-8374
▁加现行	-8375
▁动员会	-8376
▁努力下	-8377
▁勒斯坦	-8378
▁区域化	-8379
▁十二个	-8380
▁十八个	-8381
▁十几亩	-8382
▁十多个	-8383
▁千万万	-8384
▁千万元	-8385
▁千斤县	-8386
▁卉时能	-8387
▁半年大	-8388
▁半数县	-8389
▁华社电	-8390
▁协会向	-8391
▁协调员	-8392
▁南两国	-8393
▁南京市	-8394
▁南疆闻	-8395
▁博物馆	-8396
▁卡比拉	-8397
▁卢布开	-8398
▁卫国旗	-8399
▁抒	-8400
▁氤	-8401
▁皆	-8402
▁盖	-8403
▁萌	-8404
▁贞	-8405
万亩	-8406
世界	-8407
全长	-8408
各种	-8409
天到	-8410
川籍	-8411
慷慨	-8412
日向	-8413
月号	-8414
涨到	-8415
理论	-8416
甜蜜	-8417
问小	-8418
▁一束	-8419
▁两人	-8420
▁两会	-8421
▁余种	-8422
▁作主	-8423
▁停云	-8424
▁共度	-8425
▁其史	-8426
▁其把	-8427
▁出边	-8428
▁分钟	-8429
▁切入	-8430
▁初见	-8431
▁勒比	-8432
▁南北	-8433
▁发组	-8434
▁哈顿	-8435
▁均已	-8436
▁增上	-8437
▁墨耘	-8438
▁大胆	-8439
▁学员	-8440
▁实意	-8441
▁小麦	-8442
▁建谁	-8443
▁待中	-8444
▁慰藉	-8445
▁慷慨	-8446
▁才会	-8447
▁披露	-8448
▁提醒	-8449
▁握住	-8450
▁文章	-8451
▁氤氲	-8452
▁浪屿	-8453
▁涨到	-8454
▁清理	-8455
▁漾起	-8456
▁版界	-8457
▁盖得	-8458
▁秋生	-8459
▁职志	-8460
▁胡老	-8461
▁色便	-8462
▁萌生	-8463
▁表述	-8464
▁西姆	-8465
▁要素	-8466
▁让我	-8467
▁请去	-8468
▁选手	-8469
▁长山	-8470
▁领看	-8471
不懂得	-8472
本川籍	-8473
▁160	-8474
▁一定能	-8475
▁一束束	-8476
▁二道河	-8477
▁人问小	-8478
▁俗文化	-8479
▁养殖等	-8480
▁利税超	-8481
▁千万年	-8482
▁印象使	-8483
▁危机中	-8484
▁历史感	-8485
▁原子以	-8486
▁县乡抓	-8487
▁县长韩	-8488
▁双民张	-8489
▁反对将	-8490
▁发主导	-8491
▁发展上	-8492
▁发展中	-8493
▁发放到	-8494
▁发组织	-8495
▁发菜从	-8496
▁发行已	-8497
▁发行量	-8498
▁发运到	-8499
▁坦	-8500
▁够	-8501
▁荆	-8502
▁觅	-8503
▁赛	-8504
▁韦	-8505
一期	-8506
多画	-8507
局一	-8508
捐赠	-8509
画集	-8510
称谓	-8511
筛选	-8512
繁森	-8513
见其	-8514
难度	-8515
▁93	-8516
▁一见	-8517
▁上任	-8518
▁上述	-8519
▁不掉	-8520
▁不远	-8521
▁们于	-8522
▁们派	-8523
▁信中	-8524
▁修路	-8525
▁倾向	-8526
▁催还	-8527
▁全加	-8528
▁六色	-8529
▁写作	-8530
▁单独	-8531
▁历来	-8532
▁及其	-8533
▁坦率	-8534
▁壮士	-8535
▁实体	-8536
▁将帅	-8537
▁尊严	-8538
▁小到	-8539
▁已由	-8540
▁年内	-8541
▁心扉	-8542
▁情怀	-8543
▁户抓	-8544
▁披红	-8545
▁明南	-8546
▁服役	-8547
▁模糊	-8548
▁洁白	-8549
▁热络	-8550
▁煤气	-8551
▁爱孙	-8552
▁版式	-8553
▁相同	-8554
▁筛选	-8555
▁美洲	-8556
▁花蕾	-8557
▁荆轲	-8558
▁血病	-8559
▁觉行	-8560
▁触及	-8561
▁近乎	-8562
▁通航	-8563
▁韦耀	-8564
▁风光	-8565
书画集	-8566
▁上海看	-8567
▁个称谓	-8568
▁作品不	-8569
▁全加各	-8570
▁其冲者	-8571
▁北京城	-8572
▁取材于	-8573
▁取舍上	-8574
▁另一个	-8575
▁另一位	-8576
▁只要先	-8577
▁可以使	-8578
▁可看到	-8579
▁台柱上	-8580
▁台湾才	-8581
▁史而不	-8582
▁史育人	-8583
▁各地及	-8584
▁各地对	-8585
▁合作经	-8586
▁合格后	-8587
▁合江县	-8588
▁同学们	-8589
▁同文物	-8590
▁同时向	-8591
▁同时对	-8592
▁同时我	-8593
▁同样重	-8594
▁后一天	-8595
▁吐乌大	-8596
▁含糊地	-8597
▁吸引人	-8598
▁品房里	-8599
7.	-8600
▁吉	-8601
▁慧	-8602
▁舰	-8603
▁踢	-8604
一批	-8605
两年	-8606
仍然	-8607
兴国	-8608
天津	-8609
媒人	-8610
年前	-8611
往地	-8612
枚举	-8613
特点	-8614
理罗	-8615
经院	-8616
缝制	-8617
▁下个	-8618
▁中小	-8619
▁举止	-8620
▁之初	-8621
▁九五	-8622
▁产后	-8623
▁伴舞	-8624
▁佳肴	-8625
▁关根	-8626
▁功能	-8627
▁加油	-8628
▁厦门	-8629
▁发育	-8630
▁名气	-8631
▁国事	-8632
▁图案	-8633
▁壮年	-8634
▁天明	-8635
▁女性	-8636
▁完毕	-8637
▁小钱	-8638
▁巴嫩	-8639
▁币值	-8640
▁幅度	-8641
▁征服	-8642
▁所选	-8643
▁打扫	-8644
▁把大	-8645
▁新优	-8646
▁杨村	-8647
▁枚举	-8648
▁概算	-8649
▁法语	-8650
▁短诗	-8651
▁禁令	-8652
▁签约	-8653
▁续性	-8654
▁缝制	-8655
▁肉猪	-8656
▁舰队	-8657
▁荡荡	-8658
▁营造	-8659
▁词中	-8660
▁该省	-8661
▁起便	-8662
▁运成	-8663
▁道涵	-8664
▁集聚	-8665
▁鼓掌	-8666
媒人士	-8667
▁事务中	-8668
▁使人们	-8669
▁其特点	-8670
▁军事性	-8671
▁南非各	-8672
▁印经院	-8673
▁哈蒂尔	-8674
▁响应江	-8675
▁唱家郑	-8676
▁善小莫	-8677
▁四川籍	-8678
▁回家乡	-8679
▁回归后	-8680
▁回忆起	-8681
▁因此而	-8682
▁困难户	-8683
▁国两制	-8684
▁国会山	-8685
▁国家级	-8686
▁国民要	-8687
▁国道网	-8688
▁国防部	-8689
▁国首任	-8690
▁图书奖	-8691
▁图谱先	-8692
▁圣洁地	-8693
▁地图上	-8694
▁地方则	-8695
▁地看到	-8696
▁坚持以	-8697
▁坦率地	-8698
▁坪上村	-8699
24	-8700
▁傍	-8701
▁扰	-8702
▁汀	-8703
▁瑰	-8704
▁甜	-8705
▁雁	-8706
三个	-8707
三年	-8708
北大	-8709
北部	-8710
多次	-8711
底上	-8712
意到	-8713
斤斗	-8714
映月	-8715
月底	-8716
洲村	-8717
百亩	-8718
走向	-8719
辟出	-8720
长率	-8721
▁.1	-8722
▁一天	-8723
▁一遍	-8724
▁上班	-8725
▁两项	-8726
▁五十	-8727
▁亩产	-8728
▁人师	-8729
▁伟长	-8730
▁侨情	-8731
▁偿债	-8732
▁击中	-8733
▁单一	-8734
▁卡特	-8735
▁只选	-8736
▁吨粮	-8737
▁周强	-8738
▁味道	-8739
▁外运	-8740
▁大风	-8741
▁学人	-8742
▁小已	-8743
▁开会	-8744
▁征战	-8745
▁悠扬	-8746
▁手心	-8747
▁扮得	-8748
▁担子	-8749
▁斤斗	-8750
▁显现	-8751
▁曲折	-8752
▁未曾	-8753
▁机地	-8754
▁杭州	-8755
▁正如	-8756
▁此事	-8757
▁游览	-8758
▁猪肉	-8759
▁瑰丽	-8760
▁短期	-8761
▁答应	-8762
▁美来	-8763
▁考察	-8764
▁而去	-8765
▁要给	-8766
▁财团	-8767
▁贴息	-8768
▁赫然	-8769
▁走上	-8770
▁赶来	-8771
▁辟出	-8772
▁遥远	-8773
▁锋等	-8774
▁首期	-8775
▁不可少	-8776
▁两三年	-8777
▁五中学	-8778
▁修水利	-8779
▁创利润	-8780
▁十多次	-8781
▁反对对	-8782
▁商场及	-8783
▁城里人	-8784
▁培育成	-8785
▁基本法	-8786
▁基础而	-8787
▁墙上写	-8788
▁增长到	-8789
▁处于不	-8790
▁处理伊	-8791
▁复一日	-8792
▁外环线	-8793
▁多世纪	-8794
▁多少人	-8795
▁多方面	-8796
▁多极化	-8797
▁多架次	-8798
▁多瑙河	-8799
▁倍	-8800
▁念	-8801
▁芙	-8802
▁邦	-8803
万人	-8804
下把	-8805
不住	-8806
佳节	-8807
师李	-8808
广泛	-8809
弊端	-8810
特区	-8811
生林	-8812
考古	-8813
评论	-8814
▁40	-8815
▁万亿	-8816
▁不要	-8817
▁丝笼	-8818
▁交谈	-8819
▁人翁	-8820
▁做得	-8821
▁共唱	-8822
▁共性	-8823
▁再版	-8824
▁分享	-8825
▁划入	-8826
▁列队	-8827
▁割机	-8828
▁动憬	-8829
▁医学	-8830
▁发布	-8831
▁合法	-8832
▁响起	-8833
▁央行	-8834
▁安徽	-8835
▁干局	-8836
▁弊端	-8837
▁情结	-8838
▁拓展	-8839
▁新党	-8840
▁新华	-8841
▁树干	-8842
▁梅花	-8843
▁气息	-8844
▁江上	-8845
▁浩瀚	-8846
▁深情	-8847
▁游玩	-8848
▁溪流	-8849
▁灵灵	-8850
▁熟悉	-8851
▁窥破	-8852
▁竞相	-8853
▁笑语	-8854
▁组部	-8855
▁经纬	-8856
▁耳闻	-8857
▁至第	-8858
▁芙蓉	-8859
▁花鸟	-8860
▁蒙山	-8861
▁行车	-8862
▁装车	-8863
▁订阅	-8864
▁论断	-8865
▁进军	-8866
▁都只	-8867
▁重奏	-8868
▁金额	-8869
▁阵容	-8870
▁除非	-8871
▁雨滴	-8872
▁首歌	-8873
▁高速	-8874
▁一次去	-8875
▁于一体	-8876
▁们广泛	-8877
▁到家看	-8878
▁医务室	-8879
▁历史学	-8880
▁大使把	-8881
▁大利亚	-8882
▁大厅时	-8883
▁大地震	-8884
▁大民族	-8885
▁大渡河	-8886
▁大箴等	-8887
▁天内将	-8888
▁天空中	-8889
▁太空车	-8890
▁夫妇及	-8891
▁失夜晚	-8892
▁失衡到	-8893
▁夺目地	-8894
▁奏华夏	-8895
▁套传记	-8896
▁女儿孔	-8897
▁女校长	-8898
▁女生们	-8899
▁俘	-8900
▁倦	-8901
▁凭	-8902
▁句	-8903
▁拆	-8904
▁皮	-8905
▁砂	-8906
▁秦	-8907
不足	-8908
华文	-8909
增加	-8910
将对	-8911
开馆	-8912
总统	-8913
我国	-8914
楼价	-8915
淮河	-8916
观念	-8917
▁一派	-8918
▁万水	-8919
▁不容	-8920
▁不禁	-8921
▁专卖	-8922
▁两斤	-8923
▁产前	-8924
▁传入	-8925
▁使得	-8926
▁供销	-8927
▁俘获	-8928
▁公平	-8929
▁冰雪	-8930
▁前夜	-8931
▁厂子	-8932
▁历算	-8933
▁受华	-8934
▁名贵	-8935
▁奖金	-8936
▁孙大	-8937
▁实效	-8938
▁宾馆	-8939
▁开罗	-8940
▁提炼	-8941
▁政要	-8942
▁文坛	-8943
▁松树	-8944
▁极端	-8945
▁楼价	-8946
▁淮河	-8947
▁狂泻	-8948
▁生涯	-8949
▁病而	-8950
▁益处	-8951
▁神州	-8952
▁税制	-8953
▁粮种	-8954
▁素描	-8955
▁美学	-8956
▁花卉	-8957
▁观火	-8958
▁论语	-8959
▁贴满	-8960
▁起火	-8961
▁车速	-8962
▁转岗	-8963
▁还原	-8964
▁重蹈	-8965
▁销毁	-8966
▁隔周	-8967
▁难逃	-8968
总统拉	-8969
▁代表性	-8970
▁伴随下	-8971
▁占地近	-8972
▁告后人	-8973
▁城乡游	-8974
▁她们向	-8975
▁如一盏	-8976
▁如果说	-8977
▁如泉涌	-8978
▁妇女连	-8979
▁妥善地	-8980
▁妻子王	-8981
▁始终把	-8982
▁姑妈听	-8983
▁委托给	-8984
▁子劲王	-8985
▁子女讲	-8986
▁孔玲郑	-8987
▁存量引	-8988
▁学术界	-8989
▁学校等	-8990
▁学者则	-8991
▁学者却	-8992
▁完成省	-8993
▁定会把	-8994
▁定能够	-8995
▁客人最	-8996
▁家可归	-8997
▁家庭等	-8998
▁家给我	-8999
▁戒	-9000
▁抱	-9001
▁瀑	-9002
▁算	-9003
▁臭	-9004
▁蕻	-9005
多处	-9006
枸杞	-9007
至地	-9008
良田	-9009
讲述	-9010
▁25	-9011
▁52	-9012
▁9·	-9013
▁一出	-9014
▁万篓	-9015
▁万缕	-9016
▁不明	-9017
▁中山	-9018
▁丰赡	-9019
▁举动	-9020
▁之忧	-9021
▁争相	-9022
▁人到	-9023
▁信女	-9024
▁初现	-9025
▁却由	-9026
▁发白	-9027
▁同业	-9028
▁圆润	-9029
▁大人	-9030
▁大早	-9031
▁宣部	-9032
▁家电	-9033
▁家里	-9034
▁寄些	-9035
▁小雨	-9036
▁开辟	-9037
▁强化	-9038
▁收录	-9039
▁数量	-9040
▁新李	-9041
▁旗猎	-9042
▁时无	-9043
▁时缺	-9044
▁景象	-9045
▁月饼	-9046
▁枸杞	-9047
▁民委	-9048
▁深重	-9049
▁渐渐	-9050
▁瀑布	-9051
▁爱情	-9052
▁生娃	-9053
▁盛满	-9054
▁知彼	-9055
▁突然	-9056
▁精巧	-9057
▁绿城	-9058
▁缩脚	-9059
▁美林	-9060
▁能人	-9061
▁要员	-9062
▁覆辙	-9063
▁证实	-9064
▁财经	-9065
▁跑后	-9066
▁身居	-9067
▁身手	-9068
▁车流	-9069
▁钢琴	-9070
▁阳能	-9071
▁靠办	-9072
▁题写	-9073
▁风暴	-9074
▁餐桌	-9075
▁骅钱	-9076
▁125	-9077
▁一支由	-9078
▁不至地	-9079
▁中山陵	-9080
▁孩子们	-9081
▁容量地	-9082
▁寒问暖	-9083
▁对待兴	-9084
▁寺庙里	-9085
▁导航等	-9086
▁封底上	-9087
▁尉健行	-9088
▁小伙子	-9089
▁小平等	-9090
▁小车辆	-9091
▁小金刚	-9092
▁尚未能	-9093
▁尤见其	-9094
▁尼北部	-9095
▁尽情地	-9096
▁局长何	-9097
▁层面上	-9098
▁居世界	-9099
▁吧	-9100
▁夸	-9101
▁尹	-9102
▁栖	-9103
▁阂	-9104
发展	-9105
妨碍	-9106
季花	-9107
小扎	-9108
散地	-9109
每天	-9110
瑶族	-9111
选出	-9112
首场	-9113
▁1%	-9114
▁不使	-9115
▁不曾	-9116
▁业者	-9117
▁书系	-9118
▁便缭	-9119
▁冷落	-9120
▁刘盛	-9121
▁创出	-9122
▁区位	-9123
▁十里	-9124
▁原理	-9125
▁发法	-9126
▁口径	-9127
▁召力	-9128
▁周边	-9129
▁复员	-9130
▁夸张	-9131
▁如不	-9132
▁妨碍	-9133
▁它最	-9134
▁定单	-9135
▁层次	-9136
▁帷幕	-9137
▁建厂	-9138
▁开口	-9139
▁开完	-9140
▁成份	-9141
▁承负	-9142
▁效率	-9143
▁敲定	-9144
▁文另	-9145
▁文崔	-9146
▁文风	-9147
▁日上	-9148
▁最强	-9149
▁极性	-9150
▁样上	-9151
▁此展	-9152
▁步高	-9153
▁每种	-9154
▁淡忘	-9155
▁深藏	-9156
▁瑶族	-9157
▁画出	-9158
▁磨破	-9159
▁礼堂	-9160
▁神态	-9161
▁窥寻	-9162
▁签定	-9163
▁线上	-9164
▁艾青	-9165
▁见度	-9166
▁订数	-9167
▁较大	-9168
▁通用	-9169
▁高潮	-9170
▁118	-9171
▁不断地	-9172
▁农业要	-9173
▁利用其	-9174
▁功之路	-9175
▁占全国	-9176
▁发言对	-9177
▁基斯坦	-9178
▁好奇心	-9179
▁居多数	-9180
▁居第三	-9181
▁屏不断	-9182
▁屏幕上	-9183
▁展望新	-9184
▁展示出	-9185
▁展翼之	-9186
▁山西省	-9187
▁岁月里	-9188
▁岁末到	-9189
▁工会对	-9190
▁工作中	-9191
▁工作都	-9192
▁工厂化	-9193
▁巧妙地	-9194
▁巨大成	-9195
▁巨大给	-9196
▁已患脑	-9197
▁巴黎人	-9198
▁市场对	-9199
▁暇	-9200
▁涛	-9201
▁猎	-9202
▁袱	-9203
▁辨	-9204
▁霞	-9205
塔内	-9206
曙色	-9207
▁个个	-9208
▁之急	-9209
▁交警	-9210
▁京沪	-9211
▁亲情	-9212
▁今日	-9213
▁伙子	-9214
▁体察	-9215
▁体态	-9216
▁值此	-9217
▁再累	-9218
▁几近	-9219
▁制裁	-9220
▁厂部	-9221
▁发强	-9222
▁变性	-9223
▁各方	-9224
▁同心	-9225
▁后人	-9226
▁听见	-9227
▁吸取	-9228
▁商联	-9229
▁善本	-9230
▁孙宝	-9231
▁开工	-9232
▁志摩	-9233
▁批小	-9234
▁拥护	-9235
▁敲响	-9236
▁曙色	-9237
▁木制	-9238
▁术馆	-9239
▁止最	-9240
▁毅然	-9241
▁每户	-9242
▁沉郁	-9243
▁狂跌	-9244
▁猎豹	-9245
▁益于	-9246
▁纯系	-9247
▁者必	-9248
▁花蕊	-9249
▁西南	-9250
▁论述	-9251
▁识别	-9252
▁财力	-9253
▁责制	-9254
▁轻松	-9255
▁选材	-9256
▁道来	-9257
▁钟情	-9258
▁面目	-9259
▁鸣亮	-9260
▁龙看	-9261
▁一封致	-9262
▁三元里	-9263
▁丛书及	-9264
▁两个月	-9265
▁交管局	-9266
▁以成功	-9267
▁制度等	-9268
▁前启后	-9269
▁前瓦村	-9270
▁区开局	-9271
▁原华安	-9272
▁四十余	-9273
▁图像来	-9274
▁土地时	-9275
▁导致不	-9276
▁工程谁	-9277
▁已超过	-9278
▁市政局	-9279
▁布局之	-9280
▁希望用	-9281
▁帮我们	-9282
▁常常要	-9283
▁干道上	-9284
▁平实地	-9285
▁平衡到	-9286
▁平衡等	-9287
▁年产值	-9288
▁年军校	-9289
▁年华会	-9290
▁年好运	-9291
▁年春事	-9292
▁年纪小	-9293
▁并购额	-9294
▁广场等	-9295
▁应当把	-9296
▁应当说	-9297
▁应该说	-9298
▁度佳节	-9299
▁哇	-9300
▁泾	-9301
▁漏	-9302
▁章	-9303
▁籍	-9304
▁赔	-9305
▁辆	-9306
▁霎	-9307
业务	-9308
团体	-9309
帝王	-9310
搁浅	-9311
物上	-9312
草原	-9313
饥饿	-9314
▁01	-9315
▁32	-9316
▁不瞒	-9317
▁主动	-9318
▁举起	-9319
▁付出	-9320
▁位中	-9321
▁俄工	-9322
▁元化	-9323
▁八个	-9324
▁再建	-9325
▁分厂	-9326
▁分点	-9327
▁制胜	-9328
▁办好	-9329
▁区分	-9330
▁去处	-9331
▁唱出	-9332
▁善良	-9333
▁场上	-9334
▁大关	-9335
▁大海	-9336
▁大雪	-9337
▁学精	-9338
▁市貌	-9339
▁帝王	-9340
▁床前	-9341
▁心声	-9342
▁掌握	-9343
▁接纳	-9344
▁搁浅	-9345
▁新业	-9346
▁新社	-9347
▁更好	-9348
▁朝鲁	-9349
▁朝鲜	-9350
▁柏油	-9351
▁此项	-9352
▁死板	-9353
▁民没	-9354
▁气流	-9355
▁海域	-9356
▁潮水	-9357
▁灵动	-9358
▁率达	-9359
▁电台	-9360
▁竞价	-9361
▁紧扣	-9362
▁组装	-9363
▁耳朵	-9364
▁航向	-9365
▁草原	-9366
▁行性	-9367
▁表率	-9368
▁视塔	-9369
▁诗人	-9370
▁购销	-9371
▁跨步	-9372
▁通报	-9373
▁长春	-9374
▁饥饿	-9375
▁饱含	-9376
贵乎理	-9377
▁两次改	-9378
▁举行以	-9379
▁乡冯湾	-9380
▁南京把	-9381
▁占领土	-9382
▁孔繁森	-9383
▁安排上	-9384
▁局长刘	-9385
▁座山雕	-9386
▁庭院里	-9387
▁建交前	-9388
▁建华等	-9389
▁建成并	-9390
▁建管用	-9391
▁建设等	-9392
▁开始以	-9393
▁开始便	-9394
▁开始向	-9395
▁开始对	-9396
▁开放近	-9397
▁异常地	-9398
▁弦乐团	-9399
▁串	-9400
▁勤	-9401
▁椅	-9402
▁衣	-9403
▁诉	-9404
▁锅	-9405
一块	-9406
一遍	-9407
佛经	-9408
同样	-9409
悲丧	-9410
若无	-9411
▁一辈	-9412
▁万没	-9413
▁不够	-9414
▁两半	-9415
▁中葡	-9416
▁主流	-9417
▁之河	-9418
▁之邀	-9419
▁云龙	-9420
▁京西	-9421
▁佛经	-9422
▁儿子	-9423
▁先民	-9424
▁军进	-9425
▁加到	-9426
▁动魄	-9427
▁启功	-9428
▁哲理	-9429
▁塘镇	-9430
▁奋翅	-9431
▁奶牛	-9432
▁如雪	-9433
▁学好	-9434
▁将使	-9435
▁建社	-9436
▁心态	-9437
▁必行	-9438
▁悲惨	-9439
▁才情	-9440
▁抓好	-9441
▁挺进	-9442
▁接见	-9443
▁摆弄	-9444
▁撰写	-9445
▁数万	-9446
▁数支	-9447
▁曹金	-9448
▁正确	-9449
▁烧伤	-9450
▁独奏	-9451
▁独资	-9452
▁留下	-9453
▁百名	-9454
▁省份	-9455
▁租赁	-9456
▁能买	-9457
▁行李	-9458
▁诉说	-9459
▁话说	-9460
▁赞叹	-9461
▁达拉	-9462
▁迈向	-9463
▁近地	-9464
▁魅力	-9465
▁下降达	-9466
▁公安交	-9467
▁共产党	-9468
▁历史性	-9469
▁原苏联	-9470
▁同南非	-9471
▁宣告以	-9472
▁家吃个	-9473
▁山脚下	-9474
▁形势下	-9475
▁形势将	-9476
▁形神妙	-9477
▁彩笔画	-9478
▁彭珮云	-9479
▁影响进	-9480
▁影视剧	-9481
▁往开来	-9482
▁待中央	-9483
▁很好地	-9484
▁得不到	-9485
▁得人们	-9486
▁微而弗	-9487
▁德吴宗	-9488
▁德烈斯	-9489
▁心把握	-9490
▁必须由	-9491
▁忍痛向	-9492
▁志华文	-9493
▁忘童年	-9494
▁总统令	-9495
▁总统卡	-9496
▁息支农	-9497
▁情况看	-9498
▁情地说	-9499
▁叱	-9500
▁圈	-9501
▁晴	-9502
▁榫	-9503
▁涣	-9504
▁渥	-9505
▁盈	-9506
▁脏	-9507
▁败	-9508
▁锐	-9509
年起	-9510
得到	-9511
捍卫	-9512
▁31	-9513
▁万千	-9514
▁下跌	-9515
▁之猛	-9516
▁以巴	-9517
▁住地	-9518
▁余台	-9519
▁兵役	-9520
▁冬泳	-9521
▁划外	-9522
▁十万	-9523
▁叱咤	-9524
▁哪里	-9525
▁图区	-9526
▁坚定	-9527
▁外贸	-9528
▁多么	-9529
▁大眼	-9530
▁奇计	-9531
▁学问	-9532
▁宏图	-9533
▁局限	-9534
▁常绿	-9535
▁态势	-9536
▁我把	-9537
▁扬水	-9538
▁拉尔	-9539
▁捍卫	-9540
▁援引	-9541
▁摸底	-9542
▁操作	-9543
▁改动	-9544
▁文盲	-9545
▁方位	-9546
▁暖流	-9547
▁更大	-9548
▁未建	-9549
▁本村	-9550
▁松等	-9551
▁榫卯	-9552
▁民意	-9553
▁注入	-9554
▁港九	-9555
▁珍把	-9556
▁留出	-9557
▁篇则	-9558
▁股票	-9559
▁舞团	-9560
▁要写	-9561
▁要问	-9562
▁誉满	-9563
▁证明	-9564
▁身穿	-9565
▁透露	-9566
▁锐利	-9567
▁阵子	-9568
▁随即	-9569
▁频繁	-9570
▁万吨阿	-9571
▁元月起	-9572
▁创办于	-9573
▁合唱团	-9574
▁善算者	-9575
▁地区时	-9576
▁它还会	-9577
▁定居点	-9578
▁密而不	-9579
▁尘不染	-9580
▁局限性	-9581
▁年轻女	-9582
▁情思中	-9583
▁情感分	-9584
▁情民意	-9585
▁惠讲述	-9586
▁感地震	-9587
▁慰问品	-9588
▁慰问团	-9589
▁戎同志	-9590
▁成功一	-9591
▁成功地	-9592
▁成员年	-9593
▁成群地	-9594
▁我们从	-9595
▁我们去	-9596
▁我们由	-9597
▁我们要	-9598
▁我好像	-9599
▁喊	-9600
▁宫	-9601
▁撒	-9602
▁狼	-9603
▁芜	-9604
▁魁	-9605
万枝	-9606
前去	-9607
同时	-9608
盛世	-9609
该人	-9610
▁	-9611
,	-9612
的	-9613
。	-9614
、	-9615
一	-9616
国	-9617
年	-9618
人	-9619
1	-9620
中	-9621
在	-9622
了	-9623
大	-9624
和	-9625
0	-9626
有	-9627
9	-9628
是	-9629
为	-9630
新	-9631
地	-9632
民	-9633
发	-9634
生	-9635
业	-9636
这	-9637
全	-9638
出	-9639
不	-9640
家	-9641
上	-9642
以	-9643
们	-9644
个	-9645
作	-9646
来	-9647
到	-9648
会	-9649
文	-9650
多	-9651
行	-9652
成	-9653
日	-9654
经	-9655
学	-9656
同	-9657
我	-9658
农	-9659
工	-9660
者	-9661
2	-9662
华	-9663
进	-9664
开	-9665
部	-9666
展	-9667
建	-9668
区	-9669
对	-9670
市	-9671
主	-9672
时	-9673
元	-9674
水	-9675
要	-9676
自	-9677
与	-9678
政	-9679
重	-9680
动	-9681
本	-9682
他	-9683
产	-9684
月	-9685
于	-9686
实	-9687
下	-9688
8	-9689
3	-9690
前	-9691
利	-9692
现	-9693
记	-9694
加	-9695
高	-9696
之	-9697
社	-9698
村	-9699
理	-9700
万	-9701
事	-9702
两	-9703
化	-9704
而	-9705
各	-9706
心	-9707
起	-9708
长	-9709
面	-9710
5	-9711
代	-9712
关	-9713
报	-9714
济	-9715
小	-9716
(	-9717
)	-9718
其	-9719
史	-9720
方	-9721
表	-9722
南	-9723
美	-9724
6	-9725
世	-9726
合	-9727
明	-9728
7	-9729
使	-9730
就	-9731
设	-9732
说	-9733
:	-9734
将	-9735
好	-9736
通	-9737
活	-9738
等	-9739
交	-9740
天	-9741
界	-9742
统	-9743
《	-9744
》	-9745
书	-9746
共	-9747
平	-9748
也	-9749
着	-9750
历	-9751
过	-9752
里	-9753
场	-9754
定	-9755
分	-9756
入	-9757
后	-9758
外	-9759
计	-9760
4	-9761
北	-9762
十	-9763
资	-9764
改	-9765
从	-9766
公	-9767
得	-9768
金	-9769
体	-9770
电	-9771
道	-9772
制	-9773
用	-9774
县	-9775
次	-9776
系	-9777
党	-9778
力	-9779
总	-9780
持	-9781
港	-9782
特	-9783
并	-9784
结	-9785
路	-9786
;	-9787
军	-9788
基	-9789
程	-9790
向	-9791
子	-9792
度	-9793
香	-9794
户	-9795
西	-9796
达	-9797
可	-9798
困	-9799
当	-9800
育	-9801
目	-9802
种	-9803
员	-9804
已	-9805
广	-9806
三	-9807
创	-9808
山	-9809
气	-9810
还	-9811
题	-9812
划	-9813
去	-9814
强	-9815
机	-9816
正	-9817
治	-9818
集	-9819
京	-9820
务	-9821
提	-9822
术	-9823
能	-9824
问	-9825
性	-9826
步	-9827
九	-9828
安	-9829
企	-9830
位	-9831
名	-9832
少	-9833
然	-9834
第	-9835
都	-9836
非	-9837
今	-9838
先	-9839
内	-9840
情	-9841
所	-9842
老	-9843
解	-9844
乡	-9845
导	-9846
版	-9847
立	-9848
精	-9849
联	-9850
及	-9851
品	-9852
府	-9853
收	-9854
江	-9855
门	-9856
间	-9857
委	-9858
意	-9859
无	-9860
法	-9861
乐	-9862
如	-9863
推	-9864
此	-9865
增	-9866
画	-9867
管	-9868
举	-9869
团	-9870
最	-9871
由	-9872
古	-9873
式	-9874
海	-9875
物	-9876
贫	-9877
.	-9878
战	-9879
图	-9880
更	-9881
难	-9882
些	-9883
保	-9884
放	-9885
样	-9886
论	-9887
革	-9888
传	-9889
形	-9890
把	-9891
相	-9892
近	-9893
城	-9894
布	-9895
组	-9896
车	-9897
领	-9898
群	-9899
际	-9900
首	-9901
义	-9902
五	-9903
点	-9904
节	-9905
协	-9906
岸	-9907
每	-9908
深	-9909
青	-9910
众	-9911
处	-9912
志	-9913
又	-9914
干	-9915
示	-9916
风	-9917
原	-9918
取	-9919
回	-9920
局	-9921
庆	-9922
张	-9923
投	-9924
祖	-9925
续	-9926
被	-9927
%	-9928
神	-9929
项	-9930
亿	-9931
决	-9932
厂	-9933
数	-9934
省	-9935
给	-9936
馆	-9937
优	-9938
台	-9939
应	-9940
引	-9941
想	-9942
据	-9943
服	-9944
条	-9945
田	-9946
纪	-9947
职	-9948
院	-9949
二	-9950
云	-9951
施	-9952
织	-9953
致	-9954
色	-9955
造	-9956
但	-9957
始	-9958
手	-9959
指	-9960
期	-9961
极	-9962
欢	-9963
比	-9964
流	-9965
演	-9966
队	-9967
坚	-9968
带	-9969
视	-9970
那	-9971
势	-9972
参	-9973
她	-9974
片	-9975
级	-9976
象	-9977
量	-9978
龙	-9979
东	-9980
思	-9981
支	-9982
族	-9983
环	-9984
益	-9985
盛	-9986
调	-9987
值	-9988
受	-9989
币	-9990
感	-9991
技	-9992
接	-9993
看	-9994
继	-9995
花	-9996
话	-9997
光	-9998
别	-9999
变	-10000
型	-10001
央	-10002
整	-10003
率	-10004
严	-10005
再	-10006
几	-10007
口	-10008
常	-10009
快	-10010
斯	-10011
望	-10012
祝	-10013
维	-10014
费	-10015
转	-10016
任	-10017
信	-10018
办	-10019
愿	-10020
效	-10021
认	-10022
音	-10023
头	-10024
格	-10025
艺	-10026
读	-10027
千	-10028
士	-10029
旦	-10030
果	-10031
百	-10032
直	-10033
真	-10034
积	-10035
选	-10036
亚	-10037
件	-10038
功	-10039
只	-10040
命	-10041
商	-10042
求	-10043
爱	-10044
空	-10045
良	-10046
英	-10047
议	-10048
写	-10049
卢	-10050
反	-10051
四	-10052
境	-10053
女	-10054
完	-10055
富	-10056
旗	-10057
林	-10058
知	-10059
至	-10060
藏	-10061
融	-10062
观	-10063
走	-10064
防	-10065
列	-10066
则	-10067
却	-10068
因	-10069
它	-10070
影	-10071
态	-10072
标	-10073
清	-10074
献	-10075
稳	-10076
考	-10077
规	-10078
身	-10079
迎	-10080
银	-10081
飞	-10082
专	-10083
兴	-10084
响	-10085
均	-10086
权	-10087
游	-10088
科	-10089
许	-10090
镇	-10091
降	-10092
马	-10093
做	-10094
八	-10095
助	-10096
双	-10097
己	-10098
德	-10099
李	-10100
温	-10101
类	-10102
讲	-10103
质	-10104
运	-10105
丛	-10106
争	-10107
切	-10108
归	-10109
往	-10110
拉	-10111
教	-10112
歌	-10113
没	-10114
源	-10115
王	-10116
见	-10117
边	-10118
连	-10119
兵	-10120
巴	-10121
彩	-10122
斗	-10123
确	-10124
航	-10125
评	-10126
钱	-10127
亩	-10128
况	-10129
副	-10130
域	-10131
夏	-10132
帮	-10133
必	-10134
扶	-10135
武	-10136
河	-10137
泽	-10138
满	-10139
略	-10140
础	-10141
笔	-10142
籍	-10143
编	-10144
货	-10145
?	-10146
俄	-10147
具	-10148
兼	-10149
友	-10150
告	-10151
园	-10152
存	-10153
才	-10154
景	-10155
研	-10156
究	-10157
红	-10158
线	-10159
装	-10160
识	-10161
额	-10162
供	-10163
努	-10164
升	-10165
半	-10166
川	-10167
很	-10168
护	-10169
故	-10170
款	-10171
照	-10172
脱	-10173
荣	-10174
街	-10175
该	-10176
责	-10177
七	-10178
价	-10179
减	-10180
周	-10181
善	-10182
复	-10183
尽	-10184
席	-10185
春	-10186
紧	-10187
罗	-10188
营	-10189
警	-10190
鲜	-10191
『	-10192
』	-10193
临	-10194
司	-10195
喜	-10196
夜	-10197
套	-10198
孙	-10199
庭	-10200
录	-10201
早	-10202
油	-10203
洲	-10204
球	-10205
米	-10206
繁	-10207
胞	-10208
范	-10209
谋	-10210
退	-10211
速	-10212
随	-10213
令	-10214
克	-10215
养	-10216
包	-10217
岁	-10218
扎	-10219
批	-10220
未	-10221
约	-10222
菜	-10223
著	-10224
谈	-10225
贺	-10226
较	-10227
远	-10228
雄	-10229
!	-10230
仅	-10231
何	-10232
依	-10233
刘	-10234
刻	-10235
占	-10236
印	-10237
声	-10238
孔	-10239
宁	-10240
密	-10241
尔	-10242
巨	-10243
念	-10244
慰	-10245
承	-10246
抓	-10247
摄	-10248
显	-10249
梁	-10250
注	-10251
火	-10252
热	-10253
落	-10254
证	-10255
采	-10256
驻	-10257
黄	-10258
午	-10259
土	-10260
奋	-10261
客	-10262
宣	-10263
尼	-10264
州	-10265
希	-10266
庄	-10267
底	-10268
或	-10269
曲	-10270
案	-10271
模	-10272
澳	-10273
激	-10274
称	-10275
终	-10276
贸	-10277
述	-10278
送	-10279
针	-10280
雨	-10281
震	-10282
鱼	-10283
份	-10284
伍	-10285
伟	-10286
健	-10287
儿	-10288
准	-10289
初	-10290
卡	-10291
召	-10292
容	-10293
曾	-10294
独	-10295
破	-10296
章	-10297
艰	-10298
访	-10299
负	-10300
阳	-10301
丽	-10302
乎	-10303
仪	-10304
低	-10305
便	-10306
卫	-10307
即	-10308
号	-10309
备	-10310
居	-10311
怀	-10312
按	-10313
挥	-10314
斤	-10315
断	-10316
晚	-10317
材	-10318
构	-10319
波	-10320
派	-10321
琛	-10322
禁	-10323
福	-10324
纷	-10325
购	-10326
贵	-10327
超	-10328
迹	-10329
雪	-10330
韩	-10331
么	-10332
亡	-10333
亲	-10334
仍	-10335
伤	-10336
促	-10337
典	-10338
冷	-10339
劳	-10340
围	-10341
塔	-10342
奇	-10343
座	-10344
康	-10345
排	-10346
探	-10347
控	-10348
烈	-10349
石	-10350
纳	-10351
聚	-10352
胡	-10353
让	-10354
讯	-10355
逐	-10356
销	-10357
·	-10358
住	-10359
侨	-10360
充	-10361
冬	-10362
夫	-10363
寒	-10364
察	-10365
息	-10366
散	-10367
映	-10368
智	-10369
查	-10370
汇	-10371
泾	-10372
状	-10373
珍	-10374
登	-10375
眼	-10376
素	-10377
署	-10378
背	-10379
舞	-10380
苦	-10381
茶	-10382
财	-10383
足	-10384
辉	-10385
验	-10386
刚	-10387
卖	-10388
危	-10389
吕	-10390
吸	-10391
字	-10392
徐	-10393
救	-10394
旧	-10395
根	-10396
死	-10397
段	-10398
消	-10399
湾	-10400
留	-10401
白	-10402
短	-10403
突	-10404
策	-10405
纸	-10406
胜	-10407
谁	-10408
邓	-10409
郑	-10410
阶	-10411
互	-10412
余	-10413
你	-10414
佳	-10415
兰	-10416
剧	-10417
勒	-10418
厚	-10419
唱	-10420
妇	-10421
幅	-10422
序	-10423
待	-10424
忘	-10425
恢	-10426
易	-10427
树	-10428
浩	-10429
瑞	-10430
粮	-10431
补	-10432
言	-10433
贷	-10434
轻	-10435
遗	-10436
陈	-10437
需	-10438
顿	-10439
齐	-10440
且	-10441
丰	-10442
修	-10443
停	-10444
像	-10445
勃	-10446
医	-10447
器	-10448
墨	-10449
太	-10450
层	-10451
担	-10452
拥	-10453
括	-10454
拿	-10455
振	-10456
措	-10457
敬	-10458
旅	-10459
暖	-10460
束	-10461
架	-10462
氛	-10463
焦	-10464
玉	-10465
索	-10466
荒	-10467
虽	-10468
觉	-10469
角	-10470
越	-10471
跨	-10472
追	-10473
阵	-10474
阿	-10475
限	-10476
食	-10477
丝	-10478
久	-10479
习	-10480
判	-10481
单	-10482
厅	-10483
叙	-10484
启	-10485
哈	-10486
失	-10487
官	-10488
审	-10489
律	-10490
怎	-10491
拍	-10492
捐	-10493
普	-10494
横	-10495
玲	-10496
班	-10497
甚	-10498
秀	-10499
筹	-10500
篇	-10501
置	-10502
股	-10503
蒙	-10504
誉	-10505
词	-10506
请	-10507
趋	-10508
辆	-10509
辞	-10510
适	-10511
遇	-10512
顺	-10513
须	-10514
鸣	-10515
丁	-10516
买	-10517
候	-10518
六	-10519
冲	-10520
博	-10521
另	-10522
呼	-10523
坦	-10524
奏	-10525
宾	-10526
属	-10527
峰	-10528
忧	-10529
房	-10530
托	-10531
扬	-10532
拓	-10533
挤	-10534
摆	-10535
料	-10536
既	-10537
星	-10538
朋	-10539
木	-10540
析	-10541
止	-10542
润	-10543
潮	-10544
爸	-10545
筑	-10546
纯	-10547
绍	-10548
绩	-10549
绿	-10550
耶	-10551
肉	-10552
舍	-10553
若	-10554
违	-10555
配	-10556
钟	-10557
闻	-10558
附	-10559
静	-10560
预	-10561
鼓	-10562
乌	-10563
什	-10564
介	-10565
伊	-10566
偏	-10567
击	-10568
右	-10569
坡	-10570
培	-10571
壮	-10572
夕	-10573
奶	-10574
岗	-10575
帜	-10576
征	-10577
恩	-10578
悲	-10579
惠	-10580
描	-10581
援	-10582
搞	-10583
朝	-10584
朱	-10585
松	-10586
殖	-10587
毛	-10588
泛	-10589
洁	-10590
浙	-10591
渐	-10592
湖	-10593
灵	-10594
煌	-10595
离	-10596
秦	-10597
税	-10598
竟	-10599
童	-10600
纽	-10601
综	-10602
脑	-10603
莫	-10604
萨	-10605
语	-10606
谓	-10607
谢	-10608
赞	-10609
跃	-10610
跑	-10611
载	-10612
透	-10613
雅	-10614
雷	-10615
休	-10616
伴	-10617
倡	-10618
凡	-10619
吨	-10620
听	-10621
圳	-10622
奖	-10623
妈	-10624
孤	-10625
尊	-10626
尤	-10627
届	-10628
左	-10629
差	-10630
师	-10631
扩	-10632
找	-10633
挑	-10634
换	-10635
授	-10636
摊	-10637
板	-10638
桑	-10639
欣	-10640
永	-10641
沙	-10642
渡	-10643
滨	-10644
灌	-10645
瓜	-10646
疆	-10647
病	-10648
监	-10649
盾	-10650
秩	-10651
穿	-10652
窗	-10653
签	-10654
简	-10655
耕	-10656
胀	-10657
脚	-10658
苏	-10659
获	-10660
蔬	-10661
血	-10662
衣	-10663
贡	-10664
赠	-10665
遍	-10666
键	-10667
阅	-10668
露	-10669
C	-10670
°	-10671
亮	-10672
劲	-10673
勇	-10674
叶	-10675
吁	-10676
吴	-10677
哲	-10678
喷	-10679
坝	-10680
妹	-10681
妻	-10682
季	-10683
孩	-10684
延	-10685
异	-10686
役	-10687
彻	-10688
循	-10689
忆	-10690
忠	-10691
悟	-10692
抗	-10693
拱	-10694
挂	-10695
播	-10696
敢	-10697
核	-10698
桥	-10699
概	-10700
氏	-10701
沧	-10702
沼	-10703
泰	-10704
涨	-10705
淡	-10706
渠	-10707
烂	-10708
烟	-10709
狂	-10710
矛	-10711
秋	-10712
租	-10713
站	-10714
竞	-10715
细	-10716
缓	-10717
羊	-10718
翻	-10719
般	-10720
荡	-10721
董	-10722
衡	-10723
触	-10724
誓	-10725
豆	-10726
豪	-10727
貌	-10728
赏	-10729
赢	-10730
迈	-10731
迟	-10732
逾	-10733
邮	-10734
醒	-10735
陆	-10736
除	-10737
靠	-10738
骨	-10739
鲁	-10740
付	-10741
似	-10742
例	-10743
倒	-10744
兑	-10745
冉	-10746
净	-10747
刊	-10748
卷	-10749
压	-10750
呈	-10751
呢	-10752
味	-10753
哥	-10754
固	-10755
圣	-10756
坐	-10757
块	-10758
堵	-10759
塞	-10760
够	-10761
宗	-10762
岭	-10763
幼	-10764
惊	-10765
懈	-10766
执	-10767
招	-10768
旋	-10769
末	-10770
杨	-10771
梅	-10772
棚	-10773
森	-10774
楼	-10775
欠	-10776
毅	-10777
毫	-10778
沉	-10779
沟	-10780
津	-10781
洪	-10782
浓	-10783
涉	-10784
涵	-10785
溉	-10786
滚	-10787
漠	-10788
潜	-10789
灯	-10790
灾	-10791
疑	-10792
盘	-10793
竹	-10794
笑	-10795
算	-10796
粉	-10797
累	-10798
练	-10799
绘	-10800
绝	-10801
缘	-10802
缩	-10803
胆	-10804
脸	-10805
菲	-10806
蕊	-10807
览	-10808
订	-10809
训	-10810
贯	-10811
贴	-10812
贾	-10813
趣	-10814
踏	-10815
邻	-10816
险	-10817
隆	-10818
频	-10819
鹏	-10820
‰	-10821
丹	-10822
乱	-10823
享	-10824
仁	-10825
仰	-10826
佩	-10827
俊	-10828
偿	-10829
册	-10830
冒	-10831
冰	-10832
剖	-10833
匙	-10834
吃	-10835
吗	-10836
嘉	-10837
囊	-10838
垦	-10839
堂	-10840
姐	-10841
宪	-10842
屋	-10843
峡	-10844
崇	-10845
幕	-10846
库	-10847
微	-10848
急	-10849
恭	-10850
悦	-10851
打	-10852
抢	-10853
择	-10854
挺	-10855
掉	-10856
掘	-10857
揭	-10858
搜	-10859
撤	-10860
撰	-10861
攻	-10862
旨	-10863
昌	-10864
晨	-10865
曹	-10866
枪	-10867
染	-10868
校	-10869
植	-10870
毁	-10871
毕	-10872
汉	-10873
泳	-10874
洋	-10875
浪	-10876
淮	-10877
灭	-10878
灿	-10879
炼	-10880
煤	-10881
爆	-10882
猪	-10883
瓦	-10884
盖	-10885
硬	-10886
礼	-10887
祥	-10888
票	-10889
端	-10890
绵	-10891
缺	-10892
耀	-10893
肯	-10894
胸	-10895
芳	-10896
蓝	-10897
诗	-10898
诚	-10899
课	-10900
谱	-10901
跌	-10902
轨	-10903
输	-10904
钥	-10905
铁	-10906
阔	-10907
陀	-10908
隔	-10909
障	-10910
零	-10911
页	-10912
饲	-10913
鸡	-10914
鸿	-10915
黎	-10916
黑	-10917
默	-10918
龚	-10919
佐	-10920
债	-10921
假	-10922
凝	-10923
凯	-10924
剩	-10925
叫	-10926
吐	-10927
含	-10928
售	-10929
坏	-10930
塘	-10931
奔	-10932
奥	-10933
妙	-10934
妥	-10935
姑	-10936
姜	-10937
威	-10938
宅	-10939
宏	-10940
宜	-10941
宝	-10942
宽	-10943
寄	-10944
寡	-10945
寻	-10946
履	-10947
岛	-10948
巩	-10949
床	-10950
弟	-10951
径	-10952
忙	-10953
恰	-10954
恶	-10955
悉	-10956
截	-10957
拔	-10958
拘	-10959
拜	-10960
挖	-10961
掌	-10962
插	-10963
握	-10964
操	-10965
敏	-10966
敞	-10967
斑	-10968
旱	-10969
昭	-10970
某	-10971
栋	-10972
检	-10973
榭	-10974
欧	-10975
汪	-10976
泉	-10977
洗	-10978
测	-10979
涌	-10980
淀	-10981
添	-10982
滴	-10983
漫	-10984
濒	-10985
灶	-10986
炸	-10987
牌	-10988
牡	-10989
牵	-10990
猎	-10991
玩	-10992
珠	-10993
男	-10994
畅	-10995
畜	-10996
番	-10997
睦	-10998
矿	-10999
禽	-11000
秘	-11001
穷	-11002
窥	-11003
篆	-11004
篓	-11005
纲	-11006
缔	-11007
翁	-11008
肩	-11009
膨	-11010
艳	-11011
蓄	-11012
蓬	-11013
衷	-11014
袭	-11015
覆	-11016
试	-11017
详	-11018
谨	-11019
账	-11020
赛	-11021
赶	-11022
软	-11023
辈	-11024
辖	-11025
迁	-11026
迅	-11027
迪	-11028
途	-11029
遣	-11030
郁	-11031
郭	-11032
野	-11033
锋	-11034
锡	-11035
闭	-11036
阻	-11037
陵	-11038
顶	-11039
顾	-11040
颜	-11041
飘	-11042
驱	-11043
鸟	-11044
/	-11045
a	-11046
b	-11047
丧	-11048
串	-11049
乃	-11050
乏	-11051
乔	-11052
乳	-11053
予	-11054
仓	-11055
伙	-11056
佛	-11057
俗	-11058
倍	-11059
储	-11060
允	-11061
励	-11062
卉	-11063
厦	-11064
否	-11065
吹	-11066
咱	-11067
啊	-11068
喝	-11069
嘴	-11070
址	-11071
坛	-11072
坪	-11073
堡	-11074
夺	-11075
奉	-11076
婚	-11077
媒	-11078
宫	-11079
寺	-11080
封	-11081
射	-11082
尉	-11083
尝	-11084
尾	-11085
屏	-11086
岚	-11087
峻	-11088
帧	-11089
弃	-11090
弥	-11091
弦	-11092
彭	-11093
徊	-11094
徘	-11095
徽	-11096
恒	-11097
患	-11098
愉	-11099
慎	-11100
慧	-11101
憾	-11102
懂	-11103
戈	-11104
抵	-11105
损	-11106
摇	-11107
旁	-11108
昆	-11109
昨	-11110
晤	-11111
朗	-11112
朴	-11113
杰	-11114
柏	-11115
柱	-11116
柴	-11117
桂	-11118
梦	-11119
棉	-11120
椒	-11121
残	-11122
池	-11123
汽	-11124
沪	-11125
泄	-11126
泣	-11127
泥	-11128
泪	-11129
洒	-11130
浇	-11131
滋	-11132
潘	-11133
灰	-11134
炮	-11135
燃	-11136
父	-11137
爷	-11138
牧	-11139
犹	-11140
狠	-11141
甘	-11142
眉	-11143
督	-11144
瞩	-11145
碌	-11146
祈	-11147
祷	-11148
竖	-11149
绕	-11150
络	-11151
网	-11152
翰	-11153
翼	-11154
耘	-11155
聪	-11156
腮	-11157
腹	-11158
船	-11159
艾	-11160
茭	-11161
药	-11162
蒸	-11163
蔓	-11164
蔚	-11165
虎	-11166
虑	-11167
虹	-11168
衰	-11169
讨	-11170
诉	-11171
诊	-11172
诸	-11173
诺	-11174
谊	-11175
贤	-11176
赖	-11177
赴	-11178
赵	-11179
轮	-11180
辙	-11181
辛	-11182
辣	-11183
逊	-11184
逛	-11185
遥	-11186
邦	-11187
酋	-11188
酒	-11189
钢	-11190
铺	-11191
镕	-11192
闪	-11193
闹	-11194
韵	-11195
颇	-11196
饮	-11197
馨	-11198
驶	-11199
驾	-11200
骤	-11201
鬼	-11202
魂	-11203
魄	-11204
鹰	-11205
麻	-11206
乾	-11207
井	-11208
亦	-11209
亭	-11210
仆	-11211
仿	-11212
伐	-11213
伦	-11214
侠	-11215
侧	-11216
倘	-11217
借	-11218
倦	-11219
倾	-11220
催	-11221
傲	-11222
兄	-11223
兆	-11224
免	-11225
凌	-11226
剑	-11227
割	-11228
劣	-11229
劫	-11230
勋	-11231
募	-11232
勤	-11233
匆	-11234
卜	-11235
句	-11236
叭	-11237
吉	-11238
哀	-11239
哪	-11240
喇	-11241
圆	-11242
垫	-11243
堆	-11244
堪	-11245
塑	-11246
墙	-11247
奠	-11248
妨	-11249
姨	-11250
姻	-11251
娃	-11252
娓	-11253
娱	-11254
孝	-11255
守	-11256
宋	-11257
室	-11258
害	-11259
宿	-11260
寂	-11261
寓	-11262
尖	-11263
尚	-11264
尺	-11265
屡	-11266
岩	-11267
崭	-11268
巧	-11269
巷	-11270
帷	-11271
幸	-11272
廉	-11273
弱	-11274
彦	-11275
彬	-11276
彼	-11277
忽	-11278
怕	-11279
悠	-11280
惜	-11281
惯	-11282
惶	-11283
慨	-11284
戎	-11285
戒	-11286
扫	-11287
扮	-11288
扰	-11289
披	-11290
抱	-11291
拒	-11292
拖	-11293
拨	-11294
拾	-11295
挚	-11296
挣	-11297
掩	-11298
揣	-11299
揽	-11300
搭	-11301
摘	-11302
摧	-11303
摩	-11304
摸	-11305
撼	-11306
敲	-11307
斌	-11308
斐	-11309
斓	-11310
旬	-11311
旺	-11312
昂	-11313
昼	-11314
晋	-11315
暗	-11316
杂	-11317
杜	-11318
杭	-11319
枝	-11320
柳	-11321
柿	-11322
框	-11323
桌	-11324
档	-11325
椅	-11326
欲	-11327
歧	-11328
殃	-11329
殊	-11330
沈	-11331
沿	-11332
洞	-11333
洼	-11334
浜	-11335
湿	-11336
溪	-11337
滞	-11338
漾	-11339
澄	-11340
烧	-11341
烽	-11342
熊	-11343
熟	-11344
牛	-11345
狭	-11346
猛	-11347
玛	-11348
珮	-11349
琴	-11350
琼	-11351
甜	-11352
申	-11353
畔	-11354
疏	-11355
疗	-11356
痕	-11357
痪	-11358
瘫	-11359
皇	-11360
皎	-11361
盆	-11362
盗	-11363
眠	-11364
眺	-11365
睹	-11366
码	-11367
砖	-11368
硕	-11369
硝	-11370
磨	-11371
私	-11372
秧	-11373
移	-11374
稀	-11375
笛	-11376
笼	-11377
答	-11378
箫	-11379
粗	-11380
粹	-11381
糊	-11382
纵	-11383
纺	-11384
绣	-11385
绳	-11386
绸	-11387
缅	-11388
缚	-11389
缤	-11390
罕	-11391
罚	-11392
罢	-11393
羽	-11394
耳	-11395
肖	-11396
脆	-11397
脉	-11398
脏	-11399
腐	-11400
腾	-11401
臣	-11402
舆	-11403
舟	-11404
苍	-11405
茂	-11406
茫	-11407
茵	-11408
草	-11409
莽	-11410
萝	-11411
萧	-11412
蒂	-11413
蕴	-11414
蕾	-11415
藉	-11416
虚	-11417
蛋	-11418
蜜	-11419
袋	-11420
袱	-11421
裁	-11422
裂	-11423
裕	-11424
译	-11425
诞	-11426
谦	-11427
谷	-11428
豫	-11429
贪	-11430
赤	-11431
赫	-11432
跋	-11433
跳	-11434
践	-11435
踞	-11436
轰	-11437
辄	-11438
辐	-11439
辑	-11440
辟	-11441
返	-11442
迭	-11443
逝	-11444
逢	-11445
邀	-11446
邹	-11447
钞	-11448
钦	-11449
钻	-11450
锐	-11451
锤	-11452
锦	-11453
闯	-11454
阐	-11455
阴	-11456
陪	-11457
陶	-11458
隐	-11459
雀	-11460
雕	-11461
韧	-11462
餐	-11463
饱	-11464
饺	-11465
骄	-11466
鸠	-11467
鼠	-11468
丈	-11469
乘	-11470
亏	-11471
仇	-11472
仔	-11473
伏	-11474
伯	-11475
估	-11476
伸	-11477
佯	-11478
俏	-11479
俘	-11480
俨	-11481
俯	-11482
俱	-11483
倔	-11484
倪	-11485
偷	-11486
傅	-11487
傍	-11488
僧	-11489
僵	-11490
儒	-11491
兹	-11492
冠	-11493
冯	-11494
冶	-11495
冻	-11496
凤	-11497
凭	-11498
凶	-11499
凸	-11500
刃	-11501
刷	-11502
券	-11503
剂	-11504
削	-11505
剥	-11506
剪	-11507
剿	-11508
劈	-11509
勉	-11510
勘	-11511
勾	-11512
匠	-11513
卧	-11514
卯	-11515
卿	-11516
厉	-11517
厌	-11518
叉	-11519
叔	-11520
叩	-11521
叱	-11522
叹	-11523
吟	-11524
吧	-11525
呕	-11526
咏	-11527
咤	-11528
咨	-11529
哄	-11530
哇	-11531
哩	-11532
唐	-11533
喊	-11534
喧	-11535
喻	-11536
嘎	-11537
嘘	-11538
嘱	-11539
嘹	-11540
圈	-11541
圾	-11542
坎	-11543
坤	-11544
坷	-11545
垂	-11546
垃	-11547
垄	-11548
垠	-11549
埃	-11550
埔	-11551
堑	-11552
堤	-11553
墓	-11554
墟	-11555
壳	-11556
夸	-11557
夹	-11558
奴	-11559
姆	-11560
姓	-11561
娇	-11562
娶	-11563
媚	-11564
媳	-11565
嫁	-11566
嫩	-11567
孚	-11568
寞	-11569
寨	-11570
寸	-11571
尘	-11572
尸	-11573
尹	-11574
屈	-11575
屿	-11576
岂	-11577
岱	-11578
峭	-11579
崔	-11580
崖	-11581
崛	-11582
嵌	-11583
嵩	-11584
巡	-11585
巾	-11586
帅	-11587
帐	-11588
帕	-11589
帘	-11590
帝	-11591
帽	-11592
幄	-11593
幽	-11594
庙	-11595
废	-11596
弄	-11597
弊	-11598
弗	-11599
弯	-11600
弹	-11601
忍	-11602
怒	-11603
怜	-11604
怠	-11605
怨	-11606
恋	-11607
恍	-11608
恐	-11609
恤	-11610
恨	-11611
恺	-11612
悄	-11613
悔	-11614
您	-11615
悬	-11616
悸	-11617
惨	-11618
惬	-11619
愁	-11620
愤	-11621
愫	-11622
慢	-11623
慷	-11624
憨	-11625
憬	-11626
戴	-11627
扇	-11628
扉	-11629
扑	-11630
扣	-11631
扭	-11632
抄	-11633
抒	-11634
折	-11635
抛	-11636
抠	-11637
抬	-11638
抽	-11639
拆	-11640
拗	-11641
拙	-11642
拟	-11643
拢	-11644
拦	-11645
拮	-11646
拼	-11647
挡	-11648
挨	-11649
挫	-11650
捉	-11651
捍	-11652
捧	-11653
捷	-11654
掏	-11655
掬	-11656
搁	-11657
搏	-11658
搬	-11659
撑	-11660
撒	-11661
撷	-11662
攀	-11663
攥	-11664
敌	-11665
斡	-11666
晓	-11667
晴	-11668
暇	-11669
暴	-11670
曙	-11671
曝	-11672
曼	-11673
替	-11674
朵	-11675
朽	-11676
杀	-11677
杆	-11678
杈	-11679
杞	-11680
杯	-11681
枚	-11682
枸	-11683
柔	-11684
柘	-11685
栏	-11686
栓	-11687
栖	-11688
桃	-11689
梓	-11690
梭	-11691
梯	-11692
械	-11693
棋	-11694
棒	-11695
楚	-11696
榫	-11697
槟	-11698
樊	-11699
歼	-11700
殷	-11701
母	-11702
氢	-11703
氤	-11704
氲	-11705
汀	-11706
汗	-11707
汛	-11708
汝	-11709
污	-11710
汤	-11711
汾	-11712
沂	-11713
沥	-11714
沫	-11715
沾	-11716
泸	-11717
泻	-11718
浅	-11719
浑	-11720
浦	-11721
浮	-11722
浸	-11723
涂	-11724
涅	-11725
涛	-11726
涝	-11727
涣	-11728
涪	-11729
涯	-11730
淌	-11731
淳	-11732
混	-11733
渊	-11734
渝	-11735
渤	-11736
渥	-11737
溜	-11738
溧	-11739
溯	-11740
滥	-11741
滩	-11742
漏	-11743
漓	-11744
澈	-11745
澎	-11746
瀑	-11747
瀚	-11748
炉	-11749
炎	-11750
炽	-11751
烁	-11752
熔	-11753
燕	-11754
爪	-11755
牙	-11756
牢	-11757
牲	-11758
牺	-11759
犯	-11760
狱	-11761
狼	-11762
珊	-11763
琅	-11764
琦	-11765
瑙	-11766
瑚	-11767
瑰	-11768
瑶	-11769
甫	-11770
甲	-11771
疫	-11772
疾	-11773
症	-11774
痛	-11775
瘠	-11776
皆	-11777
皮	-11778
盈	-11779
盎	-11780
盏	-11781
盲	-11782
眷	-11783
睛	-11784
瞒	-11785
砂	-11786
砍	-11787
砚	-11788
碍	-11789
碎	-11790
碑	-11791
碰	-11792
磊	-11793
磋	-11794
禺	-11795
秒	-11796
秤	-11797
稍	-11798
稚	-11799
稻	-11800
稿	-11801
穆	-11802
窄	-11803
窘	-11804
竣	-11805
笃	-11806
笋	-11807
筛	-11808
筝	-11809
箱	-11810
箴	-11811
篮	-11812
粒	-11813
粪	-11814
粲	-11815
糅	-11816
糖	-11817
紫	-11818
纂	-11819
纠	-11820
纬	-11821
纶	-11822
绎	-11823
绑	-11824
绒	-11825
绚	-11826
绪	-11827
缕	-11828
缝	-11829
缭	-11830
缴	-11831
罐	-11832
罪	-11833
翅	-11834
翔	-11835
翠	-11836
耻	-11837
聘	-11838
肃	-11839
肤	-11840
肥	-11841
肴	-11842
肿	-11843
胁	-11844
脂	-11845
腊	-11846
腕	-11847
腰	-11848
膀	-11849
膏	-11850
臂	-11851
臆	-11852
臭	-11853
臾	-11854
舒	-11855
舰	-11856
芍	-11857
芒	-11858
芙	-11859
芜	-11860
芝	-11861
芦	-11862
芭	-11863
芹	-11864
苋	-11865
苗	-11866
苹	-11867
茄	-11868
茅	-11869
茨	-11870
荆	-11871
莅	-11872
莎	-11873
菊	-11874
菌	-11875
菠	-11876
萌	-11877
萍	-11878
葡	-11879
葫	-11880
葱	-11881
蓉	-11882
蕉	-11883
蕻	-11884
薄	-11885
薛	-11886
虬	-11887
蜕	-11888
衍	-11889
衔	-11890
袖	-11891
裹	-11892
觅	-11893
觑	-11894
觞	-11895
詹	-11896
讴	-11897
询	-11898
误	-11899
谭	-11900
豁	-11901
豌	-11902
豹	-11903
贝	-11904
贞	-11905
败	-11906
贩	-11907
贬	-11908
贱	-11909
贻	-11910
赁	-11911
赋	-11912
赐	-11913
赔	-11914
赡	-11915
赭	-11916
距	-11917
跟	-11918
跷	-11919
踢	-11920
踵	-11921
蹈	-11922
躺	-11923
轲	-11924
辅	-11925
辨	-11926
迄	-11927
逃	-11928
遏	-11929
遒	-11930
遮	-11931
遵	-11932
邕	-11933
邱	-11934
邵	-11935
邸	-11936
郊	-11937
郎	-11938
释	-11939
鉴	-11940
钓	-11941
钧	-11942
钩	-11943
铎	-11944
铣	-11945
铭	-11946
链	-11947
锁	-11948
锅	-11949
错	-11950
锣	-11951
锲	-11952
锻	-11953
镜	-11954
镶	-11955
闸	-11956
阂	-11957
阑	-11958
阖	-11959
陟	-11960
陡	-11961
陲	-11962
陷	-11963
隶	-11964
雁	-11965
雏	-11966
雯	-11967
雾	-11968
霎	-11969
霜	-11970
霞	-11971
霸	-11972
鞋	-11973
鞭	-11974
韦	-11975
颂	-11976
颖	-11977
颗	-11978
饥	-11979
饰	-11980
饼	-11981
饿	-11982
驰	-11983
骅	-11984
骑	-11985
骚	-11986
魁	-11987
魅	-11988
鲍	-11989
鲤	-11990
鲫	-11991
鲶	-11992
鸢	-11993
麦	-11994
黔	-11995
鼐	-11996
龄	-11997
