<pad>	0
[UNK]	0
中国	-0
19	-1
199	-2
00	-3
发展	-4
经济	-5
人民	-6
我们	-7
..	-8
新年	-9
建设	-10
记者	-11
历史	-12
的一	-13
香港	-14
全国	-15
企业	-16
农业	-17
▁在	-18
一个	-19
国家	-20
计划	-21
▁这	-22
世界	-23
政府	-24
工作	-25
▁他	-26
生育	-27
南非	-28
本报	-29
水利	-30
计划生育	-31
北京	-32
出版	-33
社会	-34
——	-35
祖国	-36
两岸	-37
活动	-38
1997	-39
地区	-40
中华	-41
生活	-42
他们	-43
改革	-44
进行	-45
工程	-46
文明	-47
日电	-48
▁本报	-49
新华	-50
关系	-51
12	-52
农民	-53
职工	-54
新华社	-55
10	-56
▁(	-57
中央	-58
▁”	-59
实现	-60
第一	-61
精神	-62
群众	-63
问题	-64
”,	-65
1998	-66
万元	-67
统一	-68
举行	-69
交通	-70
国际	-71
市场	-72
000	-73
创作	-74
开始	-75
文化	-76
生产	-77
组织	-78
青年	-79
....	-80
代表	-81
元旦	-82
共同	-83
困难	-84
年来	-85
成为	-86
音乐	-87
的一年	-88
了一	-89
同时	-90
新的	-91
这一	-92
领导	-93
去年	-94
文学	-95
服务	-96
结合	-97
世纪	-98
事业	-99
云龙	-100
今天	-101
方面	-102
自己	-103
重要	-104
银行	-105
”。	-106
▁据	-107
产业	-108
我国	-109
民族	-110
现代	-111
管理	-112
:“	-113
丛书	-114
九九	-115
卢布	-116
基础	-117
村民	-118
美国	-119
盛云龙	-120
▁一	-121
人的	-122
传统	-123
图片	-124
好的	-125
政治	-126
继续	-127
主要	-128
人们	-129
发表	-130
和平	-131
报道	-132
积极	-133
美元	-134
加强	-135
努力	-136
基本	-137
外交	-138
大的	-139
学者	-140
年的	-141
投资	-142
环境	-143
贫困	-144
资金	-145
进一	-146
金融	-147
产品	-148
增长	-149
大使	-150
有的	-151
表示	-152
进一步	-153
1996	-154
作品	-155
取得	-156
开放	-157
总统	-158
目前	-159
研究	-160
稳定	-161
联合	-162
自治	-163
艺术	-164
这个	-165
出版社	-166
20	-167
书记	-168
人物	-169
保持	-170
全面	-171
公司	-172
共和	-173
干部	-174
影响	-175
收入	-176
有关	-177
没有	-178
考古	-179
许多	-180
通过	-181
重庆	-182
共和国	-183
自己的	-184
30	-185
作为	-186
出了	-187
出的	-188
可以	-189
同志	-190
坚持	-191
学生	-192
建立	-193
形成	-194
技术	-195
投入	-196
提供	-197
支持	-198
特别	-199
理论	-200
集团	-201
中国的	-202
上海	-203
人士	-204
以及	-205
到了	-206
化的	-207
十五	-208
参加	-209
同胞	-210
在一	-211
增加	-212
委员	-213
安全	-214
家庭	-215
已经	-216
开发	-217
提高	-218
江泽	-219
美术	-220
认为	-221
货币	-222
起来	-223
部门	-224
集体	-225
———	-226
▁我们	-227
亿美元	-228
江泽民	-229
音乐会	-230
新的一年	-231
%。	-232
,“	-233
80	-234
▁为	-235
▁从	-236
》,	-237
中的	-238
主义	-239
人员	-240
其中	-241
其琛	-242
各地	-243
完成	-244
慰问	-245
成功	-246
教育	-247
日本	-248
时间	-249
是一	-250
自然	-251
设施	-252
钱其琛	-253
15	-254
31	-255
▁“	-256
一年	-257
人口	-258
以来	-259
仪式	-260
优势	-261
先生	-262
农村	-263
创造	-264
合作	-265
回归	-266
团结	-267
国防	-268
对于	-269
广大	-270
思想	-271
扶贫	-272
推动	-273
政协	-274
的是	-275
解决	-276
资源	-277
过去	-278
还有	-279
这样	-280
发展的	-281
现代化	-282
自治区	-283
......	-284
▁如	-285
▁有	-286
一定	-287
下降	-288
不同	-289
两国	-290
全球	-291
全部	-292
关心	-293
决定	-294
减少	-295
北大	-296
各界	-297
山区	-298
希望	-299
帮助	-300
开展	-301
开馆	-302
成就	-303
来自	-304
每年	-305
澳门	-306
英雄	-307
读者	-308
起了	-309
这些	-310
日电记者	-311
▁当	-312
万人	-313
中心	-314
为主	-315
也纳	-316
乡镇	-317
人均	-318
今年	-319
促进	-320
全区	-321
公路	-322
兼并	-323
参与	-324
双泾	-325
吕梁	-326
多的	-327
宁夏	-328
家的	-329
小型	-330
小平	-331
推进	-332
条件	-333
生态	-334
由于	-335
脱贫	-336
节日	-337
西藏	-338
谋略	-339
这种	-340
进入	-341
退伍	-342
韩国	-343
▁中国	-344
大使馆	-345
维也纳	-346
邓小平	-347
农业产业	-348
改革开放	-349
水利工程	-350
,1997	-351
50	-352
、《	-353
严重	-354
亿元	-355
会议	-356
党的	-357
全市	-358
农场	-359
华人	-360
危机	-361
台湾	-362
学术	-363
带来	-364
形式	-365
报告	-366
指导	-367
正式	-368
民主	-369
水平	-370
现在	-371
电视	-372
科技	-373
经营	-374
茶话	-375
解放	-376
费县	-377
部分	-378
▁他说	-379
》、《	-380
十五大	-381
考古学	-382
联合国	-383
茶话会	-384
两岸关系	-385
社会主义	-386
在新的一年	-387
11	-388
▁《	-389
▁我	-390
一国	-391
七年	-392
中共	-393
之一	-394
亚洲	-395
使用	-396
先进	-397
党委	-398
其他	-399
具有	-400
农田	-401
分别	-402
发生	-403
各种	-404
国务	-405
地震	-406
城乡	-407
大家	-408
实施	-409
实的	-410
广场	-411
强调	-412
得到	-413
志愿	-414
情况	-415
所有	-416
改值	-417
故事	-418
来的	-419
气温	-420
的人	-421
的新	-422
系列	-423
紧密	-424
行政	-425
规模	-426
负责	-427
连续	-428
重视	-429
革命	-430
项目	-431
首都	-432
一九九	-433
创作的	-434
基础上	-435
的发展	-436
水利设施	-437
精神文明	-438
新华社记者	-439
.6	-440
40	-441
”、	-442
▁此	-443
一些	-444
一起	-445
不断	-446
不是	-447
主席	-448
之间	-449
交流	-450
以色	-451
全县	-452
公斤	-453
利益	-454
制度	-455
十分	-456
华侨	-457
华文	-458
召开	-459
各国	-460
城市	-461
基金	-462
奋斗	-463
她们	-464
定了	-465
实行	-466
少年	-467
建交	-468
性的	-469
恢复	-470
探索	-471
政策	-472
旅游	-473
时代	-474
明天	-475
来到	-476
正是	-477
气氛	-478
油画	-479
特区	-480
系统	-481
繁荣	-482
维护	-483
老人	-484
表演	-485
要求	-486
记录	-487
贷款	-488
达到	-489
进程	-490
重点	-491
400	-492
▁目前	-493
以色列	-494
双泾村	-495
建设的	-496
志愿者	-497
民族的	-498
的经济	-499
相结合	-500
部地区	-501
中华人民	-502
中国人民	-503
中华人民共和国	-504
.5	-505
60	-506
70	-507
▁大	-508
一日	-509
上午	-510
专家	-511
两制	-512
以上	-513
作用	-514
健康	-515
全村	-516
八年	-517
公里	-518
关于	-519
军事	-520
军人	-521
农副	-522
农贸	-523
出现	-524
劳动	-525
包括	-526
原则	-527
反映	-528
发挥	-529
古籍	-530
各类	-531
同样	-532
后的	-533
四川	-534
国内	-535
国有	-536
在这	-537
地方	-538
多少	-539
存款	-540
就是	-541
总理	-542
战斗	-543
扎耶	-544
拍卖	-545
改变	-546
整理	-547
方案	-548
方针	-549
有利	-550
期间	-551
焦作	-552
状况	-553
电子	-554
的大	-555
示范	-556
管制	-557
组成	-558
罗斯	-559
藏文	-560
虽然	-561
警察	-562
讲话	-563
谈判	-564
责任	-565
违章	-566
道路	-567
都是	-568
100	-569
198	-570
300	-571
历史上	-572
国家的	-573
委员会	-574
扎耶德	-575
的历史	-576
祖国的	-577
跨世纪	-578
青少年	-579
驻南非	-580
1000	-581
一国两制	-582
农副产品	-583
农贸市场	-584
金融危机	-585
▁1997	-586
新年音乐会	-587
青年志愿者	-588
在新的一年里	-589
)(	-590
▁但	-591
▁其	-592
▁近	-593
一直	-594
上的	-595
个人	-596
个月	-597
主题	-598
义务	-599
之际	-600
也是	-601
了解	-602
介绍	-603
任务	-604
伟大	-605
作者	-606
党派	-607
出席	-608
前夕	-609
前进	-610
卫生	-611
古代	-612
各项	-613
喜庆	-614
园区	-615
国旗	-616
大利	-617
如何	-618
学习	-619
就业	-620
平均	-621
年代	-622
广泛	-623
广西	-624
庆祝	-625
开拓	-626
当地	-627
必须	-628
怎样	-629
成了	-630
战略	-631
持续	-632
指出	-633
推广	-634
措施	-635
提出	-636
改善	-637
散文	-638
斯坦	-639
旗帜	-640
更加	-641
机场	-642
来说	-643
武器	-644
浙江	-645
然而	-646
物质	-647
特困	-648
特色	-649
的事	-650
看到	-651
真正	-652
知识	-653
空气	-654
第二	-655
粮食	-656
结构	-657
综合	-658
联系	-659
致富	-660
节目	-661
走出	-662
起的	-663
路子	-664
逐步	-665
部长	-666
重大	-667
重新	-668
阶段	-669
需要	-670
飞行	-671
▁他们	-672
▁去年	-673
俄罗斯	-674
国务院	-675
方面的	-676
是一个	-677
的一个	-678
良好的	-679
解放军	-680
贫困县	-681
附图片	-682
1991	-683
▁江泽民	-684
两岸经济	-685
中华文明	-686
全国人民	-687
困难职工	-688
国际货币	-689
基金组织	-690
小扎耶德	-691
开馆仪式	-692
扶贫开发	-693
水利建设	-694
▁据新华社	-695
与计划生育	-696
计划生育户	-697
邓小平理论	-698
农业产业化的	-699
小型水利设施	-700
国际货币基金组织	-701
13	-702
58	-703
▁图	-704
▁它	-705
▁而	-706
▁该	-707
一种	-708
三十	-709
人类	-710
什么	-711
保护	-712
信息	-713
党和	-714
党支	-715
关注	-716
关键	-717
养殖	-718
内容	-719
利用	-720
力量	-721
加工	-722
协商	-723
南京	-724
发行	-725
发达	-726
吸引	-727
因此	-728
土地	-729
大业	-730
大学	-731
大街	-732
女作	-733
孔玲	-734
实地	-735
实际	-736
小到	-737
并购	-738
应当	-739
建成	-740
形势	-741
心的	-742
总结	-743
意义	-744
战争	-745
户头	-746
拥有	-747
推出	-748
效益	-749
敬老	-750
文物	-751
文献	-752
日报	-753
日益	-754
时刻	-755
明显	-756
明确	-757
朋友	-758
未来	-759
机制	-760
标准	-761
根据	-762
欢迎	-763
江南	-764
深圳	-765
火山	-766
特点	-767
独立	-768
理解	-769
用水	-770
的主	-771
的心	-772
目标	-773
科学	-774
秩序	-775
程度	-776
第三	-777
老年	-778
而不	-779
自叙	-780
艰苦	-781
蔬菜	-782
表现	-783
西亚	-784
认识	-785
贡献	-786
财政	-787
资产	-788
转变	-789
辉煌	-790
追求	-791
部的	-792
部署	-793
顺利	-794
领域	-795
题材	-796
▁这是	-797
主题性	-798
冷空气	-799
北京市	-800
参加了	-801
意大利	-802
第一天	-803
这样的	-804
进行了	-805
问题的	-806
▁新华社	-807
中共中央	-808
九九七年	-809
全国政协	-810
华文文学	-811
南非华人	-812
发展中国	-813
和平统一	-814
生态农业	-815
祖国统一	-816
中华民族的	-817
精神文明建设	-818
计划生育工作	-819
%,	-820
),	-821
.4	-822
.8	-823
14	-824
26	-825
90	-826
98	-827
—8	-828
▁也	-829
▁以	-830
▁山	-831
▁要	-832
一体	-833
丁玉	-834
东部	-835
丰富	-836
事故	-837
二十	-838
产党	-839
价格	-840
优先	-841
优秀	-842
作出	-843
保证	-844
信心	-845
偏北	-846
做好	-847
克林	-848
全体	-849
农户	-850
决心	-851
几乎	-852
出台	-853
分析	-854
加元	-855
加坡	-856
区域	-857
华夏	-858
华孙	-859
协会	-860
反对	-861
发出	-862
可能	-863
各级	-864
呼吁	-865
国民	-866
在此	-867
地位	-868
多名	-869
大中	-870
大事	-871
大会	-872
妻子	-873
它们	-874
安排	-875
安理	-876
居民	-877
年产	-878
广州	-879
庄乡	-880
开了	-881
形象	-882
性和	-883
总额	-884
成果	-885
户办	-886
按照	-887
振兴	-888
接受	-889
文艺	-890
方式	-891
无主	-892
旧币	-893
时期	-894
最后	-895
标志	-896
武装	-897
汇率	-898
沼气	-899
渠道	-900
照片	-901
理想	-902
甚至	-903
画家	-904
的家	-905
目的	-906
直接	-907
矛盾	-908
祝贺	-909
福利	-910
突破	-911
经过	-912
经验	-913
结束	-914
统计	-915
继承	-916
而是	-917
联欢	-918
落实	-919
蒙古	-920
行动	-921
评论	-922
调查	-923
走向	-924
车辆	-925
遗存	-926
采取	-927
面临	-928
面积	-929
飞机	-930
高举	-931
高度	-932
高效	-933
高达	-934
▁但是	-935
▁同时	-936
▁图为	-937
▁新年	-938
▁由于	-939
▁香港	-940
丁玉珍	-941
上海市	-942
企业家	-943
偏北风	-944
克林顿	-945
全国各	-946
共产党	-947
再就业	-948
在南非	-949
多万元	-950
安理会	-951
对香港	-952
小到中	-953
市政府	-954
提出的	-955
敬老院	-956
新加坡	-957
新年好	-958
有利于	-959
特别是	-960
的中国	-961
秦华孙	-962
第一次	-963
经济的	-964
▁本报讯	-965
▁盛云龙	-966
▁钱其琛	-967
两国人民	-968
企业兼并	-969
伟大旗帜	-970
发表新年	-971
战斗故事	-972
无主户头	-973
有关部门	-974
有小到中	-975
级偏北风	-976
藏文古籍	-977
香港回归	-978
亚洲金融危机	-979
高举邓小平理论	-980
扶贫开发与计划生育	-981
21	-982
23	-983
25	-984
▁’	-985
▁不	-986
▁二	-987
一下	-988
一位	-989
一切	-990
一样	-991
万亩	-992
万多	-993
上下	-994
上年	-995
下的	-996
不会	-997
主持	-998
主权	-999
书系	-1000
五星	-1001
令人	-1002
价值	-1003
众多	-1004
会上	-1005
传记	-1006
位于	-1007
体制	-1008
体系	-1009
元月	-1010
内外	-1011
再次	-1012
军委	-1013
军队	-1014
出口	-1015
切实	-1016
制衣	-1017
加快	-1018
动了	-1019
北部	-1020
十二	-1021
南省	-1022
可归	-1023
史籍	-1024
哈尔	-1025
回到	-1026
地说	-1027
基地	-1028
墨西	-1029
多次	-1030
大地	-1031
子的	-1032
安惠	-1033
完善	-1034
客人	-1035
宣布	-1036
对象	-1037
导致	-1038
尊老	-1039
尽快	-1040
展望	-1041
展示	-1042
岁的	-1043
工业	-1044
左右	-1045
巴勒	-1046
布厂	-1047
带领	-1048
年底	-1049
应该	-1050
引导	-1051
循环	-1052
快速	-1053
感到	-1054
扩大	-1055
报纸	-1056
拱坝	-1057
指挥	-1058
控制	-1059
推向	-1060
提前	-1061
摊位	-1062
整治	-1063
新币	-1064
新建	-1065
新疆	-1066
方法	-1067
无家	-1068
有效	-1069
格局	-1070
死亡	-1071
沙漠	-1072
波兰	-1073
流通	-1074
港人	-1075
演出	-1076
演员	-1077
激动	-1078
灌溉	-1079
爱国	-1080
生命	-1081
用笔	-1082
登高	-1083
的情	-1084
相信	-1085
祝愿	-1086
立了	-1087
精心	-1088
红旗	-1089
纷纷	-1090
胜利	-1091
胡花	-1092
能源	-1093
自我	-1094
自豪	-1095
航班	-1096
航空	-1097
英国	-1098
著名	-1099
西方	-1100
解困	-1101
认真	-1102
访问	-1103
贸易	-1104
赢得	-1105
起降	-1106
超过	-1107
趋势	-1108
边防	-1109
达成	-1110
还是	-1111
这是	-1112
这次	-1113
进步	-1114
退休	-1115
速度	-1116
那样	-1117
那里	-1118
部队	-1119
都有	-1120
里的	-1121
针织	-1122
长城	-1123
长的	-1124
阳光	-1125
随着	-1126
雷达	-1127
非常	-1128
首先	-1129
鲜花	-1130
”、“	-1131
▁可以	-1132
▁因此	-1133
▁图片	-1134
▁我国	-1135
▁然而	-1136
▁这些	-1137
为中国	-1138
创造了	-1139
制衣厂	-1140
北大荒	-1141
取得了	-1142
和发展	-1143
哈尔滨	-1144
地区的	-1145
墨西哥	-1146
多年来	-1147
大学生	-1148
建立了	-1149
张安惠	-1150
提供了	-1151
文化的	-1152
族人民	-1153
是我们	-1154
朋友们	-1155
村民们	-1156
浙江省	-1157
海内外	-1158
焦作市	-1159
田庄乡	-1160
的国家	-1161
的基本	-1162
的生活	-1163
的领导	-1164
群众的	-1165
胡花蕊	-1166
行政区	-1167
1990	-1168
1994	-1169
一个新的	-1170
两岸同胞	-1171
五星红旗	-1172
亿美元的	-1173
全国各地	-1174
困难企业	-1175
安全飞行	-1176
巴勒斯坦	-1177
政治协商	-1178
特区政府	-1179
经济发展	-1180
退伍军人	-1181
,1998	-1182
▁1998	-1183
▁本报北京	-1184
▁本报记者	-1185
一九九八年	-1186
党的十五大	-1187
出版社出版	-1188
特别行政区	-1189
现代化建设	-1190
扶贫开发与计划生育相结合	-1191
24	-1192
▁1	-1193
▁三	-1194
▁到	-1195
▁受	-1196
▁她	-1197
▁对	-1198
▁市	-1199
▁所	-1200
▁由	-1201
》。	-1202
一月	-1203
一条	-1204
一次	-1205
三个	-1206
三位	-1207
不忘	-1208
不管	-1209
业绩	-1210
东方	-1211
两年	-1212
严格	-1213
个县	-1214
中文	-1215
为了	-1216
主干	-1217
主张	-1218
之路	-1219
九届	-1220
书画	-1221
产生	-1222
人在	-1223
人大	-1224
人数	-1225
人生	-1226
从而	-1227
优质	-1228
会员	-1229
伤亡	-1230
佳节	-1231
便是	-1232
保障	-1233
倡议	-1234
值得	-1235
儿童	-1236
充分	-1237
充满	-1238
光辉	-1239
克服	-1240
入了	-1241
全民	-1242
公安	-1243
公布	-1244
其峰	-1245
典型	-1246
出发	-1247
出来	-1248
出租	-1249
分子	-1250
利亚	-1251
利税	-1252
前的	-1253
加大	-1254
匙孔	-1255
医院	-1256
千万	-1257
千名	-1258
午夜	-1259
华南	-1260
协议	-1261
协调	-1262
单位	-1263
印度	-1264
即将	-1265
历程	-1266
友好	-1267
发现	-1268
只要	-1269
号召	-1270
各个	-1271
合理	-1272
同意	-1273
周围	-1274
因为	-1275
在国	-1276
在的	-1277
地域	-1278
地的	-1279
城区	-1280
增强	-1281
处于	-1282
多个	-1283
多人	-1284
大大	-1285
天津	-1286
奇迹	-1287
如此	-1288
孔繁	-1289
定的	-1290
宣誓	-1291
家们	-1292
将是	-1293
尤其	-1294
就有	-1295
尽管	-1296
崇高	-1297
工人	-1298
工商	-1299
已有	-1300
帮扶	-1301
平衡	-1302
年前	-1303
庄严	-1304
开创	-1305
引起	-1306
强烈	-1307
当时	-1308
彩旗	-1309
心灵	-1310
忘记	-1311
思考	-1312
思路	-1313
恭城	-1314
想到	-1315
意识	-1316
成绩	-1317
战员	-1318
技法	-1319
拉萨	-1320
捐赠	-1321
搜集	-1322
搞好	-1323
摄氏	-1324
改造	-1325
斗争	-1326
新风	-1327
方米	-1328
无法	-1329
日前	-1330
日在	-1331
日晚	-1332
日讯	-1333
日起	-1334
时候	-1335
晚会	-1336
普及	-1337
智囊	-1338
更多	-1339
最佳	-1340
最高	-1341
有着	-1342
来了	-1343
欢乐	-1344
正在	-1345
毛泽	-1346
气象	-1347
水的	-1348
水费	-1349
没收	-1350
沧桑	-1351
泰国	-1352
济南	-1353
海外	-1354
润五	-1355
深刻	-1356
温暖	-1357
湖州	-1358
演奏	-1359
灿烂	-1360
热烈	-1361
爱幼	-1362
爸爸	-1363
状态	-1364
狂欢	-1365
现实	-1366
生动	-1367
的好	-1368
的最	-1369
看望	-1370
真情	-1371
社评	-1372
祝福	-1373
站在	-1374
筹集	-1375
纽约	-1376
终于	-1377
经历	-1378
经费	-1379
羊肉	-1380
美德	-1381
而且	-1382
胀率	-1383
能够	-1384
自发	-1385
致以	-1386
色的	-1387
苏联	-1388
融入	-1389
观念	-1390
角度	-1391
角村	-1392
记忆	-1393
设计	-1394
调整	-1395
贵阳	-1396
迎接	-1397
这项	-1398
逐渐	-1399
造成	-1400
邮电	-1401
郑重	-1402
长江	-1403
隆重	-1404
难以	-1405
面对	-1406
题的	-1407
鼓舞	-1408
200	-1409
500	-1410
▁为此	-1411
▁今天	-1412
▁元旦	-1413
▁吕梁	-1414
▁如今	-1415
▁宁夏	-1416
▁报告	-1417
▁记者	-1418
▁费县	-1419
▁这一	-1420
万公斤	-1421
不同的	-1422
与南非	-1423
世界上	-1424
举行了	-1425
之间的	-1426
了一条	-1427
党支部	-1428
制定了	-1429
副总理	-1430
印度尼	-1431
历史的	-1432
各民主	-1433
和南非	-1434
和完善	-1435
团中央	-1436
增加了	-1437
大地震	-1438
大规模	-1439
孔繁森	-1440
孙其峰	-1441
学者的	-1442
实现了	-1443
巨大的	-1444
已成为	-1445
年元旦	-1446
建设有	-1447
得到了	-1448
性循环	-1449
慰问金	-1450
我们的	-1451
指战员	-1452
推动了	-1453
摄氏度	-1454
新年的	-1455
更多的	-1456
毛泽东	-1457
生活的	-1458
电视台	-1459
的主要	-1460
的事迹	-1461
的同志	-1462
的同时	-1463
的支持	-1464
的状况	-1465
的节日	-1466
福利院	-1467
级公路	-1468
美好的	-1469
谈判的	-1470
象角村	-1471
赢得了	-1472
近年来	-1473
退伍兵	-1474
重庆市	-1475
钥匙孔	-1476
问题上	-1477
音乐厅	-1478
领导人	-1479
香港的	-1480
1200	-1481
3000	-1482
6000	-1483
▁俄罗斯	-1484
中国特色	-1485
中央军委	-1486
交通事故	-1487
交通管理	-1488
今天上午	-1489
代表大会	-1490
企业集团	-1491
传统农业	-1492
共同努力	-1493
军事谋略	-1494
农业生产	-1495
副总理兼	-1496
历史人物	-1497
台湾同胞	-1498
国有企业	-1499
大部地区	-1500
家庭农场	-1501
尊老爱幼	-1502
无家可归	-1503
智囊人物	-1504
的维也纳	-1505
繁荣稳定	-1506
考古学的	-1507
茶话会上	-1508
货币改值	-1509
这一活动	-1510
▁1996	-1511
克林顿政府	-1512
农业产业化	-1513
北京音乐厅	-1514
印度尼西亚	-1515
各民主党派	-1516
改革开放和	-1517
针织制衣厂	-1518
世界华文文学	-1519
全国各族人民	-1520
农田水利建设	-1521
完成祖国统一	-1522
战斗故事丛书	-1523
驻南非共和国	-1524
建设有中国特色	-1525
建设有中国特色社会主义	-1526
高举邓小平理论伟大旗帜	-1527
.2	-1528
.3	-1529
17	-1530
18	-1531
29	-1532
45	-1533
93	-1534
:‘	-1535
—6	-1536
▁与	-1537
▁中	-1538
▁五	-1539
▁冬	-1540
▁几	-1541
▁另	-1542
▁小	-1543
▁就	-1544
▁年	-1545
▁徐	-1546
▁是	-1547
▁最	-1548
▁至	-1549
』,	-1550
一大	-1551
一套	-1552
一把	-1553
三年	-1554
上了	-1555
下岗	-1556
不再	-1557
不到	-1558
不可	-1559
不得	-1560
不懈	-1561
不能	-1562
专门	-1563
东直	-1564
两个	-1565
两亩	-1566
两次	-1567
两节	-1568
严禁	-1569
中东	-1570
中有	-1571
中版	-1572
中说	-1573
为核	-1574
为纽	-1575
主导	-1576
之所	-1577
乐队	-1578
也有	-1579
也要	-1580
书法	-1581
书籍	-1582
事件	-1583
产量	-1584
亲人	-1585
亲切	-1586
人心	-1587
仍然	-1588
以为	-1589
以军	-1590
以往	-1591
体现	-1592
使其	-1593
使馆	-1594
依多	-1595
依托	-1596
做了	-1597
先后	-1598
全年	-1599
全镇	-1600
八一	-1601
八达	-1602
兴建	-1603
兵书	-1604
冲击	-1605
刚刚	-1606
创汇	-1607
初步	-1608
前景	-1609
动员	-1610
勃勃	-1611
勒陀	-1612
十大	-1613
博物	-1614
历代	-1615
压力	-1616
又一	-1617
又有	-1618
发菜	-1619
受伤	-1620
受到	-1621
变化	-1622
只能	-1623
合影	-1624
名人	-1625
吸收	-1626
周年	-1627
命运	-1628
品格	-1629
商品	-1630
喷发	-1631
回应	-1632
因素	-1633
团体	-1634
图文	-1635
地委	-1636
垦区	-1637
堵塞	-1638
增产	-1639
处理	-1640
处的	-1641
多元	-1642
多数	-1643
多种	-1644
大力	-1645
大型	-1646
大批	-1647
大部	-1648
大量	-1649
大雨	-1650
天安	-1651
女儿	-1652
妇女	-1653
始终	-1654
委会	-1655
孤寡	-1656
孩子	-1657
完全	-1658
家乡	-1659
密切	-1660
富强	-1661
小康	-1662
履行	-1663
岁末	-1664
巩固	-1665
市民	-1666
带头	-1667
平等	-1668
年大	-1669
年轻	-1670
并不	-1671
并且	-1672
座谈	-1673
当今	-1674
当代	-1675
当局	-1676
彩的	-1677
往来	-1678
德国	-1679
意见	-1680
感受	-1681
成人	-1682
成效	-1683
所谓	-1684
才能	-1685
扎实	-1686
抗日	-1687
担心	-1688
拿出	-1689
挑战	-1690
挖掘	-1691
描述	-1692
摆脱	-1693
收回	-1694
收集	-1695
效应	-1696
整个	-1697
文字	-1698
文选	-1699
新航	-1700
新闻	-1701
方的	-1702
无疑	-1703
无论	-1704
旧迎	-1705
是在	-1706
是有	-1707
曲目	-1708
更是	-1709
最大	-1710
望着	-1711
机关	-1712
机构	-1713
李瑞	-1714
树立	-1715
根本	-1716
格外	-1717
欢庆	-1718
歌唱	-1719
正常	-1720
每个	-1721
每天	-1722
比赛	-1723
毫不	-1724
海峡	-1725
消息	-1726
淀粉	-1727
深化	-1728
清醒	-1729
濒临	-1730
牡丹	-1731
率先	-1732
现象	-1733
珍贵	-1734
瑞士	-1735
生存	-1736
用于	-1737
界的	-1738
百年	-1739
的多	-1740
的气	-1741
的精	-1742
的群	-1743
的西	-1744
监控	-1745
相对	-1746
相比	-1747
知道	-1748
短短	-1749
石油	-1750
确保	-1751
社论	-1752
种种	-1753
称谓	-1754
立场	-1755
竞争	-1756
等地	-1757
筑路	-1758
筹资	-1759
篆刻	-1760
米兰	-1761
紧张	-1762
纪实	-1763
纪录	-1764
纪念	-1765
经典	-1766
经常	-1767
经理	-1768
绿化	-1769
编写	-1770
老板	-1771
耕地	-1772
背景	-1773
能力	-1774
自觉	-1775
自身	-1776
至少	-1777
致使	-1778
良好	-1779
艰难	-1780
获得	-1781
蓬勃	-1782
行业	-1783
行使	-1784
行署	-1785
街道	-1786
表明	-1787
规划	-1788
规定	-1789
规范	-1790
评为	-1791
象征	-1792
货膨	-1793
质量	-1794
贯彻	-1795
贺年	-1796
转业	-1797
转化	-1798
较为	-1799
较强	-1800
过程	-1801
这套	-1802
适应	-1803
选择	-1804
选编	-1805
遇到	-1806
遣散	-1807
都在	-1808
都要	-1809
采用	-1810
销售	-1811
长期	-1812
阅读	-1813
阵线	-1814
限制	-1815
除了	-1816
集中	-1817
靠着	-1818
面貌	-1819
预计	-1820
风景	-1821
首批	-1822
香榭	-1823
验收	-1824
高兴	-1825
高峰	-1826
高等	-1827
鲜活	-1828
黄河	-1829
黑龙	-1830
120	-1831
’98	-1832
▁三是	-1833
▁为了	-1834
▁二是	-1835
▁人民	-1836
▁全国	-1837
▁南非	-1838
▁如果	-1839
▁所画	-1840
▁日本	-1841
▁来自	-1842
▁现在	-1843
▁西藏	-1844
▁这次	-1845
一世纪	-1846
一定要	-1847
一把手	-1848
与合作	-1849
世纪的	-1850
东直门	-1851
中国民	-1852
中心的	-1853
中融入	-1854
为促进	-1855
为纽带	-1856
主干道	-1857
了一个	-1858
了中国	-1859
了许多	-1860
他们的	-1861
以北大	-1862
众多的	-1863
伟大的	-1864
依多金	-1865
党中央	-1866
全新的	-1867
全球化	-1868
八达岭	-1869
养殖业	-1870
出席了	-1871
创作中	-1872
到中国	-1873
办沼气	-1874
北地区	-1875
十二月	-1876
升国旗	-1877
博物馆	-1878
原有的	-1879
反政府	-1880
发展和	-1881
取得的	-1882
吸引了	-1883
和人民	-1884
和平与	-1885
在一个	-1886
在这里	-1887
地开展	-1888
城乡游	-1889
增长率	-1890
大农场	-1891
天安门	-1892
对中国	-1893
对记者	-1894
将下降	-1895
将继续	-1896
工商联	-1897
带领下	-1898
年产值	-1899
引起了	-1900
总书记	-1901
成功的	-1902
所有权	-1903
无党派	-1904
有大雨	-1905
李瑞环	-1906
标志着	-1907
每一个	-1908
比勒陀	-1909
版卢布	-1910
的一些	-1911
的交流	-1912
的关键	-1913
的国际	-1914
的存款	-1915
的学者	-1916
的时间	-1917
的艺术	-1918
的英雄	-1919
的贡献	-1920
的问题	-1921
研究的	-1922
社会的	-1923
祝大家	-1924
第一个	-1925
第九届	-1926
纯收入	-1927
经济林	-1928
美国的	-1929
自然村	-1930
自然的	-1931
表演队	-1932
解决了	-1933
记录了	-1934
记者王	-1935
负责人	-1936
贫困户	-1937
辞旧迎	-1938
边防军	-1939
送温暖	-1940
通货膨	-1941
银行和	-1942
黑龙江	-1943
1989	-1944
1992	-1945
1993	-1946
1995	-1947
2000	-1948
7000	-1949
▁可以说	-1950
▁秦华孙	-1951
下岗职工	-1952
世界各国	-1953
中国现代	-1954
中国美术	-1955
中央银行	-1956
主导产业	-1957
九九八年	-1958
交通环境	-1959
人均收入	-1960
人民军队	-1961
企业并购	-1962
健康发展	-1963
台湾当局	-1964
各级党委	-1965
团结起来	-1966
国防建设	-1967
国防教育	-1968
国际机场	-1969
外交政策	-1970
外交部长	-1971
女作家的	-1972
孤寡老人	-1973
对记者说	-1974
展望未来	-1975
平均气温	-1976
没有忘记	-1977
爱国人士	-1978
登高活动	-1979
积极参与	-1980
等方面的	-1981
结合起来	-1982
脱贫致富	-1983
良性循环	-1984
艰苦奋斗	-1985
行使主权	-1986
资源优势	-1987
雷达管制	-1988
青年油画	-1989
,1996	-1990
▁1991	-1991
二十一世纪	-1992
人民出版社	-1993
全国委员会	-1994
全国工商联	-1995
冷空气影响	-1996
升国旗仪式	-1997
华夏城乡游	-1998
历史人物的	-1999
反政府武装	-2000
发展中国家	-2001
在茶话会上	-2002
天安门广场	-2003
孙其峰先生	-2004
恢复对香港	-2005
新年茶话会	-2006
无家可归者	-2007
有小到中雨	-2008
比勒陀利亚	-2009
第一次会议	-2010
自治区党委	-2011
香港大学生	-2012
高等级公路	-2013
▁一九九七年	-2014
中国现代文学	-2015
以北大部地区	-2016
南非华人华侨	-2017
发展中国家的	-2018
祖国和平统一	-2019
转业退伍军人	-2020
中融入计划生育	-2021
国务院副总理兼	-2022
外交部长钱其琛	-2023
香港特别行政区	-2024
完成祖国统一大业	-2025
维也纳新年音乐会	-2026
恢复对香港行使主权	-2027
驻南非共和国大使馆	-2028
改革开放和现代化建设	-2029
把建设有中国特色社会主义	-2030
国务院副总理兼外交部长钱其琛	-2031
扶贫开发与计划生育相结合工作	-2032
把建设有中国特色社会主义事业	-2033
中华人民共和国驻南非共和国大使馆	-2034
)、	-2035
,2	-2036
,『	-2037
.7	-2038
.9	-2039
16	-2040
2、	-2041
42	-2042
48	-2043
49	-2044
5、	-2045
63	-2046
72	-2047
:『	-2048
”;	-2049
‰,	-2050
▁』	-2051
▁云	-2052
▁俄	-2053
▁只	-2054
▁四	-2055
▁尼	-2056
▁忧	-2057
▁曾	-2058
▁海	-2059
▁编	-2060
▁随	-2061
』。	-2062
一块	-2063
一度	-2064
一时	-2065
一派	-2066
一流	-2067
一番	-2068
一百	-2069
一致	-2070
一般	-2071
一跃	-2072
一路	-2073
一辆	-2074
一道	-2075
一项	-2076
七十	-2077
万个	-2078
万名	-2079
万吨	-2080
万户	-2081
三次	-2082
三通	-2083
上到	-2084
上市	-2085
上月	-2086
上迈	-2087
下乡	-2088
下午	-2089
下去	-2090
下游	-2091
不上	-2092
不为	-2093
不仅	-2094
不但	-2095
不少	-2096
不开	-2097
不约	-2098
不衰	-2099
不足	-2100
与其	-2101
专业	-2102
两地	-2103
两豆	-2104
中学	-2105
主任	-2106
主的	-2107
丽生	-2108
丽的	-2109
丽舍	-2110
举措	-2111
么多	-2112
义诊	-2113
之以	-2114
之作	-2115
之后	-2116
之外	-2117
之年	-2118
乌大	-2119
乌骨	-2120
乎情	-2121
乐团	-2122
乔石	-2123
九五	-2124
九年	-2125
也不	-2126
书长	-2127
事务	-2128
事的	-2129
二百	-2130
互补	-2131
亚胡	-2132
交给	-2133
交融	-2134
人与	-2135
人为	-2136
人才	-2137
人群	-2138
仅有	-2139
从事	-2140
仓库	-2141
他的	-2142
代的	-2143
以前	-2144
以后	-2145
以至	-2146
们的	-2147
件事	-2148
优惠	-2149
优良	-2150
会费	-2151
位置	-2152
你们	-2153
佩特	-2154
使命	-2155
使我	-2156
侨胞	-2157
倒闭	-2158
假日	-2159
做起	-2160
停止	-2161
停车	-2162
健行	-2163
健身	-2164
允许	-2165
先河	-2166
光荣	-2167
党政	-2168
全乡	-2169
全长	-2170
公园	-2171
公益	-2172
共有	-2173
关怀	-2174
兴致	-2175
兵学	-2176
兵法	-2177
其它	-2178
养量	-2179
养鱼	-2180
内塔	-2181
内涵	-2182
冉冉	-2183
再现	-2184
军营	-2185
军装	-2186
准备	-2187
凝聚	-2188
几个	-2189
几年	-2190
出于	-2191
分忧	-2192
刘华	-2193
刚果	-2194
到家	-2195
到来	-2196
前往	-2197
剖析	-2198
力度	-2199
办了	-2200
办水	-2201
功夫	-2202
加拉	-2203
加拿	-2204
务必	-2205
动摇	-2206
动迁	-2207
劳斯	-2208
势头	-2209
勇敢	-2210
化和	-2211
十个	-2212
十多	-2213
十年	-2214
千余	-2215
升起	-2216
半年	-2217
半数	-2218
华的	-2219
协力	-2220
南部	-2221
博览	-2222
占全	-2223
卡特	-2224
卡翁	-2225
卢巴	-2226
印尼	-2227
却又	-2228
厂房	-2229
厂里	-2230
厂长	-2231
原因	-2232
原子	-2233
原有	-2234
县县	-2235
县市	-2236
又在	-2237
及其	-2238
友谊	-2239
双边	-2240
发了	-2241
发动	-2242
发扬	-2243
发放	-2244
合并	-2245
合格	-2246
同地	-2247
听说	-2248
启发	-2249
员工	-2250
命名	-2251
和景	-2252
商业	-2253
喜悦	-2254
因而	-2255
困境	-2256
国歌	-2257
国的	-2258
图书	-2259
图像	-2260
在于	-2261
在京	-2262
在大	-2263
场所	-2264
场面	-2265
坚信	-2266
坚决	-2267
坚强	-2268
坪上	-2269
培养	-2270
塔拉	-2271
增添	-2272
处可	-2273
备了	-2274
外地	-2275
外长	-2276
多样	-2277
大军	-2278
大厅	-2279
大国	-2280
大胆	-2281
大陆	-2282
天内	-2283
天地	-2284
天气	-2285
夫妇	-2286
女士	-2287
奶奶	-2288
好事	-2289
好像	-2290
好地	-2291
好者	-2292
好转	-2293
如常	-2294
妇联	-2295
妈妈	-2296
妥协	-2297
委副	-2298
学到	-2299
学贤	-2300
学院	-2301
完整	-2302
官员	-2303
实事	-2304
审议	-2305
宣传	-2306
家中	-2307
寒冬	-2308
寒风	-2309
对外	-2310
对待	-2311
将于	-2312
将以	-2313
将对	-2314
小区	-2315
小厂	-2316
小姐	-2317
小说	-2318
少生	-2319
就在	-2320
就职	-2321
山西	-2322
岁月	-2323
岚清	-2324
川籍	-2325
工会	-2326
巨大	-2327
巴以	-2328
巴基	-2329
市区	-2330
布局	-2331
布置	-2332
带着	-2333
常驻	-2334
干警	-2335
平稳	-2336
平静	-2337
年内	-2338
年是	-2339
年被	-2340
年起	-2341
并为	-2342
广播	-2343
广阔	-2344
底子	-2345
延长	-2346
建华	-2347
建管	-2348
建起	-2349
开局	-2350
引人	-2351
引发	-2352
引水	-2353
引述	-2354
强大	-2355
当家	-2356
彩虹	-2357
彻底	-2358
很大	-2359
很有	-2360
律宾	-2361
徘徊	-2362
必要	-2363
忙碌	-2364
快富	-2365
态度	-2366
总数	-2367
恩佐	-2368
悲鸿	-2369
愉快	-2370
意味	-2371
感谢	-2372
懂得	-2373
成立	-2374
战役	-2375
截至	-2376
户户	-2377
扶持	-2378
批发	-2379
承包	-2380
承担	-2381
抓住	-2382
投产	-2383
抢救	-2384
拜年	-2385
拿起	-2386
指数	-2387
挤在	-2388
接着	-2389
接触	-2390
推开	-2391
推行	-2392
改组	-2393
攻坚	-2394
放水	-2395
政局	-2396
故乡	-2397
效果	-2398
救助	-2399
救援	-2400
整洁	-2401
文告	-2402
新春	-2403
新鲜	-2404
旨在	-2405
时说	-2406
明珠	-2407
是个	-2408
显示	-2409
显著	-2410
显露	-2411
普遍	-2412
智慧	-2413
更大	-2414
更新	-2415
最终	-2416
最近	-2417
月份	-2418
月的	-2419
有些	-2420
有名	-2421
有芳	-2422
服从	-2423
服装	-2424
未能	-2425
本书	-2426
本是	-2427
本领	-2428
朱镕	-2429
机遇	-2430
李升	-2431
李鹏	-2432
村庄	-2433
来临	-2434
极不	-2435
林果	-2436
架次	-2437
柴节	-2438
栋梁	-2439
梅塔	-2440
模范	-2441
欢快	-2442
欢聚	-2443
欣赏	-2444
欧洲	-2445
正义	-2446
步入	-2447
武警	-2448
毅仁	-2449
每月	-2450
每次	-2451
民间	-2452
气球	-2453
水是	-2454
永远	-2455
江淮	-2456
江西	-2457
河北	-2458
河边	-2459
治港	-2460
治理	-2461
法国	-2462
波波	-2463
注意	-2464
活页	-2465
深入	-2466
深厚	-2467
深地	-2468
清了	-2469
清晨	-2470
温宪	-2471
温棚	-2472
游客	-2473
滋润	-2474
滚动	-2475
满足	-2476
演艺	-2477
激光	-2478
激情	-2479
激越	-2480
煤灶	-2481
爆竹	-2482
物价	-2483
物品	-2484
牵头	-2485
狠抓	-2486
玉茭	-2487
现出	-2488
理事	-2489
理性	-2490
生意	-2491
生机	-2492
电脑	-2493
画院	-2494
画面	-2495
界限	-2496
病防	-2497
百分	-2498
百家	-2499
的体	-2500
的八	-2501
的小	-2502
的热	-2503
的窗	-2504
的编	-2505
的老	-2506
的话	-2507
的预	-2508
的高	-2509
监督	-2510
相当	-2511
相聚	-2512
省区	-2513
省委	-2514
真的	-2515
眼下	-2516
知名	-2517
破坏	-2518
破船	-2519
确实	-2520
确的	-2521
祈祷	-2522
祥和	-2523
禁止	-2524
种植	-2525
科研	-2526
称为	-2527
程序	-2528
立传	-2529
签署	-2530
签订	-2531
简单	-2532
篇章	-2533
素质	-2534
累计	-2535
红灯	-2536
约翰	-2537
纲领	-2538
纸上	-2539
练市	-2540
经久	-2541
结果	-2542
绘画	-2543
维持	-2544
缓解	-2545
缔造	-2546
罗干	-2547
罗马	-2548
美好	-2549
老区	-2550
而又	-2551
而言	-2552
联酋	-2553
聚集	-2554
聪明	-2555
背土	-2556
背篓	-2557
脚下	-2558
致词	-2559
良知	-2560
艰巨	-2561
艰辛	-2562
节约	-2563
花卉	-2564
花园	-2565
花生	-2566
若干	-2567
范围	-2568
荣誉	-2569
著作	-2570
蔓延	-2571
血与	-2572
行的	-2573
街头	-2574
补贴	-2575
表达	-2576
覆盖	-2577
见到	-2578
见的	-2579
观点	-2580
规律	-2581
视学	-2582
讲解	-2583
讲述	-2584
设备	-2585
话剧	-2586
课题	-2587
谁有	-2588
谱写	-2589
贺词	-2590
资助	-2591
资料	-2592
走访	-2593
跑道	-2594
路线	-2595
身边	-2596
轨道	-2597
转让	-2598
软禁	-2599
输入	-2600
迅速	-2601
过后	-2602
过好	-2603
过渡	-2604
运作	-2605
运用	-2606
还要	-2607
这位	-2608
这里	-2609
进取	-2610
进口	-2611
进展	-2612
进的	-2613
远远	-2614
送去	-2615
适当	-2616
选定	-2617
通信	-2618
通史	-2619
通告	-2620
郑州	-2621
都市	-2622
采访	-2623
长篇	-2624
长远	-2625
门外	-2626
问候	-2627
间接	-2628
间隔	-2629
队伍	-2630
阵阵	-2631
阿里	-2632
随笔	-2633
难题	-2634
零下	-2635
面值	-2636
面向	-2637
题为	-2638
风格	-2639
风采	-2640
首次	-2641
马恩	-2642
驱车	-2643
高产	-2644
高架	-2645
高涨	-2646
鸣枪	-2647
齐心	-2648
160	-2649
30%	-2650
340	-2651
7.6	-2652
▁一个	-2653
▁不过	-2654
▁两岸	-2655
▁五是	-2656
▁他对	-2657
▁位于	-2658
▁作为	-2659
▁全区	-2660
▁其次	-2661
▁北京	-2662
▁四是	-2663
▁国家	-2664
▁在这	-2665
▁垦区	-2666
▁尤其	-2667
▁尽管	-2668
▁当前	-2669
▁忧其	-2670
▁明天	-2671
▁是的	-2672
▁有人	-2673
▁根据	-2674
▁正是	-2675
▁此外	-2676
▁电子	-2677
▁经过	-2678
▁至此	-2679
▁英国	-2680
▁贵阳	-2681
▁过去	-2682
▁这个	-2683
▁这种	-2684
▁这项	-2685
▁进入	-2686
▁通过	-2687
▁韩国	-2688
▁首都	-2689
万人次	-2690
万加元	-2691
三十部	-2692
下降到	-2693
不约而	-2694
东部和	-2695
个主要	-2696
中下游	-2697
中国画	-2698
中有的	-2699
为主体	-2700
为目标	-2701
为老人	-2702
举行的	-2703
乌骨鸡	-2704
书记处	-2705
了农民	-2706
事业的	-2707
事件的	-2708
人心的	-2709
人死亡	-2710
亿公斤	-2711
传统的	-2712
体现了	-2713
作出了	-2714
作品中	-2715
使命感	-2716
使宁夏	-2717
使我们	-2718
促进了	-2719
保持了	-2720
保持着	-2721
充满了	-2722
全社会	-2723
公司的	-2724
关心和	-2725
内塔尼	-2726
决定从	-2727
出版了	-2728
刘华清	-2729
利税超	-2730
副主席	-2731
办企业	-2732
加入了	-2733
加拉瓜	-2734
加拿大	-2735
动人的	-2736
千万元	-2737
升起的	-2738
华大使	-2739
卡翁达	-2740
卢布兑	-2741
历史学	-2742
历史性	-2743
历史真	-2744
原则下	-2745
反映了	-2746
发乎情	-2747
发表了	-2748
发表的	-2749
各主要	-2750
各界的	-2751
合作和	-2752
同时也	-2753
吐乌大	-2754
向世界	-2755
向全国	-2756
向韩国	-2757
和中国	-2758
和保护	-2759
和各界	-2760
和引导	-2761
和景仰	-2762
和海外	-2763
和管理	-2764
团结在	-2765
国内外	-2766
国防部	-2767
地坚持	-2768
坚实的	-2769
基本法	-2770
塔拉尔	-2771
多年的	-2772
大中型	-2773
大博览	-2774
奇卢巴	-2775
她们是	-2776
学术界	-2777
安排好	-2778
家银行	-2779
尉健行	-2780
小农场	-2781
小客人	-2782
就以军	-2783
就可以	-2784
展示了	-2785
带动了	-2786
带来了	-2787
年轻的	-2788
广场上	-2789
座谈会	-2790
强烈的	-2791
当时的	-2792
影响的	-2793
思想的	-2794
总人口	-2795
总额为	-2796
成为连	-2797
户特困	-2798
所在的	-2799
推出的	-2800
改革和	-2801
政府要	-2802
政治局	-2803
文明号	-2804
文明的	-2805
新世纪	-2806
新能源	-2807
旅游业	-2808
时代的	-2809
是一种	-2810
是那样	-2811
最大的	-2812
有效地	-2813
望着这	-2814
本丛书	-2815
朱镕基	-2816
李岚清	-2817
李润五	-2818
村民的	-2819
村里的	-2820
村集体	-2821
条件和	-2822
极大地	-2823
树新风	-2824
每年可	-2825
比上年	-2826
水平的	-2827
水资源	-2828
活动的	-2829
深深地	-2830
湖州市	-2831
演艺界	-2832
灿烂的	-2833
爱好者	-2834
特困户	-2835
王学贤	-2836
理论和	-2837
用笔精	-2838
病防治	-2839
的一份	-2840
的一大	-2841
的一步	-2842
的世界	-2843
的主人	-2844
的主体	-2845
的事情	-2846
的优势	-2847
的先进	-2848
的光辉	-2849
的关系	-2850
的农民	-2851
的北京	-2852
的卢布	-2853
的史籍	-2854
的各项	-2855
的大门	-2856
的家中	-2857
的工作	-2858
的工程	-2859
的希望	-2860
的战略	-2861
的指导	-2862
的汇率	-2863
的目标	-2864
的第一	-2865
的经验	-2866
的职工	-2867
的还有	-2868
省十大	-2869
省政府	-2870
省柴节	-2871
研究所	-2872
确立了	-2873
社照片	-2874
秘书长	-2875
积极性	-2876
立方米	-2877
第一路	-2878
等部门	-2879
精彩的	-2880
紧密地	-2881
组成的	-2882
经济和	-2883
给我们	-2884
继续在	-2885
而努力	-2886
艺术家	-2887
荣毅仁	-2888
菲律宾	-2889
董建华	-2890
认识到	-2891
认识的	-2892
让我们	-2893
议题的	-2894
记者刘	-2895
许多人	-2896
资金和	-2897
迎新年	-2898
迎来了	-2899
近千名	-2900
进行曲	-2901
透视学	-2902
通胀率	-2903
造成的	-2904
邮电部	-2905
重要的	-2906
阿联酋	-2907
饲养量	-2908
1500	-2909
1986	-2910
5000	-2911
▁———	-2912
▁中国的	-2913
▁他代表	-2914
▁北京市	-2915
▁北大荒	-2916
▁据介绍	-2917
▁本报驻	-2918
▁特别是	-2919
▁近年来	-2920
三十一日	-2921
不同程度	-2922
世界沙漠	-2923
东北地区	-2924
东方明珠	-2925
两岸直接	-2926
个贫困县	-2927
中华活页	-2928
为核心的	-2929
丽舍大街	-2930
人民布厂	-2931
人民日报	-2932
人民生活	-2933
以江泽民	-2934
传统美德	-2935
佩特火山	-2936
党和人民	-2937
党和国家	-2938
党支部的	-2939
全面推进	-2940
八一飞行	-2941
共同关心	-2942
共同奋斗	-2943
农业基础	-2944
农民收入	-2945
农田水利	-2946
十分重视	-2947
华人华侨	-2948
卢布改值	-2949
友好合作	-2950
双泾村的	-2951
发出倡议	-2952
发行任务	-2953
发表社论	-2954
各项工作	-2955
向关心和	-2956
吕梁地区	-2957
和意大利	-2958
和无党派	-2959
团结一致	-2960
国务委员	-2961
基础设施	-2962
外交关系	-2963
大力发展	-2964
大办沼气	-2965
完全统一	-2966
少生快富	-2967
工程项目	-2968
巴基斯坦	-2969
市场经济	-2970
干部群众	-2971
庆祝联欢	-2972
彩虹花园	-2973
成为全国	-2974
批发市场	-2975
技术人员	-2976
抗日战争	-2977
推向前进	-2978
推广普及	-2979
散文随笔	-2980
文明小区	-2981
新华社发	-2982
新年好运	-2983
日电香港	-2984
最后一个	-2985
服务活动	-2986
正式开馆	-2987
波波卡特	-2988
渠道筹集	-2989
港人治港	-2990
澳门同胞	-2991
濒临倒闭	-2992
灌溉面积	-2993
物质遗存	-2994
甚至还有	-2995
相结合的	-2996
着自己的	-2997
知识分子	-2998
粮食连续	-2999
组成部分	-3000
经久不衰	-3001
经济增长	-3002
航空公司	-3003
贫困人口	-3004
贯彻落实	-3005
走访慰问	-3006
辞旧迎新	-3007
这项工作	-3008
违章车辆	-3009
郑重呼吁	-3010
重新部署	-3011
重要讲话	-3012
隆重举行	-3013
高度自治	-3014
高效农业	-3015
▁中共中央	-3016
▁小扎耶德	-3017
▁新年前夕	-3018
▁钱其琛说	-3019
一九九七年	-3020
不约而同地	-3021
世界和平与	-3022
两岸同胞的	-3023
中国现代化	-3024
人均纯收入	-3025
代表秦华孙	-3026
党中央周围	-3027
内塔尼亚胡	-3028
到困难企业	-3029
历史事件的	-3030
历史真实的	-3031
和海外侨胞	-3032
城乡敬老院	-3033
就可以学到	-3034
常驻联合国	-3035
建立和完善	-3036
张安惠女士	-3037
整理和保护	-3038
更加紧密地	-3039
有小到中雪	-3040
演艺界人士	-3041
现代化农业	-3042
的经济形势	-3043
的节日气氛	-3044
省柴节煤灶	-3045
祖国和人民	-3046
系列音乐会	-3047
紧密团结在	-3048
纸上博物馆	-3049
经济发展的	-3050
良好的祝愿	-3051
过去的一年	-3052
送温暖活动	-3053
逛农贸市场	-3054
长江中下游	-3055
阅读和景仰	-3056
青年文明号	-3057
领域的交流	-3058
▁一九九八年	-3059
世界各国人民	-3060
两岸经济合作	-3061
中华活页文选	-3062
中国的原则下	-3063
主题性创作的	-3064
全球企业并购	-3065
实现两岸直接	-3066
改革开放以来	-3067
政治协商会议	-3068
是中华民族的	-3069
祈祷新年好运	-3070
解放军出版社	-3071
解放军指战员	-3072
计划生育服务	-3073
道路交通管理	-3074
首都国际机场	-3075
香榭丽舍大街	-3076
世界沙漠第一路	-3077
两岸关系的发展	-3078
中华文明大博览	-3079
党支部的带领下	-3080
党的十五大精神	-3081
八一飞行表演队	-3082
贯彻落实十五大	-3083
较强冷空气影响	-3084
香港的繁荣稳定	-3085
中国现代文学百家	-3086
吐乌大高等级公路	-3087
向香港特别行政区	-3088
波波卡特佩特火山	-3089
青少年就可以学到	-3090
全国工商联和无党派	-3091
农田水利建设和管理	-3092
台湾同胞和海外侨胞	-3093
在一个中国的原则下	-3094
更加紧密地团结起来	-3095
中国人民政治协商会议	-3096
向香港特别行政区同胞	-3097
常驻联合国代表秦华孙	-3098
是中华民族的传统美德	-3099
,6	-3100
,8	-3101
,《	-3102
/3	-3103
1—	-3104
1、	-3105
5%	-3106
76	-3107
79	-3108
82	-3109
89	-3110
—5	-3111
▁3	-3112
▁京	-3113
▁入	-3114
▁刘	-3115
▁前	-3116
▁同	-3117
▁国	-3118
▁外	-3119
▁岁	-3120
▁总	-3121
▁时	-3122
▁村	-3123
▁柳	-3124
▁献	-3125
▁翻	-3126
▁自	-3127
▁董	-3128
▁让	-3129
▁那	-3130
▁马	-3131
一举	-3132
一件	-3133
一元	-3134
一响	-3135
一场	-3136
一堂	-3137
一家	-3138
一市	-3139
一律	-3140
一户	-3141
一批	-3142
一支	-3143
一期	-3144
一片	-3145
一股	-3146
一部	-3147
一首	-3148
万亿	-3149
万只	-3150
万国	-3151
万头	-3152
万方	-3153
万里	-3154
三人	-3155
上任	-3156
上加	-3157
上升	-3158
上台	-3159
上学	-3160
上对	-3161
上演	-3162
上百	-3163
上门	-3164
下了	-3165
下来	-3166
下而	-3167
不住	-3168
不利	-3169
不在	-3170
不敢	-3171
不时	-3172
不禁	-3173
不等	-3174
不绝	-3175
不要	-3176
不见	-3177
与史	-3178
与海	-3179
专程	-3180
专访	-3181
世的	-3182
世行	-3183
世间	-3184
丝绸	-3185
两者	-3186
严峻	-3187
个分	-3188
个多	-3189
中卫	-3190
中山	-3191
中最	-3192
中期	-3193
中英	-3194
中阳	-3195
丰收	-3196
临川	-3197
为之	-3198
为止	-3199
.1	-3200
32	-3201
43	-3202
‰。	-3203
下有	-3204
两位	-3205
严寒	-3206
为把	-3207
为民	-3208
主办	-3209
主编	-3210
久前	-3211
么高	-3212
义昭	-3213
义演	-3214
之两	-3215
之争	-3216
之前	-3217
之处	-3218
之夜	-3219
之大	-3220
之师	-3221
之急	-3222
之手	-3223
之类	-3224
之道	-3225
乌鲁	-3226
乎理	-3227
乐趣	-3228
也可	-3229
也将	-3230
也很	-3231
也曾	-3232
习惯	-3233
书中	-3234
书局	-3235
买回	-3236
买提	-3237
了两	-3238
了我	-3239
予以	-3240
争取	-3241
事早	-3242
事本	-3243
事知	-3244
于徐	-3245
于情	-3246
于用	-3247
互利	-3248
互相	-3249
五国	-3250
五项	-3251
交出	-3252
交响	-3253
交管	-3254
产权	-3255
亩地	-3256
享受	-3257
享誉	-3258
亮的	-3259
人权	-3260
人次	-3261
人死	-3262
人相	-3263
人能	-3264
人车	-3265
亿万	-3266
今后	-3267
仍为	-3268
仍有	-3269
他说	-3270
代奇	-3271
以下	-3272
份额	-3273
仿佛	-3274
伊始	-3275
伊斯	-3276
会晤	-3277
会长	-3278
传授	-3279
传神	-3280
似乎	-3281
低了	-3282
低于	-3283
住在	-3284
体有	-3285
何况	-3286
使之	-3287
使水	-3288
依次	-3289
依法	-3290
依然	-3291
依赖	-3292
侠骨	-3293
保卫	-3294
信念	-3295
儿女	-3296
元复	-3297
兄弟	-3298
充足	-3299
39	-3300
46	-3301
55	-3302
96	-3303
▁8	-3304
▁孙	-3305
三愿	-3306
上涨	-3307
为何	-3308
主体	-3309
主动	-3310
举世	-3311
乡村	-3312
买一	-3313
人还	-3314
会的	-3315
会见	-3316
伴随	-3317
保留	-3318
光的	-3319
光英	-3320
兑换	-3321
党全	-3322
党刊	-3323
党报	-3324
入境	-3325
全书	-3326
全程	-3327
公共	-3328
公报	-3329
六十	-3330
兴修	-3331
兴县	-3332
兴国	-3333
兴起	-3334
兵器	-3335
其精	-3336
典籍	-3337
兼备	-3338
再创	-3339
写到	-3340
军属	-3341
冬的	-3342
冰雪	-3343
冲突	-3344
冷却	-3345
净化	-3346
净的	-3347
减轻	-3348
几亩	-3349
几条	-3350
出资	-3351
分成	-3352
分类	-3353
分裂	-3354
分量	-3355
切入	-3356
划拨	-3357
刘志	-3358
则几	-3359
则多	-3360
则是	-3361
创业	-3362
创建	-3363
创意	-3364
利落	-3365
到处	-3366
制宜	-3367
前去	-3368
前屋	-3369
前提	-3370
前程	-3371
前锋	-3372
剧院	-3373
力的	-3374
办公	-3375
办学	-3376
功力	-3377
加上	-3378
加深	-3379
动辄	-3380
募捐	-3381
包袱	-3382
区县	-3383
医学	-3384
十七	-3385
千里	-3386
千锤	-3387
升旗	-3388
华盛	-3389
卖主	-3390
南宁	-3391
南方	-3392
占地	-3393
卡比	-3394
卡车	-3395
印在	-3396
印象	-3397
即使	-3398
却在	-3399
22	-3400
33	-3401
85	-3402
》(	-3403
一边	-3404
上为	-3405
中标	-3406
中求	-3407
为重	-3408
亲手	-3409
仅是	-3410
们都	-3411
休眠	-3412
伴唱	-3413
修筑	-3414
储备	-3415
党在	-3416
公正	-3417
公用	-3418
兰堡	-3419
共处	-3420
农妇	-3421
凯旋	-3422
初级	-3423
华安	-3424
卡斯	-3425
却是	-3426
原来	-3427
去了	-3428
县乡	-3429
县长	-3430
参展	-3431
参股	-3432
又从	-3433
友人	-3434
双方	-3435
反党	-3436
反复	-3437
反应	-3438
反腐	-3439
发电	-3440
取消	-3441
受益	-3442
变为	-3443
变得	-3444
古史	-3445
古城	-3446
只是	-3447
只有	-3448
只身	-3449
叫我	-3450
可先	-3451
可泣	-3452
可观	-3453
台上	-3454
史上	-3455
史哲	-3456
号码	-3457
各以	-3458
各行	-3459
合同	-3460
合唱	-3461
同一	-3462
同学	-3463
同期	-3464
名从	-3465
名列	-3466
名字	-3467
名誉	-3468
后人	-3469
后来	-3470
向传	-3471
呈现	-3472
周锡	-3473
呼声	-3474
命令	-3475
和恶	-3476
和气	-3477
和水	-3478
和睦	-3479
和美	-3480
和老	-3481
和那	-3482
咱们	-3483
品种	-3484
哈马	-3485
响应	-3486
喇叭	-3487
喜欢	-3488
四周	-3489
四大	-3490
四海	-3491
回荡	-3492
因地	-3493
困扰	-3494
围绕	-3495
国志	-3496
国春	-3497
国营	-3498
图本	-3499
28	-3500
▁即	-3501
▁潘	-3502
不必	-3503
东西	-3504
中南	-3505
临时	-3506
二重	-3507
仅为	-3508
伙子	-3509
全局	-3510
其实	-3511
冒着	-3512
出生	-3513
分流	-3514
分社	-3515
前夜	-3516
取代	-3517
可歌	-3518
名著	-3519
商会	-3520
回忆	-3521
图谱	-3522
在几	-3523
在夏	-3524
在异	-3525
在那	-3526
在高	-3527
地利	-3528
地同	-3529
地图	-3530
地处	-3531
地接	-3532
地缘	-3533
坚守	-3534
坚韧	-3535
培育	-3536
培训	-3537
基会	-3538
堵车	-3539
塑造	-3540
塔克	-3541
塔里	-3542
境界	-3543
增大	-3544
墨画	-3545
士学	-3546
壮歌	-3547
声中	-3548
处在	-3549
处处	-3550
处罚	-3551
复苏	-3552
外债	-3553
外国	-3554
外在	-3555
外来	-3556
外汇	-3557
多位	-3558
多处	-3559
多户	-3560
多边	-3561
多项	-3562
夜晚	-3563
大义	-3564
大众	-3565
大小	-3566
大山	-3567
大开	-3568
大桥	-3569
大运	-3570
天上	-3571
天下	-3572
天空	-3573
太行	-3574
太阳	-3575
夫斯	-3576
失衡	-3577
奉献	-3578
奋战	-3579
女性	-3580
女老	-3581
她那	-3582
好评	-3583
如今	-3584
如愿	-3585
如果	-3586
妹妹	-3587
姑妈	-3588
娱乐	-3589
媒体	-3590
子女	-3591
子里	-3592
字样	-3593
孤本	-3594
宁区	-3595
它的	-3596
安德	-3597
宗旨	-3598
官兵	-3599
一遍	-3600
上述	-3601
两件	-3602
也都	-3603
人静	-3604
以有	-3605
光彩	-3606
出自	-3607
厚重	-3608
同台	-3609
启彬	-3610
哲学	-3611
喜爱	-3612
四岁	-3613
在自	-3614
失传	-3615
定期	-3616
实况	-3617
审慎	-3618
审视	-3619
审验	-3620
客商	-3621
客观	-3622
家园	-3623
家庄	-3624
家禽	-3625
宾逊	-3626
宿舍	-3627
寒问	-3628
将为	-3629
将其	-3630
将在	-3631
将有	-3632
将来	-3633
小的	-3634
少量	-3635
尝试	-3636
就能	-3637
就要	-3638
就走	-3639
尼拉	-3640
尽早	-3641
尽的	-3642
局局	-3643
局面	-3644
层次	-3645
屏幕	-3646
展出	-3647
展开	-3648
展现	-3649
展览	-3650
山川	-3651
山水	-3652
山间	-3653
岗亭	-3654
工厂	-3655
工艺	-3656
工资	-3657
巨变	-3658
巨幅	-3659
巨额	-3660
已在	-3661
已是	-3662
已被	-3663
已达	-3664
巴黎	-3665
市委	-3666
希萨	-3667
带动	-3668
席卷	-3669
帮带	-3670
幅幅	-3671
幅度	-3672
干脆	-3673
平凡	-3674
平原	-3675
平方	-3676
平的	-3677
年中	-3678
年俄	-3679
年到	-3680
年后	-3681
年度	-3682
年无	-3683
并向	-3684
并茂	-3685
并重	-3686
并非	-3687
序幕	-3688
应征	-3689
度过	-3690
庭院	-3691
康生	-3692
建军	-3693
建新	-3694
建筑	-3695
建舟	-3696
建议	-3697
建造	-3698
开通	-3699
开那	-3700
引下	-3701
引进	-3702
张震	-3703
弥补	-3704
弦易	-3705
强劲	-3706
当选	-3707
形态	-3708
彩玲	-3709
彩色	-3710
彭珮	-3711
影视	-3712
往开	-3713
往往	-3714
往里	-3715
待遇	-3716
很少	-3717
很快	-3718
得多	-3719
得好	-3720
微笑	-3721
心愿	-3722
忠心	-3723
怀揣	-3724
怎么	-3725
思中	-3726
思念	-3727
悟出	-3728
悟和	-3729
情与	-3730
情地	-3731
情民	-3732
惊喜	-3733
想见	-3734
想象	-3735
感动	-3736
愿望	-3737
戈比	-3738
成员	-3739
成群	-3740
成长	-3741
我不	-3742
我为	-3743
或者	-3744
或许	-3745
战友	-3746
战胜	-3747
所在	-3748
手中	-3749
才智	-3750
执法	-3751
执行	-3752
批评	-3753
找准	-3754
找到	-3755
承贷	-3756
担任	-3757
拉玛	-3758
拒绝	-3759
拘留	-3760
招待	-3761
拥挤	-3762
挑选	-3763
挚的	-3764
换届	-3765
据法	-3766
授权	-3767
排开	-3768
探讨	-3769
控股	-3770
描写	-3771
描绘	-3772
提倡	-3773
揭示	-3774
援助	-3775
撤军	-3776
撰者	-3777
支付	-3778
支柱	-3779
收到	-3780
收取	-3781
收复	-3782
收购	-3783
放下	-3784
放烟	-3785
放飞	-3786
救灾	-3787
教学	-3788
教授	-3789
敞开	-3790
敬爱	-3791
数十	-3792
数字	-3793
数百	-3794
整体	-3795
整顿	-3796
文丛	-3797
斐然	-3798
斑斓	-3799
斑鸠	-3800
断了	-3801
斯科	-3802
新型	-3803
新近	-3804
新高	-3805
方向	-3806
施特	-3807
无微	-3808
无数	-3809
日元	-3810
日常	-3811
日的	-3812
旦河	-3813
旧的	-3814
早年	-3815
早期	-3816
时就	-3817
旺盛	-3818
昆明	-3819
昌盛	-3820
明智	-3821
明白	-3822
春天	-3823
春意	-3824
春的	-3825
春联	-3826
春节	-3827
昨天	-3828
是乐	-3829
是他	-3830
是将	-3831
是由	-3832
是编	-3833
显然	-3834
普通	-3835
景观	-3836
暖亮	-3837
暖湿	-3838
曲调	-3839
最为	-3840
最初	-3841
最多	-3842
最早	-3843
月在	-3844
有了	-3845
有奖	-3846
有所	-3847
有机	-3848
有步	-3849
有益	-3850
望台	-3851
朝着	-3852
木齐	-3853
未曾	-3854
本地	-3855
本来	-3856
本质	-3857
本身	-3858
机会	-3859
机长	-3860
杂志	-3861
权益	-3862
李学	-3863
李维	-3864
材料	-3865
村宅	-3866
村村	-3867
束缚	-3868
条例	-3869
条小	-3870
来宾	-3871
来抓	-3872
来源	-3873
来看	-3874
来越	-3875
杨子	-3876
松鼠	-3877
极大	-3878
林县	-3879
林皎	-3880
某些	-3881
查处	-3882
标语	-3883
桂林	-3884
桌边	-3885
桑比	-3886
桥本	-3887
桥梁	-3888
检查	-3889
检阅	-3890
概念	-3891
概括	-3892
模式	-3893
横吹	-3894
横流	-3895
次的	-3896
次要	-3897
欢欣	-3898
欣慰	-3899
歌舞	-3900
正点	-3901
正规	-3902
此次	-3903
此而	-3904
步伐	-3905
步步	-3906
步飞	-3907
殃及	-3908
殊的	-3909
每人	-3910
每周	-3911
比前	-3912
比额	-3913
毕竟	-3914
气流	-3915
气的	-3916
水产	-3917
水浜	-3918
水面	-3919
求新	-3920
求是	-3921
江上	-3922
汪道	-3923
汽车	-3924
沉思	-3925
沉稳	-3926
沟通	-3927
沧海	-3928
河南	-3929
河水	-3930
治国	-3931
治安	-3932
法制	-3933
法律	-3934
法案	-3935
注目	-3936
注重	-3937
泳三	-3938
洋洲	-3939
洪水	-3940
活力	-3941
活跃	-3942
流利	-3943
流量	-3944
浇地	-3945
测量	-3946
浓厚	-3947
浓郁	-3948
浩歌	-3949
浩然	-3950
浩田	-3951
浩荡	-3952
浪潮	-3953
消灭	-3954
消防	-3955
涉及	-3956
涵在	-3957
淡忘	-3958
清华	-3959
渡过	-3960
温馨	-3961
港澳	-3962
满意	-3963
满载	-3964
滴落	-3965
潜力	-3966
火烧	-3967
火的	-3968
炸伤	-3969
点和	-3970
点评	-3971
烂漫	-3972
烈斯	-3973
热闹	-3974
照耀	-3975
爱心	-3976
特个	-3977
特型	-3978
特大	-3979
特技	-3980
特罗	-3981
独具	-3982
献身	-3983
环节	-3984
现场	-3985
现有	-3986
珍惜	-3987
甚少	-3988
生前	-3989
生长	-3990
田野	-3991
由衷	-3992
电力	-3993
画的	-3994
画雄	-3995
留念	-3996
畜牧	-3997
痕迹	-3998
瘫痪	-3999
登山	-4000
百炼	-4001
的北	-4002
的城	-4003
的悲	-4004
的意	-4005
的手	-4006
的日	-4007
的松	-4008
的步	-4009
的火	-4010
的神	-4011
的笔	-4012
的纸	-4013
的讲	-4014
的说	-4015
的赞	-4016
的赤	-4017
的车	-4018
的近	-4019
的道	-4020
的重	-4021
盛会	-4022
目睹	-4023
直线	-4024
直观	-4025
直辖	-4026
相互	-4027
省市	-4028
省长	-4029
看护	-4030
真丝	-4031
真实	-4032
着三	-4033
着手	-4034
睦邻	-4035
知了	-4036
短期	-4037
硝烟	-4038
礼物	-4039
社长	-4040
祝你	-4041
祝辞	-4042
神话	-4043
票面	-4044
禁区	-4045
离石	-4046
私房	-4047
种田	-4048
种的	-4049
科教	-4050
秧歌	-4051
积累	-4052
稳步	-4053
空军	-4054
空域	-4055
突出	-4056
窗牖	-4057
窥视	-4058
立即	-4059
立派	-4060
笑声	-4061
等功	-4062
等数	-4063
等等	-4064
等老	-4065
粮豆	-4066
红叶	-4067
纺织	-4068
线的	-4069
组建	-4070
细节	-4071
终极	-4072
结论	-4073
统揽	-4074
维修	-4075
绵绵	-4076
缅怀	-4077
缤纷	-4078
缩小	-4079
缩影	-4080
缺乏	-4081
置于	-4082
美学	-4083
美洲	-4084
美联	-4085
美食	-4086
羽毛	-4087
而无	-4088
而有	-4089
耕耘	-4090
联邦	-4091
肉色	-4092
肩负	-4093
背着	-4094
胸怀	-4095
能从	-4096
脱了	-4097
腹地	-4098
自家	-4099
自由	-4100
舆论	-4101
良田	-4102
色彩	-4103
艳的	-4104
花鸟	-4105
萝卜	-4106
藏族	-4107
行列	-4108
行车	-4109
行长	-4110
行驶	-4111
补助	-4112
表妹	-4113
袭人	-4114
装帧	-4115
西岸	-4116
西瓜	-4117
观光	-4118
观察	-4119
观看	-4120
觉得	-4121
誓词	-4122
警方	-4123
计生	-4124
计的	-4125
训练	-4126
记载	-4127
记述	-4128
讲究	-4129
论典	-4130
论著	-4131
诞生	-4132
该市	-4133
详细	-4134
语言	-4135
说是	-4136
请到	-4137
诸多	-4138
读书	-4139
读物	-4140
谁建	-4141
调动	-4142
谈到	-4143
谋士	-4144
谢意	-4145
豫剧	-4146
负担	-4147
财富	-4148
贫富	-4149
购买	-4150
贯穿	-4151
贵州	-4152
贺电	-4153
资本	-4154
赠送	-4155
起步	-4156
趋向	-4157
足球	-4158
跋涉	-4159
路口	-4160
路段	-4161
身世	-4162
身体	-4163
车和	-4164
车外	-4165
车道	-4166
轰动	-4167
轻度	-4168
较快	-4169
辐射	-4170
辣椒	-4171
迎式	-4172
运动	-4173
运行	-4174
还会	-4175
还在	-4176
还给	-4177
这为	-4178
这场	-4179
这条	-4180
这篇	-4181
这部	-4182
连年	-4183
迟迟	-4184
追寻	-4185
选购	-4186
透过	-4187
逐年	-4188
通讯	-4189
造出	-4190
造田	-4191
造福	-4192
道防	-4193
遗憾	-4194
那个	-4195
邻里	-4196
配合	-4197
配置	-4198
酒会	-4199
醒目	-4200
重建	-4201
重的	-4202
金和	-4203
金色	-4204
金额	-4205
针对	-4206
钟声	-4207
钟楼	-4208
钢架	-4209
银川	-4210
锦绣	-4211
长官	-4212
长达	-4213
队员	-4214
阶级	-4215
阿姨	-4216
陆机	-4217
陈天	-4218
降到	-4219
险阻	-4220
随意	-4221
难关	-4222
雅俗	-4223
雪域	-4224
震撼	-4225
露脸	-4226
青史	-4227
青联	-4228
非法	-4229
面世	-4230
面前	-4231
面料	-4232
面鲜	-4233
顶着	-4234
预报	-4235
领土	-4236
领略	-4237
频频	-4238
风气	-4239
飞的	-4240
饲料	-4241
饺子	-4242
首任	-4243
首相	-4244
首脑	-4245
驾车	-4246
骄傲	-4247
高于	-4248
高奏	-4249
高挂	-4250
高潮	-4251
高速	-4252
鬼神	-4253
鱼儿	-4254
鲜明	-4255
鲜菜	-4256
麻雀	-4257
黄山	-4258
默默	-4259
龚学	-4260
,10	-4261
.15	-4262
.62	-4263
.8%	-4264
1.4	-4265
1.5	-4266
10°	-4267
10、	-4268
12%	-4269
170	-4270
180	-4271
190	-4272
236	-4273
250	-4274
5%。	-4275
650	-4276
7%。	-4277
800	-4278
972	-4279
▁10	-4280
▁11	-4281
▁19	-4282
▁1、	-4283
▁2、	-4284
▁”(	-4285
▁一些	-4286
▁一位	-4287
▁一是	-4288
▁三十	-4289
▁上午	-4290
▁与此	-4291
▁中共	-4292
▁也许	-4293
▁云南	-4294
▁人们	-4295
▁他把	-4296
▁元月	-4297
▁全市	-4298
▁其实	-4299
▁冬季	-4300
▁几十	-4301
▁出席	-4302
▁南京	-4303
▁另外	-4304
▁同志	-4305
▁在此	-4306
▁天气	-4307
▁它的	-4308
▁展望	-4309
▁山西	-4310
▁市总	-4311
▁年初	-4312
▁当然	-4313
▁德国	-4314
▁怎样	-4315
▁拉萨	-4316
▁据悉	-4317
▁晚会	-4318
▁此举	-4319
▁此次	-4320
▁波兰	-4321
▁澳门	-4322
▁激动	-4323
▁社评	-4324
▁站在	-4325
▁第二	-4326
▁综合	-4327
▁美国	-4328
▁而在	-4329
▁虽然	-4330
▁许多	-4331
▁近些	-4332
▁近代	-4333
▁这时	-4334
▁这条	-4335
▁这样	-4336
▁这部	-4337
▁逐渐	-4338
▁重庆	-4339
▁长期	-4340
▁随后	-4341
▁面对	-4342
▁首先	-4343
一下子	-4344
一体化	-4345
一体的	-4346
一定会	-4347
一定能	-4348
一市斤	-4349
一年春	-4350
一开始	-4351
一月一	-4352
一系列	-4353
万亩的	-4354
万国权	-4355
三下乡	-4356
三年的	-4357
上下级	-4358
不就是	-4359
不应当	-4360
不得不	-4361
不必贪	-4362
不管是	-4363
与世界	-4364
与发展	-4365
与广大	-4366
与进步	-4367
世界和	-4368
世纪之	-4369
业为主	-4370
东北部	-4371
两个月	-4372
个人的	-4373
个县市	-4374
个家庭	-4375
个性和	-4376
个百分	-4377
中华总	-4378
中卫县	-4379
中国在	-4380
中有升	-4381
中的精	-4382
中走出	-4383
丰富的	-4384
为中心	-4385
为主的	-4386
为农民	-4387
为减少	-4388
为前提	-4389
为实现	-4390
为对于	-4391
为我们	-4392
为指导	-4393
为推动	-4394
为读者	-4395
为重点	-4396
之以恒	-4397
也没有	-4398
乡镇以	-4399
书画集	-4400
书记刘	-4401
书记的	-4402
书记黄	-4403
了一些	-4404
了一批	-4405
了一面	-4406
了总统	-4407
了这一	-4408
了这个	-4409
了香港	-4410
事业和	-4411
事本末	-4412
二重证	-4413
于一体	-4414
于其他	-4415
于四川	-4416
于日前	-4417
云南省	-4418
交管局	-4419
产业的	-4420
产品等	-4421
产量逾	-4422
人大和	-4423
人大常	-4424
人死于	-4425
人民币	-4426
人生体	-4427
人类的	-4428
仍处于	-4429
仍然是	-4430
从上月	-4431
从去年	-4432
从自身	-4433
从长远	-4434
他今年	-4435
他们安	-4436
他带头	-4437
代表团	-4438
令禁止	-4439
以共同	-4440
以减少	-4441
以国内	-4442
以户办	-4443
以来的	-4444
以民族	-4445
价格便	-4446
会员的	-4447
伟报道	-4448
伤亡却	-4449
伴随着	-4450
但也有	-4451
低水平	-4452
作为主	-4453
作品展	-4454
作品的	-4455
作者们	-4456
使一个	-4457
使他们	-4458
使用者	-4459
俄发行	-4460
保持在	-4461
假日献	-4462
做世纪	-4463
做到了	-4464
健康的	-4465
先生的	-4466
先进的	-4467
党全军	-4468
全世界	-4469
全党和	-4470
全区的	-4471
全国总	-4472
兴建的	-4473
其他的	-4474
具备了	-4475
内蒙古	-4476
写出了	-4477
农业部	-4478
农民的	-4479
农田和	-4480
冬以来	-4481
决定了	-4482
冷却原	-4483
凝聚力	-4484
凯旋门	-4485
出台了	-4486
出版界	-4487
出版的	-4488
出现了	-4489
出生率	-4490
初中版	-4491
利用率	-4492
到全区	-4493
到处是	-4494
到来的	-4495
到阿里	-4496
制度的	-4497
前两次	-4498
前苏联	-4499
办起了	-4500
加工厂	-4501
加强对	-4502
加快了	-4503
勃勃地	-4504
北京城	-4505
区域性	-4506
千余名	-4507
半个多	-4508
半本是	-4509
华盛顿	-4510
协与海	-4511
南京市	-4512
南部海	-4513
卡比拉	-4514
卢布对	-4515
原子钟	-4516
县长韩	-4517
参与的	-4518
又面临	-4519
双向传	-4520
反对党	-4521
发展到	-4522
发展同	-4523
发生在	-4524
发生的	-4525
发起的	-4526
可持续	-4527
史实的	-4528
各国的	-4529
同志离	-4530
名特困	-4531
向人民	-4532
向全市	-4533
向我们	-4534
吸引人	-4535
周锡生	-4536
和世界	-4537
和儿童	-4538
和华南	-4539
和干部	-4540
和心灵	-4541
和慰问	-4542
和推动	-4543
和支持	-4544
和服务	-4545
和物价	-4546
和生活	-4547
和祖国	-4548
和种植	-4549
和科技	-4550
和米兰	-4551
和精神	-4552
和经济	-4553
和规模	-4554
喷出的	-4555
困难的	-4556
国家和	-4557
图书馆	-4558
在一些	-4559
在一起	-4560
在中国	-4561
在各类	-4562
在国会	-4563
在国外	-4564
在我们	-4565
在政治	-4566
在新疆	-4567
在此间	-4568
在深圳	-4569
在致词	-4570
在这些	-4571
在这时	-4572
在那里	-4573
在香港	-4574
地位和	-4575
地参与	-4576
地看到	-4577
坚强的	-4578
坚持以	-4579
坪上村	-4580
塔里木	-4581
增添了	-4582
外交官	-4583
多公里	-4584
大中小	-4585
大事录	-4586
大量的	-4587
夫斯基	-4588
套丛书	-4589
奥地利	-4590
女作家	-4591
存在的	-4592
学生们	-4593
孩子们	-4594
它们在	-4595
它们就	-4596
安全的	-4597
完整的	-4598
实实地	-4599
家协会	-4600
寒问暖	-4601
对我们	-4602
对美国	-4603
将召开	-4604
将坚持	-4605
将这一	-4606
将逐步	-4607
尤其是	-4608
就开始	-4609
就是一	-4610
尽责任	-4611
局局长	-4612
崭新的	-4613
已完成	-4614
已拥有	-4615
市财政	-4616
希萨诺	-4617
带头人	-4618
幅作品	-4619
干部的	-4620
平报道	-4621
平方米	-4622
年元月	-4623
年出版	-4624
年历史	-4625
年大旱	-4626
年开始	-4627
年时间	-4628
并允许	-4629
并达成	-4630
广泛涉	-4631
庄严的	-4632
度佳节	-4633
建工程	-4634
建成后	-4635
建设和	-4636
开始的	-4637
开拓了	-4638
张启彬	-4639
弦易辙	-4640
形式的	-4641
形成了	-4642
彭珮云	-4643
往事知	-4644
很好的	-4645
徐有芳	-4646
忙碌着	-4647
总人数	-4648
总投资	-4649
总数的	-4650
总统府	-4651
总统金	-4652
情地说	-4653
情民意	-4654
惊天地	-4655
想起了	-4656
意味着	-4657
成了一	-4658
成人版	-4659
成新币	-4660
战争的	-4661
战结束	-4662
户办的	-4663
房前屋	-4664
所有的	-4665
扎扎实	-4666
批学者	-4667
批评家	-4668
找上门	-4669
承百年	-4670
投入的	-4671
报国志	-4672
拉开了	-4673
拉玛干	-4674
拘留的	-4675
拱坝内	-4676
持续了	-4677
指引下	-4678
按正常	-4679
探索和	-4680
接受了	-4681
提供的	-4682
提高了	-4683
插图本	-4684
摊位前	-4685
改变了	-4686
改善了	-4687
放烟花	-4688
政府将	-4689
散文集	-4690
敬爱的	-4691
文中说	-4692
文史哲	-4693
文学史	-4694
新卢布	-4695
新技术	-4696
新矛盾	-4697
新秩序	-4698
日上午	-4699
日开始	-4700
日通过	-4701
是一件	-4702
是不会	-4703
是中国	-4704
是全面	-4705
是因为	-4706
是宁夏	-4707
是实现	-4708
显露出	-4709
更多地	-4710
更大的	-4711
曾多次	-4712
月以来	-4713
有一个	-4714
有一种	-4715
有中英	-4716
有代表	-4717
有新的	-4718
有机地	-4719
有步骤	-4720
有的被	-4721
有计划	-4722
服务于	-4723
村委会	-4724
村村民	-4725
条高架	-4726
来西亚	-4727
构成了	-4728
林皎明	-4729
栋梁材	-4730
桑比克	-4731
欢快的	-4732
欣赏课	-4733
正常化	-4734
正是这	-4735
河北省	-4736
海南省	-4737
消除了	-4738
涌现出	-4739
深刻的	-4740
深层次	-4741
港集团	-4742
激发了	-4743
火山灰	-4744
烈军属	-4745
热烈的	-4746
爸爸的	-4747
物品的	-4748
特定的	-4749
特殊的	-4750
特点是	-4751
独特个	-4752
独立的	-4753
独立自	-4754
王光英	-4755
现实的	-4756
理论家	-4757
瑞士的	-4758
生产率	-4759
生发出	-4760
由中国	-4761
由衷地	-4762
电子眼	-4763
男女老	-4764
画牡丹	-4765
画雄鹰	-4766
登长城	-4767
的一半	-4768
的三年	-4769
的丛书	-4770
的乡镇	-4771
的事业	-4772
的人群	-4773
的体育	-4774
的信心	-4775
的八项	-4776
的关注	-4777
的兵法	-4778
的到来	-4779
的努力	-4780
的勇敢	-4781
的压力	-4782
的发行	-4783
的商品	-4784
的图像	-4785
的地位	-4786
的城市	-4787
的多党	-4788
的天空	-4789
的学术	-4790
的建设	-4791
的态度	-4792
的所有	-4793
的投入	-4794
的挖掘	-4795
的控制	-4796
的提高	-4797
的故事	-4798
的效果	-4799
的方式	-4800
的方针	-4801
的时候	-4802
的桥梁	-4803
的气温	-4804
的活动	-4805
的现象	-4806
的生动	-4807
的祝福	-4808
的组织	-4809
的结果	-4810
的群体	-4811
的群山	-4812
的聪明	-4813
的自叙	-4814
的自觉	-4815
的荣誉	-4816
的行政	-4817
的访问	-4818
的评论	-4819
的说法	-4820
的读者	-4821
的赤胆	-4822
的车辆	-4823
的道路	-4824
的重要	-4825
的银行	-4826
的间隔	-4827
的阵阵	-4828
的限制	-4829
直辖市	-4830
相对落	-4831
真正的	-4832
着中国	-4833
着祖国	-4834
瞩目的	-4835
知识的	-4836
石家庄	-4837
示范户	-4838
示范点	-4839
离退休	-4840
科学院	-4841
程度上	-4842
第一手	-4843
第一笔	-4844
第三次	-4845
等各个	-4846
等地将	-4847
等形式	-4848
等有关	-4849
筑路人	-4850
约旦河	-4851
级地震	-4852
纪念馆	-4853
组织的	-4854
经香港	-4855
结束对	-4856
继往开	-4857
继承和	-4858
罗宾逊	-4859
美国在	-4860
美术界	-4861
者决定	-4862
而奋斗	-4863
而是在	-4864
联欢会	-4865
肩负着	-4866
背景下	-4867
胡彩玲	-4868
自叙能	-4869
自己放	-4870
航线的	-4871
花烂漫	-4872
英雄传	-4873
菲卫生	-4874
藏民族	-4875
表现出	-4876
表现在	-4877
表达了	-4878
要继续	-4879
见成效	-4880
规范了	-4881
让人们	-4882
记者陈	-4883
讲文明	-4884
设立了	-4885
诚挚的	-4886
象征着	-4887
贵乎理	-4888
贺年卡	-4889
贺新年	-4890
贾建舟	-4891
资企业	-4892
超亿元	-4893
越来越	-4894
转变为	-4895
较好的	-4896
辉煌的	-4897
达到了	-4898
达成的	-4899
近几年	-4900
这个村	-4901
这么多	-4902
这件事	-4903
这方面	-4904
这本书	-4905
迟浩田	-4906
退休后	-4907
通公路	-4908
道防线	-4909
那肉色	-4910
郑成功	-4911
部召开	-4912
部门在	-4913
采访了	-4914
重武器	-4915
金融风	-4916
长大的	-4917
长宁区	-4918
随处可	-4919
雅音乐	-4920
需要的	-4921
青年人	-4922
项工程	-4923
领导为	-4924
首迎式	-4925
马尼拉	-4926
高中版	-4927
高丽生	-4928
黄土地	-4929
,30%	-4930
1400	-4931
1980	-4932
2400	-4933
5400	-4934
8000	-4935
85.2	-4936
—10°	-4937
▁’98	-4938
▁三十六	-4939
▁为什么	-4940
▁他表示	-4941
▁他认为	-4942
▁以色列	-4943
▁同志们	-4944
▁吕梁的	-4945
▁国家体	-4946
▁在中国	-4947
▁在国内	-4948
▁在这块	-4949
▁墨西哥	-4950
▁奇卢巴	-4951
▁她们是	-4952
▁孙先生	-4953
▁我以为	-4954
▁我们要	-4955
▁据了解	-4956
▁新加坡	-4957
▁望着这	-4958
▁柳林县	-4959
▁要继续	-4960
▁贵阳市	-4961
▁这两件	-4962
▁黑龙江	-4963
一定规模	-4964
一律通过	-4965
一月一日	-4966
一种新的	-4967
万亿日元	-4968
万加元的	-4969
上涨指数	-4970
上迈出了	-4971
与联合国	-4972
世界华文	-4973
世界音乐	-4974
世行贷款	-4975
两亩基本	-4976
两国关系	-4977
两国正式	-4978
两岸政治	-4979
两岸进行	-4980
严重得多	-4981
个百分点	-4982
中东五国	-4983
中华书局	-4984
中华民族	-4985
中南建交	-4986
中国人的	-4987
中国历代	-4988
中国政府	-4989
中国民航	-4990
中央大街	-4991
中的大事	-4992
为主体的	-4993
为主题的	-4994
为把我国	-4995
为祖国的	-4996
主的和平	-4997
主要城市	-4998
主要领导	-4999
义务劳动	-5000
乌鲁木齐	-5001
也是完成	-5002
也要换届	-5003
乡镇企业	-5004
书记龚学	-5005
事早耕耘	-5006
于徐悲鸿	-5007
五项原则	-5008
交出武器	-5009
交通堵塞	-5010
交通监控	-5011
交通秩序	-5012
交通违章	-5013
人员往来	-5014
人均生产	-5015
人民群众	-5016
人物立传	-5017
人的自叙	-5018
人的谋略	-5019
人车分流	-5020
今年元旦	-5021
令人感动	-5022
以及贵州	-5023
以进一步	-5024
伊斯兰堡	-5025
优先保证	-5026
优质农业	-5027
传统文化	-5028
传记丛书	-5029
作为第一	-5030
作出积极	-5031
使其作品	-5032
信息公司	-5033
做好工作	-5034
兑换新币	-5035
党报党刊	-5036
党的基本	-5037
党的建设	-5038
入境旅游	-5039
全党全军	-5040
全国优秀	-5041
全国妇联	-5042
全民健身	-5043
全面完成	-5044
全面推向	-5045
全面推广	-5046
全面进步	-5047
全面部署	-5048
公安干警	-5049
公正合理	-5050
共产党员	-5051
共同心愿	-5052
共同理想	-5053
兴修水利	-5054
其中江南	-5055
典型代表	-5056
冉冉升起	-5057
农业最高	-5058
农村小康	-5059
出口创汇	-5060
创造性的	-5061
创造条件	-5062
初步形成	-5063
初级阶段	-5064
前锋过后	-5065
加工企业	-5066
加强领导	-5067
努力实现	-5068
努力工作	-5069
化的进程	-5070
北大学生	-5071
千锤百炼	-5072
半本是她	-5073
华人代表	-5074
华南大部	-5075
占全区的	-5076
占全国总	-5077
卡斯特罗	-5078
历史研究	-5079
历史阶段	-5080
又有多少	-5081
双向传送	-5082
双边关系	-5083
发展战略	-5084
发电能力	-5085
取得新的	-5086
取得重大	-5087
古代经典	-5088
可歌可泣	-5089
号召全体	-5090
各界人士	-5091
各级干部	-5092
各项任务	-5093
合影留念	-5094
同时举行	-5095
同时强调	-5096
同样是在	-5097
名从军营	-5098
名列第二	-5099
后的情况	-5100
和平共处	-5101
和政府要	-5102
喜庆元旦	-5103
回应我们	-5104
回归祖国	-5105
因地制宜	-5106
国家分忧	-5107
国家旅游	-5108
国家验收	-5109
国民经济	-5110
国营银行	-5111
国防部长	-5112
国际友人	-5113
国际影响	-5114
图文并茂	-5115
在十五大	-5116
在南非的	-5117
在广场上	-5118
在重庆市	-5119
坚持不懈	-5120
城乡结合	-5121
基本路线	-5122
塔拉尔在	-5123
外交工作	-5124
外汇储备	-5125
外长恩佐	-5126
多立方米	-5127
多边外交	-5128
大义为重	-5129
大厅举行	-5130
大田庄乡	-5131
大规模的	-5132
天内全部	-5133
天津美术	-5134
女作家们	-5135
女儿孔玲	-5136
她们的心	-5137
子的技术	-5138
孔书记的	-5139
学生艺术	-5140
学者文丛	-5141
安全生产	-5142
安德烈斯	-5143
实事求是	-5144
宣誓就职	-5145
富强民主	-5146
将其软禁	-5147
局部地区	-5148
居民生活	-5149
山西画院	-5150
市中心的	-5151
平方公里	-5152
年通货膨	-5153
广大会员	-5154
广大农民	-5155
广大工人	-5156
广泛好评	-5157
庄严时刻	-5158
延长工程	-5159
建管机制	-5160
开了我们	-5161
开创人类	-5162
开展义务	-5163
开拓前进	-5164
开拓进取	-5165
开放市场	-5166
当今中国	-5167
形式多样	-5168
影响我国	-5169
彻底改变	-5170
很有意义	-5171
得到落实	-5172
总产量逾	-5173
总结历史	-5174
总结经验	-5175
总额高达	-5176
恢复出版	-5177
我国南方	-5178
我国政治	-5179
战结束后	-5180
扎实深厚	-5181
扶贫攻坚	-5182
投入机制	-5183
投入资金	-5184
投资环境	-5185
报告文学	-5186
报纸今天	-5187
拿起武器	-5188
持之以恒	-5189
持续增长	-5190
收复台湾	-5191
改变生产	-5192
改革措施	-5193
改革进入	-5194
放下武器	-5195
政协工作	-5196
政府决定	-5197
政府顺利	-5198
效益企业	-5199
救援行动	-5200
敬老院内	-5201
文化科技	-5202
文艺节目	-5203
新华社电	-5204
新年伊始	-5205
新年前夕	-5206
新年期间	-5207
新版卢布	-5208
方针政策	-5209
施特劳斯	-5210
族自治区	-5211
日本经济	-5212
日起实施	-5213
明天发展	-5214
明天更加	-5215
是海内外	-5216
显著成就	-5217
暖湿气流	-5218
更多人的	-5219
最佳经济	-5220
有奖募捐	-5221
服务人民	-5222
服务示范	-5223
朝着美好	-5224
机场跑道	-5225
来临之际	-5226
极不平凡	-5227
欢庆活动	-5228
欢欣鼓舞	-5229
欢聚一堂	-5230
歌唱祖国	-5231
正是出于	-5232
正是靠着	-5233
武警官兵	-5234
毫不动摇	-5235
民主法制	-5236
气温记录	-5237
气象预报	-5238
汪道涵在	-5239
沙漠公路	-5240
沧海横流	-5241
海峡两岸	-5242
渡过难关	-5243
温宪报道	-5244
火的斗争	-5245
燃放烟花	-5246
特型演员	-5247
狠抓落实	-5248
率先消灭	-5249
环境卫生	-5250
现代学者	-5251
现实社会	-5252
生产基地	-5253
生动传神	-5254
生命禁区	-5255
由于政府	-5256
由村集体	-5257
的历史性	-5258
的国家级	-5259
的情思中	-5260
的新路子	-5261
的焦作市	-5262
的第一年	-5263
的自觉性	-5264
盛云龙与	-5265
相信这是	-5266
真正成为	-5267
示范园区	-5268
社会各界	-5269
社会福利	-5270
社会稳定	-5271
祝愿祖国	-5272
程序管制	-5273
稳中有升	-5274
稳定脱贫	-5275
稳定金融	-5276
等功两次	-5277
米兰望台	-5278
精心组织	-5279
精心部署	-5280
紧密结合	-5281
繁荣昌盛	-5282
纪事本末	-5283
纪实文学	-5284
经济优势	-5285
经济结构	-5286
结构调整	-5287
统一管理	-5288
统揽全局	-5289
继续保持	-5290
继续推进	-5291
综合整治	-5292
美术创作	-5293
考古文物	-5294
联合阵线	-5295
联系汇率	-5296
背土造田	-5297
背篓精神	-5298
胜利召开	-5299
胸怀祖国	-5300
自我投入	-5301
航班安全	-5302
艰难险阻	-5303
艺术家的	-5304
节日期间	-5305
节日气氛	-5306
节约用水	-5307
荣毅仁等	-5308
莫桑比克	-5309
董建华等	-5310
蓬勃发展	-5311
行政长官	-5312
表示相信	-5313
表示祝贺	-5314
被拘留的	-5315
记者招待	-5316
谁建谁有	-5317
贫困县的	-5318
贫困地区	-5319
资金来源	-5320
起降架次	-5321
趋势分析	-5322
达成妥协	-5323
这一方案	-5324
这套丛书	-5325
这对香港	-5326
这种遗存	-5327
逐年增加	-5328
通货膨胀	-5329
通过多种	-5330
部分地区	-5331
都保持在	-5332
都市里的	-5333
重新开始	-5334
重点扶持	-5335
重要而又	-5336
销售收入	-5337
长城脚下	-5338
集体资产	-5339
面鲜艳的	-5340
顶着寒风	-5341
首任大使	-5342
首脑会晤	-5343
马恩华的	-5344
高水平的	-5345
高速公路	-5346
齐心协力	-5347
10、50	-5348
21.15	-5349
:1998	-5350
▁与此同时	-5351
▁中国兵书	-5352
▁几十年来	-5353
▁各级党委	-5354
▁吕梁地区	-5355
▁因此他们	-5356
▁大田庄乡	-5357
▁尼加拉瓜	-5358
▁市总工会	-5359
▁开馆仪式	-5360
▁我们希望	-5361
▁本报重庆	-5362
▁目前费县	-5363
▁秦华孙说	-5364
▁近些年来	-5365
▁这意味着	-5366
▁这次改值	-5367
一九九九年	-5368
一体化经营	-5369
一跃成为连	-5370
万亩的园区	-5371
三位一体的	-5372
上下级关系	-5373
上海市委副	-5374
与南非建交	-5375
东方明珠塔	-5376
两亩经济林	-5377
两国人民的	-5378
个性和创意	-5379
中华总商会	-5380
中华文明的	-5381
中国大使馆	-5382
中国民航空	-5383
中国美术馆	-5384
中走出来的	-5385
为困难职工	-5386
为推动建立	-5387
主题性创作	-5388
乡镇企业家	-5389
二重证据法	-5390
五星红旗在	-5391
人员中有的	-5392
人大和政协	-5393
人大常委会	-5394
亿万青少年	-5395
亿元人民币	-5396
今天上午在	-5397
今天在这里	-5398
从自身做起	-5399
优秀退伍兵	-5400
使我们想到	-5401
依多金集团	-5402
假日献真情	-5403
儿童福利院	-5404
充满了欢乐	-5405
全球化经营	-5406
全部建成后	-5407
共产党领导	-5408
共同努力下	-5409
兴致勃勃地	-5410
再就业服务	-5411
农村贫困户	-5412
切实安排好	-5413
制定了党在	-5414
劳动生产率	-5415
协与海基会	-5416
卢布对美元	-5417
卫生三下乡	-5418
历史上非常	-5419
发展作出了	-5420
发展的崇高	-5421
发展的路子	-5422
取得了很大	-5423
名特困职工	-5424
向全国人民	-5425
向韩国提供	-5426
和完善人民	-5427
国务委员兼	-5428
在中国人民	-5429
在开馆仪式	-5430
在此基础上	-5431
地域文化的	-5432
坚实的基础	-5433
塔克拉玛干	-5434
多项议题的	-5435
大中小学生	-5436
妻子丁玉珍	-5437
妻子胡花蕊	-5438
委员会审验	-5439
将继续坚持	-5440
将资源优势	-5441
小扎耶德与	-5442
巨大的轰动	-5443
已成为全国	-5444
年人均收入	-5445
年大旱之年	-5446
年最后一个	-5447
年的第一天	-5448
并达成协议	-5449
往事知多少	-5450
忙碌着布置	-5451
成一个新的	-5452
我国东部和	-5453
户特困家庭	-5454
扎扎实实地	-5455
找到盛云龙	-5456
插图本中国	-5457
改革和建设	-5458
政治局委员	-5459
整理出版了	-5460
新华社北京	-5461
新年树新风	-5462
新年第一天	-5463
方针和发展	-5464
方面的消息	-5465
无主户头案	-5466
日平均气温	-5467
日电记者龚	-5468
日讯记者王	-5469
机长张启彬	-5470
李维平报道	-5471
极大地鼓舞	-5472
比上年增长	-5473
水的利用率	-5474
海内外游客	-5475
清醒地看到	-5476
激光冷却原	-5477
现代化国家	-5478
的一个缩影	-5479
的一个重要	-5480
的乡镇小厂	-5481
的伟大旗帜	-5482
的光辉形象	-5483
的八项主张	-5484
的关键一年	-5485
的同志关系	-5486
的基本纲领	-5487
的庆祝联欢	-5488
的组成部分	-5489
的经济困难	-5490
的聪明才智	-5491
的赤胆忠心	-5492
第一条高架	-5493
第二道防线	-5494
等基础设施	-5495
约旦河西岸	-5496
经济的发展	-5497
维也纳举行	-5498
罗马和米兰	-5499
美好的未来	-5500
美术创作的	-5501
美联社照片	-5502
老年病防治	-5503
而努力奋斗	-5504
胀率和物价	-5505
自然增长率	-5506
良好的发展	-5507
艺术形式的	-5508
解放军建军	-5509
计划生育的	-5510
记者周锡生	-5511
记者林皎明	-5512
走出了一条	-5513
边防军改组	-5514
这些国家的	-5515
这方面的一	-5516
进一步加强	-5517
进一步坚持	-5518
进一步扩大	-5519
造成的伤亡	-5520
重要的一年	-5521
重要的一步	-5522
钥匙孔效应	-5523
青年油画展	-5524
飞机的间隔	-5525
首批三十部	-5526
▁中共十五大	-5527
▁中国大使馆	-5528
▁出席茶话会	-5529
▁印度尼西亚	-5530
▁在新的一年	-5531
▁孙其峰先生	-5532
▁我们将坚持	-5533
▁新华社北京	-5534
▁新华社记者	-5535
▁江泽民指出	-5536
▁这两件大事	-5537
▁首都千余名	-5538
上海市长宁区	-5539
不是社会主义	-5540
两国正式建交	-5541
两岸关系协会	-5542
两岸关系发展	-5543
为中国历史上	-5544
为把我国建成	-5545
书记龚学平等	-5546
交通工程项目	-5547
交通监控中心	-5548
人均生产粮豆	-5549
人均纯收入达	-5550
代表大会制度	-5551
依托传统农业	-5552
做世纪栋梁材	-5553
元旦登高活动	-5554
入境旅游人数	-5555
全国政协举行	-5556
全球企业兼并	-5557
共同关心支持	-5558
内蒙古东北部	-5559
农副产品市场	-5560
利税超千万元	-5561
加强农业基础	-5562
午夜散文随笔	-5563
参加了庄严的	-5564
友好合作关系	-5565
发展同各国的	-5566
发表新年文告	-5567
发表新年祝辞	-5568
发表新年贺词	-5569
发表重要讲话	-5570
名无家可归者	-5571
向关心和帮助	-5572
向各民主党派	-5573
和南非的访问	-5574
和青年文明号	-5575
喷出的火山灰	-5576
团中央书记处	-5577
国防建设事业	-5578
在两岸同胞的	-5579
在新的一年中	-5580
在此间举行了	-5581
在过去的一年	-5582
城乡敬老院的	-5583
城乡结合部的	-5584
孔书记的女儿	-5585
实现祖国统一	-5586
将召开第九届	-5587
尽早回应我们	-5588
居民生活如常	-5589
川籍学者文丛	-5590
希望新的一年	-5591
年产值超亿元	-5592
开发主导产业	-5593
我国政治生活	-5594
承百年报国志	-5595
提高人民生活	-5596
政治协商制度	-5597
敬爱的邓小平	-5598
新华社记者王	-5599
新疆航空公司	-5600
是一九九七年	-5601
智囊人物丛书	-5602
服务示范基地	-5603
江泽民总书记	-5604
燃放烟花爆竹	-5605
生态农业建设	-5606
的中国共产党	-5607
的发展与进步	-5608
的国际新秩序	-5609
的多党合作和	-5610
的气温将下降	-5611
祝大家新年好	-5612
第一次会议和	-5613
纷纷发表社论	-5614
继续推向前进	-5615
维也纳音乐会	-5616
藏文古代经典	-5617
血与火的斗争	-5618
通过这一活动	-5619
都市里的村庄	-5620
重新部署问题	-5621
长篇报告文学	-5622
阳光彩虹花园	-5623
青年志愿者们	-5624
驻南非大使馆	-5625
高效优质农业	-5626
5、10、50	-5627
▁南非外长恩佐	-5628
▁天气趋势分析	-5629
▁我们胜利召开	-5630
▁我国政府顺利	-5631
▁据新华社北京	-5632
▁据新华社香港	-5633
▁明天气象预报	-5634
一年春事早耕耘	-5635
世界华文女作家	-5636
两亩基本农田和	-5637
两国人民之间的	-5638
两岸进行谈判的	-5639
中国青年油画展	-5640
事业和开创人类	-5641
五项原则基础上	-5642
亚洲金融危机的	-5643
人死于交通事故	-5644
以及贵州等地将	-5645
以民族大义为重	-5646
作出积极的贡献	-5647
使一个濒临倒闭	-5648
依多金企业集团	-5649
党的基本理论和	-5650
全国各主要城市	-5651
冷空气前锋过后	-5652
十二月三十一日	-5653
历史事件的再现	-5654
历史人物的剖析	-5655
历史真实的追寻	-5656
同世界各国人民	-5657
同志离开了我们	-5658
向全国广大工人	-5659
哈尔滨中央大街	-5660
四川人民出版社	-5661
在新的一年里将	-5662
地方人大和政协	-5663
多项议题的审议	-5664
大使馆正式开馆	-5665
大办沼气为纽带	-5666
孔繁森女儿孔玲	-5667
孤寡老人和儿童	-5668
学生艺术欣赏课	-5669
富强民主文明的	-5670
小型水利设施的	-5671
局部地区有大雨	-5672
建设的各项工作	-5673
建设的国际友人	-5674
抗日战争纪念馆	-5675
推动了农村小康	-5676
提出的各项任务	-5677
文化领域的交流	-5678
新年音乐会演奏	-5679
是我们党和国家	-5680
有奖募捐委员会	-5681
极不平凡的一年	-5682
正是出于这样的	-5683
毫不动摇地坚持	-5684
演艺界人士同台	-5685
独立自主的和平	-5686
的道路上迈出了	-5687
知识分子和干部	-5688
石家庄机场跑道	-5689
祥和的节日气氛	-5690
继续在和平共处	-5691
自治区有关部门	-5692
表示良好的祝愿	-5693
计划的关键一年	-5694
进程的八项主张	-5695
部分地区有大雨	-5696
重庆市社会福利	-5697
面临的经济困难	-5698
面向二十一世纪	-5699
首任大使王学贤	-5700
一九九九年十二月	-5701
万名转业退伍军人	-5702
中走出来的企业家	-5703
为促进世界和平与	-5704
以党的十五大精神	-5705
以北大部地区将有	-5706
以江泽民为核心的	-5707
全国人民代表大会	-5708
农业产业化的发展	-5709
农田水利建管机制	-5710
加强精神文明建设	-5711
北京市儿童福利院	-5712
午夜散文随笔书系	-5713
华夏城乡游首迎式	-5714
卡斯特罗联合阵线	-5715
卢布对美元的汇率	-5716
去年全球企业并购	-5717
和政府要加强领导	-5718
在南非的华人华侨	-5719
城区道路交通管理	-5720
大力发展两岸经济	-5721
我国东部和南部海	-5722
我国南方大部地区	-5723
推动实现两岸直接	-5724
推进农业产业化的	-5725
推进祖国和平统一	-5726
新建小型水利设施	-5727
日平均气温将下降	-5728
日电记者温宪报道	-5729
明天更加繁荣昌盛	-5730
最佳经济效益企业	-5731
朝着美好明天发展	-5732
李润五妻子丁玉珍	-5733
极大地鼓舞全党和	-5734
海峡两岸关系协会	-5735
的国家级企业集团	-5736
的基本方针和发展	-5737
社会主义初级阶段	-5738
积极参与救援行动	-5739
第九届全国委员会	-5740
跨世纪发展作出了	-5741
近千名海内外游客	-5742
通过多种渠道筹集	-5743
香港回归后的情况	-5744
齐心协力共同奋斗	-5745
▁受较强冷空气影响	-5746
▁在党支部的带领下	-5747
▁我们希望台湾当局	-5748
▁这是我国政治生活	-5749
为中国历史上众多的	-5750
为推动建立公正合理	-5751
农业最高劳动生产率	-5752
历史上非常重要而又	-5753
向人民解放军指战员	-5754
国家验收委员会审验	-5755
在完成祖国统一大业	-5756
尽早回应我们提出的	-5757
年通货膨胀率和物价	-5758
建立了计划生育服务	-5759
文化科技卫生三下乡	-5760
新华社发美联社照片	-5761
日电记者李维平报道	-5762
激光冷却原子的技术	-5763
社会主义现代化国家	-5764
空军八一飞行表演队	-5765
面鲜艳的五星红旗在	-5766
中国历代智囊人物丛书	-5767
保持了香港的繁荣稳定	-5768
全党全军全国各族人民	-5769
全面推广生态农业建设	-5770
和南非演艺界人士同台	-5771
天安门广场升国旗仪式	-5772
文化领域的交流与合作	-5773
是全面贯彻落实十五大	-5774
紧密团结在党中央周围	-5775
进一步坚持和完善人民	-5776
青少年就可以学到革命	-5777
▁首都千余名大中小学生	-5778
一跃成为连年产值超亿元	-5779
上海市委副书记龚学平等	-5780
两岸进行谈判的郑重呼吁	-5781
以党的十五大精神为指导	-5782
党的基本理论和基本路线	-5783
全国政协举行新年茶话会	-5784
共产党领导的多党合作和	-5785
华南大部以及贵州等地将	-5786
同世界各国人民共同努力	-5787
向关心和帮助中国现代化	-5788
在两岸同胞的共同努力下	-5789
在茶话会上发表重要讲话	-5790
地方人大和政协也要换届	-5791
完成祖国统一大业而奋斗	-5792
对改革开放和现代化建设	-5793
提出的各项任务的第一年	-5794
独立自主的和平外交政策	-5795
石家庄机场跑道延长工程	-5796
约旦河西岸重新部署问题	-5797
青年志愿者服务示范基地	-5798
▁我们胜利召开党的十五大	-5799
万名转业退伍军人发出倡议	-5800
中国常驻联合国代表秦华孙	-5801
事业和开创人类美好的未来	-5802
使一个濒临倒闭的乡镇小厂	-5803
共同关心支持国防建设事业	-5804
发展同各国的友好合作关系	-5805
名从军营中走出来的企业家	-5806
学生艺术欣赏课系列音乐会	-5807
的基本方针和发展两岸关系	-5808
的道路上迈出了重要的一步	-5809
祝愿祖国明天更加繁荣昌盛	-5810
跨世纪发展作出了全面部署	-5811
高举邓小平理论的伟大旗帜	-5812
▁各级党委和政府要加强领导	-5813
▁这是我国政治生活中的大事	-5814
为促进世界和平与发展的崇高	-5815
为把我国建成富强民主文明的	-5816
全国工商联和无党派爱国人士	-5817
制定了党在社会主义初级阶段	-5818
年通货膨胀率和物价上涨指数	-5819
敬爱的邓小平同志离开了我们	-5820
第九届全国委员会第一次会议	-5821
全国人民代表大会第一次会议和	-5822
尊老爱幼是中华民族的传统美德	-5823
极大地鼓舞全党和全国各族人民	-5824
继续在和平共处五项原则基础上	-5825
重庆市社会福利有奖募捐委员会	-5826
▁我们要高举邓小平理论伟大旗帜	-5827
为推动建立公正合理的国际新秩序	-5828
推进祖国和平统一进程的八项主张	-5829
▁我们希望台湾当局以民族大义为重	-5830
▁我国政府顺利恢复对香港行使主权	-5831
华南大部以及贵州等地将有小到中雨	-5832
历史上非常重要而又极不平凡的一年	-5833
进一步坚持和完善人民代表大会制度	-5834
92	-5835
▁光	-5836
三者	-5837
与创	-5838
中外	-5839
偿还	-5840
削减	-5841
加达	-5842
参照	-5843
又把	-5844
发包	-5845
受另	-5846
右手	-5847
听罢	-5848
和股	-5849
响了	-5850
在威	-5851
垂直	-5852
壮士	-5853
多亿	-5854
对亚	-5855
对航	-5856
年均	-5857
床前	-5858
徐俊	-5859
怒火	-5860
悦摄	-5861
懈怠	-5862
戈却	-5863
无极	-5864
楼价	-5865
独奏	-5866
的金	-5867
穷则	-5868
纸币	-5869
罕见	-5870
而从	-5871
肩勒	-5872
致力	-5873
证券	-5874
豌豆	-5875
马烽	-5876
鱼以	-5877
5‰,	-5878
▁光明	-5879
▁地处	-5880
▁太行	-5881
▁实现	-5882
▁将以	-5883
▁暖亮	-5884
▁未曾	-5885
▁杨子	-5886
▁照耀	-5887
▁穷则	-5888
▁笑声	-5889
▁这家	-5890
▁银川	-5891
▁陆机	-5892
一遍水	-5893
上一个	-5894
不到的	-5895
与创新	-5896
与厚重	-5897
与训练	-5898
与阶级	-5899
党给	-5900
按出	-5901
济国	-5902
与震撼	-5903
为支柱	-5904
久回荡	-5905
之甚少	-5906
也低于	-5907
也开始	-5908
书回到	-5909
了相互	-5910
五壮士	-5911
产新型	-5912
仅四岁	-5913
他已是	-5914
他生前	-5915
他觉得	-5916
代中外	-5917
代的代	-5918
以后我	-5919
以沉稳	-5920
任务是	-5921
份坚韧	-5922
会较快	-5923
估计的	-5924
但迟迟	-5925
位多元	-5926
何以有	-5927
使大小	-5928
使粮食	-5929
公平的	-5930
具鲜活	-5931
冒着雨	-5932
写这篇	-5933
出租的	-5934
切断了	-5935
利用其	-5936
制度等	-5937
动则多	-5938
助人为	-5939
劲的笔	-5940
包括鲁	-5941
北京京	-5942
升平的	-5943
占领土	-5944
卧山间	-5945
又席卷	-5946
及庭院	-5947
及法律	-5948
变求新	-5949
可以使	-5950
可自由	-5951
可运行	-5952
同学们	-5953
同本地	-5954
后地同	-5955
后来被	-5956
向太阳	-5957
听罢掉	-5958
告后人	-5959
和恶劣	-5960
和执法	-5961
和气体	-5962
和气魄	-5963
和水果	-5964
和股票	-5965
和调动	-5966
和钢架	-5967
和饲料	-5968
哈马和	-5969
喝大运	-5970
四海扬	-5971
回应流	-5972
园群众	-5973
困扰的	-5974
国引进	-5975
国春张	-5976
在上年	-5977
在夏季	-5978
在异地	-5979
在田野	-5980
在自民	-5981
在自然	-5982
在自营	-5983
在谈到	-5984
在那座	-5985
在高手	-5986
地图上	-5987
地接过	-5988
场的近	-5989
增大了	-5990
士学位	-5991
处处抓	-5992
处罚尾	-5993
外客商	-5994
外来民	-5995
多亿人	-5996
大学法	-5997
大屏幕	-5998
大山沟	-5999
架的	-6000
隐患	-6001
▁古城	-6002
反腐败	-6003
受益者	-6004
变为约	-6005
变得灰	-6006
古城址	-6007
号码及	-6008
同一面	-6009
大桥和	-6010
大欣慰	-6011
大火烧	-6012
失传的	-6013
失夜晚	-6014
失衡到	-6015
头叫我	-6016
头就走	-6017
女放飞	-6018
她那壮	-6019
她那无	-6020
如敞开	-6021
如果那	-6022
姑妈说	-6023
子女户	-6024
子女讲	-6025
子瘫痪	-6026
定援助	-6027
家园的	-6028
对亚太	-6029
对真实	-6030
对航管	-6031
将降到	-6032
小小的	-6033
小时就	-6034
少量炽	-6035
就方向	-6036
就走进	-6037
尽情地	-6038
山腹地	-6039
工厂化	-6040
巧地同	-6041
干脆坐	-6042
平四海	-6043
年汽车	-6044
并将在	-6045
并非华	-6046
并非轻	-6047
建筑物	-6048
建议和	-6049
开拓划	-6050
引人关	-6051
引水等	-6052
张照片	-6053
当家作	-6054
形式美	-6055
得散文	-6056
徽黄山	-6057
心谢意	-6058
快车道	-6059
怀揣着	-6060
思悟和	-6061
悟出些	-6062
悟出道	-6063
悟和情	-6064
情与感	-6065
情与理	-6066
情温馨	-6067
成曲调	-6068
成群地	-6069
我还要	-6070
戒大开	-6071
所在地	-6072
拒绝自	-6073
拜酒会	-6074
按喇叭	-6075
挑选哩	-6076
探讨择	-6077
掬的神	-6078
描写的	-6079
揭示在	-6080
撰者想	-6081
救灾事	-6082
救灾等	-6083
救睦邻	-6084
数十载	-6085
敲响了	-6086
文化乃	-6087
斗特技	-6088
族怎样	-6089
无尽的	-6090
无微不	-6091
无微而	-6092
无极一	-6093
日的宁	-6094
早在几	-6095
时就曾	-6096
春天脚	-6097
春的剪	-6098
春的海	-6099
埃及	-6100
寒冷	-6101
泻而	-6102
▁农妇	-6103
之伴唱	-6104
们都报	-6105
修筑本	-6106
县乡抓	-6107
参展的	-6108
反复论	-6109
反腐倡	-6110
寒冷的	-6111
慰问团	-6112
所反应	-6113
是党给	-6114
是咱们	-6115
是应征	-6116
是编著	-6117
是编选	-6118
显然更	-6119
景点和	-6120
更审慎	-6121
最初的	-6122
最早于	-6123
月如愿	-6124
有可能	-6125
本来面	-6126
李学勤	-6127
村宅内	-6128
束缚下	-6129
条小街	-6130
条标语	-6131
来没有	-6132
松鼠和	-6133
框架的	-6134
案最多	-6135
档次的	-6136
桥本龙	-6137
楼价下	-6138
概括的	-6139
横吹笛	-6140
横戈却	-6141
欠医院	-6142
止于情	-6143
正规化	-6144
此次展	-6145
此而焦	-6146
比额表	-6147
民的意	-6148
气袭人	-6149
水产业	-6150
水墨画	-6151
水浜变	-6152
水浜的	-6153
水面如	-6154
江上游	-6155
沟通与	-6156
治国平	-6157
治安很	-6158
泣鬼神	-6159
泻而下	-6160
洋洲村	-6161
洋洲镇	-6162
活力动	-6163
流量随	-6164
浓郁得	-6165
浓郁的	-6166
浩浩荡	-6167
浩然正	-6168
淡忘了	-6169
淡忘的	-6170
湖平原	-6171
溜排开	-6172
滴落海	-6173
演队员	-6174
火硝烟	-6175
灯高挂	-6176
点实况	-6177
热闹的	-6178
熊怒火	-6179
物种的	-6180
特大加	-6181
理山川	-6182
甚流利	-6183
画山水	-6184
画的金	-6185
界青联	-6186
的变化	-6187
的响应	-6188
的城关	-6189
的城里	-6190
的局面	-6191
的巨幅	-6192
的床前	-6193
的序幕	-6194
的待遇	-6195
的战友	-6196
的教育	-6197
的步子	-6198
的港澳	-6199
乳品	-6200
历时	-6201
有家	-6202
气和	-6203
面的	-6204
驶员	-6205
—30	-6206
之功力	-6207
亲手缝	-6208
以占地	-6209
净利落	-6210
前去告	-6211
医院和	-6212
历时仅	-6213
召力的	-6214
和印象	-6215
在警方	-6216
家乳品	-6217
层办公	-6218
曲印在	-6219
有力的	-6220
有家人	-6221
此形成	-6222
气和自	-6223
的十七	-6224
的纸鸢	-6225
的装帧	-6226
的诞生	-6227
的重任	-6228
的队员	-6229
的阶级	-6230
的隐患	-6231
的面世	-6232
的饺子	-6233
的驾车	-6234
直线从	-6235
省长和	-6236
省长田	-6237
省领导	-6238
真实写	-6239
着手抓	-6240
短期内	-6241
破鬼神	-6242
社长王	-6243
社长秦	-6244
票面额	-6245
种培育	-6246
种联系	-6247
空域内	-6248
窗大开	-6249
窗牖的	-6250
等单位	-6251
等巨幅	-6252
等数支	-6253
箫横吹	-6254
繁重的	-6255
红叶苍	-6256
红叶飘	-6257
纷飞的	-6258
线组织	-6259
组建的	-6260
绵绵的	-6261
美洲到	-6262
而从不	-6263
而无怨	-6264
而献身	-6265
肩勒肿	-6266
胡萝卜	-6267
能从中	-6268
能懈怠	-6269
致力于	-6270
蔓延到	-6271
行长杜	-6272
补助她	-6273
补助费	-6274
被拒绝	-6275
要削减	-6276
观察提	-6277
观看了	-6278
觉得该	-6279
警方把	-6280
讯中央	-6281
记花鸟	-6282
讲台上	-6283
论并重	-6284
诗震撼	-6285
说是吃	-6286
读书界	-6287
调动并	-6288
谋士们	-6289
购买户	-6290
贯穿以	-6291
贺电说	-6292
赠送给	-6293
足现实	-6294
踢足球	-6295
躺在那	-6296
车和装	-6297
车流量	-6298
车点和	-6299
古今	-6300
为创建	-6301
刘志娇	-6302
则多持	-6303
外出资	-6304
的分裂	-6305
运动名	-6306
还未曾	-6307
还给每	-6308
进程始	-6309
连年不	-6310
迹来看	-6311
造良田	-6312
遍天下	-6313
那个特	-6314
里窥视	-6315
里雪域	-6316
重学术	-6317
野火烧	-6318
量地接	-6319
金色路	-6320
金额达	-6321
钟楼和	-6322
销合同	-6323
阿姨了	-6324
院的讲	-6325
雨的日	-6326
需一遍	-6327
露脸近	-6328
非法洗	-6329
面料货	-6330
面的腮	-6331
顾大家	-6332
餐桌边	-6333
驾驶员	-6334
高潮迭	-6335
1.49	-6336
1190	-6337
1908	-6338
87%。	-6339
;236	-6340
▁197	-6341
▁从怀揣	-6342
▁农妇满	-6343
▁凯旋门	-6344
▁南京把	-6345
▁卡比拉	-6346
▁参展的	-6347
▁地处杭	-6348
▁太行石	-6349
▁德国自	-6350
▁怎样判	-6351
▁成人版	-6352
▁我明白	-6353
▁我观察	-6354
▁文中说	-6355
▁暖亮了	-6356
▁未曾详	-6357
▁李学勤	-6358
▁此次到	-6359
▁现在她	-6360
▁社评说	-6361
▁第二次	-6362
▁罗宾逊	-6363
▁美国对	-6364
▁许多老	-6365
▁贺新年	-6366
▁这部由	-6367
▁银川市	-6368
▁陆机是	-6369
一下当代	-6370
一个战友	-6371
一举中标	-6372
一些清醒	-6373
一定会把	-6374
一家证券	-6375
一开始便	-6376
一溜排开	-6377
丁阿姨了	-6378
万里而无	-6379
三幅作品	-6380
三者兼备	-6381
下找上门	-6382
下现实的	-6383
不安全的	-6384
不得不改	-6385
不必贪全	-6386
不必贪多	-6387
不能行车	-6388
与批评家	-6389
与此形成	-6390
与随处可	-6391
且价格便	-6392
世界各地	-6393
世纪之梦	-6394
业的体育	-6395
丝绸纺织	-6396
两三年的	-6397
两个月后	-6398
两年有所	-6399
好好	-6400
乐伴随	-6401
买一架	-6402
人为加	-6403
伴随下	-6404
使全书	-6405
六十余	-6406
兴县水	-6407
兴县等	-6408
其精确	-6409
净的柏	-6410
分会的	-6411
十几亩	-6412
可以准	-6413
大公报	-6414
她写到	-6415
好好干	-6416
孔玲说	-6417
干净的	-6418
极其精	-6419
然兴起	-6420
销全程	-6421
▁不同的	-6422
▁兴县水	-6423
▁国会的	-6424
▁在冰雪	-6425
严令禁止	-6426
严寒袭人	-6427
严格执法	-6428
个县市农	-6429
个国家和	-6430
个家庭在	-6431
个拱坝内	-6432
中了这一	-6433
中仍处于	-6434
中国国旗	-6435
中存在的	-6436
中求进的	-6437
中港集团	-6438
中的彩色	-6439
中的景观	-6440
中的精华	-6441
中的精品	-6442
临时区域	-6443
为实现以	-6444
为对于史	-6445
为民造福	-6446
久久回荡	-6447
之一的步	-6448
乐伴随度	-6449
也让人们	-6450
乡情温馨	-6451
书画的笔	-6452
书系频频	-6453
书记刘春	-6454
书记黄启	-6455
书记黄菊	-6456
买一架钢	-6457
了一些对	-6458
了一幅幅	-6459
了一批古	-6460
了世界和	-6461
了丰富的	-6462
了大量的	-6463
了总统令	-6464
了海内外	-6465
了相互间	-6466
了美术界	-6467
了这个悲	-6468
事的回忆	-6469
于其他类	-6470
于文学史	-6471
于日前作	-6472
互贺新年	-6473
五成群地	-6474
交管局未	-6475
交管局立	-6476
产销合同	-6477
亩也没有	-6478
亲手缝制	-6479
人为加重	-6480
人到来的	-6481
人士昨天	-6482
人流量随	-6483
人生体味	-6484
人生体验	-6485
人生窗牖	-6486
人的哲学	-6487
人还按出	-6488
仅为物质	-6489
今年已是	-6490
今年开通	-6491
仍处于警	-6492
从最初的	-6493
从来没有	-6494
他们安居	-6495
他们造出	-6496
他带头只	-6497
他带头捐	-6498
代的代言	-6499
我老	-6500
锡铭	-6501
▁84	-6502
与乡村	-6503
于乡村	-6504
何况要	-6505
依次为	-6506
保卫国	-6507
儿女的	-6508
元复始	-6509
充足比	-6510
全球共	-6511
和兄弟	-6512
完动迁	-6513
我老家	-6514
李锡铭	-6515
湖侠骨	-6516
热闹非	-6517
物品大	-6518
的信念	-6519
着信念	-6520
集体二	-6521
39%。	-6522
4626	-6523
三愿澳门	-6524
为何来了	-6525
令禁止鸣	-6526
以后我就	-6527
以告后人	-6528
以国内消	-6529
以探索和	-6530
以沉稳的	-6531
份坚韧与	-6532
企业参股	-6533
伙子家中	-6534
会员的作	-6535
会等单位	-6536
会费比额	-6537
会费问题	-6538
传统中求	-6539
传统语言	-6540
伤亡却要	-6541
似乎有了	-6542
但伤亡却	-6543
但在一些	-6544
但迟迟不	-6545
低档次的	-6546
何以有那	-6547
作为主攻	-6548
作品的准	-6549
作者们向	-6550
佯在自然	-6551
使之走向	-6552
依法治国	-6553
依然保持	-6554
依赖于情	-6555
信女放飞	-6556
值得骄傲	-6557
做好减轻	-6558
健康成长	-6559
偿还布厂	-6560
像前两次	-6561
充足比率	-6562
先民的意	-6563
先生的书	-6564
光彩而言	-6565
光的进取	-6566
兑成新币	-6567
全市查处	-6568
全程服务	-6569
全面展开	-6570
公报指出	-6571
公用事业	-6572
六十一个	-6573
共同宗旨	-6574
共同度过	-6575
共度佳节	-6576
关于终极	-6577
其中包括	-6578
其任务是	-6579
其自叙能	-6580
具有一种	-6581
养鱼水面	-6582
内容是将	-6583
冒着雨雪	-6584
写成了一	-6585
写这篇短	-6586
农民仅是	-6587
冬的奋战	-6588
冬的重庆	-6589
净化环境	-6590
净的柏油	-6591
凝聚力很	-6592
几条主要	-6593
凡是应征	-6594
凭着信念	-6595
分成人版	-6596
切断了与	-6597
则是他们	-6598
则被拒绝	-6599
洼田	-6600
爆炸	-6601
身影	-6602
一书中	-6603
下江南	-6604
买回去	-6605
了两部	-6606
了产权	-6607
了解呢	-6608
仍为阴	-6609
代代奇	-6610
仿佛听	-6611
嘹亮的	-6612
国仍有	-6613
对今后	-6614
年全年	-6615
时间里	-6616
明代奇	-6617
月的外	-6618
爆炸性	-6619
瓦买提	-6620
的老大	-6621
的身影	-6622
种洼田	-6623
远低于	-6624
一代代奇	-6625
习惯于用	-6626
买回去全	-6627
了两部性	-6628
互相理解	-6629
互补互利	-6630
交响乐团	-6631
产权问题	-6632
享受公司	-6633
人相当地	-6634
仍为阴雨	-6635
以至今后	-6636
似乎并不	-6637
低了生产	-6638
住在她们	-6639
公益服务	-6640
写作为主	-6641
初中版隔	-6642
初见成效	-6643
前程锦绣	-6644
剑平四海	-6645
副县长韩	-6646
副社长秦	-6647
力为前提	-6648
加元以下	-6649
加工厂等	-6650
加强对防	-6651
加达宣布	-6652
动则多达	-6653
动情地说	-6654
动辄几亩	-6655
助人为乐	-6656
励他们安	-6657
劲的笔触	-6658
势头有所	-6659
包括鲁迅	-6660
包的饺子	-6661
十下江南	-6662
十分利落	-6663
十分醒目	-6664
千余人次	-6665
午夜钟声	-6666
半月以来	-6667
半躺在那	-6668
协会金色	-6669
占得散文	-6670
印其他的	-6671
即使回忆	-6672
却在进行	-6673
却是真的	-6674
却是艰巨	-6675
历史主动	-6676
历史读物	-6677
历时仅九	-6678
厉的时候	-6679
县乡抓大	-6680
县长韩保	-6681
参与该市	-6682
参展作者	-6683
又蔓延到	-6684
及烈军属	-6685
发和科技	-6686
发生在伊	-6687
取得满意	-6688
受到诸多	-6689
变为一般	-6690
变得灰暗	-6691
古今之争	-6692
另外出资	-6693
可以准确	-6694
可是咱们	-6695
可自己放	-6696
台提供的	-6697
合成了一	-6698
同一面面	-6699
与国	-6700
与国相	-6701
久前已	-6702
之夜的	-6703
之急剧	-6704
之类可	-6705
也可证	-6706
多么高	-6707
年也将	-6708
文明硬	-6709
武之师	-6710
穷乐趣	-6711
等影视	-6712
胜之道	-6713
西之争	-6714
车之两	-6715
这么高	-6716
70‰。	-6717
▁徐义昭	-6718
▁有两位	-6719
不久前已	-6720
不同角度	-6721
与国相终	-6722
中学的八	-6723
中西之争	-6724
久前召开	-6725
之急剧恶	-6726
之类可替	-6727
也可证今	-6728
也将逐渐	-6729
共同主办	-6730
兵学之大	-6731
制胜之道	-6732
同期增长	-6733
同本地本	-6734
同离退休	-6735
后到处是	-6736
向辉煌的	-6737
听说本地	-6738
吸引人吗	-6739
呈现一派	-6740
员制度等	-6741
员工生存	-6742
和丰富的	-6743
和全新的	-6744
和华南的	-6745
和孩子们	-6746
和心灵轨	-6747
和恶劣的	-6748
和种植业	-6749
和饲料等	-6750
咱们这些	-6751
哈马和圣	-6752
响的生动	-6753
商办起了	-6754
喜庆佳节	-6755
嘘寒问暖	-6756
因素困扰	-6757
团拜酒会	-6758
团等数支	-6759
围绕建设	-6760
国产新型	-6761
国内经济	-6762
国家重建	-6763
国春张雅	-6764
国际舆论	-6765
图书馆共	-6766
图像并重	-6767
图谱先河	-6768
土建工程	-6769
在一些共	-6770
在一年中	-6771
在中卫县	-6772
在京上演	-6773
在反腐倡	-6774
在嘹亮的	-6775
在国会搁	-6776
在国外才	-6777
在场的近	-6778
在夏季多	-6779
在奥地利	-6780
在异地繁	-6781
在深圳的	-6782
在田野漫	-6783
在自民党	-6784
在自营自	-6785
在致词中	-6786
在这些桂	-6787
在那座两	-6788
在那里打	-6789
在高手笔	-6790
地位和公	-6791
地参与了	-6792
地按喇叭	-6793
坚强的汉	-6794
坪上村的	-6795
垂直间隔	-6796
城市公共	-6797
城的天空	-6798
培育成为	-6799
医马	-6800
学谦	-6801
榫卯	-6802
面扩	-6803
443	-6804
7.1	-6805
▁世间	-6806
与史所	-6807
两者很	-6808
为之动	-6809
为之鼓	-6810
为止最	-6811
倦世间	-6812
制榫卯	-6813
吴学谦	-6814
的严峻	-6815
的冲突	-6816
的好去	-6817
面扩展	-6818
▁世间公	-6819
一年中最	-6820
专程驱车	-6821
专访时说	-6822
世的兵学	-6823
丰收喜悦	-6824
临川民间	-6825
为之动容	-6826
为之鼓掌	-6827
为止最精	-6828
优质丝绸	-6829
倦世间最	-6830
医马论典	-6831
南京中山	-6832
塑造了我	-6833
境外客商	-6834
增加训练	-6835
增添了新	-6836
增长较快	-6837
声中一起	-6838
处罚条例	-6839
外交官徐	-6840
外在反映	-6841
外来民工	-6842
外来资金	-6843
多亿人同	-6844
多位香港	-6845
多处小型	-6846
多幅作品	-6847
多平方米	-6848
多画山水	-6849
多的遗憾	-6850
大大缩小	-6851
大建筑物	-6852
天到阿里	-6853
夫高丽生	-6854
好干部的	-6855
如何找准	-6856
如敞开一	-6857
如画的金	-6858
如车之两	-6859
娱乐节目	-6860
子和兄弟	-6861
字的丛书	-6862
学生们便	-6863
学院教授	-6864
它们在同	-6865
它们就可	-6866
它们就此	-6867
它对美国	-6868
安徽黄山	-6869
完整的以	-6870
定期召开	-6871
定的教学	-6872
定程度上	-6873
实实地做	-6874
实施大众	-6875
实施科教	-6876
宣部召开	-6877
害的严峻	-6878
家治国平	-6879
容量地接	-6880
宿舍中的	-6881
密切配合	-6882
对画牡丹	-6883
对购买户	-6884
将以骄傲	-6885
将是严峻	-6886
小时就吃	-6887
小曲印在	-6888
尤其是以	-6889
就一定能	-6890
就发展到	-6891
就开始了	-6892
就想起了	-6893
就方向言	-6894
就能最终	-6895
尽快予以	-6896
尽责任的	-6897
局局长何	-6898
展现传统	-6899
尸马	-6900
而首	-6901
▁当时	-6902
万只和	-6903
上任不	-6904
上加霜	-6905
上学的	-6906
上对此	-6907
上百万	-6908
不时被	-6909
不禁要	-6910
不等于	-6911
不见一	-6912
主要取	-6913
也上台	-6914
先不敢	-6915
写下了	-6916
去上学	-6917
多起来	-6918
如不在	-6919
尸马革	-6920
座钢架	-6921
战不绝	-6922
抓不住	-6923
法上加	-6924
社会保	-6925
禁不住	-6926
而首当	-6927
自下而	-6928
要下来	-6929
要不要	-6930
记下了	-6931
上任不久	-6932
不利影响	-6933
不时被各	-6934
不禁要问	-6935
不等于讲	-6936
不见一人	-6937
主要取材	-6938
也上台用	-6939
也多起来	-6940
也抓不住	-6941
从社会保	-6942
先不敢贸	-6943
写下了壮	-6944
去上学呢	-6945
展由中国	-6946
山花烂漫	-6947
山间回荡	-6948
岁的农妇	-6949
川乡镇以	-6950
工作来抓	-6951
工艺论典	-6952
巧地同熔	-6953
已具备了	-6954
已在各地	-6955
已持续了	-6956
已被四周	-6957
市洋洲镇	-6958
希萨诺说	-6959
干脆坐到	-6960
年一开始	-6961
年仅四岁	-6962
年代中期	-6963
年俄经济	-6964
年元月上	-6965
年元月起	-6966
年全世界	-6967
年全年新	-6968
年冬以来	-6969
年后重新	-6970
年就开始	-6971
年无事故	-6972
年汽车兵	-6973
并与广大	-6974
并向大家	-6975
并非华屋	-6976
并非轻易	-6977
广泛涉猎	-6978
广西又把	-6979
广西还在	-6980
应当说是	-6981
应的活动	-6982
座钢架砖	-6983
建新报道	-6984
建直辖市	-6985
建立新型	-6986
建筑新的	-6987
开完动迁	-6988
异不应当	-6989
引人关念	-6990
引人注目	-6991
形式美来	-6992
形成了适	-6993
形成风气	-6994
往往导致	-6995
往日的宁	-6996
往里窥视	-6997
很热闹的	-6998
很需要的	-6999
和冲	-7000
多超	-7001
,62	-7002
1/3	-7003
2/3	-7004
794	-7005
82%	-7006
▁3、	-7007
▁京沪	-7008
▁同为	-7009
▁国泰	-7010
▁外环	-7011
▁岁尾	-7012
▁总之	-7013
▁总的	-7014
▁献给	-7015
▁献辞	-7016
▁翻读	-7017
▁董事	-7018
一元钱	-7019
一场征	-7020
一户带	-7021
一片欢	-7022
以一首	-7023
布厂的	-7024
得一片	-7025
明亮的	-7026
状况不	-7027
4579	-7028
7941	-7029
89%,	-7030
89%。	-7031
▁前两年	-7032
▁同为郑	-7033
▁国泰民	-7034
▁外环线	-7035
▁岁尾重	-7036
▁明亮的	-7037
▁翻读由	-7038
一举成为	-7039
一场征服	-7040
一户带数	-7041
一片欢声	-7042
一部兵书	-7043
以一首歌	-7044
半数多超	-7045
发展一支	-7046
和冲红灯	-7047
对布厂的	-7048
忘的存款	-7049
总人数逾	-7050
总金额达	-7051
恤她那无	-7052
恭城原来	-7053
恰在这时	-7054
悟出些许	-7055
悟出道理	-7056
情与感的	-7057
感召力的	-7058
成员年底	-7059
成就斐然	-7060
我为丛书	-7061
我们手中	-7062
我由衷地	-7063
我的一半	-7064
或许可以	-7065
战火硝烟	-7066
战线组织	-7067
战车和装	-7068
户为农民	-7069
所描写的	-7070
所有的县	-7071
所概括的	-7072
执行旨在	-7073
批评家以	-7074
找上门来	-7075
承包合同	-7076
承担看护	-7077
技术基地	-7078
把两者很	-7079
把房前屋	-7080
担心殃及	-7081
拥有巨额	-7082
拱坝内蓄	-7083
挣一元钱	-7084
换成新币	-7085
探讨如何	-7086
探讨择业	-7087
掬的神情	-7088
提供弥补	-7089
提供机会	-7090
提倡建设	-7091
揭示了两	-7092
援救睦邻	-7093
摊比额表	-7094
撤军方案	-7095
攀登长城	-7096
支付能力	-7097
收购村民	-7098
改变空域	-7099
国维	-7100
百花	-7101
线上	-7102
与计生	-7103
王国维	-7104
百花洲	-7105
粹加上	-7106
线上挣	-7107
改造和美	-7108
改革小型	-7109
改革是将	-7110
救灾事迹	-7111
教学体系	-7112
数十万人	-7113
数字表明	-7114
数百市民	-7115
整体发展	-7116
整体平衡	-7117
文化概念	-7118
文学风格	-7119
文明硬碰	-7120
文献记载	-7121
斐然成就	-7122
斤斗特技	-7123
新年桌边	-7124
新春步步	-7125
新闻机构	-7126
方可运行	-7127
方的贺电	-7128
方面争取	-7129
族怎样在	-7130
无微不至	-7131
无微而弗	-7132
无穷乐趣	-7133
既消除了	-7134
日本太阳	-7135
日的下午	-7136
日通过全	-7137
旧的厂房	-7138
早年在国	-7139
早年身世	-7140
旺盛生命	-7141
明代奇计	-7142
明智而有	-7143
春天即将	-7144
春天脚步	-7145
春的剪纸	-7146
春的海南	-7147
春节期间	-7148
是人类的	-7149
是健康的	-7150
是因为能	-7151
是因为这	-7152
是由国家	-7153
是真正的	-7154
是编选者	-7155
是规范了	-7156
普通人的	-7157
曲惊天地	-7158
更加思念	-7159
更大的承	-7160
最为严重	-7161
月以来由	-7162
月在泰国	-7163
月如愿以	-7164
有新的起	-7165
有更大的	-7166
有步骤地	-7167
有的还给	-7168
有益气氛	-7169
有计划外	-7170
期的读者	-7171
木制榫卯	-7172
未止于情	-7173
未能收到	-7174
本村村民	-7175
本来面目	-7176
机制改革	-7177
村委会要	-7178
村宅内粪	-7179
村干部的	-7180
村村户户	-7181
束缚下把	-7182
来保卫国	-7183
来到华安	-7184
来到水产	-7185
来宾表示	-7186
来的盛会	-7187
构成了另	-7188
构成了整	-7189
某种联系	-7190
楼价下调	-7191
概和精神	-7192
概括来说	-7193
横卧山间	-7194
横吹笛子	-7195
横戈却万	-7196
欠医院的	-7197
次的平均	-7198
歌舞节目	-7199
千方	-7200
明代	-7201
比宁	-7202
郁的	-7203
到明代	-7204
千方百	-7205
数减少	-7206
水养鱼	-7207
沉郁的	-7208
.1%。	-7209
千方百计	-7210
次数减少	-7211
正发展到	-7212
正按正常	-7213
此而焦虑	-7214
每人每月	-7215
每周一期	-7216
每天查处	-7217
每年划拨	-7218
每月检查	-7219
比宁年前	-7220
毕竟还是	-7221
民情民意	-7222
气和自来	-7223
江湖侠骨	-7224
江西临川	-7225
汽车一辆	-7226
沉郁的地	-7227
沟通稳步	-7228
沧桑巨变	-7229
河北省平	-7230
河南美术	-7231
泽村村民	-7232
流利地说	-7233
流和经济	-7234
浇地采用	-7235
浓郁得几	-7236
浩然壮歌	-7237
浩然正气	-7238
浩荡军队	-7239
涅夫斯基	-7240
润五只是	-7241
深情地说	-7242
渐淡忘了	-7243
溯到明代	-7244
满载捐赠	-7245
滴落海声	-7246
澳门分社	-7247
灌的方式	-7248
热闹非凡	-7249
然消除了	-7250
爸爸的肩	-7251
版卢布和	-7252
版新卢布	-7253
物品大有	-7254
物品的时	-7255
物种的味	-7256
状况不好	-7257
狂泻而下	-7258
独具风采	-7259
独特个性	-7260
玉茭很快	-7261
玩的好去	-7262
甚流利的	-7263
生子女户	-7264
田的投入	-7265
田筑路人	-7266
男女老幼	-7267
画的题材	-7268
画论并重	-7269
留水养鱼	-7270
的三年中	-7271
的事业如	-7272
的凯旋门	-7273
的到来和	-7274
的勇敢与	-7275
的十七个	-7276
的发行已	-7277
的发行量	-7278
的同学们	-7279
的商品房	-7280
的城里人	-7281
的塔里木	-7282
的姑妈说	-7283
的学术清	-7284
的所有者	-7285
的指引下	-7286
的桥梁与	-7287
的水面如	-7288
的江上游	-7289
的港澳及	-7290
的目标和	-7291
的真实写	-7292
的组织化	-7293
的老大难	-7294
的考古学	-7295
的阵阵喝	-7296
的驾车者	-7297
直辖市后	-7298
相对落后	-7299
中每	-7300
掌握	-7301
而闻	-7302
读本	-7303
中每篇	-7304
仿佛向	-7305
内聚集	-7306
和观光	-7307
掌握本	-7308
终前的	-7309
而闻名	-7310
▁董其中	-7311
中每篇必	-7312
临终前的	-7313
他们的脸	-7314
战胜一切	-7315
省长田凤	-7316
真丝服装	-7317
着中国未	-7318
着爸爸的	-7319
着现实的	-7320
知之甚少	-7321
知了其中	-7322
短期效益	-7323
短诗震撼	-7324
确实罕见	-7325
社情民意	-7326
社长王启	-7327
祝你新年	-7328
禁不住热	-7329
种人类的	-7330
称领导为	-7331
稀的队员	-7332
程度已达	-7333
稳定增长	-7334
突出表现	-7335
立足现实	-7336
立集体二	-7337
第一手的	-7338
算先进的	-7339
算总投资	-7340
系列慰问	-7341
红叶苍鹰	-7342
红叶飘动	-7343
级地震是	-7344
组部召开	-7345
经济趋向	-7346
经香港时	-7347
结束对黎	-7348
给子女讲	-7349
给这个村	-7350
给黄土地	-7351
统一思想	-7352
统计数字	-7353
维伟报道	-7354
维护它的	-7355
维护缺乏	-7356
绵绵思念	-7357
缔了一批	-7358
缺乏有效	-7359
美国最初	-7360
美学品格	-7361
群众义演	-7362
群欢快的	-7363
而无怨无	-7364
而更多地	-7365
而深刻的	-7366
而献身的	-7367
而辉煌的	-7368
而首当其	-7369
耕地面前	-7370
职工的赞	-7371
联户办的	-7372
肩勒肿了	-7373
肩负着重	-7374
胡彩玲受	-7375
脱了出来	-7376
自家种的	-7377
自的学术	-7378
至古城址	-7379
致富的金	-7380
良知和美	-7381
良种培育	-7382
艰苦创业	-7383
色彩无法	-7384
莫大欣慰	-7385
董伟报道	-7386
蒙山腹地	-7387
蔓延和恶	-7388
蔬菜最多	-7389
藏族工艺	-7390
血与语言	-7391
表现出了	-7392
衷心谢意	-7393
被占领土	-7394
裹尸马革	-7395
覆盖的松	-7396
见的美食	-7397
观察提炼	-7398
规模战役	-7399
不帮	-7400
爆发	-7401
高坡	-7402
在国内	-7403
爆发之	-7404
花鸟画	-7405
连续性	-7406
高坡陡	-7407
不帮韩国	-7408
动辄实施	-7409
在国内也	-7410
必须前进	-7411
情花鸟画	-7412
政府只能	-7413
爆发之初	-7414
糅于一体	-7415
视的地位	-7416
觉和印象	-7417
角度出发	-7418
计的退伍	-7419
认真总结	-7420
训等有关	-7421
记者陈陆	-7422
记者驾车	-7423
许多同学	-7424
论战不绝	-7425
论著选编	-7426
识和气魄	-7427
该国仍有	-7428
详细调查	-7429
说是吃鱼	-7430
请到恭城	-7431
请到自家	-7432
诸多困难	-7433
读了总统	-7434
读这本书	-7435
调整土地	-7436
谈到蒙古	-7437
负责传授	-7438
财政部长	-7439
责任支付	-7440
货币形态	-7441
货币票面	-7442
贵阳市委	-7443
资金承贷	-7444
走遍天下	-7445
起来不要	-7446
起来次要	-7447
跑后地同	-7448
路段加强	-7449
踏实实地	-7450
身于乡村	-7451
身体健康	-7452
车点和修	-7453
车窗大开	-7454
达瓦买提	-7455
过上一个	-7456
运动名为	-7457
运行速度	-7458
还在纽约	-7459
还有极大	-7460
这一大的	-7461
这一问题	-7462
这个结论	-7463
这件事中	-7464
这件事我	-7465
这场危机	-7466
这本书的	-7467
这条破船	-7468
这种美食	-7469
这表达了	-7470
进行了一	-7471
进行救助	-7472
违章时间	-7473
连在一起	-7474
连年取得	-7475
述半个多	-7476
选择少量	-7477
选有代表	-7478
透过这个	-7479
通的效果	-7480
造福村民	-7481
那农民的	-7482
部散文集	-7483
部门配合	-7484
都坚持以	-7485
采取审慎	-7486
里雪域高	-7487
里面的腮	-7488
重大突破	-7489
重建古史	-7490
重武器转	-7491
重的位置	-7492
野火烧不	-7493
金色路京	-7494
针对部分	-7495
钞票面额	-7496
钟楼和鼓	-7497
钱补助她	-7498
铎先生的	-7499
开会	-7500
恍如	-7501
悲丧	-7502
文盲	-7503
等书	-7504
▁大批	-7505
和影视	-7506
她开会	-7507
就恍如	-7508
年文盲	-7509
悲丧命	-7510
数百里	-7511
的尝试	-7512
记载了	-7513
件和影视	-7514
地记载了	-7515
壮年文盲	-7516
就恍如与	-7517
生悲丧命	-7518
银行控股	-7519
镇坪上村	-7520
镇示范点	-7521
长王光英	-7522
长的春联	-7523
队为农民	-7524
队设立了	-7525
降到一位	-7526
院的讲义	-7527
难成曲调	-7528
雅的装帧	-7529
集团出资	-7530
雪上加霜	-7531
需要的场	-7532
青联组织	-7533
面料货源	-7534
音乐会由	-7535
项工程按	-7536
领导为寻	-7537
飞的标准	-7538
马尼拉能	-7539
高丽生从	-7540
高于美元	-7541
高潮迭起	-7542
鱼以活力	-7543
鱼儿的体	-7544
鲜活鱼儿	-7545
鸣戒大开	-7546
.55‰,	-7547
.62%。	-7548
.70‰。	-7549
10.62	-7550
92.8%	-7551
;4626	-7552
▁1976	-7553
▁一元复始	-7554
▁三十六位	-7555
▁不能懈怠	-7556
▁世界音乐	-7557
▁世间公认	-7558
▁中港集团	-7559
▁为之伴唱	-7560
▁乌鲁木齐	-7561
▁云南建成	-7562
▁人车分流	-7563
▁他把书法	-7564
▁他画雄鹰	-7565
▁以农业部	-7566
▁元旦之夜	-7567
▁元旦前夜	-7568
▁党的建设	-7569
▁入冬以来	-7570
▁兴县水江	-7571
▁农妇满脸	-7572
▁前两年曾	-7573
▁前者决定	-7574
▁午夜钟声	-7575
▁半月以来	-7576
▁双泾村的	-7577
▁只需一遍	-7578
▁四是县乡	-7579
▁围绕建设	-7580
▁国家体委	-7581
▁国民经济	-7582
▁国泰民安	-7583
▁在象征着	-7584
▁在这块贫	-7585
▁塔拉尔在	-7586
▁大学生们	-7587
▁太行石门	-7588
▁奇卢巴说	-7589
▁她们是两	-7590
▁她们是应	-7591
▁孙先生在	-7592
▁它仿佛向	-7593
▁它最早于	-7594
▁它的建成	-7595
▁尤其在夏	-7596
▁就在这时	-7597
▁山花烂漫	-7598
▁山高坡陡	-7599
抓紧	-7600
村配	-7601
载而	-7602
个村配	-7603
为各国	-7604
亿载而	-7605
吨淀粉	-7606
过来的	-7607
上许多人	-7608
个村配齐	-7609
亿载而为	-7610
军进行曲	-7611
吨淀粉降	-7612
在此之前	-7613
在菲律宾	-7614
士进行曲	-7615
性议题的	-7616
抓紧进行	-7617
指挥航班	-7618
的饲养量	-7619
自己的轻	-7620
记者刘儒	-7621
记者刘小	-7622
记者刘振	-7623
过来的吗	-7624
透视学和	-7625
通胀率低	-7626
邮电部下	-7627
饲养量达	-7628
鸡饲养量	-7629
▁1986	-7630
▁北大荒人	-7631
▁岁尾重逢	-7632
▁巴基斯坦	-7633
▁徐义昭一	-7634
▁怎样判断	-7635
▁总的来看	-7636
▁恰在这时	-7637
▁我明白了	-7638
▁我观察那	-7639
▁我还未曾	-7640
▁技术人员	-7641
▁据胡彩玲	-7642
▁改变空域	-7643
▁明亮的灶	-7644
▁未曾详考	-7645
▁本报银川	-7646
▁柳林县前	-7647
▁概括来说	-7648
▁江西临川	-7649
▁汪道涵在	-7650
▁波兰总统	-7651
▁润五只是	-7652
▁满载捐赠	-7653
▁激动了一	-7654
▁照耀整个	-7655
▁特型演员	-7656
▁献辞总结	-7657
▁画的题材	-7658
▁省长田凤	-7659
▁社评认为	-7660
▁立足现实	-7661
▁站在主持	-7662
▁第二次在	-7663
▁综合本报	-7664
▁综合治理	-7665
▁至于其他	-7666
▁莫桑比克	-7667
▁虽然眼下	-7668
▁虽然脱了	-7669
▁近代以来	-7670
▁近代各类	-7671
▁这前两次	-7672
▁这套丛书	-7673
▁这批学者	-7674
▁这条长达	-7675
▁透过这个	-7676
▁钞票面额	-7677
▁银川市建	-7678
▁长城脚下	-7679
▁长期以来	-7680
▁长期领导	-7681
▁陆机是述	-7682
▁随后联合	-7683
▁面对区域	-7684
▁面对城市	-7685
▁首先是乐	-7686
▁马来西亚	-7687
一下子捐赠	-7688
一个小小的	-7689
一个崭新的	-7690
一书中提出	-7691
一件也没有	-7692
一元一市斤	-7693
一年价格便	-7694
一户带数户	-7695
一是规范了	-7696
一条大山沟	-7697
一次拉开了	-7698
一百六十余	-7699
不舍	-7700
从伊	-7701
流弹	-7702
盛威	-7703
陈晓	-7704
33.	-7705
不舍的	-7706
中青年	-7707
从伊丽	-7708
使我驻	-7709
减少到	-7710
刘盛威	-7711
千万万	-7712
和完成	-7713
年俄工	-7714
流弹击	-7715
陈晓颜	-7716
从伊丽莎	-7717
使我驻足	-7718
保等部门	-7719
千千万万	-7720
回的还有	-7721
帮助城乡	-7722
年经济和	-7723
或者专业	-7724
扣不舍的	-7725
期的各项	-7726
流弹击中	-7727
海的史籍	-7728
琴的卢布	-7729
的卢布币	-7730
的大门之	-7731
的工作都	-7732
的战略决	-7733
的经验教	-7734
研究所的	-7735
秘书长曹	-7736
秘书长朱	-7737
籍中青年	-7738
线上挣扎	-7739
组成的准	-7740
陈晓颜赵	-7741
33.10	-7742
一种更审慎	-7743
一跃达到了	-7744
一部兵书可	-7745
万人减少到	-7746
万亿日元的	-7747
万平方公里	-7748
万里而无阂	-7749
三个独立的	-7750
三五成群地	-7751
三年的时候	-7752
三等功两次	-7753
上任不久便	-7754
上冉冉升起	-7755
上学的妹妹	-7756
上对在香港	-7757
上所概括的	-7758
上横卧山间	-7759
上百平方米	-7760
上致富的金	-7761
下现实的深	-7762
不上多么高	-7763
不仅在国外	-7764
不到的艰难	-7765
不同程度的	-7766
不很需要的	-7767
不懈的努力	-7768
不时被各方	-7769
不正是靠着	-7770
不甚流利的	-7771
不算先进的	-7772
不管是发达	-7773
与乡村的新	-7774
与国相终始	-7775
与图像并重	-7776
与沟通稳步	-7777
与程序管制	-7778
且价格便宜	-7779
世界上最早	-7780
世界各地凡	-7781
世纪的盛会	-7782
业于徐悲鸿	-7783
业程度已达	-7784
两个组织的	-7785
个主要路口	-7786
个人书画集	-7787
个人的命运	-7788
个县市中有	-7789
个县的城关	-7790
个村配齐了	-7791
中一举中标	-7792
中东五国之	-7793
中华儿女的	-7794
中卫县依托	-7795
中国代表团	-7796
中国在促进	-7797
中学的八位	-7798
中心所在地	-7799
想法	-7800
收支	-7801
车从	-7802
这两	-7803
▁公园	-7804
对这两	-7805
搭车从	-7806
日晚在	-7807
▁公园里	-7808
位条件和	-7809
力的一步	-7810
国际收支	-7811
基本要求	-7812
对这两项	-7813
水资源不	-7814
泳爱好者	-7815
深深地打	-7816
用笔精微	-7817
用笔精炼	-7818
用笔精致	-7819
的一份厚	-7820
的主人翁	-7821
的第一条	-7822
给特困户	-7823
针对第三	-7824
上的一份厚	-7825
不针对第三	-7826
中心提供的	-7827
中每篇必及	-7828
中组部召开	-7829
临时区域市	-7830
临终前的嘱	-7831
为主的原则	-7832
为减少日益	-7833
为国家分忧	-7834
为对于史诗	-7835
为建筑新的	-7836
为我们这些	-7837
为此而焦虑	-7838
为海峡两岸	-7839
为经济优势	-7840
为群众义演	-7841
为读者办了	-7842
为读者欢迎	-7843
主任彭珮云	-7844
主席对美国	-7845
举世瞩目的	-7846
义务劳动出	-7847
之一的步兵	-7848
之中的景观	-7849
之外我老家	-7850
之急剧恶化	-7851
之重的位置	-7852
之间以共同	-7853
之间的关系	-7854
九世纪之梦	-7855
也正式开馆	-7856
也深深地打	-7857
也要尽责任	-7858
乡情温馨和	-7859
乡的焦作市	-7860
乡镇以帮扶	-7861
乡镇涌现出	-7862
书记徐有芳	-7863
买回去全家	-7864
了一批古典	-7865
了一面旗帜	-7866
了两部性能	-7867
了产权界限	-7868
了女作家们	-7869
了广大农民	-7870
了经济结构	-7871
了贫困县的	-7872
了这一激动	-7873
了香港特区	-7874
了香港资本	-7875
了鲜活鱼儿	-7876
二千余人次	-7877
于今年开通	-7878
于其他类型	-7879
亚洲出现了	-7880
些钱补助她	-7881
交管局未接	-7882
交管局立下	-7883
交通违章大	-7884
交通违章近	-7885
交镇坪上村	-7886
产业的兴起	-7887
产业的农业	-7888
产品等出口	-7889
京城的天空	-7890
人为的限制	-7891
人们也开始	-7892
人口要下来	-7893
人员到全区	-7894
人士昨天披	-7895
人士的关注	-7896
人民布厂被	-7897
人流量随之	-7898
人生体验的	-7899
原先	-7900
帮带的	-7901
收到举	-7902
文化遗	-7903
比原先	-7904
与村民的	-7905
中是那样	-7906
其总额为	-7907
发表文告	-7908
团体在一	-7909
所在的保	-7910
扫村里的	-7911
把改革和	-7912
推出的是	-7913
收到举一	-7914
政府要员	-7915
政治局常	-7916
文化遗产	-7917
是那样豁	-7918
本丛书再	-7919
物质形态	-7920
那时代的	-7921
人生窗牖前	-7922
亿载而为津	-7923
今天经香港	-7924
今年元旦得	-7925
今年元旦的	-7926
从最初的袖	-7927
从来没有过	-7928
从社会保险	-7929
从这件事中	-7930
从长远观点	-7931
他今年四岁	-7932
他们安居乐	-7933
他们所有的	-7934
他动情地说	-7935
他已是连续	-7936
代表演队员	-7937
令人瞩目的	-7938
以全民健身	-7939
以减少经济	-7940
以国内市场	-7941
以大办沼气	-7942
以至今后更	-7943
以首脑会晤	-7944
任天津美术	-7945
份坚韧与博	-7946
企业修筑本	-7947
优势更多地	-7948
会上前去告	-7949
会员的作法	-7950
传统文化有	-7951
估计的严重	-7952
伴随着严重	-7953
但也有部分	-7954
但它们在同	-7955
但维护它的	-7956
但迟迟不肯	-7957
位多元外交	-7958
位来宾表示	-7959
低了生产风	-7960
低档次的滞	-7961
体现那个特	-7962
作品展在京	-7963
作品的准线	-7964
作者们共同	-7965
使一代代奇	-7966
使之走向极	-7967
使他们具有	-7968
使他们再次	-7969
使全书成了	-7970
使其作品偏	-7971
使大小车辆	-7972
使广大农民	-7973
使敬老院内	-7974
使现代学者	-7975
使粮食不断	-7976
依次为英国	-7977
依次自下而	-7978
俄发行的纸	-7979
信心是实现	-7980
信息公司对	-7981
倘佯在自然	-7982
值高于美元	-7983
做安全生产	-7984
健康的增长	-7985
元兴修水利	-7986
元旦登长城	-7987
先不敢贸然	-7988
先人的谋略	-7989
先民的意念	-7990
先生的书纯	-7991
先进的雷达	-7992
党和人民给	-7993
党报党刊订	-7994
全区总人口	-7995
全县将逐步	-7996
全村已完成	-7997
全球共发生	-7998
全面揭示在	-7999
岁钱	-8000
银花	-8001
于注重	-8002
人目睹	-8003
压岁钱	-8004
慰问品	-8005
树银花	-8006
精神扑	-8007
也带动了	-8008
位小客人	-8009
千多年的	-8010
基本法所	-8011
套小农场	-8012
就以军从	-8013
树银花不	-8014
界学术界	-8015
的慰问品	-8016
精神扑面	-8017
过于注重	-8018
进程始起	-8019
一个年轻的	-8020
三千多年的	-8021
之以强烈的	-8022
全面进步的	-8023
八个国家和	-8024
公平的原则	-8025
公路于日前	-8026
关注着祖国	-8027
关系的冲突	-8028
兴县等许多	-8029
其他一系列	-8030
其他的花卉	-8031
其精确程度	-8032
具备了开通	-8033
具有独特个	-8034
具有独立的	-8035
具鲜活滋润	-8036
养鱼水面达	-8037
再厉的时候	-8038
冒着雨雪把	-8039
写作为主业	-8040
军事部门在	-8041
农业于一体	-8042
农业新技术	-8043
农业是宁夏	-8044
农业继续在	-8045
农业部经过	-8046
农民每年可	-8047
冬泳爱好者	-8048
决心处罚尾	-8049
冷战结束后	-8050
净的柏油马	-8051
凝聚力很强	-8052
几条主干道	-8053
出了灿烂的	-8054
出了绵绵的	-8055
出口创汇百	-8056
出席了酒会	-8057
出版界来说	-8058
出版的古籍	-8059
出版社也曾	-8060
出现了奇迹	-8061
出生率高达	-8062
出租的私房	-8063
分会的有关	-8064
分摊比额表	-8065
分析与阶级	-8066
切入问题的	-8067
切断了与出	-8068
初中版三个	-8069
到历史研究	-8070
到这种美食	-8071
制度存在的	-8072
制胜之道后	-8073
前往北京京	-8074
前苏联流通	-8075
前跑后地同	-8076
副县长韩学	-8077
副社长秦文	-8078
加强和规模	-8079
加强对防汛	-8080
加快了山区	-8081
加快了市场	-8082
务员制度等	-8083
动则多达八	-8084
动辄实施制	-8085
势头有所遏	-8086
勇军进行曲	-8087
勉励他们安	-8088
化经济结构	-8089
北部活动的	-8090
区位条件和	-8091
区县的职工	-8092
医院和中华	-8093
十多年历史	-8094
十部散文集	-8095
千名男女老	-8096
半年大事录	-8097
半躺在那剥	-8098
单位的大门	-8099
和近	-8100
拖欠	-8101
游历	-8102
人静之	-8103
倒不在	-8104
发拖欠	-8105
山水田	-8106
市和近	-8107
投资谁	-8108
游历神	-8109
艺术团	-8110
适于用	-8111
一把手负	-8112
上发表了	-8113
不适于用	-8114
予以救助	-8115
人静之时	-8116
但发乎情	-8117
但同时也	-8118
又向世界	-8119
发拖欠了	-8120
向韩国输	-8121
子的重要	-8122
山水田林	-8123
提高物质	-8124
日发表的	-8125
日向全国	-8126
更坚实的	-8127
游历神州	-8128
而动人的	-8129
谁投资谁	-8130
难和中国	-8131
一把手负总	-8132
丽而动人的	-8133
但发乎情却	-8134
农民艺术团	-8135
出了动人的	-8136
华大使夫妇	-8137
南京中山陵	-8138
南京市科教	-8139
南暖湿气流	-8140
占全国总量	-8141
占全市查处	-8142
卢布的信心	-8143
即使回忆起	-8144
却鸣戒大开	-8145
历史性任务	-8146
历史性时刻	-8147
历史的孤本	-8148
历史知识的	-8149
历史背景下	-8150
厌倦世间最	-8151
原子钟的精	-8152
县的焦作市	-8153
县长韩保深	-8154
参照的图像	-8155
又席卷韩国	-8156
及书系频频	-8157
及境外客商	-8158
友协会金色	-8159
双向传送直	-8160
双泾村干部	-8161
反对党联合	-8162
反映当时的	-8163
反腐败斗争	-8164
发展开拓了	-8165
发生在伊朗	-8166
发生在当地	-8167
发电能力已	-8168
发表文告或	-8169
发表的评论	-8170
发表的调查	-8171
取缔了一批	-8172
受益者农民	-8173
叙述半个多	-8174
古稀的队员	-8175
可买一架钢	-8176
可掬的神情	-8177
可自己放弃	-8178
台记者刘振	-8179
各主要媒体	-8180
各主要街道	-8181
各方的贺电	-8182
合作和努力	-8183
同时表现出	-8184
同样是在写	-8185
同样的待遇	-8186
名人的自叙	-8187
名政府要员	-8188
后世的兵学	-8189
后于日前作	-8190
后半本是她	-8191
向台湾同胞	-8192
向我们祝贺	-8193
向我们这些	-8194
向艰难险阻	-8195
向韩国输送	-8196
吨淀粉降解	-8197
听她们的心	-8198
呈不同角度	-8199
临头	-8200
▁引导	-8201
其价值	-8202
具有重	-8203
权取消	-8204
过一些	-8205
难临头	-8206
鲜菜绿	-8207
下的香港	-8208
会使宁夏	-8209
作品中注	-8210
使我们也	-8211
公司的前	-8212
又具有重	-8213
无权取消	-8214
村办企业	-8215
灾难临头	-8216
的联欢会	-8217
精神步步	-8218
结束访问	-8219
花鲜菜绿	-8220
过一些不	-8221
▁它促进了	-8222
▁灾难临头	-8223
下的香港将	-8224
人无权取消	-8225
作品中注入	-8226
促进了农村	-8227
充满了喜庆	-8228
公司的前身	-8229
内花鲜菜绿	-8230
刚刚加入了	-8231
利税超千万	-8232
加入了这一	-8233
周日的下午	-8234
周被拘留的	-8235
命令警方把	-8236
和世界银行	-8237
和伤亡却要	-8238
和冲红灯自	-8239
和完成艰巨	-8240
和意大利等	-8241
和慰问资金	-8242
和推动两岸	-8243
和春节期间	-8244
和服务体系	-8245
和村干部的	-8246
和气体高达	-8247
和水果价格	-8248
和社会各界	-8249
和祖国人民	-8250
咱自家种的	-8251
哈马和圣卢	-8252
商取得新的	-8253
喜欢踢足球	-8254
回应流行的	-8255
回族自治区	-8256
团结一致展	-8257
团结各界的	-8258
困扰的韩国	-8259
困难的群众	-8260
国内外所有	-8261
国家旅游局	-8262
国家的关系	-8263
国家重建和	-8264
国春张雅文	-8265
国有大中型	-8266
国营银行中	-8267
图书馆成立	-8268
图谱先河的	-8269
土地的投入	-8270
在一些共性	-8271
在中国发展	-8272
在中国开展	-8273
在京度佳节	-8274
在反腐倡廉	-8275
在场的近百	-8276
在山间回荡	-8277
在广场上空	-8278
在总结经验	-8279
在我为丛书	-8280
在政治民主	-8281
在自营自立	-8282
在致词中也	-8283
在致词时说	-8284
在节约用水	-8285
在这些桂冠	-8286
在这些羊肉	-8287
在那里打井	-8288
在高手笔下	-8289
在高雅音乐	-8290
地兑换新币	-8291
地区与世界	-8292
地接过照片	-8293
地背土造田	-8294
型期的读者	-8295
基本做到了	-8296
基本法保障	-8297
基础设施欠	-8298
基础较好的	-8299
时时	-8300
却时时	-8301
水平迈	-8302
系统头	-8303
续发放	-8304
▁垦区将	-8305
▁忧其三	-8306
▁忧其二	-8307
▁这个村	-8308
▁通过中	-8309
▁通过高	-8310
▁韩国是	-8311
一日发表	-8312
也作出了	-8313
传统的版	-8314
元下降到	-8315
化的作用	-8316
卖乌骨鸡	-8317
影补助费	-8318
新党支部	-8319
权为目标	-8320
水平迈进	-8321
真正理解	-8322
稳定状态	-8323
系统头号	-8324
邸举行的	-8325
陆续发放	-8326
▁北京老年	-8327
▁尽管历史	-8328
▁有人认为	-8329
▁根据资源	-8330
▁正是由于	-8331
▁正是靠着	-8332
▁英国学者	-8333
▁这种交融	-8334
▁这种情况	-8335
▁这项活动	-8336
▁通过中葡	-8337
▁通过高层	-8338
专卖乌骨鸡	-8339
专家为老人	-8340
个主要园区	-8341
个主要监控	-8342
人心的力量	-8343
人心的时刻	-8344
传统的人们	-8345
传统的版式	-8346
兵学传统的	-8347
加快了农民	-8348
却时时有着	-8349
否真正理解	-8350
塑造了我军	-8351
塔里木的北	-8352
增加沟通与	-8353
备和全新的	-8354
外交官以及	-8355
外商办起了	-8356
多元的世界	-8357
多公里处的	-8358
多年的努力	-8359
多的时间里	-8360
大国确立了	-8361
大大推动了	-8362
大大改善了	-8363
大建筑物上	-8364
大桥的压力	-8365
大胆的尝试	-8366
天内全部搬	-8367
天内全部签	-8368
天写下了壮	-8369
失传的古代	-8370
失衡到平衡	-8371
头半本是她	-8372
奇卢巴去年	-8373
套小农场的	-8374
女作家们晤	-8375
她们是女性	-8376
她写到自己	-8377
她毕竟还是	-8378
她那壮实的	-8379
好的建议和	-8380
如今又面临	-8381
如画的金水	-8382
如车之两轮	-8383
姑妈听罢掉	-8384
委书记黄菊	-8385
学习与训练	-8386
学会等单位	-8387
学者的论著	-8388
孩子们珍惜	-8389
安全生产观	-8390
安全的责任	-8391
完整的美术	-8392
官邸举行的	-8393
定援助协议	-8394
定的教学大	-8395
实实地做人	-8396
实现了村村	-8397
宣读了总统	-8398
害的严峻考	-8399
▁题为	-8400
▁首次	-8401
在题为	-8402
场题为	-8403
境高架	-8404
好像置	-8405
学术思	-8406
岗培训	-8407
林风格	-8408
组驱车	-8409
首次来	-8410
驱车赶	-8411
30%—	-8412
▁一个人	-8413
▁五是下	-8414
▁位于博	-8415
▁位于武	-8416
▁作为卖	-8417
▁其次为	-8418
农业高产	-8419
园林风格	-8420
学术思潮	-8421
我好像置	-8422
新的风采	-8423
转岗培训	-8424
过境高架	-8425
适应高产	-8426
面向未来	-8427
驱车赶到	-8428
▁一个人丧	-8429
▁两岸文化	-8430
▁五是下大	-8431
▁位于博爱	-8432
▁位于武陟	-8433
▁北京大学	-8434
▁首次捐赠	-8435
中国科学院	-8436
为适应高产	-8437
了一场题为	-8438
南过境高架	-8439
同胞首次来	-8440
园林风格的	-8441
多年来首次	-8442
学术思潮有	-8443
家与批评家	-8444
家协会名誉	-8445
家协会理事	-8446
家园的跋涉	-8447
家治国平天	-8448
家的作品中	-8449
家重点扶持	-8450
容量地接纳	-8451
密切的关系	-8452
对水资源不	-8453
对现代学者	-8454
将其软禁在	-8455
将影响我国	-8456
将这一伟大	-8457
将这一观点	-8458
将逐步推行	-8459
小伙子家中	-8460
小农场经营	-8461
小时就吃过	-8462
小曲印在外	-8463
小的程度上	-8464
少生快富甜	-8465
少考古文物	-8466
尚未能收到	-8467
尽情地享受	-8468
尽的情思中	-8469
尽责任的举	-8470
局局长何光	-8471
展示了我国	-8472
山水田林路	-8473
山花烂漫时	-8474
山西画院的	-8475
岁的丁玉珍	-8476
工资的职工	-8477
已交出武器	-8478
已初见成效	-8479
已在国会搁	-8480
已就以军从	-8481
已投入资金	-8482
已拥有各类	-8483
已濒临倒闭	-8484
巴以就以军	-8485
市财政拿出	-8486
市领导为寻	-8487
布局之功力	-8488
师包的饺子	-8489
希涅夫斯基	-8490
带来了办水	-8491
带来了明显	-8492
帮助和支持	-8493
常给子女讲	-8494
常见的美食	-8495
干净的庭院	-8496
干部刘盛威	-8497
干部群众在	-8498
年也将保持	-8499
十里	-8500
千人	-8501
卷本	-8502
▁十里	-8503
八卷本	-8504
出采访	-8505
千人登	-8506
她门外	-8507
安远远	-8508
房门外	-8509
文送去	-8510
注目礼	-8511
的痕迹	-8512
级难题	-8513
线通信	-8514
通告说	-8515
都市的	-8516
都远远	-8517
门外走	-8518
▁十里长	-8519
从房门外	-8520
出采访时	-8521
历史长篇	-8522
和千人登	-8523
她门外的	-8524
带来阵阵	-8525
座都市的	-8526
无线通信	-8527
景文送去	-8528
板的痕迹	-8529
武安远远	-8530
级难题下	-8531
职工送去	-8532
行注目礼	-8533
达到零下	-8534
送去党的	-8535
适当平衡	-8536
适当提高	-8537
都是一种	-8538
都远远出	-8539
长远利益	-8540
12023	-8541
▁十里长街	-8542
▁本报郑州	-8543
从房门外朝	-8544
剑武安远远	-8545
外出采访时	-8546
对历史长篇	-8547
年人民日报	-8548
年元月上旬	-8549
年历史题材	-8550
年援救睦邻	-8551
年春天即将	-8552
年版新卢布	-8553
年起降架次	-8554
年都保持在	-8555
并严令禁止	-8556
并允许外国	-8557
并合影留念	-8558
并向全世界	-8559
广大会员国	-8560
广泛影响的	-8561
座钢架砖墙	-8562
建交国家的	-8563
建设和脱贫	-8564
建起大农场	-8565
开始的邮电	-8566
开拓划时代	-8567
引人关念于	-8568
引起美术界	-8569
强劲的发展	-8570
当选总统金	-8571
形成了特点	-8572
形成了适合	-8573
形成全社会	-8574
影响我国的	-8575
影响的画家	-8576
往事的回忆	-8577
往日的宁静	-8578
很好的势头	-8579
很好的机会	-8580
很热闹的早	-8581
律久久回荡	-8582
徐有芳了解	-8583
得一片灿烂	-8584
忙碌的身影	-8585
忽视的地位	-8586
怜恤她那无	-8587
思悟和自我	-8588
思想的形式	-8589
性和连续性	-8590
性议题的商	-8591
总理举行的	-8592
总统府举行	-8593
总统金泳三	-8594
恢复出版受	-8595
恭城原来是	-8596
感觉和印象	-8597
愿社会稳定	-8598
慰问团来到	-8599
一宗	-8600
无非	-8601
▁要把	-8602
▁话剧	-8603
一宗对	-8604
下运作	-8605
以运用	-8606
在几只	-8607
在身边	-8608
在软禁	-8609
墨运用	-8610
套输入	-8611
总统拉	-8612
恭城瑶	-8613
求进的	-8614
的路线	-8615
节输入	-8616
迅速把	-8617
运作观	-8618
鉴青史	-8619
习惯部队	-8620
亡鉴青史	-8621
交给这位	-8622
共同课题	-8623
到一宗对	-8624
加以运用	-8625
后的设备	-8626
圈在几只	-8627
墨运用在	-8628
实求进的	-8629
干部过好	-8630
总统拉菲	-8631
恭城瑶族	-8632
情节输入	-8633
文献资料	-8634
每年还要	-8635
继承转让	-8636
职工过好	-8637
节日过后	-8638
过好新春	-8639
过渡作出	-8640
运作如常	-8641
运作观感	-8642
这里农民	-8643
进口限制	-8644
配套输入	-8645
▁每年还要	-8646
▁节日过后	-8647
不习惯部队	-8648
中央的路线	-8649
交给这位老	-8650
兴亡鉴青史	-8651
务实求进的	-8652
圈在几只铁	-8653
在身边见到	-8654
在软禁期间	-8655
地加以运用	-8656
宽进口限制	-8657
建设的课题	-8658
总统拉菲克	-8659
慰问烈军属	-8660
成了强烈的	-8661
成货币形态	-8662
我们的队伍	-8663
我听说本地	-8664
我多边外交	-8665
或许可以追	-8666
战争的艰难	-8667
战役持续了	-8668
战车和装甲	-8669
户办的还是	-8670
户头的主人	-8671
所在的保定	-8672
所有权问题	-8673
扎实深厚的	-8674
投入的不足	-8675
投入的办水	-8676
抗日的阵阵	-8677
担任安理会	-8678
拔剑平四海	-8679
拱坝内蓄满	-8680
拿中国国旗	-8681
持之以恒地	-8682
指引下胜利	-8683
指挥航班的	-8684
挡春天脚步	-8685
挤住在她们	-8686
捐赠特大加	-8687
据新华社电	-8688
掌握本管制	-8689
探讨如何多	-8690
接受了赠送	-8691
推出八卷本	-8692
推出的是近	-8693
推出的这部	-8694
推广普及与	-8695
描绘的生动	-8696
提出的上述	-8697
提出要削减	-8698
提高了产量	-8699
不由	-8700
极为	-8701
的共	-8702
不由自	-8703
地聚集	-8704
培著作	-8705
宣传再	-8706
度而言	-8707
指导各	-8708
清华和	-8709
画其他	-8710
的共鸣	-8711
的洪水	-8712
的花生	-8713
的观点	-8714
罕见的	-8715
脚下森	-8716
花卉时	-8717
见到过	-8718
讲述了	-8719
贵花卉	-8720
起背篓	-8721
边讲解	-8722
不由自主	-8723
以罕见的	-8724
取得广大	-8725
名贵花卉	-8726
在画其他	-8727
堤的洪水	-8728
学术著作	-8729
山脚下森	-8730
更新设备	-8731
极为高兴	-8732
的花生倒	-8733
群培著作	-8734
背起背篓	-8735
致词香港	-8736
航班拥挤	-8737
花卉时能	-8738
花生上市	-8739
这种花生	-8740
▁这些作品	-8741
一条爆炸性	-8742
不由自主地	-8743
以罕见的魄	-8744
决堤的洪水	-8745
地聚集到了	-8746
堆群培著作	-8747
学术著作集	-8748
对购买户或	-8749
就背起背篓	-8750
山脚下森林	-8751
我们的荣誉	-8752
指导各乡镇	-8753
提高了农户	-8754
揭示了两人	-8755
搏精神步步	-8756
搭车从拉萨	-8757
摊位前徘徊	-8758
播大厅举行	-8759
撰写这篇短	-8760
撰者想到了	-8761
收到举一反	-8762
改变了我国	-8763
改革见成效	-8764
政府决定自	-8765
政府和各界	-8766
政府将着手	-8767
救灾等工作	-8768
教育于四川	-8769
散文随笔的	-8770
数十载光辉	-8771
数蔬菜最多	-8772
文化知识的	-8773
文史哲方面	-8774
文学理论家	-8775
文学研究所	-8776
文明硬碰硬	-8777
文艺界青联	-8778
斗争框架的	-8779
新华社发法	-8780
新卢布开始	-8781
新年桌边添	-8782
新春步步高	-8783
新能源事业	-8784
新闻机构的	-8785
方式的说法	-8786
施特劳斯父	-8787
施特劳斯的	-8788
旁通的效果	-8789
旅游业再创	-8790
族怎样在饥	-8791
无尽的遗憾	-8792
无微而弗纶	-8793
无论在政治	-8794
日开始上市	-8795
日本太阳能	-8796
日本经济就	-8797
日通过全加	-8798
旧币可自由	-8799
把汉	-8800
▁县市	-8801
▁罗干	-8802
乡练市	-8803
书立传	-8804
及维持	-8805
圣约翰	-8806
把汉简	-8807
气红灯	-8808
的登山	-8809
缓解了	-8810
罗干及	-8811
老区办	-8812
西北大	-8813
队维持	-8814
▁罗干说	-8815
不是简单	-8816
丽的篇章	-8817
交流缔造	-8818
使之成为	-8819
农民素质	-8820
列队维持	-8821
及维持高	-8822
圣约翰窥	-8823
基础而又	-8824
把汉简引	-8825
村民签订	-8826
气红灯笼	-8827
水费收取	-8828
湖州练市	-8829
累计发展	-8830
累计投入	-8831
绘画技法	-8832
老区人民	-8833
老区办起	-8834
荡的登山	-8835
著书立传	-8836
行动纲领	-8837
西北大部	-8838
▁列队维持	-8839
▁县市财政	-8840
不是简单地	-8841
为基础而又	-8842
举行罗干及	-8843
乡练市一年	-8844
于今天上午	-8845
交流缔造了	-8846
亩耕地面前	-8847
和村民签订	-8848
圣约翰窥破	-8849
把汉简引入	-8850
早在几年前	-8851
早已被四周	-8852
明令禁止鸣	-8853
明天的希望	-8854
是一件好事	-8855
是不会忘记	-8856
是中国历史	-8857
是华文文学	-8858
是物质遗存	-8859
更多人的耳	-8860
更多是一种	-8861
曾多次进行	-8862
最值得骄傲	-8863
最大的发菜	-8864
最近出版了	-8865
月的通胀率	-8866
有一个摊位	-8867
有中英关于	-8868
有人还按出	-8869
有光彩而言	-8870
有力的一步	-8871
有半数多超	-8872
有扎实深厚	-8873
有新的业绩	-8874
有新的起色	-8875
有的被爆竹	-8876
有重大突破	-8877
朋友们观看	-8878
服务于经济	-8879
服装加工厂	-8880
未来而努力	-8881
本丛书再版	-8882
本报记者陈	-8883
机场为中心	-8884
村宅内粪便	-8885
村里的公益	-8886
村集体收入	-8887
条件和成果	-8888
条件的限制	-8889
条基本要求	-8890
构成了整套	-8891
林果业为主	-8892
桂林航线的	-8893
档真丝服装	-8894
楼的大门之	-8895
概和精神闯	-8896
概算总投资	-8897
横吹笛子竖	-8898
横戈却万夫	-8899
余悸	-8900
发明	-8901
抽象	-8902
气质	-8903
胞来	-8904
需求	-8905
书的编	-8906
准确的	-8907
台胞来	-8908
大发明	-8909
岁的新	-8910
巷的高	-8911
抽象的	-8912
控的预	-8913
有余悸	-8914
气质和	-8915
率省委	-8916
的热情	-8917
的精深	-8918
的编辑	-8919
的需求	-8920
端的话	-8921
纯真的	-8922
万元的高	-8923
万元科研	-8924
书的编者	-8925
任务相当	-8926
做好监督	-8927
农业省区	-8928
几个省区	-8929
同样丰富	-8930
国际知名	-8931
在准确的	-8932
小巷的高	-8933
就以军在	-8934
年被称为	-8935
心有余悸	-8936
抽象的操	-8937
控的预期	-8938
民主监督	-8939
的老军人	-8940
相聚北京	-8941
破坏性的	-8942
确实生活	-8943
确的立场	-8944
蒙和引导	-8945
书的编者广	-8946
几个省区的	-8947
台胞来大陆	-8948
启蒙和引导	-8949
大量的编辑	-8950
学术气质和	-8951
对违章车辆	-8952
岁的新厂长	-8953
抽象的操作	-8954
是一大发明	-8955
曾相聚北京	-8956
次的平均数	-8957
欢乐的人群	-8958
欢聚一堂庆	-8959
歌舞升平的	-8960
正确的立场	-8961
此中南建交	-8962
此次展出的	-8963
武警的车辆	-8964
歧异不应当	-8965
死板的痕迹	-8966
每一个篇章	-8967
每人每月半	-8968
每挣一元钱	-8969
每月检查评	-8970
每种人类的	-8971
比如敞开一	-8972
气和自来水	-8973
气温记录的	-8974
气红灯笼和	-8975
水中是那样	-8976
水浜变清了	-8977
汇率和股票	-8978
江南和华南	-8979
江西百花洲	-8980
沧桑的关注	-8981
河北省平山	-8982
河南焦作市	-8983
河水长大的	-8984
沿着爸爸的	-8985
泽村村民为	-8986
活十分利落	-8987
活跃的商品	-8988
活跃的群体	-8989
流利地说几	-8990
浇地采用大	-8991
浓郁得几近	-8992
浓郁的沧桑	-8993
浪潮有可能	-8994
消息让人们	-8995
涌现出一百	-8996
淡雅的装帧	-8997
深为祖国的	-8998
深人静之时	-8999
巷队	-9000
造厂	-9001
陶潜	-9002
雅韵	-9003
主牵头	-9004
人牵头	-9005
任理事	-9006
传世的	-9007
前巷队	-9008
控电脑	-9009
玉茭皮	-9010
界限的	-9011
百分之	-9012
的热门	-9013
的预言	-9014
织造厂	-9015
陶潜诗	-9016
雅韵盈	-9017
与传世的	-9018
主控电脑	-9019
任理事国	-9020
党政牵头	-9021
勃勃生机	-9022
堵塞缓解	-9023
物价的大	-9024
玉茭皮里	-9025
生机勃勃	-9026
生机蓬勃	-9027
界限的绝	-9028
百分之百	-9029
的热门话	-9030
能人牵头	-9031
起了激越	-9032
道主牵头	-9033
陶潜诗喜	-9034
雅韵盈怀	-9035
▁物价的大	-9036
与传世的双	-9037
东道主牵头	-9038
主控电脑静	-9039
以能人牵头	-9040
响起了激越	-9041
常任理事国	-9042
深刻的印象	-9043
深加工企业	-9044
深化为对于	-9045
深层次问题	-9046
湖州市劳动	-9047
湖州市少年	-9048
满结束对黎	-9049
演出边讲解	-9050
演出迎新年	-9051
漫灌的方式	-9052
澳门一月一	-9053
激动人心的	-9054
火树银花不	-9055
点实况画面	-9056
热烈的欢迎	-9057
热烈的气氛	-9058
然消除了亏	-9059
照片带来了	-9060
爱心讲文明	-9061
爸爸的肩膀	-9062
牛饲养量达	-9063
物品的卡车	-9064
物品的时缺	-9065
物种的味道	-9066
特困户家中	-9067
特型演员杜	-9068
特殊的谋略	-9069
王国维先生	-9070
环保等部门	-9071
班子的重要	-9072
理山川培养	-9073
理性而从不	-9074
理想和精神	-9075
理论的精深	-9076
瑞士的科学	-9077
甚至还有希	-9078
甚至还有紧	-9079
生产基地化	-9080
生动传神之	-9081
生机勃勃景	-9082
生机蓬勃之	-9083
生活水平的	-9084
生长于四川	-9085
用墨运用在	-9086
用笔精炼老	-9087
田野的希望	-9088
由村集体和	-9089
由河南美术	-9090
由物质形态	-9091
男信女放飞	-9092
男女老幼共	-9093
界限的绝对	-9094
畜牧为支柱	-9095
登山活动的	-9096
的一大特色	-9097
的一条小街	-9098
的三年计划	-9099
山地	-9100
手张	-9101
跌大	-9102
▁有趣	-9103
▁每次	-9104
取消了	-9105
在临时	-9106
心中的	-9107
手张爱	-9108
更注意	-9109
河边的	-9110
清了又	-9111
滚动增	-9112
满足伊	-9113
激情泄	-9114
自清晨	-9115
要永远	-9116
要注意	-9117
走滚动	-9118
起水是	-9119
跌大涨	-9120
▁每次我	-9121
中国经济	-9122
其中山地	-9123
利用激光	-9124
升旗过程	-9125
困难的情	-9126
在临时搭	-9127
手张爱兰	-9128
标准每月	-9129
民间文艺	-9130
民间表演	-9131
水是故乡	-9132
永远不会	-9133
治理进行	-9134
法国记者	-9135
活动旨在	-9136
清了全县	-9137
温棚县县	-9138
滚动增值	-9139
满足伊尔	-9140
激情泄于	-9141
要永远从	-9142
高效温棚	-9143
▁有趣的是	-9144
▁每次我空	-9145
人员自清晨	-9146
出了心中的	-9147
利用激光束	-9148
升旗过程万	-9149
取消了已有	-9150
困难的情势	-9151
型温棚县县	-9152
大运河边的	-9153
手张爱兰从	-9154
摸清了全县	-9155
是永远不会	-9156
树立起水是	-9157
水是故乡甜	-9158
河水清了又	-9159
法国记者果	-9160
深厚的生活	-9161
激情泄于纸	-9162
特别要注意	-9163
的东方明珠	-9164
的中国阿姨	-9165
的任务相当	-9166
的关系冲突	-9167
的关键环节	-9168
的农民乐队	-9169
的勇敢坚韧	-9170
的历史性年	-9171
的发行量比	-9172
的可歌可泣	-9173
的各项改革	-9174
的同学们在	-9175
的国产新型	-9176
的城市街头	-9177
的城里人连	-9178
的外汇储备	-9179
的巴基斯坦	-9180
的希望之路	-9181
的情思中透	-9182
的战略决策	-9183
的方针指导	-9184
的桥梁与集	-9185
的沙漠公路	-9186
的热情服务	-9187
的独特个性	-9188
的真实写照	-9189
的考古学家	-9190
的花生倒了	-9191
的英雄壮歌	-9192
的角度出发	-9193
的贫困地区	-9194
的重新开始	-9195
的重要内容	-9196
的银行存款	-9197
的高效温棚	-9198
目的散文集	-9199
娃小	-9200
富国	-9201
段美	-9202
苍雄	-9203
一年后	-9204
出更大	-9205
原本是	-9206
地服从	-9207
失艺术	-9208
娃小金	-9209
富国俱	-9210
师李升	-9211
拔苍雄	-9212
有些失	-9213
有名村	-9214
有芳坐	-9215
村庄里	-9216
极不相	-9217
欧洲经	-9218
段美满	-9219
臣模范	-9220
诞生一	-9221
象更新	-9222
万象更新	-9223
主持正义	-9224
人在欧洲	-9225
值得纪念	-9226
偏失艺术	-9227
出口服装	-9228
功臣模范	-9229
动地服从	-9230
原本是两	-9231
娃小金刚	-9232
富国俱乐	-9233
岁的李升	-9234
挺拔苍雄	-9235
新的机遇	-9236
是个有名	-9237
更大贡献	-9238
最终导致	-9239
最终恢复	-9240
有些失之	-9241
有名村子	-9242
有芳坐在	-9243
欧洲经合	-9244
步入人口	-9245
段美满姻	-9246
的乌骨鸡	-9247
重要的是	-9248
▁万象更新	-9249
上迈出更大	-9250
亩地诞生一	-9251
出口服装定	-9252
却在进行着	-9253
原是个有名	-9254
原本是两千	-9255
岁的李升已	-9256
工程师李升	-9257
恭城的经验	-9258
有些失之空	-9259
极不相适应	-9260
柔的乌骨鸡	-9261
段美满姻缘	-9262
直观的图像	-9263
相对落后的	-9264
相聚北京城	-9265
省吕梁地区	-9266
省市参加了	-9267
省成为全国	-9268
省政府第一	-9269
看中了这一	-9270
看望和慰问	-9271
看里面的腮	-9272
真正做到了	-9273
真正成为连	-9274
眼光的进取	-9275
着自己的新	-9276
知名度而言	-9277
短期内无法	-9278
短诗震撼诗	-9279
确实生活着	-9280
确的原子钟	-9281
碑以告后人	-9282
社会生活的	-9283
社会科学院	-9284
祝你新年快	-9285
离退休人员	-9286
秘书长罗干	-9287
积极探索和	-9288
积极的挖掘	-9289
稳中求进的	-9290
稳定与发展	-9291
稳定增长为	-9292
稳定金融对	-9293
空中的彩色	-9294
窄路段加强	-9295
窗牖的激情	-9296
立在广场上	-9297
第一个环节	-9298
第一手资料	-9299
写上	-9300
新数	-9301
也显示	-9302
了显著	-9303
所推开	-9304
手推开	-9305
整洁了	-9306
新数据	-9307
新鲜的	-9308
普遍在	-9309
民政局	-9310
的作品	-9311
着一块	-9312
着新鲜	-9313
象显示	-9314
不忘故乡	-9315
中文写上	-9316
也显示了	-9317
吸着新鲜	-9318
广西是个	-9319
按照救助	-9320
攻坚阶段	-9321
政局稳定	-9322
时代推行	-9323
显露出来	-9324
沾着一块	-9325
用水放水	-9326
的作品昂	-9327
记者王霞	-9328
较新鲜的	-9329
迹象显示	-9330
▁她所推开	-9331
▁广西是个	-9332
▁随手推开	-9333
也有了显著	-9334
呼吸着新鲜	-9335
普遍在行业	-9336
有迹象显示	-9337
沾着一块羊	-9338
用中文写上	-9339
的作品昂然	-9340
的最新数据	-9341
第一笔生意	-9342
等公用事业	-9343
等共同关心	-9344
等各个领域	-9345
等巨幅标语	-9346
等有关领导	-9347
筑路人战胜	-9348
简单的兵法	-9349
管理和执法	-9350
管理和服务	-9351
管这项工作	-9352
粹加上如此	-9353
精神文明讲	-9354
素质的提高	-9355
素质的重要	-9356
累的工作都	-9357
纯真的色彩	-9358
组成的秧歌	-9359
组织和调动	-9360
终极问题的	-9361
经济优势的	-9362
经济增长和	-9363
经济的积累	-9364
绘画技法也	-9365
给历史研究	-9366
给政协工作	-9367
给计划生育	-9368
给鱼以活力	-9369
继承与创新	-9370
继承和转让	-9371
绿化及庭院	-9372
缓解了长江	-9373
缺乏有效的	-9374
置于以色列	-9375
美国为主的	-9376
美国在对待	-9377
美国拒绝自	-9378
美国的直接	-9379
美德四海扬	-9380
美术创作而	-9381
美洲到亚洲	-9382
翻印其他的	-9383
考古学本身	-9384
而且比原先	-9385
而回归祖国	-9386
而是在探索	-9387
而欢欣鼓舞	-9388
而献身的英	-9389
而首当其冲	-9390
耕田的投入	-9391
联邦邮电部	-9392
肩负着促进	-9393
肩负着重任	-9394
胆识和气魄	-9395
胡彩玲受华	-9396
能从象角村	-9397
能够给我们	-9398
能大大缩小	-9399
田纪	-9400
共抢救	-9401
和承包	-9402
懂得爱	-9403
拜年会	-9404
指数就	-9405
接着说	-9406
接触到	-9407
日愉快	-9408
田纪云	-9409
的战役	-9410
都挤在	-9411
▁拜年会	-9412
不懂得爱	-9413
与其挤在	-9414
专门成立	-9415
广泛接触	-9416
悲鸿先生	-9417
户户参与	-9418
承担义务	-9419
抓住两个	-9420
投入生产	-9421
指数就狂	-9422
生日愉快	-9423
组织成立	-9424
赁和承包	-9425
部长恩佐	-9426
都挤在门	-9427
不懂得爱情	-9428
年专门成立	-9429
悲鸿先生教	-9430
投入生产费	-9431
指数就狂跌	-9432
接触到她们	-9433
的战役开始	-9434
租赁和承包	-9435
能源为前提	-9436
能源部门在	-9437
能过上一个	-9438
脱贫的农民	-9439
腹地文化的	-9440
自己的成长	-9441
自治区进口	-9442
自然增大了	-9443
自觉地开展	-9444
自豪的荣誉	-9445
致力于加强	-9446
致富带头人	-9447
致的学术清	-9448
致词香港正	-9449
航线的规模	-9450
艰辛的努力	-9451
色彩无法与	-9452
节日期间的	-9453
花生上市了	-9454
若有计划外	-9455
苦和恶劣的	-9456
苦难和中国	-9457
英雄的群体	-9458
荣毅仁出席	-9459
荣立集体二	-9460
菜也多起来	-9461
菲卫生部长	-9462
落后的设备	-9463
董建华去年	-9464
蔓延和恶化	-9465
虽名列第二	-9466
蛋鸡饲养量	-9467
行业连年不	-9468
街道整洁了	-9469
补发拖欠了	-9470
补贴更多的	-9471
表达了对于	-9472
被流弹击中	-9473
西藏发生的	-9474
要对布厂的	-9475
要继续发扬	-9476
覆盖的松花	-9477
观看了演出	-9478
规范了行车	-9479
解决了以前	-9480
解决新矛盾	-9481
解脱了出来	-9482
誓词伴随着	-9483
计的退伍士	-9484
认真总结并	-9485
让一个战友	-9486
讯中央人民	-9487
记者刘小明	-9488
记者想起了	-9489
记者招待会	-9490
记者王霞光	-9491
记花鸟画家	-9492
讲述了自己	-9493
许多同学情	-9494
详细记录了	-9495
读者的桥梁	-9496
调控的预期	-9497
财政部长马	-9498
质量的城市	-9499
▁蛋	-9500
五彩	-9501
洗国	-9502
▁延长	-9503
了平静	-9504
变得异	-9505
和广阔	-9506
地平静	-9507
将彻底	-9508
常年被	-9509
建起人	-9510
建起股	-9511
引述一	-9512
引述了	-9513
强大阻	-9514
很大震	-9515
得五彩	-9516
是必要	-9517
校大胆	-9518
洗国耻	-9519
济南市	-9520
环境潜	-9521
用控制	-9522
的强大	-9523
十五年被	-9524
变得异常	-9525
和广阔的	-9526
和环境潜	-9527
妨引述一	-9528
宫广场上	-9529
就在无数	-9530
年是刚果	-9531
年起根据	-9532
广播电视	-9533
建起人畜	-9534
建起股份	-9535
强大表示	-9536
强大阻力	-9537
很大震动	-9538
必要担心	-9539
扮得五彩	-9540
把济南市	-9541
是必要的	-9542
特别引述	-9543
良好开局	-9544
雪洗国耻	-9545
▁延长后的	-9546
▁雪洗国耻	-9547
不妨引述一	-9548
也就在无数	-9549
办学校大胆	-9550
和环境潜能	-9551
在南非广播	-9552
外交的强大	-9553
将彻底取代	-9554
常年被外国	-9555
并为祖国的	-9556
建起人畜饮	-9557
建起股份制	-9558
必要担心它	-9559
恢复了平静	-9560
拉宫广场上	-9561
特别引述江	-9562
的良好开局	-9563
装扮得五彩	-9564
贫困县的省	-9565
贫血与语言	-9566
资助村里的	-9567
资金和面料	-9568
资金承贷承	-9569
走向新世纪	-9570
走向贵乎理	-9571
走滚动发展	-9572
起的讲台上	-9573
起降架次以	-9574
起飞的标准	-9575
踏踏实实地	-9576
身边这么多	-9577
转变为投资	-9578
较大规模的	-9579
较好的成就	-9580
辐射带动了	-9581
辐射面扩展	-9582
达成的和平	-9583
迈向辉煌的	-9584
迎新年之际	-9585
迎春的剪纸	-9586
迎来了面值	-9587
这些谋士们	-9588
这座都市的	-9589
这样上百万	-9590
远低于美国	-9591
连同离退休	-9592
连年取得好	-9593
追求时代的	-9594
透视学和素	-9595
途经香港时	-9596
通胀率下降	-9597
通过一系列	-9598
造成的破坏	-9599
所以	-9600
一难题	-9601
,	-9602
的	-9603
▁	-9604
。	-9605
、	-9606
一	-9607
国	-9608
年	-9609
人	-9610
1	-9611
中	-9612
在	-9613
了	-9614
大	-9615
和	-9616
0	-9617
有	-9618
9	-9619
是	-9620
为	-9621
新	-9622
地	-9623
民	-9624
发	-9625
生	-9626
业	-9627
这	-9628
全	-9629
出	-9630
“	-9631
”	-9632
不	-9633
家	-9634
上	-9635
以	-9636
们	-9637
个	-9638
作	-9639
来	-9640
到	-9641
会	-9642
文	-9643
多	-9644
行	-9645
成	-9646
日	-9647
经	-9648
学	-9649
同	-9650
我	-9651
农	-9652
工	-9653
者	-9654
2	-9655
华	-9656
进	-9657
开	-9658
部	-9659
展	-9660
建	-9661
区	-9662
对	-9663
市	-9664
.	-9665
主	-9666
时	-9667
元	-9668
水	-9669
要	-9670
自	-9671
与	-9672
政	-9673
重	-9674
动	-9675
本	-9676
他	-9677
产	-9678
月	-9679
于	-9680
实	-9681
下	-9682
8	-9683
3	-9684
前	-9685
利	-9686
现	-9687
记	-9688
加	-9689
高	-9690
之	-9691
社	-9692
村	-9693
理	-9694
万	-9695
事	-9696
两	-9697
化	-9698
而	-9699
各	-9700
心	-9701
起	-9702
长	-9703
面	-9704
5	-9705
代	-9706
关	-9707
报	-9708
济	-9709
小	-9710
(	-9711
)	-9712
其	-9713
史	-9714
方	-9715
表	-9716
南	-9717
美	-9718
6	-9719
世	-9720
合	-9721
明	-9722
7	-9723
使	-9724
就	-9725
设	-9726
说	-9727
:	-9728
将	-9729
好	-9730
通	-9731
—	-9732
活	-9733
等	-9734
交	-9735
天	-9736
界	-9737
统	-9738
《	-9739
》	-9740
书	-9741
共	-9742
平	-9743
也	-9744
着	-9745
历	-9746
过	-9747
里	-9748
场	-9749
定	-9750
分	-9751
入	-9752
后	-9753
外	-9754
计	-9755
4	-9756
北	-9757
十	-9758
资	-9759
改	-9760
从	-9761
公	-9762
得	-9763
金	-9764
体	-9765
电	-9766
道	-9767
制	-9768
用	-9769
县	-9770
次	-9771
系	-9772
党	-9773
力	-9774
总	-9775
持	-9776
港	-9777
特	-9778
并	-9779
结	-9780
路	-9781
;	-9782
军	-9783
基	-9784
程	-9785
向	-9786
子	-9787
度	-9788
香	-9789
户	-9790
西	-9791
达	-9792
可	-9793
困	-9794
当	-9795
育	-9796
目	-9797
种	-9798
员	-9799
已	-9800
广	-9801
三	-9802
创	-9803
山	-9804
气	-9805
还	-9806
题	-9807
划	-9808
去	-9809
强	-9810
机	-9811
正	-9812
治	-9813
集	-9814
京	-9815
务	-9816
提	-9817
术	-9818
能	-9819
问	-9820
性	-9821
步	-9822
九	-9823
安	-9824
企	-9825
位	-9826
名	-9827
少	-9828
然	-9829
第	-9830
都	-9831
非	-9832
今	-9833
先	-9834
内	-9835
情	-9836
所	-9837
老	-9838
解	-9839
乡	-9840
导	-9841
版	-9842
立	-9843
精	-9844
联	-9845
及	-9846
品	-9847
府	-9848
收	-9849
江	-9850
门	-9851
间	-9852
委	-9853
意	-9854
无	-9855
法	-9856
乐	-9857
如	-9858
推	-9859
此	-9860
增	-9861
画	-9862
管	-9863
举	-9864
团	-9865
最	-9866
由	-9867
古	-9868
式	-9869
海	-9870
物	-9871
贫	-9872
战	-9873
图	-9874
更	-9875
难	-9876
些	-9877
保	-9878
放	-9879
样	-9880
论	-9881
革	-9882
传	-9883
形	-9884
把	-9885
相	-9886
近	-9887
城	-9888
布	-9889
组	-9890
车	-9891
领	-9892
群	-9893
际	-9894
首	-9895
义	-9896
五	-9897
点	-9898
节	-9899
协	-9900
岸	-9901
每	-9902
深	-9903
青	-9904
众	-9905
处	-9906
志	-9907
又	-9908
干	-9909
示	-9910
风	-9911
原	-9912
取	-9913
回	-9914
局	-9915
庆	-9916
张	-9917
投	-9918
祖	-9919
续	-9920
被	-9921
%	-9922
神	-9923
项	-9924
亿	-9925
决	-9926
厂	-9927
数	-9928
省	-9929
给	-9930
馆	-9931
优	-9932
台	-9933
应	-9934
引	-9935
想	-9936
据	-9937
服	-9938
条	-9939
田	-9940
纪	-9941
职	-9942
院	-9943
二	-9944
云	-9945
施	-9946
织	-9947
致	-9948
色	-9949
造	-9950
但	-9951
始	-9952
手	-9953
指	-9954
期	-9955
极	-9956
欢	-9957
比	-9958
流	-9959
演	-9960
队	-9961
坚	-9962
带	-9963
视	-9964
那	-9965
势	-9966
参	-9967
她	-9968
片	-9969
级	-9970
象	-9971
量	-9972
龙	-9973
东	-9974
思	-9975
支	-9976
族	-9977
环	-9978
益	-9979
盛	-9980
调	-9981
值	-9982
受	-9983
币	-9984
感	-9985
技	-9986
接	-9987
看	-9988
继	-9989
花	-9990
话	-9991
光	-9992
别	-9993
变	-9994
型	-9995
央	-9996
整	-9997
率	-9998
严	-9999
再	-10000
几	-10001
口	-10002
常	-10003
快	-10004
斯	-10005
望	-10006
祝	-10007
维	-10008
费	-10009
转	-10010
任	-10011
信	-10012
办	-10013
愿	-10014
效	-10015
认	-10016
音	-10017
头	-10018
格	-10019
艺	-10020
读	-10021
千	-10022
士	-10023
旦	-10024
果	-10025
百	-10026
直	-10027
真	-10028
积	-10029
选	-10030
亚	-10031
件	-10032
功	-10033
只	-10034
命	-10035
商	-10036
求	-10037
爱	-10038
空	-10039
良	-10040
英	-10041
议	-10042
写	-10043
卢	-10044
反	-10045
四	-10046
境	-10047
女	-10048
完	-10049
富	-10050
旗	-10051
林	-10052
知	-10053
至	-10054
藏	-10055
融	-10056
观	-10057
走	-10058
防	-10059
列	-10060
则	-10061
却	-10062
因	-10063
它	-10064
影	-10065
态	-10066
标	-10067
清	-10068
献	-10069
稳	-10070
考	-10071
规	-10072
身	-10073
迎	-10074
银	-10075
飞	-10076
专	-10077
兴	-10078
响	-10079
均	-10080
权	-10081
游	-10082
科	-10083
许	-10084
镇	-10085
降	-10086
马	-10087
做	-10088
八	-10089
助	-10090
双	-10091
己	-10092
德	-10093
李	-10094
温	-10095
类	-10096
讲	-10097
质	-10098
运	-10099
丛	-10100
争	-10101
切	-10102
归	-10103
往	-10104
拉	-10105
教	-10106
歌	-10107
没	-10108
源	-10109
王	-10110
见	-10111
边	-10112
连	-10113
兵	-10114
巴	-10115
彩	-10116
斗	-10117
确	-10118
航	-10119
评	-10120
钱	-10121
亩	-10122
况	-10123
副	-10124
域	-10125
夏	-10126
帮	-10127
必	-10128
扶	-10129
武	-10130
河	-10131
泽	-10132
满	-10133
略	-10134
础	-10135
笔	-10136
籍	-10137
编	-10138
货	-10139
?	-10140
俄	-10141
具	-10142
兼	-10143
友	-10144
告	-10145
园	-10146
存	-10147
才	-10148
景	-10149
研	-10150
究	-10151
红	-10152
线	-10153
装	-10154
识	-10155
额	-10156
供	-10157
努	-10158
升	-10159
半	-10160
川	-10161
很	-10162
护	-10163
故	-10164
款	-10165
照	-10166
脱	-10167
荣	-10168
街	-10169
该	-10170
责	-10171
七	-10172
价	-10173
减	-10174
周	-10175
善	-10176
复	-10177
尽	-10178
席	-10179
春	-10180
紧	-10181
罗	-10182
营	-10183
警	-10184
鲜	-10185
『	-10186
』	-10187
临	-10188
司	-10189
喜	-10190
夜	-10191
套	-10192
孙	-10193
庭	-10194
录	-10195
早	-10196
油	-10197
洲	-10198
球	-10199
米	-10200
繁	-10201
胞	-10202
范	-10203
谋	-10204
退	-10205
速	-10206
随	-10207
令	-10208
克	-10209
养	-10210
包	-10211
岁	-10212
扎	-10213
批	-10214
未	-10215
约	-10216
菜	-10217
著	-10218
谈	-10219
贺	-10220
较	-10221
远	-10222
雄	-10223
!	-10224
仅	-10225
何	-10226
依	-10227
刘	-10228
刻	-10229
占	-10230
印	-10231
声	-10232
孔	-10233
宁	-10234
密	-10235
尔	-10236
巨	-10237
念	-10238
慰	-10239
承	-10240
抓	-10241
摄	-10242
显	-10243
梁	-10244
注	-10245
火	-10246
热	-10247
落	-10248
证	-10249
采	-10250
驻	-10251
黄	-10252
午	-10253
土	-10254
奋	-10255
客	-10256
宣	-10257
尼	-10258
州	-10259
希	-10260
庄	-10261
底	-10262
或	-10263
曲	-10264
案	-10265
模	-10266
澳	-10267
激	-10268
称	-10269
终	-10270
贸	-10271
述	-10272
送	-10273
针	-10274
雨	-10275
震	-10276
鱼	-10277
份	-10278
伍	-10279
伟	-10280
健	-10281
儿	-10282
准	-10283
初	-10284
卡	-10285
召	-10286
容	-10287
曾	-10288
独	-10289
破	-10290
章	-10291
艰	-10292
访	-10293
负	-10294
阳	-10295
丽	-10296
乎	-10297
仪	-10298
低	-10299
便	-10300
卫	-10301
即	-10302
号	-10303
备	-10304
居	-10305
怀	-10306
按	-10307
挥	-10308
斤	-10309
断	-10310
晚	-10311
材	-10312
构	-10313
波	-10314
派	-10315
琛	-10316
禁	-10317
福	-10318
纷	-10319
购	-10320
贵	-10321
超	-10322
迹	-10323
雪	-10324
韩	-10325
么	-10326
亡	-10327
亲	-10328
仍	-10329
伤	-10330
促	-10331
典	-10332
冷	-10333
劳	-10334
围	-10335
塔	-10336
奇	-10337
座	-10338
康	-10339
排	-10340
探	-10341
控	-10342
烈	-10343
石	-10344
纳	-10345
聚	-10346
胡	-10347
让	-10348
讯	-10349
逐	-10350
销	-10351
·	-10352
住	-10353
侨	-10354
充	-10355
冬	-10356
夫	-10357
寒	-10358
察	-10359
息	-10360
散	-10361
映	-10362
智	-10363
查	-10364
汇	-10365
泾	-10366
状	-10367
珍	-10368
登	-10369
眼	-10370
素	-10371
署	-10372
背	-10373
舞	-10374
苦	-10375
茶	-10376
财	-10377
足	-10378
辉	-10379
验	-10380
’	-10381
刚	-10382
卖	-10383
危	-10384
吕	-10385
吸	-10386
字	-10387
徐	-10388
救	-10389
旧	-10390
根	-10391
死	-10392
段	-10393
消	-10394
湾	-10395
留	-10396
白	-10397
短	-10398
突	-10399
策	-10400
纸	-10401
胜	-10402
谁	-10403
邓	-10404
郑	-10405
阶	-10406
互	-10407
余	-10408
你	-10409
佳	-10410
兰	-10411
剧	-10412
勒	-10413
厚	-10414
唱	-10415
妇	-10416
幅	-10417
序	-10418
待	-10419
忘	-10420
恢	-10421
易	-10422
树	-10423
浩	-10424
瑞	-10425
粮	-10426
补	-10427
言	-10428
贷	-10429
轻	-10430
遗	-10431
陈	-10432
需	-10433
顿	-10434
齐	-10435
且	-10436
丰	-10437
修	-10438
停	-10439
像	-10440
勃	-10441
医	-10442
器	-10443
墨	-10444
太	-10445
层	-10446
担	-10447
拥	-10448
括	-10449
拿	-10450
振	-10451
措	-10452
敬	-10453
旅	-10454
暖	-10455
束	-10456
架	-10457
氛	-10458
焦	-10459
玉	-10460
索	-10461
荒	-10462
虽	-10463
觉	-10464
角	-10465
越	-10466
跨	-10467
追	-10468
阵	-10469
阿	-10470
限	-10471
食	-10472
丝	-10473
久	-10474
习	-10475
判	-10476
单	-10477
厅	-10478
叙	-10479
启	-10480
哈	-10481
失	-10482
官	-10483
审	-10484
律	-10485
怎	-10486
拍	-10487
捐	-10488
普	-10489
横	-10490
玲	-10491
班	-10492
甚	-10493
秀	-10494
筹	-10495
篇	-10496
置	-10497
股	-10498
蒙	-10499
誉	-10500
词	-10501
请	-10502
趋	-10503
辆	-10504
辞	-10505
适	-10506
遇	-10507
顺	-10508
须	-10509
鸣	-10510
丁	-10511
买	-10512
候	-10513
六	-10514
冲	-10515
博	-10516
另	-10517
呼	-10518
坦	-10519
奏	-10520
宾	-10521
属	-10522
峰	-10523
忧	-10524
房	-10525
托	-10526
扬	-10527
拓	-10528
挤	-10529
摆	-10530
料	-10531
既	-10532
星	-10533
朋	-10534
木	-10535
析	-10536
止	-10537
润	-10538
潮	-10539
爸	-10540
筑	-10541
纯	-10542
绍	-10543
绩	-10544
绿	-10545
耶	-10546
肉	-10547
舍	-10548
若	-10549
违	-10550
配	-10551
钟	-10552
闻	-10553
附	-10554
静	-10555
预	-10556
鼓	-10557
乌	-10558
什	-10559
介	-10560
伊	-10561
偏	-10562
击	-10563
右	-10564
坡	-10565
培	-10566
壮	-10567
夕	-10568
奶	-10569
岗	-10570
帜	-10571
征	-10572
恩	-10573
悲	-10574
惠	-10575
描	-10576
援	-10577
搞	-10578
朝	-10579
朱	-10580
松	-10581
殖	-10582
毛	-10583
泛	-10584
洁	-10585
浙	-10586
渐	-10587
湖	-10588
灵	-10589
煌	-10590
离	-10591
秦	-10592
税	-10593
竟	-10594
童	-10595
纽	-10596
综	-10597
脑	-10598
莫	-10599
萨	-10600
语	-10601
谓	-10602
谢	-10603
赞	-10604
跃	-10605
跑	-10606
载	-10607
透	-10608
雅	-10609
雷	-10610
休	-10611
伴	-10612
倡	-10613
凡	-10614
吨	-10615
听	-10616
圳	-10617
奖	-10618
妈	-10619
孤	-10620
尊	-10621
尤	-10622
届	-10623
左	-10624
差	-10625
师	-10626
扩	-10627
找	-10628
挑	-10629
换	-10630
授	-10631
摊	-10632
板	-10633
桑	-10634
欣	-10635
永	-10636
沙	-10637
渡	-10638
滨	-10639
灌	-10640
瓜	-10641
疆	-10642
病	-10643
监	-10644
盾	-10645
秩	-10646
穿	-10647
窗	-10648
签	-10649
简	-10650
耕	-10651
胀	-10652
脚	-10653
苏	-10654
获	-10655
蔬	-10656
血	-10657
衣	-10658
贡	-10659
赠	-10660
遍	-10661
键	-10662
阅	-10663
露	-10664
C	-10665
°	-10666
‘	-10667
亮	-10668
劲	-10669
勇	-10670
叶	-10671
吁	-10672
吴	-10673
哲	-10674
喷	-10675
坝	-10676
妹	-10677
妻	-10678
季	-10679
孩	-10680
延	-10681
异	-10682
役	-10683
彻	-10684
循	-10685
忆	-10686
忠	-10687
悟	-10688
抗	-10689
拱	-10690
挂	-10691
播	-10692
敢	-10693
核	-10694
桥	-10695
概	-10696
氏	-10697
沧	-10698
沼	-10699
泰	-10700
涨	-10701
淡	-10702
渠	-10703
烂	-10704
烟	-10705
狂	-10706
矛	-10707
秋	-10708
租	-10709
站	-10710
竞	-10711
细	-10712
缓	-10713
羊	-10714
翻	-10715
般	-10716
荡	-10717
董	-10718
衡	-10719
触	-10720
誓	-10721
豆	-10722
豪	-10723
貌	-10724
赏	-10725
赢	-10726
迈	-10727
迟	-10728
逾	-10729
邮	-10730
醒	-10731
陆	-10732
除	-10733
靠	-10734
骨	-10735
鲁	-10736
付	-10737
似	-10738
例	-10739
倒	-10740
兑	-10741
冉	-10742
净	-10743
刊	-10744
卷	-10745
压	-10746
呈	-10747
呢	-10748
味	-10749
哥	-10750
固	-10751
圣	-10752
坐	-10753
块	-10754
堵	-10755
塞	-10756
够	-10757
宗	-10758
岭	-10759
幼	-10760
惊	-10761
懈	-10762
执	-10763
招	-10764
旋	-10765
末	-10766
杨	-10767
梅	-10768
棚	-10769
森	-10770
楼	-10771
欠	-10772
毅	-10773
毫	-10774
沉	-10775
沟	-10776
津	-10777
洪	-10778
浓	-10779
涉	-10780
涵	-10781
溉	-10782
滚	-10783
漠	-10784
潜	-10785
灯	-10786
灾	-10787
疑	-10788
盘	-10789
竹	-10790
笑	-10791
算	-10792
粉	-10793
累	-10794
练	-10795
绘	-10796
绝	-10797
缘	-10798
缩	-10799
胆	-10800
脸	-10801
菲	-10802
蕊	-10803
览	-10804
订	-10805
训	-10806
贯	-10807
贴	-10808
贾	-10809
趣	-10810
踏	-10811
邻	-10812
险	-10813
隆	-10814
频	-10815
鹏	-10816
‰	-10817
丹	-10818
乱	-10819
享	-10820
仁	-10821
仰	-10822
佩	-10823
俊	-10824
偿	-10825
册	-10826
冒	-10827
冰	-10828
剖	-10829
匙	-10830
吃	-10831
吗	-10832
嘉	-10833
囊	-10834
垦	-10835
堂	-10836
姐	-10837
宪	-10838
屋	-10839
峡	-10840
崇	-10841
幕	-10842
库	-10843
微	-10844
急	-10845
恭	-10846
悦	-10847
打	-10848
抢	-10849
择	-10850
挺	-10851
掉	-10852
掘	-10853
揭	-10854
搜	-10855
撤	-10856
撰	-10857
攻	-10858
旨	-10859
昌	-10860
晨	-10861
曹	-10862
枪	-10863
染	-10864
校	-10865
植	-10866
毁	-10867
毕	-10868
汉	-10869
泳	-10870
洋	-10871
浪	-10872
淮	-10873
灭	-10874
灿	-10875
炼	-10876
煤	-10877
爆	-10878
猪	-10879
瓦	-10880
盖	-10881
硬	-10882
礼	-10883
祥	-10884
票	-10885
端	-10886
绵	-10887
缺	-10888
耀	-10889
肯	-10890
胸	-10891
芳	-10892
蓝	-10893
诗	-10894
诚	-10895
课	-10896
谱	-10897
跌	-10898
轨	-10899
输	-10900
钥	-10901
铁	-10902
阔	-10903
陀	-10904
隔	-10905
障	-10906
零	-10907
页	-10908
饲	-10909
鸡	-10910
鸿	-10911
黎	-10912
黑	-10913
默	-10914
龚	-10915
佐	-10916
债	-10917
假	-10918
凝	-10919
凯	-10920
剩	-10921
叫	-10922
吐	-10923
含	-10924
售	-10925
坏	-10926
塘	-10927
奔	-10928
奥	-10929
妙	-10930
妥	-10931
姑	-10932
姜	-10933
威	-10934
宅	-10935
宏	-10936
宜	-10937
宝	-10938
宽	-10939
寄	-10940
寡	-10941
寻	-10942
履	-10943
岛	-10944
巩	-10945
床	-10946
弟	-10947
径	-10948
忙	-10949
恰	-10950
恶	-10951
悉	-10952
截	-10953
拔	-10954
拘	-10955
拜	-10956
挖	-10957
掌	-10958
插	-10959
握	-10960
操	-10961
敏	-10962
敞	-10963
斑	-10964
旱	-10965
昭	-10966
某	-10967
栋	-10968
检	-10969
榭	-10970
欧	-10971
汪	-10972
泉	-10973
洗	-10974
测	-10975
涌	-10976
淀	-10977
添	-10978
滴	-10979
漫	-10980
濒	-10981
灶	-10982
炸	-10983
牌	-10984
牡	-10985
牵	-10986
猎	-10987
玩	-10988
珠	-10989
男	-10990
畅	-10991
畜	-10992
番	-10993
睦	-10994
矿	-10995
禽	-10996
秘	-10997
穷	-10998
窥	-10999
篆	-11000
篓	-11001
纲	-11002
缔	-11003
翁	-11004
肩	-11005
膨	-11006
艳	-11007
蓄	-11008
蓬	-11009
衷	-11010
袭	-11011
覆	-11012
试	-11013
详	-11014
谨	-11015
账	-11016
赛	-11017
赶	-11018
软	-11019
辈	-11020
辖	-11021
迁	-11022
迅	-11023
迪	-11024
途	-11025
遣	-11026
郁	-11027
郭	-11028
野	-11029
锋	-11030
锡	-11031
闭	-11032
阻	-11033
陵	-11034
顶	-11035
顾	-11036
颜	-11037
飘	-11038
驱	-11039
鸟	-11040
/	-11041
A	-11042
B	-11043
丧	-11044
串	-11045
乃	-11046
乏	-11047
乔	-11048
乳	-11049
予	-11050
仓	-11051
伙	-11052
佛	-11053
俗	-11054
倍	-11055
储	-11056
允	-11057
励	-11058
卉	-11059
厦	-11060
否	-11061
吹	-11062
咱	-11063
啊	-11064
喝	-11065
嘴	-11066
址	-11067
坛	-11068
坪	-11069
堡	-11070
夺	-11071
奉	-11072
婚	-11073
媒	-11074
宫	-11075
寺	-11076
封	-11077
射	-11078
尉	-11079
尝	-11080
尾	-11081
屏	-11082
岚	-11083
峻	-11084
帧	-11085
弃	-11086
弥	-11087
弦	-11088
彭	-11089
徊	-11090
徘	-11091
徽	-11092
恒	-11093
患	-11094
愉	-11095
慎	-11096
慧	-11097
憾	-11098
懂	-11099
戈	-11100
抵	-11101
损	-11102
摇	-11103
旁	-11104
昆	-11105
昨	-11106
晤	-11107
朗	-11108
朴	-11109
杰	-11110
柏	-11111
柱	-11112
柴	-11113
桂	-11114
梦	-11115
棉	-11116
椒	-11117
残	-11118
池	-11119
汽	-11120
沪	-11121
泄	-11122
泣	-11123
泥	-11124
泪	-11125
洒	-11126
浇	-11127
滋	-11128
潘	-11129
灰	-11130
炮	-11131
燃	-11132
父	-11133
爷	-11134
牖	-11135
牧	-11136
犹	-11137
狠	-11138
甘	-11139
眉	-11140
督	-11141
瞩	-11142
碌	-11143
祈	-11144
祷	-11145
竖	-11146
绕	-11147
络	-11148
网	-11149
翰	-11150
翼	-11151
耘	-11152
聪	-11153
腮	-11154
腹	-11155
船	-11156
艾	-11157
茭	-11158
药	-11159
蒸	-11160
蔓	-11161
蔚	-11162
虎	-11163
虑	-11164
虹	-11165
衰	-11166
讨	-11167
诉	-11168
诊	-11169
诸	-11170
诺	-11171
谊	-11172
贤	-11173
赖	-11174
赴	-11175
赵	-11176
轮	-11177
辙	-11178
辛	-11179
辣	-11180
逊	-11181
逛	-11182
遥	-11183
邦	-11184
酋	-11185
酒	-11186
钢	-11187
铺	-11188
镕	-11189
闪	-11190
闹	-11191
韵	-11192
颇	-11193
饮	-11194
馨	-11195
驶	-11196
驾	-11197
骤	-11198
鬼	-11199
魂	-11200
魄	-11201
鹰	-11202
麻	-11203
乾	-11204
井	-11205
亦	-11206
亭	-11207
仆	-11208
仿	-11209
伐	-11210
伦	-11211
侠	-11212
侧	-11213
倘	-11214
借	-11215
倦	-11216
倾	-11217
催	-11218
傲	-11219
兄	-11220
兆	-11221
免	-11222
凌	-11223
剑	-11224
割	-11225
劣	-11226
劫	-11227
勋	-11228
募	-11229
勤	-11230
匆	-11231
卜	-11232
句	-11233
叭	-11234
吉	-11235
哀	-11236
哪	-11237
喇	-11238
圆	-11239
垫	-11240
堆	-11241
堪	-11242
塑	-11243
墙	-11244
奠	-11245
妨	-11246
姨	-11247
姻	-11248
娃	-11249
娓	-11250
娱	-11251
孝	-11252
守	-11253
宋	-11254
室	-11255
害	-11256
宿	-11257
寂	-11258
寓	-11259
尖	-11260
尚	-11261
尺	-11262
屡	-11263
岩	-11264
崭	-11265
巧	-11266
巷	-11267
帷	-11268
幸	-11269
廉	-11270
弱	-11271
彦	-11272
彬	-11273
彼	-11274
忽	-11275
怕	-11276
悠	-11277
惜	-11278
惯	-11279
惶	-11280
慨	-11281
戎	-11282
戒	-11283
扫	-11284
扮	-11285
扰	-11286
披	-11287
抱	-11288
拒	-11289
拖	-11290
拨	-11291
拾	-11292
挚	-11293
挣	-11294
掩	-11295
揣	-11296
揽	-11297
搭	-11298
摘	-11299
摧	-11300
摩	-11301
摸	-11302
撼	-11303
敲	-11304
斌	-11305
斐	-11306
斓	-11307
旬	-11308
旺	-11309
昂	-11310
昼	-11311
晋	-11312
暗	-11313
杂	-11314
杜	-11315
杭	-11316
枝	-11317
柳	-11318
柿	-11319
框	-11320
桌	-11321
档	-11322
椅	-11323
欲	-11324
歧	-11325
殃	-11326
殊	-11327
沈	-11328
沿	-11329
洞	-11330
洼	-11331
浜	-11332
湿	-11333
溪	-11334
滞	-11335
漾	-11336
澄	-11337
烧	-11338
烽	-11339
熊	-11340
熟	-11341
牛	-11342
狭	-11343
猛	-11344
玛	-11345
珮	-11346
琴	-11347
琼	-11348
甜	-11349
申	-11350
畔	-11351
疏	-11352
疗	-11353
痕	-11354
痪	-11355
瘫	-11356
皇	-11357
皎	-11358
盆	-11359
盗	-11360
眠	-11361
眺	-11362
睹	-11363
码	-11364
砖	-11365
硕	-11366
硝	-11367
磨	-11368
私	-11369
秧	-11370
移	-11371
稀	-11372
笛	-11373
笼	-11374
答	-11375
箫	-11376
粗	-11377
粹	-11378
糊	-11379
纵	-11380
纺	-11381
绣	-11382
绳	-11383
绸	-11384
缅	-11385
缚	-11386
缤	-11387
罕	-11388
罚	-11389
罢	-11390
羽	-11391
耳	-11392
肖	-11393
脆	-11394
脉	-11395
脏	-11396
腐	-11397
腾	-11398
臣	-11399
舆	-11400
舟	-11401
苍	-11402
茂	-11403
茫	-11404
茵	-11405
草	-11406
莽	-11407
萝	-11408
萧	-11409
蒂	-11410
蕴	-11411
蕾	-11412
藉	-11413
虚	-11414
蛋	-11415
蜜	-11416
袋	-11417
袱	-11418
裁	-11419
裂	-11420
裕	-11421
译	-11422
诞	-11423
谦	-11424
谷	-11425
豫	-11426
贪	-11427
赤	-11428
赫	-11429
跋	-11430
跳	-11431
践	-11432
踞	-11433
轰	-11434
辄	-11435
辐	-11436
辑	-11437
辟	-11438
返	-11439
迭	-11440
逝	-11441
逢	-11442
邀	-11443
邹	-11444
钞	-11445
钦	-11446
钻	-11447
锐	-11448
锤	-11449
锦	-11450
闯	-11451
阐	-11452
阴	-11453
陪	-11454
陶	-11455
隐	-11456
雀	-11457
雕	-11458
韧	-11459
餐	-11460
饱	-11461
饺	-11462
骄	-11463
鸠	-11464
鼠	-11465
丈	-11466
乘	-11467
亏	-11468
仇	-11469
仔	-11470
伏	-11471
伯	-11472
估	-11473
伸	-11474
佯	-11475
俏	-11476
俘	-11477
俨	-11478
俯	-11479
俱	-11480
倔	-11481
倪	-11482
偷	-11483
傅	-11484
傍	-11485
僧	-11486
僵	-11487
儒	-11488
兹	-11489
冠	-11490
冯	-11491
冶	-11492
冻	-11493
凤	-11494
凭	-11495
凶	-11496
凸	-11497
刃	-11498
刷	-11499
券	-11500
剂	-11501
削	-11502
剥	-11503
剪	-11504
剿	-11505
劈	-11506
劼	-11507
勉	-11508
勘	-11509
勾	-11510
匠	-11511
卧	-11512
卯	-11513
卿	-11514
厉	-11515
厌	-11516
叉	-11517
叔	-11518
叩	-11519
叱	-11520
叹	-11521
吟	-11522
吧	-11523
呕	-11524
咏	-11525
咤	-11526
咨	-11527
哄	-11528
哇	-11529
哩	-11530
唐	-11531
喊	-11532
喧	-11533
喻	-11534
嘎	-11535
嘘	-11536
嘱	-11537
嘹	-11538
圈	-11539
圾	-11540
坎	-11541
坤	-11542
坷	-11543
垂	-11544
垃	-11545
垄	-11546
垠	-11547
埃	-11548
埔	-11549
堑	-11550
堤	-11551
墓	-11552
墟	-11553
壳	-11554
夸	-11555
夹	-11556
奴	-11557
姆	-11558
姓	-11559
娇	-11560
娶	-11561
媚	-11562
媳	-11563
嫁	-11564
嫩	-11565
孚	-11566
寞	-11567
寨	-11568
寸	-11569
尘	-11570
尸	-11571
尹	-11572
屈	-11573
屿	-11574
岂	-11575
岱	-11576
峭	-11577
崔	-11578
崖	-11579
崛	-11580
嵌	-11581
嵩	-11582
巡	-11583
巾	-11584
帅	-11585
帐	-11586
帕	-11587
帘	-11588
帙	-11589
帝	-11590
帽	-11591
幄	-11592
幽	-11593
庙	-11594
废	-11595
弄	-11596
弊	-11597
弗	-11598
弯	-11599
弹	-11600
忍	-11601
怒	-11602
怜	-11603
怠	-11604
怨	-11605
恋	-11606
恍	-11607
恐	-11608
恤	-11609
恨	-11610
恺	-11611
悄	-11612
悔	-11613
您	-11614
悬	-11615
悸	-11616
惨	-11617
惬	-11618
愁	-11619
愤	-11620
愫	-11621
慢	-11622
慷	-11623
憨	-11624
憬	-11625
戴	-11626
扇	-11627
扉	-11628
扑	-11629
扣	-11630
扭	-11631
抄	-11632
抒	-11633
折	-11634
抛	-11635
抠	-11636
抬	-11637
抽	-11638
拆	-11639
拗	-11640
拙	-11641
拟	-11642
拢	-11643
拦	-11644
拮	-11645
拼	-11646
挡	-11647
挨	-11648
挫	-11649
捉	-11650
捍	-11651
捧	-11652
捷	-11653
掏	-11654
掬	-11655
搁	-11656
搏	-11657
搬	-11658
撑	-11659
撒	-11660
撷	-11661
攀	-11662
攥	-11663
敌	-11664
斡	-11665
晓	-11666
晴	-11667
暇	-11668
暴	-11669
曙	-11670
曝	-11671
曼	-11672
替	-11673
朵	-11674
朽	-11675
杀	-11676
杆	-11677
杈	-11678
杞	-11679
杯	-11680
枚	-11681
枸	-11682
柔	-11683
柘	-11684
栏	-11685
栓	-11686
栖	-11687
桃	-11688
梓	-11689
梭	-11690
梯	-11691
械	-11692
棋	-11693
棒	-11694
楚	-11695
榫	-11696
槟	-11697
樊	-11698
歼	-11699
殷	-11700
母	-11701
氢	-11702
氤	-11703
氲	-11704
汀	-11705
汗	-11706
汛	-11707
汝	-11708
污	-11709
汤	-11710
汾	-11711
沂	-11712
沥	-11713
沫	-11714
沾	-11715
泸	-11716
泻	-11717
浅	-11718
浑	-11719
浦	-11720
浮	-11721
浸	-11722
涂	-11723
涅	-11724
涛	-11725
涝	-11726
涣	-11727
涪	-11728
涯	-11729
淌	-11730
淳	-11731
混	-11732
渊	-11733
渝	-11734
渤	-11735
渥	-11736
溜	-11737
溧	-11738
溯	-11739
滥	-11740
滩	-11741
漏	-11742
漓	-11743
澈	-11744
澎	-11745
瀑	-11746
瀚	-11747
炉	-11748
炎	-11749
炽	-11750
烁	-11751
熔	-11752
燕	-11753
爪	-11754
牙	-11755
牢	-11756
牲	-11757
牺	-11758
犯	-11759
狱	-11760
狼	-11761
珊	-11762
琅	-11763
琦	-11764
瑙	-11765
瑚	-11766
瑰	-11767
瑶	-11768
甫	-11769
甲	-11770
疫	-11771
疾	-11772
症	-11773
痛	-11774
瘠	-11775
皆	-11776
皮	-11777
盈	-11778
盎	-11779
盏	-11780
盲	-11781
眷	-11782
睛	-11783
瞒	-11784
砂	-11785
砍	-11786
砚	-11787
碍	-11788
碎	-11789
碑	-11790
碰	-11791
磊	-11792
磋	-11793
禺	-11794
秒	-11795
秤	-11796
稍	-11797
稚	-11798
稻	-11799
稿	-11800
穆	-11801
窄	-11802
窘	-11803
竣	-11804
笃	-11805
笋	-11806
筛	-11807
筝	-11808
箱	-11809
箴	-11810
篮	-11811
粒	-11812
粪	-11813
粲	-11814
糅	-11815
糖	-11816
紫	-11817
纂	-11818
纠	-11819
纬	-11820
纶	-11821
绎	-11822
绑	-11823
绒	-11824
绚	-11825
绪	-11826
缕	-11827
缝	-11828
缭	-11829
缴	-11830
罐	-11831
罪	-11832
翅	-11833
翔	-11834
翠	-11835
耻	-11836
聘	-11837
肃	-11838
肤	-11839
肥	-11840
肴	-11841
肿	-11842
胁	-11843
脂	-11844
腊	-11845
腕	-11846
腰	-11847
膀	-11848
膏	-11849
臂	-11850
臆	-11851
臭	-11852
臾	-11853
舒	-11854
舰	-11855
芍	-11856
芒	-11857
芙	-11858
芜	-11859
芝	-11860
芦	-11861
芭	-11862
芹	-11863
苋	-11864
苗	-11865
苹	-11866
茄	-11867
茅	-11868
茨	-11869
荆	-11870
莅	-11871
莎	-11872
菊	-11873
菌	-11874
菠	-11875
萌	-11876
萍	-11877
葡	-11878
葫	-11879
葱	-11880
蓉	-11881
蕉	-11882
蕻	-11883
薄	-11884
薛	-11885
虬	-11886
蜕	-11887
衍	-11888
衔	-11889
袖	-11890
裹	-11891
觅	-11892
觑	-11893
觞	-11894
詹	-11895
讴	-11896
询	-11897
误	-11898
谭	-11899
豁	-11900
豌	-11901
豹	-11902
贝	-11903
贞	-11904
败	-11905
贩	-11906
贬	-11907
贱	-11908
贻	-11909
赁	-11910
赋	-11911
赐	-11912
赔	-11913
赡	-11914
赭	-11915
距	-11916
跟	-11917
跷	-11918
踢	-11919
踵	-11920
蹈	-11921
躺	-11922
轲	-11923
辅	-11924
辨	-11925
迄	-11926
逃	-11927
遏	-11928
遒	-11929
遮	-11930
遵	-11931
邕	-11932
邱	-11933
邵	-11934
邸	-11935
郊	-11936
郎	-11937
释	-11938
鉴	-11939
钓	-11940
钧	-11941
钩	-11942
铎	-11943
铣	-11944
铭	-11945
链	-11946
锁	-11947
锅	-11948
错	-11949
锣	-11950
锲	-11951
锻	-11952
镜	-11953
镶	-11954
闸	-11955
阂	-11956
阑	-11957
阖	-11958
陟	-11959
陡	-11960
陲	-11961
陷	-11962
隶	-11963
雁	-11964
雏	-11965
雯	-11966
雾	-11967
霎	-11968
霜	-11969
霞	-11970
霸	-11971
鞋	-11972
鞭	-11973
韦	-11974
颂	-11975
颖	-11976
颗	-11977
饥	-11978
饰	-11979
饼	-11980
饿	-11981
驰	-11982
骅	-11983
骑	-11984
骚	-11985
魁	-11986
魅	-11987
鲍	-11988
鲤	-11989
鲫	-11990
鲶	-11991
鳜	-11992
鸢	-11993
麦	-11994
黔	-11995
鼐	-11996
龄	-11997
