<pad>	0
[UNK]	0
▁,	-0
▁的	-1
▁。	-2
▁、	-3
▁1	-4
▁中	-5
▁人	-6
▁一	-7
▁和	-8
▁在	-9
▁了	-10
▁大	-11
▁新	-12
▁发	-13
▁”	-14
▁国	-15
▁是	-16
▁全	-17
▁上	-18
▁地	-19
▁有	-20
▁这	-21
▁年	-22
▁中国	-23
▁农	-24
▁为	-25
▁出	-26
▁经	-27
▁文	-28
▁不	-29
▁开	-30
▁日	-31
▁生	-32
▁建	-33
▁19	-34
▁0	-35
▁来	-36
▁以	-37
▁成	-38
▁2	-39
▁多	-40
▁我	-41
▁工	-42
▁199	-43
▁政	-44
▁时	-45
▁“	-46
▁自	-47
▁与	-48
▁进	-49
▁同	-50
▁市	-51
▁对	-52
▁发展	-53
▁之	-54
▁到	-55
▁重	-56
▁下	-57
▁家	-58
▁经济	-59
▁学	-60
▁人民	-61
▁各	-62
▁主	-63
▁实	-64
▁水	-65
▁记	-66
▁他	-67
▁两	-68
▁世	-69
▁(	-70
▁3	-71
▁说	-72
▁会	-73
▁共	-74
▁前	-75
▁元	-76
▁关	-77
▁美	-78
▁起	-79
▁部	-80
▁高	-81
▁历	-82
▁改	-83
▁》	-84
▁作	-85
▁本	-86
▁万	-87
▁等	-88
▁公	-89
▁9	-90
▁南	-91
▁村	-92
..	-93
▁产	-94
▁北	-95
▁事	-96
▁小	-97
▁方	-98
▁香	-99
▁6	-100
▁特	-101
▁而	-102
▁新年	-103
▁建设	-104
▁记者	-105
▁化	-106
▁总	-107
▁计	-108
▁历史	-109
▁将	-110
▁个	-111
▁党	-112
▁华	-113
▁基	-114
▁5	-115
▁一个	-116
▁我们	-117
▁加	-118
▁;	-119
▁现	-120
▁香港	-121
▁全国	-122
▁企	-123
▁后	-124
▁好	-125
▁社	-126
▁第	-127
▁企业	-128
▁性	-129
▁农业	-130
▁代	-131
▁就	-132
▁民	-133
▁00	-134
▁于	-135
▁从	-136
▁提	-137
▁要	-138
▁交	-139
▁军	-140
▁创	-141
▁广	-142
▁国家	-143
▁计划	-144
▁:	-145
▁十	-146
▁推	-147
▁着	-148
▁里	-149
▁面	-150
▁世界	-151
▁政府	-152
▁4	-153
▁8	-154
▁其	-155
▁资	-156
▁《	-157
▁已	-158
▁结	-159
▁三	-160
▁户	-161
▁今	-162
▁外	-163
▁精	-164
▁集	-165
▁10	-166
▁工作	-167
▁利	-168
▁过	-169
▁举	-170
▁也	-171
▁书	-172
▁县	-173
▁增	-174
▁山	-175
▁当	-176
▁活	-177
▁表	-178
▁分	-179
▁去	-180
▁可	-181
▁形	-182
▁行	-183
▁通	-184
▁心	-185
▁报	-186
▁无	-187
▁明	-188
▁正	-189
▁达	-190
▁)	-191
▁7	-192
▁使	-193
▁保	-194
▁如	-195
▁还	-196
▁—	-197
▁战	-198
▁所	-199
▁最	-200
▁由	-201
▁电	-202
▁联	-203
▁此	-204
▁管	-205
▁长	-206
▁青	-207
▁首	-208
生育	-209
▁南非	-210
▁本报	-211
▁计划生育	-212
▁九	-213
▁内	-214
▁区	-215
▁合	-216
▁组	-217
▁北京	-218
▁安	-219
▁情	-220
▁目	-221
▁近	-222
▁金	-223
▁出版	-224
▁社会	-225
▁投	-226
▁更	-227
▁次	-228
▁祖	-229
▁新的	-230
▁传	-231
▁动	-232
▁平	-233
▁收	-234
▁问	-235
▁祖国	-236
▁们	-237
▁力	-238
▁得	-239
▁机	-240
▁气	-241
▁理	-242
▁都	-243
▁两岸	-244
▁活动	-245
▁体	-246
▁天	-247
▁相	-248
▁老	-249
▁地区	-250
▁1997	-251
▁先	-252
▁原	-253
▁每	-254
▁统	-255
▁中华	-256
▁生活	-257
▁业	-258
▁图	-259
▁群	-260
▁领	-261
▁改革	-262
▁进行	-263
▁亿	-264
▁回	-265
▁委	-266
▁指	-267
▁月	-268
▁职	-269
▁能	-270
▁西	-271
▁解	-272
▁工程	-273
▁文明	-274
▁优	-275
▁参	-276
▁名	-277
▁子	-278
▁意	-279
▁深	-280
▁用	-281
▁路	-282
▁制	-283
▁困	-284
▁江	-285
▁节	-286
▁关系	-287
▁新华	-288
▁团	-289
▁坚	-290
▁处	-291
▁思	-292
▁服	-293
▁被	-294
▁20	-295
▁农民	-296
▁职工	-297
▁新华社	-298
▁城	-299
▁强	-300
▁条	-301
▁法	-302
▁给	-303
▁中央	-304
▁的一	-305
▁及	-306
▁带	-307
▁画	-308
▁继	-309
▁维	-310
▁者	-311
▁风	-312
▁实现	-313
▁第一	-314
▁精神	-315
▁群众	-316
▁问题	-317
▁向	-318
▁据	-319
▁海	-320
▁盛	-321
▁认	-322
▁车	-323
▁音	-324
▁1998	-325
▁位	-326
▁定	-327
▁引	-328
▁感	-329
▁把	-330
▁看	-331
▁统一	-332
▁%	-333
▁.	-334
▁又	-335
▁取	-336
▁展	-337
▁举行	-338
▁交通	-339
▁他们	-340
▁国际	-341
▁市场	-342
▁反	-343
▁她	-344
▁干	-345
▁英	-346
▁转	-347
▁”,	-348
▁创作	-349
▁开始	-350
▁文化	-351
▁生产	-352
▁组织	-353
....	-354
▁几	-355
▁史	-356
▁级	-357
▁道	-358
▁项	-359
▁代表	-360
▁元旦	-361
▁共同	-362
▁困难	-363
▁成为	-364
▁青年	-365
▁乡	-366
▁再	-367
▁千	-368
▁厂	-369
▁台	-370
▁整	-371
▁环	-372
▁知	-373
▁银	-374
▁了一	-375
▁领导	-376
▁协	-377
▁卢	-378
▁只	-379
▁四	-380
▁度	-381
▁张	-382
▁手	-383
▁欢	-384
▁演	-385
▁致	-386
▁规	-387
▁题	-388
▁——	-389
▁文学	-390
▁服务	-391
▁专	-392
▁做	-393
▁应	-394
▁支	-395
▁比	-396
▁省	-397
▁科	-398
▁艺	-399
▁读	-400
▁贫	-401
▁走	-402
▁间	-403
▁世纪	-404
▁事业	-405
▁今天	-406
▁方面	-407
▁结合	-408
▁自己	-409
▁重要	-410
▁银行	-411
▁音乐	-412
▁丛	-413
▁东	-414
▁严	-415
▁二	-416
▁五	-417
▁决	-418
▁完	-419
▁并	-420
▁数	-421
▁清	-422
▁率	-423
▁真	-424
▁积	-425
▁良	-426
▁讲	-427
云龙	-428
▁一年	-429
▁去年	-430
▁民族	-431
▁水利	-432
▁管理	-433
▁这一	-434
▁帮	-435
▁影	-436
▁没	-437
▁点	-438
▁然	-439
▁物	-440
▁祝	-441
▁种	-442
▁稳	-443
▁系	-444
▁那	-445
▁飞	-446
▁万元	-447
▁丛书	-448
▁卢布	-449
▁基础	-450
▁村民	-451
▁美国	-452
▁盛云龙	-453
▁入	-454
▁兼	-455
▁局	-456
▁武	-457
▁流	-458
▁编	-459
▁费	-460
▁钱	-461
▁队	-462
▁12	-463
▁”。	-464
▁产业	-465
▁人的	-466
▁传统	-467
▁政治	-468
▁继续	-469
▁俄	-470
▁副	-471
▁双	-472
▁因	-473
▁少	-474
▁很	-475
▁技	-476
▁教	-477
▁林	-478
▁考	-479
▁航	-480
▁观	-481
▁许	-482
▁选	-483
▁主要	-484
▁发表	-485
▁和平	-486
▁年来	-487
▁积极	-488
▁光	-489
▁兵	-490
▁努	-491
▁受	-492
▁场	-493
▁巴	-494
▁期	-495
▁爱	-496
▁田	-497
▁立	-498
▁紧	-499
▁连	-500
▁80	-501
▁加强	-502
▁努力	-503
▁基本	-504
▁外交	-505
▁学者	-506
▁投资	-507
▁环境	-508
▁贫困	-509
▁资金	-510
▁金融	-511
▁义	-512
▁些	-513
▁信	-514
▁办	-515
▁古	-516
▁愿	-517
▁效	-518
▁标	-519
▁界	-520
▁研	-521
▁至	-522
▁设	-523
▁运	-524
▁退	-525
▁馆	-526
一步	-527
▁产品	-528
▁人们	-529
▁增长	-530
▁大使	-531
▁表示	-532
▁进一步	-533
▁乐	-534
▁具	-535
▁减	-536
▁女	-537
▁岁	-538
▁志	-539
▁接	-540
▁百	-541
▁话	-542
▁谋	-543
▁货	-544
▁作品	-545
▁取得	-546
▁开放	-547
▁总统	-548
▁报道	-549
▁研究	-550
▁稳定	-551
▁联合	-552
▁艺术	-553
▁出版社	-554
▁则	-555
▁尽	-556
▁往	-557
▁才	-558
▁扶	-559
▁摄	-560
▁权	-561
▁步	-562
▁直	-563
▁色	-564
▁花	-565
▁调	-566
▁较	-567
▁迎	-568
▁书记	-569
▁保持	-570
▁全面	-571
▁公司	-572
▁好的	-573
▁干部	-574
▁影响	-575
▁我国	-576
▁收入	-577
▁没有	-578
▁考古	-579
▁自治	-580
▁许多	-581
▁通过	-582
▁重庆	-583
▁自己的	-584
▁『	-585
▁亚	-586
▁写	-587
▁升	-588
▁半	-589
▁占	-590
▁周	-591
▁彩	-592
▁想	-593
▁放	-594
▁果	-595
▁治	-596
▁笔	-597
▁脱	-598
▁身	-599
▁边	-600
▁驻	-601
▁作为	-602
▁出了	-603
▁可以	-604
▁同志	-605
▁坚持	-606
▁学生	-607
▁建立	-608
▁技术	-609
▁投入	-610
▁提供	-611
▁支持	-612
▁日电	-613
▁特别	-614
▁集团	-615
▁价	-616
▁任	-617
▁包	-618
▁却	-619
▁变	-620
▁喜	-621
▁头	-622
▁奋	-623
▁希	-624
▁态	-625
▁慰	-626
▁早	-627
▁春	-628
▁未	-629
▁满	-630
▁王	-631
▁称	-632
▁艰	-633
▁谈	-634
▁贸	-635
▁鲜	-636
他们	-637
和国	-638
泽民	-639
▁上海	-640
▁中的	-641
▁人士	-642
▁人物	-643
▁参加	-644
▁同胞	-645
▁增加	-646
▁大的	-647
▁委员	-648
▁安全	-649
▁家庭	-650
▁已经	-651
▁开发	-652
▁提高	-653
▁现代	-654
▁的人	-655
▁的是	-656
▁美术	-657
▁货币	-658
▁这个	-659
▁部门	-660
▁集体	-661
▁———	-662
▁共和国	-663
▁江泽民	-664
▁』	-665
▁值	-666
▁兴	-667
▁印	-668
▁品	-669
▁宁	-670
▁宣	-671
▁布	-672
▁常	-673
▁歌	-674
▁油	-675
▁激	-676
▁确	-677
▁空	-678
▁米	-679
▁藏	-680
▁论	-681
▁该	-682
▁采	-683
▁马	-684
▁黄	-685
其琛	-686
▁一些	-687
▁主义	-688
▁人员	-689
▁合作	-690
▁完成	-691
▁形成	-692
▁慰问	-693
▁成功	-694
▁教育	-695
▁日本	-696
▁有关	-697
▁自然	-698
▁钱其琛	-699
▁亩	-700
▁亲	-701
▁仍	-702
▁令	-703
▁伟	-704
▁克	-705
▁八	-706
▁员	-707
▁商	-708
▁它	-709
▁客	-710
▁导	-711
▁快	-712
▁故	-713
▁波	-714
▁温	-715
▁澳	-716
▁照	-717
▁独	-718
▁献	-719
▁纪	-720
▁线	-721
▁落	-722
▁负	-723
▁超	-724
▁逐	-725
▁门	-726
▁难	-727
仪式	-728
▁15	-729
▁人口	-730
▁优势	-731
▁先生	-732
▁关心	-733
▁农村	-734
▁创造	-735
▁到了	-736
▁各地	-737
▁回归	-738
▁团结	-739
▁图片	-740
▁广大	-741
▁思想	-742
▁扶贫	-743
▁推动	-744
▁提出	-745
▁政协	-746
▁解决	-747
▁资源	-748
▁自治区	-749
▁....	-750
▁......	-751
▁依	-752
▁便	-753
▁促	-754
▁健	-755
▁初	-756
▁卡	-757
▁友	-758
▁园	-759
▁套	-760
▁孔	-761
▁巨	-762
▁座	-763
▁德	-764
▁曲	-765
▁李	-766
▁港	-767
▁火	-768
▁热	-769
▁状	-770
▁示	-771
▁繁	-772
▁见	-773
▁象	-774
▁造	-775
▁销	-776
▁随	-777
▁韩	-778
▁鱼	-779
▁下降	-780
▁两国	-781
▁今年	-782
▁全部	-783
▁决定	-784
▁减少	-785
▁各界	-786
▁在一	-787
▁山区	-788
▁希望	-789
▁帮助	-790
▁年的	-791
▁开展	-792
▁开馆	-793
▁成就	-794
▁来的	-795
▁来自	-796
▁每年	-797
▁澳门	-798
▁英雄	-799
▁读者	-800
▁起了	-801
▁音乐会	-802
:“	-803
▁云	-804
▁充	-805
▁养	-806
▁冷	-807
▁刘	-808
▁劳	-809
▁危	-810
▁号	-811
▁吕	-812
▁吸	-813
▁型	-814
▁夜	-815
▁奇	-816
▁存	-817
▁底	-818
▁徐	-819
▁持	-820
▁按	-821
▁探	-822
▁控	-823
▁格	-824
▁河	-825
▁游	-826
▁背	-827
▁茶	-828
▁评	-829
▁送	-830
▁邓	-831
▁郑	-832
▁镇	-833
▁阶	-834
▁非	-835
▁革	-836
也纳	-837
▁%。	-838
▁为主	-839
▁乡镇	-840
▁促进	-841
▁公路	-842
▁兼并	-843
▁化的	-844
▁参与	-845
▁宁夏	-846
▁所有	-847
▁推进	-848
▁时间	-849
▁条件	-850
▁由于	-851
▁的大	-852
▁脱贫	-853
▁节日	-854
▁西藏	-855
▁认为	-856
▁谋略	-857
▁起来	-858
▁进入	-859
▁退伍	-860
▁韩国	-861
▁维也纳	-862
▁1996	-863
▁?	-864
▁’	-865
▁仅	-866
▁众	-867
▁低	-868
▁即	-869
▁声	-870
▁孙	-871
▁居	-872
▁庆	-873
▁恢	-874
▁承	-875
▁抓	-876
▁拉	-877
▁望	-878
▁极	-879
▁根	-880
▁登	-881
▁程	-882
▁粮	-883
▁红	-884
▁终	-885
▁著	-886
▁街	-887
▁让	-888
▁财	-889
▁贵	-890
▁贺	-891
▁速	-892
▁院	-893
、《	-894
五大	-895
小平	-896
▁30	-897
▁不同	-898
▁严重	-899
▁人均	-900
▁亿元	-901
▁以及	-902
▁会议	-903
▁全市	-904
▁具有	-905
▁危机	-906
▁双泾	-907
▁台湾	-908
▁在这	-909
▁学术	-910
▁小型	-911
▁带来	-912
▁形式	-913
▁报告	-914
▁指导	-915
▁正式	-916
▁民主	-917
▁水平	-918
▁电视	-919
▁目前	-920
▁科技	-921
▁经营	-922
▁费县	-923
▁过去	-924
▁这样	-925
▁这种	-926
▁部分	-927
▁》、《	-928
▁考古学	-929
▁联合国	-930
▁邓小平	-931
31	-932
▁!	-933
▁份	-934
▁停	-935
▁儿	-936
▁典	-937
▁功	-938
▁卫	-939
▁召	-940
▁命	-941
▁土	-942
▁寒	-943
▁幅	-944
▁必	-945
▁怀	-946
▁拥	-947
▁敬	-948
▁曾	-949
▁求	-950
▁汇	-951
▁消	-952
▁眼	-953
▁罗	-954
▁虽	-955
▁装	-956
▁访	-957
▁证	-958
▁跨	-959
▁追	-960
▁雪	-961
▁需	-962
▁11	-963
▁:“	-964
▁》,	-965
▁一种	-966
▁使用	-967
▁先进	-968
▁党的	-969
▁全区	-970
▁全球	-971
▁其他	-972
▁分别	-973
▁华人	-974
▁发生	-975
▁各种	-976
▁地震	-977
▁城乡	-978
▁大家	-979
▁实施	-980
▁广场	-981
▁强调	-982
▁得到	-983
▁情况	-984
▁改值	-985
▁气温	-986
▁现在	-987
▁的新	-988
▁紧密	-989
▁行政	-990
▁规模	-991
▁负责	-992
▁连续	-993
▁重视	-994
▁革命	-995
▁项目	-996
▁首都	-997
▁七	-998
▁且	-999
▁丽	-1000
▁京	-1001
▁但	-1002
▁冬	-1003
▁切	-1004
▁势	-1005
▁医	-1006
▁厚	-1007
▁庄	-1008
▁怎	-1009
▁或	-1010
▁批	-1011
▁旅	-1012
▁旧	-1013
▁显	-1014
▁晚	-1015
▁案	-1016
▁注	-1017
▁洲	-1018
▁焦	-1019
▁版	-1020
▁甚	-1021
▁破	-1022
▁突	-1023
▁筹	-1024
▁约	-1025
▁胜	-1026
▁胡	-1027
▁蒙	-1028
▁警	-1029
▁请	-1030
▁责	-1031
▁贷	-1032
▁迹	-1033
▁遗	-1034
▁防	-1035
▁阳	-1036
我们	-1037
美元	-1038
▁,“	-1039
▁1.	-1040
▁60	-1041
▁一定	-1042
▁上的	-1043
▁中心	-1044
▁主席	-1045
▁交流	-1046
▁公斤	-1047
▁利益	-1048
▁制度	-1049
▁十分	-1050
▁华侨	-1051
▁召开	-1052
▁国防	-1053
▁城市	-1054
▁基金	-1055
▁奋斗	-1056
▁实行	-1057
▁对于	-1058
▁建交	-1059
▁恢复	-1060
▁成了	-1061
▁探索	-1062
▁政策	-1063
▁旅游	-1064
▁时代	-1065
▁明天	-1066
▁来到	-1067
▁气氛	-1068
▁系统	-1069
▁繁荣	-1070
▁维护	-1071
▁老人	-1072
▁表演	-1073
▁解放	-1074
▁记录	-1075
▁贷款	-1076
▁达到	-1077
▁进程	-1078
▁重点	-1079
▁亿美元	-1080
▁双泾村	-1081
▁·	-1082
▁丁	-1083
▁丰	-1084
▁冲	-1085
▁务	-1086
▁博	-1087
▁另	-1088
▁哈	-1089
▁塔	-1090
▁墨	-1091
▁备	-1092
▁失	-1093
▁始	-1094
▁官	-1095
▁容	-1096
▁富	-1097
▁尔	-1098
▁扎	-1099
▁拍	-1100
▁拿	-1101
▁振	-1102
▁救	-1103
▁散	-1104
▁旗	-1105
▁景	-1106
▁智	-1107
▁树	-1108
▁样	-1109
▁瑞	-1110
▁短	-1111
▁石	-1112
▁素	-1113
▁绿	-1114
▁觉	-1115
▁议	-1116
▁趋	-1117
▁辉	-1118
▁违	-1119
▁适	-1120
▁钟	-1121
▁附	-1122
▁陈	-1123
▁雨	-1124
▁额	-1125
▁龙	-1126
色列	-1127
▁70	-1128
▁一起	-1129
▁万人	-1130
▁上午	-1131
▁不断	-1132
▁不是	-1133
▁专家	-1134
▁个人	-1135
▁了解	-1136
▁以来	-1137
▁健康	-1138
▁关于	-1139
▁军事	-1140
▁出现	-1141
▁劳动	-1142
▁包括	-1143
▁原则	-1144
▁反映	-1145
▁发挥	-1146
▁各类	-1147
▁同时	-1148
▁同样	-1149
▁后的	-1150
▁四川	-1151
▁国内	-1152
▁地方	-1153
▁多少	-1154
▁她们	-1155
▁如何	-1156
▁存款	-1157
▁定了	-1158
▁当地	-1159
▁性的	-1160
▁总理	-1161
▁战斗	-1162
▁拍卖	-1163
▁改变	-1164
▁故事	-1165
▁整理	-1166
▁方针	-1167
▁油画	-1168
▁焦作	-1169
▁状况	-1170
▁理论	-1171
▁的心	-1172
▁示范	-1173
▁管制	-1174
▁系列	-1175
▁虽然	-1176
▁要求	-1177
▁讲话	-1178
▁谈判	-1179
▁责任	-1180
▁这些	-1181
▁违章	-1182
▁道路	-1183
▁都是	-1184
▁重大	-1185
▁198	-1186
▁以色列	-1187
▁委员会	-1188
▁临	-1189
▁什	-1190
▁介	-1191
▁件	-1192
▁伊	-1193
▁伤	-1194
▁住	-1195
▁修	-1196
▁呼	-1197
▁夏	-1198
▁太	-1199
▁妇	-1200
▁审	-1201
▁层	-1202
▁式	-1203
▁忘	-1204
▁排	-1205
▁措	-1206
▁描	-1207
▁搞	-1208
▁斯	-1209
▁普	-1210
▁暖	-1211
▁朋	-1212
▁材	-1213
▁横	-1214
▁浙	-1215
▁留	-1216
▁禁	-1217
▁福	-1218
▁离	-1219
▁秦	-1220
▁综	-1221
▁若	-1222
▁视	-1223
▁言	-1224
▁谁	-1225
▁质	-1226
▁足	-1227
▁轻	-1228
▁远	-1229
▁配	-1230
▁量	-1231
▁阵	-1232
▁阿	-1233
▁降	-1234
▁雷	-1235
▁顺	-1236
▁鸣	-1237
▁齐	-1238
其中	-1239
利设	-1240
务院	-1241
图片	-1242
少年	-1243
扎耶	-1244
斯坦	-1245
理论	-1246
罗斯	-1247
▁)(	-1248
▁13	-1249
▁40	-1250
▁”、	-1251
▁义务	-1252
▁介绍	-1253
▁任务	-1254
▁众多	-1255
▁伟大	-1256
▁作用	-1257
▁作者	-1258
▁党派	-1259
▁农场	-1260
▁出席	-1261
▁前进	-1262
▁北大	-1263
▁卫生	-1264
▁古代	-1265
▁喜庆	-1266
▁园区	-1267
▁国旗	-1268
▁学习	-1269
▁实的	-1270
▁平均	-1271
▁广泛	-1272
▁庆祝	-1273
▁开拓	-1274
▁怎样	-1275
▁战略	-1276
▁拥有	-1277
▁持续	-1278
▁推广	-1279
▁措施	-1280
▁改善	-1281
▁散文	-1282
▁旗帜	-1283
▁是一	-1284
▁更加	-1285
▁机场	-1286
▁正是	-1287
▁武器	-1288
▁浙江	-1289
▁物质	-1290
▁特困	-1291
▁看到	-1292
▁真正	-1293
▁知识	-1294
▁第二	-1295
▁粮食	-1296
▁组成	-1297
▁结构	-1298
▁综合	-1299
▁联系	-1300
▁致富	-1301
▁还有	-1302
▁逐步	-1303
▁部长	-1304
▁阶段	-1305
▁需要	-1306
利设施	-1307
扎耶德	-1308
▁俄罗斯	-1309
▁国务院	-1310
▁小型水	-1311
▁青少年	-1312
▁小扎耶德	-1313
▁开馆仪式	-1314
▁邓小平理论	-1315
▁小型水利设施	-1316
▁丝	-1317
▁买	-1318
▁争	-1319
▁互	-1320
▁伴	-1321
▁余	-1322
▁你	-1323
▁六	-1324
▁列	-1325
▁刚	-1326
▁厅	-1327
▁培	-1328
▁壮	-1329
▁复	-1330
▁字	-1331
▁孤	-1332
▁密	-1333
▁尊	-1334
▁岗	-1335
▁恩	-1336
▁扩	-1337
▁找	-1338
▁挑	-1339
▁挤	-1340
▁捐	-1341
▁换	-1342
▁摆	-1343
▁架	-1344
▁欣	-1345
▁死	-1346
▁浩	-1347
▁湖	-1348
▁珍	-1349
▁球	-1350
▁白	-1351
▁监	-1352
▁神	-1353
▁秩	-1354
▁签	-1355
▁纯	-1356
▁脚	-1357
▁舞	-1358
▁莫	-1359
▁蔬	-1360
▁补	-1361
▁讯	-1362
▁贡	-1363
▁购	-1364
▁跑	-1365
▁透	-1366
▁针	-1367
▁际	-1368
▁雅	-1369
▁验	-1370
各项	-1371
大利	-1372
支部	-1373
空气	-1374
▁.5	-1375
▁0%	-1376
▁25	-1377
▁50	-1378
▁一直	-1379
▁三十	-1380
▁个月	-1381
▁为了	-1382
▁之间	-1383
▁什么	-1384
▁以上	-1385
▁保护	-1386
▁信息	-1387
▁关注	-1388
▁关键	-1389
▁养殖	-1390
▁内容	-1391
▁出的	-1392
▁利用	-1393
▁力量	-1394
▁千万	-1395
▁协商	-1396
▁南京	-1397
▁县的	-1398
▁发达	-1399
▁各国	-1400
▁吕梁	-1401
▁大学	-1402
▁大街	-1403
▁孔玲	-1404
▁实际	-1405
▁应当	-1406
▁建成	-1407
▁形势	-1408
▁心的	-1409
▁意义	-1410
▁战争	-1411
▁推出	-1412
▁效益	-1413
▁文物	-1414
▁日报	-1415
▁日益	-1416
▁时刻	-1417
▁明显	-1418
▁明确	-1419
▁朋友	-1420
▁机制	-1421
▁标准	-1422
▁根据	-1423
▁欢迎	-1424
▁江南	-1425
▁深圳	-1426
▁火山	-1427
▁然而	-1428
▁独立	-1429
▁理解	-1430
▁用水	-1431
▁电子	-1432
▁画家	-1433
▁的主	-1434
▁的事	-1435
▁的好	-1436
▁目标	-1437
▁科学	-1438
▁秩序	-1439
▁程度	-1440
▁第三	-1441
▁老年	-1442
▁而不	-1443
▁自叙	-1444
▁艰苦	-1445
▁蔬菜	-1446
▁藏文	-1447
▁表现	-1448
▁认识	-1449
▁设施	-1450
▁贡献	-1451
▁财政	-1452
▁转变	-1453
▁辉煌	-1454
▁追求	-1455
▁部署	-1456
▁重新	-1457
▁顺利	-1458
▁领域	-1459
▁题材	-1460
▁党支部	-1461
▁冷空气	-1462
▁参加了	-1463
▁意大利	-1464
▁的各项	-1465
▁°	-1466
▁佳	-1467
▁候	-1468
▁倡	-1469
▁别	-1470
▁午	-1471
▁单	-1472
▁口	-1473
▁听	-1474
▁善	-1475
▁喷	-1476
▁均	-1477
▁士	-1478
▁夫	-1479
▁妻	-1480
▁孩	-1481
▁属	-1482
▁川	-1483
▁币	-1484
▁归	-1485
▁录	-1486
▁待	-1487
▁房	-1488
▁扬	-1489
▁抗	-1490
▁担	-1491
▁拱	-1492
▁摊	-1493
▁既	-1494
▁易	-1495
▁朝	-1496
▁核	-1497
▁梁	-1498
▁概	-1499
▁模	-1500
▁沙	-1501
▁沧	-1502
▁沼	-1503
▁泰	-1504
▁济	-1505
▁渠	-1506
▁灌	-1507
▁狂	-1508
▁病	-1509
▁矛	-1510
▁站	-1511
▁竞	-1512
▁简	-1513
▁纷	-1514
▁羊	-1515
▁耕	-1516
▁聚	-1517
▁股	-1518
▁舍	-1519
▁苦	-1520
▁营	-1521
▁董	-1522
▁角	-1523
▁邮	-1524
▁限	-1525
▁顿	-1526
▁预	-1527
▁鼓	-1528
两制	-1529
主户	-1530
九九	-1531
产党	-1532
华孙	-1533
古籍	-1534
同时	-1535
就业	-1536
玉珍	-1537
理会	-1538
▁14	-1539
▁24	-1540
▁26	-1541
▁58	-1542
▁—8	-1543
▁’9	-1544
▁一位	-1545
▁东部	-1546
▁丰富	-1547
▁主持	-1548
▁九七	-1549
▁事故	-1550
▁人类	-1551
▁仪式	-1552
▁价格	-1553
▁优秀	-1554
▁会上	-1555
▁作出	-1556
▁保证	-1557
▁做好	-1558
▁元的	-1559
▁党委	-1560
▁全体	-1561
▁全村	-1562
▁军人	-1563
▁农户	-1564
▁农田	-1565
▁几乎	-1566
▁出台	-1567
▁分析	-1568
▁区域	-1569
▁协会	-1570
▁反对	-1571
▁发出	-1572
▁发行	-1573
▁可能	-1574
▁吸引	-1575
▁呼吁	-1576
▁国民	-1577
▁国的	-1578
▁图为	-1579
▁地位	-1580
▁地的	-1581
▁大中	-1582
▁妻子	-1583
▁安排	-1584
▁实地	-1585
▁居民	-1586
▁广州	-1587
▁形象	-1588
▁志愿	-1589
▁性和	-1590
▁总额	-1591
▁户办	-1592
▁振兴	-1593
▁接受	-1594
▁方式	-1595
▁方案	-1596
▁旧币	-1597
▁时期	-1598
▁是在	-1599
▁更多	-1600
▁最后	-1601
▁有的	-1602
▁武装	-1603
▁汇率	-1604
▁沼气	-1605
▁渠道	-1606
▁演出	-1607
▁照片	-1608
▁特点	-1609
▁特色	-1610
▁现实	-1611
▁理想	-1612
▁的文	-1613
▁直接	-1614
▁矛盾	-1615
▁祝贺	-1616
▁突破	-1617
▁经过	-1618
▁结束	-1619
▁继承	-1620
▁联欢	-1621
▁节目	-1622
▁落实	-1623
▁蒙古	-1624
▁行动	-1625
▁评论	-1626
▁调查	-1627
▁走出	-1628
▁走向	-1629
▁车辆	-1630
▁遗存	-1631
▁采取	-1632
▁面临	-1633
▁面积	-1634
▁飞机	-1635
▁飞行	-1636
▁高效	-1637
主户头	-1638
国两制	-1639
▁一九九	-1640
▁丁玉珍	-1641
▁共产党	-1642
▁再就业	-1643
▁十五大	-1644
▁安理会	-1645
▁现代化	-1646
▁秦华孙	-1647
▁无主户头	-1648
▁藏文古籍	-1649
▁乌	-1650
▁似	-1651
▁何	-1652
▁例	-1653
▁偏	-1654
▁兑	-1655
▁冉	-1656
▁准	-1657
▁划	-1658
▁压	-1659
▁叶	-1660
▁吨	-1661
▁启	-1662
▁呢	-1663
▁哲	-1664
▁围	-1665
▁圣	-1666
▁堵	-1667
▁境	-1668
▁奶	-1669
▁尤	-1670
▁尼	-1671
▁左	-1672
▁差	-1673
▁彻	-1674
▁忠	-1675
▁忧	-1676
▁悟	-1677
▁惊	-1678
▁执	-1679
▁援	-1680
▁斗	-1681
▁断	-1682
▁施	-1683
▁木	-1684
▁板	-1685
▁查	-1686
▁毛	-1687
▁沉	-1688
▁洪	-1689
▁润	-1690
▁滚	-1691
▁潜	-1692
▁烈	-1693
▁片	-1694
▁盘	-1695
▁穿	-1696
▁窗	-1697
▁竟	-1698
▁篇	-1699
▁籍	-1700
▁类	-1701
▁缓	-1702
▁翻	-1703
▁脑	-1704
▁苏	-1705
▁荣	-1706
▁获	-1707
▁菜	-1708
▁菲	-1709
▁融	-1710
▁血	-1711
▁语	-1712
▁豆	-1713
▁贯	-1714
▁贾	-1715
▁赞	-1716
▁赢	-1717
▁趣	-1718
▁跃	-1719
▁踏	-1720
▁辞	-1721
▁迈	-1722
▁逾	-1723
▁遇	-1724
▁险	-1725
▁隆	-1726
▁震	-1727
▁静	-1728
作家	-1729
安惠	-1730
尔滨	-1731
庄乡	-1732
循环	-1733
日电	-1734
星红	-1735
花蕊	-1736
西哥	-1737
警察	-1738
▁23	-1739
▁一大	-1740
▁一条	-1741
▁一样	-1742
▁万多	-1743
▁上下	-1744
▁上年	-1745
▁不会	-1746
▁业的	-1747
▁之一	-1748
▁令人	-1749
▁价值	-1750
▁传记	-1751
▁位于	-1752
▁体制	-1753
▁体系	-1754
▁元月	-1755
▁再次	-1756
▁军委	-1757
▁军队	-1758
▁决心	-1759
▁出口	-1760
▁加工	-1761
▁北部	-1762
▁十多	-1763
▁各族	-1764
▁各级	-1765
▁回到	-1766
▁土地	-1767
▁大会	-1768
▁对象	-1769
▁导致	-1770
▁尽快	-1771
▁展示	-1772
▁岁的	-1773
▁工业	-1774
▁巴勒	-1775
▁布厂	-1776
▁带领	-1777
▁年产	-1778
▁并购	-1779
▁广西	-1780
▁应该	-1781
▁引导	-1782
▁快速	-1783
▁感到	-1784
▁扩大	-1785
▁报纸	-1786
▁拱坝	-1787
▁指挥	-1788
▁控制	-1789
▁推向	-1790
▁提前	-1791
▁摊位	-1792
▁敬老	-1793
▁整治	-1794
▁新币	-1795
▁新疆	-1796
▁日讯	-1797
▁日起	-1798
▁有利	-1799
▁期间	-1800
▁格局	-1801
▁正在	-1802
▁死亡	-1803
▁沙漠	-1804
▁波兰	-1805
▁流通	-1806
▁演员	-1807
▁激动	-1808
▁灌溉	-1809
▁生命	-1810
▁生态	-1811
▁的家	-1812
▁的情	-1813
▁目的	-1814
▁相信	-1815
▁祝愿	-1816
▁福利	-1817
▁精心	-1818
▁纷纷	-1819
▁胜利	-1820
▁能源	-1821
▁自我	-1822
▁自豪	-1823
▁航班	-1824
▁航空	-1825
▁英国	-1826
▁著名	-1827
▁西方	-1828
▁解困	-1829
▁认真	-1830
▁访问	-1831
▁贸易	-1832
▁起降	-1833
▁超过	-1834
▁趋势	-1835
▁边防	-1836
▁进步	-1837
▁退休	-1838
▁那样	-1839
▁部队	-1840
▁针织	-1841
▁长城	-1842
▁长的	-1843
▁阳光	-1844
▁非常	-1845
▁首先	-1846
▁高度	-1847
▁鲜花	-1848
十五大	-1849
星红旗	-1850
▁’98	-1851
▁”、“	-1852
▁北大荒	-1853
▁哈尔滨	-1854
▁墨西哥	-1855
▁女作家	-1856
▁张安惠	-1857
▁志愿者	-1858
▁浙江省	-1859
▁焦作市	-1860
▁胡花蕊	-1861
▁1991	-1862
▁五星红旗	-1863
▁巴勒斯坦	-1864
▁党的十五大	-1865
▁‰	-1866
▁偿	-1867
▁像	-1868
▁冰	-1869
▁凡	-1870
▁剧	-1871
▁吃	-1872
▁吗	-1873
▁响	-1874
▁囊	-1875
▁坐	-1876
▁坡	-1877
▁垦	-1878
▁宗	-1879
▁届	-1880
▁崇	-1881
▁异	-1882
▁念	-1883
▁恭	-1884
▁托	-1885
▁抢	-1886
▁招	-1887
▁揭	-1888
▁搜	-1889
▁撤	-1890
▁攻	-1891
▁斤	-1892
▁束	-1893
▁杨	-1894
▁欠	-1895
▁毕	-1896
▁毫	-1897
▁汉	-1898
▁洁	-1899
▁派	-1900
▁浓	-1901
▁涉	-1902
▁淡	-1903
▁淮	-1904
▁潮	-1905
▁灿	-1906
▁烟	-1907
▁爆	-1908
▁爸	-1909
▁瓦	-1910
▁益	-1911
▁礼	-1912
▁祥	-1913
▁秋	-1914
▁筑	-1915
▁算	-1916
▁纸	-1917
▁纽	-1918
▁缩	-1919
▁缺	-1920
▁肯	-1921
▁育	-1922
▁蓝	-1923
▁词	-1924
▁诗	-1925
▁课	-1926
▁越	-1927
▁轨	-1928
▁输	-1929
▁迟	-1930
▁述	-1931
▁钥	-1932
▁铁	-1933
▁闻	-1934
▁阅	-1935
▁除	-1936
▁露	-1937
▁靠	-1938
▁饲	-1939
▁黑	-1940
▁龚	-1941
内外	-1942
制衣	-1943
匙孔	-1944
完善	-1945
尼西	-1946
得了	-1947
必须	-1948
泽东	-1949
爱幼	-1950
繁森	-1951
角村	-1952
▁.4	-1953
▁0.	-1954
▁3.	-1955
▁一切	-1956
▁一日	-1957
▁万亩	-1958
▁三个	-1959
▁三位	-1960
▁下的	-1961
▁业绩	-1962
▁东方	-1963
▁严格	-1964
▁主干	-1965
▁主张	-1966
▁书画	-1967
▁云南	-1968
▁亚洲	-1969
▁产生	-1970
▁人在	-1971
▁人大	-1972
▁人数	-1973
▁人生	-1974
▁优质	-1975
▁会员	-1976
▁伤亡	-1977
▁佳节	-1978
▁便是	-1979
▁保障	-1980
▁信心	-1981
▁值得	-1982
▁儿童	-1983
▁充分	-1984
▁充满	-1985
▁光辉	-1986
▁克服	-1987
▁全县	-1988
▁公安	-1989
▁公布	-1990
▁公里	-1991
▁其中	-1992
▁典型	-1993
▁出租	-1994
▁利税	-1995
▁前夕	-1996
▁加大	-1997
▁千名	-1998
▁午夜	-1999
▁协议	-2000
▁协调	-2001
▁单位	-2002
▁印度	-2003
▁即将	-2004
▁历程	-2005
▁友好	-2006
▁号召	-2007
▁合理	-2008
▁同意	-2009
▁周围	-2010
▁图文	-2011
▁在国	-2012
▁在此	-2013
▁地域	-2014
▁城区	-2015
▁处于	-2016
▁大事	-2017
▁大地	-2018
▁天津	-2019
▁奇迹	-2020
▁子的	-2021
▁宣誓	-2022
▁家乡	-2023
▁家们	-2024
▁家的	-2025
▁将是	-2026
▁尊老	-2027
▁尤其	-2028
▁就是	-2029
▁崇高	-2030
▁工商	-2031
▁左右	-2032
▁帮扶	-2033
▁平等	-2034
▁平衡	-2035
▁庄严	-2036
▁开了	-2037
▁开创	-2038
▁引起	-2039
▁彩旗	-2040
▁思考	-2041
▁思路	-2042
▁恭城	-2043
▁想到	-2044
▁意识	-2045
▁成果	-2046
▁所在	-2047
▁拉萨	-2048
▁捐赠	-2049
▁搜集	-2050
▁搞好	-2051
▁改造	-2052
▁文献	-2053
▁文艺	-2054
▁斗争	-2055
▁新建	-2056
▁无法	-2057
▁是有	-2058
▁普及	-2059
▁最佳	-2060
▁最高	-2061
▁有小	-2062
▁有着	-2063
▁来了	-2064
▁标志	-2065
▁样的	-2066
▁欢乐	-2067
▁气象	-2068
▁没收	-2069
▁沧桑	-2070
▁济南	-2071
▁海外	-2072
▁润五	-2073
▁港人	-2074
▁演奏	-2075
▁灿烂	-2076
▁热烈	-2077
▁爱国	-2078
▁爸爸	-2079
▁特区	-2080
▁狂欢	-2081
▁用笔	-2082
▁的全	-2083
▁的外	-2084
▁的最	-2085
▁的深	-2086
▁的经	-2087
▁看望	-2088
▁社评	-2089
▁祝福	-2090
▁立了	-2091
▁站在	-2092
▁筹集	-2093
▁纽约	-2094
▁终于	-2095
▁经历	-2096
▁经费	-2097
▁羊肉	-2098
▁自发	-2099
▁致以	-2100
▁苏联	-2101
▁行的	-2102
▁设计	-2103
▁调整	-2104
▁贵阳	-2105
▁起的	-2106
▁迎接	-2107
▁这项	-2108
▁逐渐	-2109
▁那里	-2110
▁邮电	-2111
▁郑重	-2112
▁部的	-2113
▁里的	-2114
▁长江	-2115
▁隆重	-2116
▁难以	-2117
▁面对	-2118
▁鼓舞	-2119
制衣厂	-2120
尼西亚	-2121
▁和完善	-2122
▁孔繁森	-2123
▁敬老院	-2124
▁毛泽东	-2125
▁海内外	-2126
▁象角村	-2127
▁赢得了	-2128
▁钥匙孔	-2129
▁尊老爱幼	-2130
▁印度尼西亚	-2131
▁针织制衣厂	-2132
▁亡	-2133
▁享	-2134
▁佩	-2135
▁供	-2136
▁侨	-2137
▁俊	-2138
▁假	-2139
▁册	-2140
▁冒	-2141
▁净	-2142
▁凝	-2143
▁刊	-2144
▁刻	-2145
▁剩	-2146
▁助	-2147
▁勃	-2148
▁勇	-2149
▁卖	-2150
▁吐	-2151
▁含	-2152
▁呈	-2153
▁告	-2154
▁唱	-2155
▁嘉	-2156
▁块	-2157
▁塘	-2158
▁夕	-2159
▁奖	-2160
▁妥	-2161
▁姑	-2162
▁季	-2163
▁宽	-2164
▁寄	-2165
▁寡	-2166
▁屋	-2167
▁履	-2168
▁峡	-2169
▁峰	-2170
▁巩	-2171
▁师	-2172
▁床	-2173
▁序	-2174
▁延	-2175
▁征	-2176
▁忙	-2177
▁恰	-2178
▁悲	-2179
▁截	-2180
▁打	-2181
▁拜	-2182
▁挖	-2183
▁授	-2184
▁播	-2185
▁敞	-2186
▁斑	-2187
▁料	-2188
▁族	-2189
▁旱	-2190
▁昌	-2191
▁星	-2192
▁曹	-2193
▁朱	-2194
▁某	-2195
▁桥	-2196
▁梅	-2197
▁检	-2198
▁楼	-2199
▁欧	-2200
▁氏	-2201
▁永	-2202
▁洋	-2203
▁洗	-2204
▁测	-2205
▁涌	-2206
▁淀	-2207
▁渡	-2208
▁源	-2209
▁濒	-2210
▁灵	-2211
▁牡	-2212
▁牵	-2213
▁猪	-2214
▁玉	-2215
▁玩	-2216
▁珠	-2217
▁班	-2218
▁瓜	-2219
▁畅	-2220
▁秀	-2221
▁税	-2222
▁章	-2223
▁童	-2224
▁端	-2225
▁笑	-2226
▁篆	-2227
▁累	-2228
▁练	-2229
▁细	-2230
▁织	-2231
▁绘	-2232
▁缔	-2233
▁署	-2234
▁肩	-2235
▁胞	-2236
▁脸	-2237
▁般	-2238
▁艳	-2239
▁范	-2240
▁荒	-2241
▁蓄	-2242
▁蓬	-2243
▁袭	-2244
▁览	-2245
▁诚	-2246
▁详	-2247
▁谨	-2248
▁账	-2249
▁软	-2250
▁载	-2251
▁辈	-2252
▁遣	-2253
▁锋	-2254
▁雄	-2255
▁零	-2256
▁页	-2257
▁驱	-2258
中雨	-2259
二月	-2260
优先	-2261
八年	-2262
农场	-2263
利亚	-2264
加坡	-2265
勒陀	-2266
可归	-2267
物馆	-2268
直门	-2269
纽带	-2270
膨胀	-2271
达岭	-2272
龙江	-2273
▁%,	-2274
▁),	-2275
▁29	-2276
▁5%	-2277
▁90	-2278
▁:‘	-2279
▁》。	-2280
▁一次	-2281
▁三年	-2282
▁不懈	-2283
▁不能	-2284
▁专门	-2285
▁两个	-2286
▁中东	-2287
▁中文	-2288
▁中有	-2289
▁中版	-2290
▁主权	-2291
▁之所	-2292
▁之际	-2293
▁乐队	-2294
▁九八	-2295
▁也要	-2296
▁书法	-2297
▁书籍	-2298
▁书系	-2299
▁了我	-2300
▁事件	-2301
▁二十	-2302
▁产量	-2303
▁亲切	-2304
▁仍然	-2305
▁以往	-2306
▁们的	-2307
▁伴随	-2308
▁使馆	-2309
▁依托	-2310
▁全年	-2311
▁兴建	-2312
▁兵书	-2313
▁冲击	-2314
▁刚刚	-2315
▁初步	-2316
▁前两	-2317
▁前景	-2318
▁加快	-2319
▁动了	-2320
▁动员	-2321
▁勃勃	-2322
▁医院	-2323
▁十五	-2324
▁十年	-2325
▁华的	-2326
▁历代	-2327
▁又一	-2328
▁发现	-2329
▁受伤	-2330
▁受到	-2331
▁只能	-2332
▁各个	-2333
▁吸收	-2334
▁喷发	-2335
▁回应	-2336
▁因素	-2337
▁团体	-2338
▁国和	-2339
▁国有	-2340
▁垦区	-2341
▁基地	-2342
▁堵塞	-2343
▁处理	-2344
▁处的	-2345
▁多人	-2346
▁多数	-2347
▁多的	-2348
▁多种	-2349
▁大业	-2350
▁大成	-2351
▁大批	-2352
▁大田	-2353
▁大部	-2354
▁妇女	-2355
▁始终	-2356
▁孩子	-2357
▁完全	-2358
▁定的	-2359
▁客人	-2360
▁宣布	-2361
▁密切	-2362
▁富强	-2363
▁对外	-2364
▁小康	-2365
▁就在	-2366
▁就职	-2367
▁履行	-2368
▁山西	-2369
▁岁末	-2370
▁巩固	-2371
▁市区	-2372
▁市委	-2373
▁市民	-2374
▁带头	-2375
▁并不	-2376
▁强烈	-2377
▁当代	-2378
▁当时	-2379
▁心灵	-2380
▁必须	-2381
▁总结	-2382
▁感受	-2383
▁成人	-2384
▁成的	-2385
▁成立	-2386
▁所谓	-2387
▁才能	-2388
▁技法	-2389
▁担心	-2390
▁拿出	-2391
▁按照	-2392
▁挑战	-2393
▁挖掘	-2394
▁摆脱	-2395
▁收回	-2396
▁整个	-2397
▁文字	-2398
▁新闻	-2399
▁无家	-2400
▁无疑	-2401
▁无论	-2402
▁日前	-2403
▁日在	-2404
▁是将	-2405
▁曲目	-2406
▁最大	-2407
▁最近	-2408
▁有大	-2409
▁有所	-2410
▁机关	-2411
▁机构	-2412
▁树立	-2413
▁根本	-2414
▁格外	-2415
▁欢庆	-2416
▁歌唱	-2417
▁正常	-2418
▁此次	-2419
▁每天	-2420
▁比赛	-2421
▁毫不	-2422
▁消息	-2423
▁淀粉	-2424
▁深刻	-2425
▁清醒	-2426
▁湖州	-2427
▁濒临	-2428
▁牡丹	-2429
▁状态	-2430
▁率先	-2431
▁现象	-2432
▁珍贵	-2433
▁瑞士	-2434
▁甚至	-2435
▁生存	-2436
▁用于	-2437
▁界的	-2438
▁百年	-2439
▁的不	-2440
▁的小	-2441
▁的意	-2442
▁的有	-2443
▁的气	-2444
▁的精	-2445
▁的群	-2446
▁的这	-2447
▁的重	-2448
▁相对	-2449
▁相比	-2450
▁真情	-2451
▁着这	-2452
▁知道	-2453
▁短短	-2454
▁石油	-2455
▁确保	-2456
▁种种	-2457
▁竞争	-2458
▁筑路	-2459
▁筹资	-2460
▁篆刻	-2461
▁米兰	-2462
▁紧张	-2463
▁纪实	-2464
▁纪录	-2465
▁纪念	-2466
▁经典	-2467
▁经常	-2468
▁经理	-2469
▁编写	-2470
▁美德	-2471
▁耕地	-2472
▁背景	-2473
▁能力	-2474
▁能够	-2475
▁自身	-2476
▁至少	-2477
▁艰难	-2478
▁色的	-2479
▁获得	-2480
▁蓬勃	-2481
▁行业	-2482
▁行使	-2483
▁街道	-2484
▁观念	-2485
▁规划	-2486
▁规定	-2487
▁规范	-2488
▁角度	-2489
▁象征	-2490
▁质量	-2491
▁贺年	-2492
▁资产	-2493
▁较为	-2494
▁达成	-2495
▁过程	-2496
▁还是	-2497
▁这是	-2498
▁这次	-2499
▁这部	-2500
▁适应	-2501
▁选择	-2502
▁通货	-2503
▁速度	-2504
▁遇到	-2505
▁遣散	-2506
▁都有	-2507
▁采用	-2508
▁销售	-2509
▁长期	-2510
▁阅读	-2511
▁院的	-2512
▁集中	-2513
▁面貌	-2514
▁预计	-2515
▁风景	-2516
▁首批	-2517
▁验收	-2518
▁高兴	-2519
▁高峰	-2520
▁鲜活	-2521
▁黄河	-2522
到中雨	-2523
▁不同的	-2524
▁东直门	-2525
▁为纽带	-2526
▁主干道	-2527
▁八达岭	-2528
▁十二月	-2529
▁博物馆	-2530
▁大农场	-2531
▁新加坡	-2532
▁更多的	-2533
▁有利于	-2534
▁标志着	-2535
▁比勒陀	-2536
▁的经验	-2537
▁福利院	-2538
▁边防军	-2539
▁黑龙江	-2540
一国两制	-2541
▁大田庄乡	-2542
▁无家可归	-2543
▁通货膨胀	-2544
▁一九九八年	-2545
▁有小到中雨	-2546
▁比勒陀利亚	-2547
▁/	-2548
▁‘	-2549
▁串	-2550
▁久	-2551
▁乎	-2552
▁乔	-2553
▁乱	-2554
▁亮	-2555
▁仓	-2556
▁付	-2557
▁债	-2558
▁储	-2559
▁允	-2560
▁剖	-2561
▁勒	-2562
▁卷	-2563
▁叫	-2564
▁吴	-2565
▁啊	-2566
▁喝	-2567
▁坪	-2568
▁夺	-2569
▁奉	-2570
▁奏	-2571
▁奔	-2572
▁奥	-2573
▁妈	-2574
▁妹	-2575
▁姐	-2576
▁威	-2577
▁婚	-2578
▁媒	-2579
▁宏	-2580
▁宪	-2581
▁宫	-2582
▁宾	-2583
▁察	-2584
▁寺	-2585
▁封	-2586
▁尉	-2587
▁尝	-2588
▁尾	-2589
▁屏	-2590
▁幕	-2591
▁庭	-2592
▁弥	-2593
▁役	-2594
▁徘	-2595
▁急	-2596
▁悉	-2597
▁患	-2598
▁愉	-2599
▁懂	-2600
▁护	-2601
▁拔	-2602
▁拘	-2603
▁挂	-2604
▁掉	-2605
▁掌	-2606
▁插	-2607
▁握	-2608
▁操	-2609
▁敏	-2610
▁敢	-2611
▁旋	-2612
▁旨	-2613
▁昆	-2614
▁映	-2615
▁松	-2616
▁构	-2617
▁染	-2618
▁栋	-2619
▁校	-2620
▁桂	-2621
▁梦	-2622
▁棉	-2623
▁榭	-2624
▁款	-2625
▁毁	-2626
▁泽	-2627
▁浇	-2628
▁浪	-2629
▁涨	-2630
▁渐	-2631
▁滋	-2632
▁潘	-2633
▁灰	-2634
▁灾	-2635
▁炸	-2636
▁燃	-2637
▁父	-2638
▁爷	-2639
▁牌	-2640
▁犹	-2641
▁狠	-2642
▁猎	-2643
▁眉	-2644
▁瞩	-2645
▁矿	-2646
▁硬	-2647
▁祈	-2648
▁票	-2649
▁祷	-2650
▁秘	-2651
▁穷	-2652
▁策	-2653
▁纲	-2654
▁络	-2655
▁绵	-2656
▁缘	-2657
▁网	-2658
▁置	-2659
▁聪	-2660
▁胆	-2661
▁胸	-2662
▁腮	-2663
▁腹	-2664
▁荡	-2665
▁蔓	-2666
▁覆	-2667
▁誉	-2668
▁订	-2669
▁训	-2670
▁识	-2671
▁诸	-2672
▁谓	-2673
▁谢	-2674
▁谱	-2675
▁贴	-2676
▁赠	-2677
▁赶	-2678
▁跌	-2679
▁轮	-2680
▁辖	-2681
▁迅	-2682
▁逛	-2683
▁遍	-2684
▁邻	-2685
▁酒	-2686
▁醒	-2687
▁钢	-2688
▁铺	-2689
▁锡	-2690
▁闪	-2691
▁阻	-2692
▁陆	-2693
▁陵	-2694
▁韵	-2695
▁顶	-2696
▁频	-2697
▁颜	-2698
▁飘	-2699
▁饮	-2700
▁驾	-2701
▁骤	-2702
▁魂	-2703
▁鲁	-2704
▁鸟	-2705
▁鹏	-2706
▁黎	-2707
▁默	-2708
不衰	-2709
严禁	-2710
乎情	-2711
书长	-2712
亚胡	-2713
以军	-2714
件事	-2715
倒闭	-2716
偏北	-2717
健行	-2718
养量	-2719
切实	-2720
加拉	-2721
卢巴	-2722
同地	-2723
和景	-2724
塔尼	-2725
增强	-2726
学贤	-2727
广西	-2728
建华	-2729
律宾	-2730
快富	-2731
把手	-2732
拉尔	-2733
按照	-2734
旧迎	-2735
有芳	-2736
柴节	-2737
毅仁	-2738
煤灶	-2739
约而	-2740
翁达	-2741
联酋	-2742
胀率	-2743
花园	-2744
荣誉	-2745
随着	-2746
露出	-2747
骨鸡	-2748
▁.6	-2749
▁16	-2750
▁17	-2751
▁1、	-2752
▁22	-2753
▁32	-2754
▁48	-2755
▁63	-2756
▁82	-2757
▁84	-2758
▁一下	-2759
▁一套	-2760
▁一时	-2761
▁一番	-2762
▁一致	-2763
▁一辆	-2764
▁一项	-2765
▁七十	-2766
▁三是	-2767
▁三次	-2768
▁三通	-2769
▁上为	-2770
▁上了	-2771
▁下乡	-2772
▁不仅	-2773
▁不再	-2774
▁不可	-2775
▁不忘	-2776
▁与其	-2777
▁专业	-2778
▁业和	-2779
▁两亩	-2780
▁两年	-2781
▁个县	-2782
▁为之	-2783
▁主任	-2784
▁主体	-2785
▁举措	-2786
▁义诊	-2787
▁之路	-2788
▁乔石	-2789
▁了大	-2790
▁了当	-2791
▁事务	-2792
▁二是	-2793
▁二百	-2794
▁互补	-2795
▁交给	-2796
▁交融	-2797
▁亲人	-2798
▁人与	-2799
▁人群	-2800
▁从事	-2801
▁仓库	-2802
▁代的	-2803
▁以为	-2804
▁优先	-2805
▁优惠	-2806
▁优良	-2807
▁会费	-2808
▁位置	-2809
▁你们	-2810
▁倡议	-2811
▁做了	-2812
▁停止	-2813
▁允许	-2814
▁光荣	-2815
▁党政	-2816
▁入了	-2817
▁全民	-2818
▁八一	-2819
▁公园	-2820
▁关怀	-2821
▁兵学	-2822
▁其它	-2823
▁内涵	-2824
▁军营	-2825
▁军装	-2826
▁准备	-2827
▁凝聚	-2828
▁几个	-2829
▁几年	-2830
▁出发	-2831
▁分忧	-2832
▁切实	-2833
▁刚果	-2834
▁到一	-2835
▁到中	-2836
▁到家	-2837
▁前的	-2838
▁办水	-2839
▁动摇	-2840
▁动迁	-2841
▁勇敢	-2842
▁化和	-2843
▁十大	-2844
▁千余	-2845
▁半数	-2846
▁华文	-2847
▁卖主	-2848
▁南部	-2849
▁占全	-2850
▁印尼	-2851
▁厂房	-2852
▁厂里	-2853
▁厂长	-2854
▁原因	-2855
▁原子	-2856
▁原有	-2857
▁县县	-2858
▁又在	-2859
▁及其	-2860
▁友谊	-2861
▁双方	-2862
▁发扬	-2863
▁发菜	-2864
▁古籍	-2865
▁另一	-2866
▁只是	-2867
▁只有	-2868
▁只要	-2869
▁史籍	-2870
▁合并	-2871
▁合影	-2872
▁合格	-2873
▁名人	-2874
▁吐乌	-2875
▁听说	-2876
▁启发	-2877
▁员工	-2878
▁命名	-2879
▁命运	-2880
▁商品	-2881
▁喜悦	-2882
▁因为	-2883
▁困境	-2884
▁国歌	-2885
▁图书	-2886
▁在于	-2887
▁在京	-2888
▁场所	-2889
▁坚决	-2890
▁坚强	-2891
▁培养	-2892
▁外长	-2893
▁多个	-2894
▁多元	-2895
▁多名	-2896
▁大厅	-2897
▁大型	-2898
▁大大	-2899
▁大陆	-2900
▁天气	-2901
▁夫妇	-2902
▁女儿	-2903
▁女士	-2904
▁奶奶	-2905
▁好像	-2906
▁好转	-2907
▁如今	-2908
▁如常	-2909
▁如果	-2910
▁如此	-2911
▁妈妈	-2912
▁妥协	-2913
▁存在	-2914
▁学院	-2915
▁完整	-2916
▁宣传	-2917
▁家中	-2918
▁寒冬	-2919
▁对待	-2920
▁将以	-2921
▁将对	-2922
▁小说	-2923
▁少生	-2924
▁就有	-2925
▁尽管	-2926
▁局部	-2927
▁山沟	-2928
▁岁月	-2929
▁工人	-2930
▁工厂	-2931
▁巴以	-2932
▁巴基	-2933
▁市长	-2934
▁布局	-2935
▁布置	-2936
▁带着	-2937
▁干警	-2938
▁平稳	-2939
▁年前	-2940
▁年底	-2941
▁广阔	-2942
▁延长	-2943
▁建管	-2944
▁开局	-2945
▁引人	-2946
▁引发	-2947
▁强大	-2948
▁当今	-2949
▁当家	-2950
▁彩虹	-2951
▁往来	-2952
▁徘徊	-2953
▁忘记	-2954
▁忙碌	-2955
▁忧其	-2956
▁态度	-2957
▁恩佐	-2958
▁愉快	-2959
▁意味	-2960
▁感谢	-2961
▁懂得	-2962
▁成效	-2963
▁成绩	-2964
▁战役	-2965
▁截至	-2966
▁户户	-2967
▁所以	-2968
▁所画	-2969
▁扶持	-2970
▁承包	-2971
▁承担	-2972
▁抗日	-2973
▁抢救	-2974
▁拜年	-2975
▁指出	-2976
▁指数	-2977
▁挤在	-2978
▁接着	-2979
▁接触	-2980
▁推行	-2981
▁改组	-2982
▁攻坚	-2983
▁政局	-2984
▁故乡	-2985
▁救助	-2986
▁救援	-2987
▁数十	-2988
▁文告	-2989
▁新春	-2990
▁新航	-2991
▁新风	-2992
▁新鲜	-2993
▁方法	-2994
▁方的	-2995
▁日晚	-2996
▁日的	-2997
▁旨在	-2998
▁是他	-2999
▁显示	-3000
▁显著	-3001
▁普遍	-3002
▁智慧	-3003
▁更大	-3004
▁有一	-3005
▁有些	-3006
▁有人	-3007
▁有效	-3008
▁服装	-3009
▁未能	-3010
▁本领	-3011
▁机遇	-3012
▁李升	-3013
▁李鹏	-3014
▁栋梁	-3015
▁梅塔	-3016
▁模范	-3017
▁欢聚	-3018
▁欣赏	-3019
▁欧洲	-3020
▁正义	-3021
▁此而	-3022
▁武警	-3023
▁每个	-3024
▁每次	-3025
▁民间	-3026
▁水是	-3027
▁水的	-3028
▁水费	-3029
▁永远	-3030
▁江西	-3031
▁河北	-3032
▁河南	-3033
▁治理	-3034
▁注意	-3035
▁泰国	-3036
▁深入	-3037
▁清晨	-3038
▁温棚	-3039
▁滋润	-3040
▁满足	-3041
▁激光	-3042
▁激越	-3043
▁爆竹	-3044
▁物价	-3045
▁狠抓	-3046
▁率和	-3047
▁玉茭	-3048
▁现了	-3049
▁现出	-3050
▁理性	-3051
▁生动	-3052
▁生意	-3053
▁生机	-3054
▁电脑	-3055
▁界限	-3056
▁百分	-3057
▁的八	-3058
▁的双	-3059
▁的多	-3060
▁的热	-3061
▁的特	-3062
▁的立	-3063
▁的美	-3064
▁的自	-3065
▁的被	-3066
▁的西	-3067
▁的话	-3068
▁的预	-3069
▁的高	-3070
▁监督	-3071
▁相当	-3072
▁眼下	-3073
▁破坏	-3074
▁破船	-3075
▁确实	-3076
▁种植	-3077
▁科研	-3078
▁窗牖	-3079
▁等地	-3080
▁签署	-3081
▁签订	-3082
▁简单	-3083
▁篇章	-3084
▁素质	-3085
▁累计	-3086
▁红灯	-3087
▁约翰	-3088
▁纲领	-3089
▁纸上	-3090
▁练市	-3091
▁经久	-3092
▁经验	-3093
▁绘画	-3094
▁统计	-3095
▁维持	-3096
▁缓解	-3097
▁缔造	-3098
▁编撰	-3099
▁罗干	-3100
▁罗马	-3101
▁者们	-3102
▁者的	-3103
▁而又	-3104
▁联和	-3105
▁聚集	-3106
▁背土	-3107
▁背篓	-3108
▁致词	-3109
▁艰巨	-3110
▁艰辛	-3111
▁花卉	-3112
▁若干	-3113
▁范围	-3114
▁著作	-3115
▁蔓延	-3116
▁补贴	-3117
▁西岸	-3118
▁覆盖	-3119
▁见到	-3120
▁观点	-3121
▁规律	-3122
▁警察	-3123
▁讲述	-3124
▁设备	-3125
▁话剧	-3126
▁课题	-3127
▁资助	-3128
▁走进	-3129
▁跑道	-3130
▁身边	-3131
▁轨道	-3132
▁转让	-3133
▁软禁	-3134
▁输入	-3135
▁迅速	-3136
▁过渡	-3137
▁运作	-3138
▁运用	-3139
▁还不	-3140
▁这么	-3141
▁这里	-3142
▁进口	-3143
▁进的	-3144
▁远远	-3145
▁述了	-3146
▁适当	-3147
▁选定	-3148
▁通信	-3149
▁通告	-3150
▁郑州	-3151
▁都在	-3152
▁都要	-3153
▁采访	-3154
▁长篇	-3155
▁门外	-3156
▁间接	-3157
▁间隔	-3158
▁队伍	-3159
▁阵线	-3160
▁阵阵	-3161
▁零下	-3162
▁面值	-3163
▁面向	-3164
▁题为	-3165
▁题的	-3166
▁风采	-3167
▁首次	-3168
▁驱车	-3169
▁高产	-3170
▁高涨	-3171
▁鸣枪	-3172
偏北风	-3173
加拉瓜	-3174
和景仰	-3175
旧迎新	-3176
▁一把手	-3177
▁不约而	-3178
▁之间的	-3179
▁乌骨鸡	-3180
▁云南省	-3181
▁内塔尼	-3182
▁卡翁达	-3183
▁发乎情	-3184
▁吸引了	-3185
▁塔拉尔	-3186
▁奇卢巴	-3187
▁尉健行	-3188
▁就以军	-3189
▁强烈的	-3190
▁徐有芳	-3191
▁性循环	-3192
▁所在的	-3193
▁显露出	-3194
▁王学贤	-3195
▁的荣誉	-3196
▁省柴节	-3197
▁秘书长	-3198
▁荣毅仁	-3199
▁菲律宾	-3200
▁董建华	-3201
▁这件事	-3202
▁通胀率	-3203
▁邮电部	-3204
▁饲养量	-3205
▁一国两制	-3206
▁少生快富	-3207
▁尼加拉瓜	-3208
▁巴基斯坦	-3209
▁彩虹花园	-3210
▁濒临倒闭	-3211
▁级偏北风	-3212
▁经久不衰	-3213
▁辞旧迎新	-3214
▁不约而同地	-3215
▁内塔尼亚胡	-3216
▁无家可归者	-3217
▁省柴节煤灶	-3218
▁阅读和景仰	-3219
72	-3220
▁丧	-3221
▁乃	-3222
▁乳	-3223
▁予	-3224
▁亦	-3225
▁仁	-3226
▁仆	-3227
▁休	-3228
▁侧	-3229
▁倍	-3230
▁倒	-3231
▁倘	-3232
▁借	-3233
▁倾	-3234
▁催	-3235
▁兄	-3236
▁兆	-3237
▁凯	-3238
▁剑	-3239
▁劣	-3240
▁劫	-3241
▁勋	-3242
▁募	-3243
▁勤	-3244
▁句	-3245
▁叭	-3246
▁右	-3247
▁司	-3248
▁吉	-3249
▁否	-3250
▁哀	-3251
▁喇	-3252
▁固	-3253
▁圆	-3254
▁址	-3255
▁坛	-3256
▁垫	-3257
▁堂	-3258
▁堆	-3259
▁堪	-3260
▁塑	-3261
▁奠	-3262
▁娃	-3263
▁娱	-3264
▁宜	-3265
▁宝	-3266
▁宿	-3267
▁寂	-3268
▁寻	-3269
▁尚	-3270
▁尺	-3271
▁岚	-3272
▁岛	-3273
▁岩	-3274
▁州	-3275
▁巧	-3276
▁巷	-3277
▁席	-3278
▁库	-3279
▁康	-3280
▁弃	-3281
▁弦	-3282
▁彭	-3283
▁彼	-3284
▁径	-3285
▁律	-3286
▁微	-3287
▁忆	-3288
▁怕	-3289
▁恶	-3290
▁悦	-3291
▁憾	-3292
▁扫	-3293
▁扮	-3294
▁披	-3295
▁抵	-3296
▁拖	-3297
▁挣	-3298
▁挺	-3299
▁仿	-3300
▁侠	-3301
▁妙	-3302
▁妨	-3303
▁宅	-3304
▁岸	-3305
▁崭	-3306
▁弱	-3307
▁损	-3308
▁揽	-3309
▁搭	-3310
▁摘	-3311
▁摩	-3312
▁撰	-3313
▁敲	-3314
▁斌	-3315
▁斐	-3316
▁旬	-3317
▁旺	-3318
▁昂	-3319
▁末	-3320
▁杂	-3321
▁杜	-3322
▁杭	-3323
▁杰	-3324
▁枝	-3325
▁枪	-3326
▁柳	-3327
▁框	-3328
▁桌	-3329
▁棚	-3330
▁植	-3331
▁椒	-3332
▁止	-3333
▁歧	-3334
▁殃	-3335
▁段	-3336
▁池	-3337
▁汪	-3338
▁沈	-3339
▁沿	-3340
▁泉	-3341
▁泪	-3342
▁泾	-3343
▁洒	-3344
▁添	-3345
▁滞	-3346
▁滨	-3347
▁滴	-3348
▁漫	-3349
▁漾	-3350
▁灭	-3351
▁灯	-3352
▁炮	-3353
▁炼	-3354
▁烂	-3355
▁烽	-3356
▁牛	-3357
▁狭	-3358
▁猛	-3359
▁甘	-3360
▁甜	-3361
▁申	-3362
▁男	-3363
▁畜	-3364
▁疑	-3365
▁痕	-3366
▁瘫	-3367
▁盆	-3368
▁盗	-3369
▁睦	-3370
▁硝	-3371
▁私	-3372
▁秧	-3373
▁究	-3374
▁窥	-3375
▁竖	-3376
▁竹	-3377
▁笛	-3378
▁答	-3379
▁粉	-3380
▁粗	-3381
▁糊	-3382
▁纳	-3383
▁纵	-3384
▁纺	-3385
▁绝	-3386
▁绩	-3387
▁缅	-3388
▁缤	-3389
▁罕	-3390
▁罢	-3391
▁耳	-3392
▁肖	-3393
▁脉	-3394
▁腾	-3395
▁舆	-3396
▁药	-3397
▁萝	-3398
▁萨	-3399
▁井	-3400
▁免	-3401
▁味	-3402
▁宋	-3403
▁帷	-3404
▁幸	-3405
▁府	-3406
▁徽	-3407
▁悠	-3408
▁戈	-3409
▁柿	-3410
▁档	-3411
▁汽	-3412
▁洞	-3413
▁琼	-3414
▁磨	-3415
▁脏	-3416
▁苍	-3417
▁莽	-3418
▁蒸	-3419
▁蕴	-3420
▁藉	-3421
▁虎	-3422
▁虑	-3423
▁虚	-3424
▁蛋	-3425
▁衣	-3426
▁衷	-3427
▁袋	-3428
▁触	-3429
▁誓	-3430
▁试	-3431
▁诞	-3432
▁豫	-3433
▁赏	-3434
▁赤	-3435
▁赴	-3436
▁跳	-3437
▁踞	-3438
▁轰	-3439
▁辙	-3440
▁辟	-3441
▁辣	-3442
▁返	-3443
▁途	-3444
▁逝	-3445
▁遥	-3446
▁邀	-3447
▁邦	-3448
▁郁	-3449
▁野	-3450
▁钞	-3451
▁钻	-3452
▁锦	-3453
▁镕	-3454
▁闯	-3455
▁阐	-3456
▁阴	-3457
▁陪	-3458
▁隔	-3459
▁须	-3460
▁顾	-3461
▁颇	-3462
▁食	-3463
▁餐	-3464
▁饱	-3465
▁饺	-3466
▁驶	-3467
▁骄	-3468
▁骨	-3469
▁鬼	-3470
▁魄	-3471
▁鸠	-3472
▁鸡	-3473
▁鼠	-3474
一堂	-3475
一期	-3476
七年	-3477
上门	-3478
丽生	-3479
义昭	-3480
之以	-3481
九五	-3482
习惯	-3483
交管	-3484
伙子	-3485
传送	-3486
体化	-3487
先后	-3488
兰堡	-3489
军属	-3490
分流	-3491
制宜	-3492
前提	-3493
剖析	-3494
劳斯	-3495
协力	-3496
可泣	-3497
可见	-3498
启彬	-3499
▁劲	-3500
▁叙	-3501
▁咱	-3502
▁息	-3503
▁懈	-3504
▁拒	-3505
▁摧	-3506
▁昨	-3507
▁柏	-3508
▁沟	-3509
▁煤	-3510
▁羽	-3511
▁翼	-3512
▁肉	-3513
▁臣	-3514
▁陶	-3515
克拉	-3516
党刊	-3517
地利	-3518
处是	-3519
多次	-3520
多金	-3521
女老	-3522
好者	-3523
宾逊	-3524
尼拉	-3525
尽管	-3526
局长	-3527
工会	-3528
建舟	-3529
彩玲	-3530
必贪	-3531
悲鸿	-3532
战员	-3533
拿大	-3534
斯基	-3535
旋门	-3536
旦河	-3537
是她	-3538
木齐	-3539
来越	-3540
林顿	-3541
桑比	-3542
桥梁	-3543
步入	-3544
步飞	-3545
比拉	-3546
氏度	-3547
气流	-3548
泳三	-3549
浩田	-3550
海横	-3551
深地	-3552
添了	-3553
玛干	-3554
珮云	-3555
瑞环	-3556
画院	-3557
畜牧	-3558
百炼	-3559
窥视	-3560
立派	-3561
系列	-3562
致使	-3563
萨诺	-3564
衷地	-3565
评为	-3566
评家	-3567
话会	-3568
负着	-3569
赞誉	-3570
轻的	-3571
辐射	-3572
达了	-3573
过难	-3574
运河	-3575
迟不	-3576
造田	-3577
道涵	-3578
里木	-3579
长张	-3580
长韩	-3581
防治	-3582
雄鹰	-3583
麻雀	-3584
▁)、	-3585
▁,2	-3586
▁.3	-3587
▁.8	-3588
▁/3	-3589
▁18	-3590
▁39	-3591
▁45	-3592
▁55	-3593
▁62	-3594
▁7.	-3595
▁88	-3596
▁:『	-3597
▁‰,	-3598
▁』。	-3599
▁一件	-3600
▁一份	-3601
▁一元	-3602
▁一响	-3603
▁一国	-3604
▁一块	-3605
▁一家	-3606
▁一批	-3607
▁一支	-3608
▁一流	-3609
▁一片	-3610
▁一百	-3611
▁一股	-3612
▁一般	-3613
▁一路	-3614
▁一遍	-3615
▁万吨	-3616
▁三人	-3617
▁上升	-3618
▁上台	-3619
▁上多	-3620
▁上述	-3621
▁下午	-3622
▁不久	-3623
▁不住	-3624
▁不到	-3625
▁不开	-3626
▁不相	-3627
▁不绝	-3628
▁不要	-3629
▁不见	-3630
▁专程	-3631
▁专访	-3632
▁世间	-3633
▁东西	-3634
▁丝绸	-3635
▁两者	-3636
▁严寒	-3637
▁严峻	-3638
▁个大	-3639
▁个村	-3640
▁中南	-3641
▁中学	-3642
▁中山	-3643
▁丰收	-3644
▁临川	-3645
▁临时	-3646
▁为国	-3647
▁为止	-3648
▁主动	-3649
▁主题	-3650
▁举世	-3651
▁举办	-3652
▁义演	-3653
▁之两	-3654
▁之争	-3655
▁之处	-3656
▁之师	-3657
▁之急	-3658
▁之道	-3659
▁乌鲁	-3660
▁也不	-3661
▁也将	-3662
▁也是	-3663
▁也曾	-3664
▁也都	-3665
▁习惯	-3666
▁书的	-3667
▁买回	-3668
▁了与	-3669
▁了两	-3670
▁了产	-3671
▁了以	-3672
▁予以	-3673
▁争取	-3674
▁于用	-3675
▁互相	-3676
▁五十	-3677
▁五是	-3678
▁交响	-3679
▁亩地	-3680
▁亩的	-3681
▁享受	-3682
▁享誉	-3683
▁京城	-3684
▁京沪	-3685
▁亲手	-3686
▁人为	-3687
▁人和	-3688
▁人心	-3689
▁人才	-3690
▁人死	-3691
▁人车	-3692
▁人静	-3693
▁仅是	-3694
▁今后	-3695
▁仍有	-3696
▁他的	-3697
▁代奇	-3698
▁以至	-3699
▁们在	-3700
▁们都	-3701
▁份额	-3702
▁仿佛	-3703
▁伊斯	-3704
▁休眠	-3705
▁会晤	-3706
▁会的	-3707
▁会见	-3708
▁会长	-3709
▁传授	-3710
▁伴唱	-3711
▁似乎	-3712
▁但是	-3713
▁位老	-3714
▁低于	-3715
▁住在	-3716
▁何况	-3717
▁使其	-3718
▁使我	-3719
▁依然	-3720
▁依赖	-3721
▁侠骨	-3722
▁保卫	-3723
▁保留	-3724
▁修筑	-3725
▁健身	-3726
▁儿女	-3727
▁兄弟	-3728
▁充足	-3729
▁先后	-3730
▁先河	-3731
▁光彩	-3732
▁党报	-3733
▁全乡	-3734
▁全军	-3735
▁全局	-3736
▁全镇	-3737
▁全长	-3738
▁公共	-3739
▁公报	-3740
▁公正	-3741
▁公益	-3742
▁共有	-3743
▁兴县	-3744
▁兵器	-3745
▁典籍	-3746
▁养鱼	-3747
▁再现	-3748
▁冒着	-3749
▁写着	-3750
▁冬泳	-3751
▁冰雪	-3752
▁冲突	-3753
▁减轻	-3754
▁几天	-3755
▁分子	-3756
▁分成	-3757
▁分社	-3758
▁分类	-3759
▁分裂	-3760
▁分量	-3761
▁切入	-3762
▁划拨	-3763
▁刘志	-3764
▁则几	-3765
▁则多	-3766
▁创建	-3767
▁创新	-3768
▁创汇	-3769
▁利落	-3770
▁到自	-3771
▁前已	-3772
▁前程	-3773
▁办公	-3774
▁功夫	-3775
▁加以	-3776
▁加元	-3777
▁务必	-3778
▁动辄	-3779
▁势头	-3780
▁募捐	-3781
▁包袱	-3782
▁区的	-3783
▁十七	-3784
▁千锤	-3785
▁升旗	-3786
▁半年	-3787
▁半本	-3788
▁华夏	-3789
▁华安	-3790
▁南宁	-3791
▁南方	-3792
▁南省	-3793
▁占地	-3794
▁即使	-3795
▁原本	-3796
▁原来	-3797
▁县市	-3798
▁参展	-3799
▁参股	-3800
▁又有	-3801
▁双向	-3802
▁反党	-3803
▁反复	-3804
▁反腐	-3805
▁发放	-3806
▁发电	-3807
▁取代	-3808
▁取消	-3809
▁受益	-3810
▁变为	-3811
▁变得	-3812
▁古史	-3813
▁古城	-3814
▁叫我	-3815
▁可歌	-3816
▁号码	-3817
▁各以	-3818
▁各行	-3819
▁合唱	-3820
▁名著	-3821
▁呈现	-3822
▁周年	-3823
▁和公	-3824
▁和审	-3825
▁和水	-3826
▁和睦	-3827
▁和解	-3828
▁和那	-3829
▁咱们	-3830
▁品格	-3831
▁品的	-3832
▁品种	-3833
▁哈马	-3834
▁响应	-3835
▁四周	-3836
▁四家	-3837
▁四是	-3838
▁回忆	-3839
▁回荡	-3840
▁因地	-3841
▁因此	-3842
▁困扰	-3843
▁围绕	-3844
▁国春	-3845
▁图像	-3846
▁图谱	-3847
▁在各	-3848
▁在异	-3849
▁在那	-3850
▁地同	-3851
▁地图	-3852
▁地接	-3853
▁地缘	-3854
▁地说	-3855
▁坚信	-3856
▁坚守	-3857
▁坚韧	-3858
▁坪上	-3859
▁培育	-3860
▁培训	-3861
▁堵车	-3862
▁塑造	-3863
▁境界	-3864
▁增产	-3865
▁士学	-3866
▁处罚	-3867
▁备了	-3868
▁复苏	-3869
▁外国	-3870
▁外地	-3871
▁外来	-3872
▁多年	-3873
▁多样	-3874
▁多次	-3875
▁夜晚	-3876
▁大军	-3877
▁大国	-3878
▁大胆	-3879
▁大量	-3880
▁天上	-3881
▁天下	-3882
▁太行	-3883
▁太阳	-3884
▁失传	-3885
▁失衡	-3886
▁奉献	-3887
▁她那	-3888
▁好评	-3889
▁妹妹	-3890
▁姑妈	-3891
▁娱乐	-3892
▁媒体	-3893
▁子女	-3894
▁学会	-3895
▁学和	-3896
▁学校	-3897
▁学的	-3898
▁它们	-3899
▁宗旨	-3900
▁官员	-3901
▁定期	-3902
▁实况	-3903
▁审慎	-3904
▁审视	-3905
▁客商	-3906
▁客观	-3907
▁家与	-3908
▁家人	-3909
▁家园	-3910
▁家禽	-3911
▁宿舍	-3912
▁对一	-3913
▁将于	-3914
▁将在	-3915
▁将有	-3916
▁少量	-3917
▁就业	-3918
▁就能	-3919
▁局的	-3920
▁屏幕	-3921
▁展出	-3922
▁展开	-3923
▁展望	-3924
▁展现	-3925
▁展览	-3926
▁属下	-3927
▁山川	-3928
▁岗亭	-3929
▁工艺	-3930
▁工资	-3931
▁巨变	-3932
▁巨大	-3933
▁已是	-3934
▁已有	-3935
▁已达	-3936
▁巴黎	-3937
▁市的	-3938
▁带动	-3939
▁席卷	-3940
▁帮带	-3941
▁常委	-3942
▁幅度	-3943
▁干净	-3944
▁干脆	-3945
▁平凡	-3946
▁平原	-3947
▁平静	-3948
▁年仅	-3949
▁年代	-3950
▁并茂	-3951
▁广播	-3952
▁度的	-3953
▁庭院	-3954
▁建筑	-3955
▁建议	-3956
▁开那	-3957
▁引述	-3958
▁弥补	-3959
▁强劲	-3960
▁当选	-3961
▁彩色	-3962
▁影视	-3963
▁往事	-3964
▁待遇	-3965
▁很大	-3966
▁很快	-3967
▁很有	-3968
▁得好	-3969
▁微笑	-3970
▁德国	-3971
▁德的	-3972
▁必要	-3973
▁怀揣	-3974
▁怎么	-3975
▁思念	-3976
▁悟出	-3977
▁情地	-3978
▁惊喜	-3979
▁想见	-3980
▁想象	-3981
▁意见	-3982
▁戈比	-3983
▁成员	-3984
▁成群	-3985
▁成长	-3986
▁战友	-3987
▁战胜	-3988
▁手中	-3989
▁扎实	-3990
▁执行	-3991
▁找准	-3992
▁承贷	-3993
▁抓住	-3994
▁投产	-3995
▁报国	-3996
▁担任	-3997
▁拒绝	-3998
▁拥挤	-3999
▁挑选	-4000
▁换届	-4001
▁授权	-4002
▁探讨	-4003
▁描写	-4004
▁描绘	-4005
▁描述	-4006
▁揭示	-4007
▁援助	-4008
▁撤军	-4009
▁支付	-4010
▁支柱	-4011
▁收到	-4012
▁收取	-4013
▁收购	-4014
▁放水	-4015
▁放飞	-4016
▁效应	-4017
▁救灾	-4018
▁教授	-4019
▁敞开	-4020
▁数百	-4021
▁整体	-4022
▁整洁	-4023
▁整顿	-4024
▁文选	-4025
▁斐然	-4026
▁斑斓	-4027
▁斯特	-4028
▁新型	-4029
▁方向	-4030
▁方米	-4031
▁施特	-4032
▁无微	-4033
▁无数	-4034
▁日常	-4035
▁早在	-4036
▁早已	-4037
▁早期	-4038
▁旺盛	-4039
▁昆明	-4040
▁昌盛	-4041
▁明智	-4042
▁春天	-4043
▁春的	-4044
▁春节	-4045
▁昨天	-4046
▁是两	-4047
▁是应	-4048
▁景观	-4049
▁暖亮	-4050
▁暖湿	-4051
▁曲印	-4052
▁曲调	-4053
▁更新	-4054
▁更是	-4055
▁最为	-4056
▁最初	-4057
▁最早	-4058
▁月份	-4059
▁有不	-4060
▁有了	-4061
▁有奖	-4062
▁有对	-4063
▁有类	-4064
▁望台	-4065
▁未曾	-4066
▁本地	-4067
▁杂志	-4068
▁权益	-4069
▁李学	-4070
▁材料	-4071
▁村宅	-4072
▁村村	-4073
▁束缚	-4074
▁条小	-4075
▁来一	-4076
▁来临	-4077
▁来宾	-4078
▁杨子	-4079
▁极不	-4080
▁极大	-4081
▁林果	-4082
▁林皎	-4083
▁果不	-4084
▁架次	-4085
▁某些	-4086
▁查处	-4087
▁柳林	-4088
▁标语	-4089
▁桂林	-4090
▁桌边	-4091
▁桥本	-4092
▁检查	-4093
▁检阅	-4094
▁概念	-4095
▁概括	-4096
▁横吹	-4097
▁次的	-4098
▁欢快	-4099
▁欣慰	-4100
▁歌剧	-4101
▁歌舞	-4102
▁正点	-4103
▁正规	-4104
▁此间	-4105
▁步伐	-4106
▁步步	-4107
▁殃及	-4108
▁每人	-4109
▁每月	-4110
▁比额	-4111
▁毕竟	-4112
▁水浜	-4113
▁汽车	-4114
▁沉思	-4115
▁沉稳	-4116
▁沟通	-4117
▁治安	-4118
▁法制	-4119
▁法国	-4120
▁法律	-4121
▁注目	-4122
▁洁的	-4123
▁洋洲	-4124
▁流量	-4125
▁测量	-4126
▁浓郁	-4127
▁浩然	-4128
▁浩荡	-4129
▁浪潮	-4130
▁海南	-4131
▁海口	-4132
▁消灭	-4133
▁消防	-4134
▁消除	-4135
▁涉及	-4136
▁深化	-4137
▁清华	-4138
▁温宪	-4139
▁温馨	-4140
▁港澳	-4141
▁游客	-4142
▁满载	-4143
▁火烧	-4144
▁炸伤	-4145
▁点和	-4146
▁点评	-4147
▁烂漫	-4148
▁烈斯	-4149
▁热闹	-4150
▁照耀	-4151
▁爱的	-4152
▁牵头	-4153
▁特大	-4154
▁特技	-4155
▁独具	-4156
▁献给	-4157
▁献身	-4158
▁献辞	-4159
▁现有	-4160
▁珍惜	-4161
▁理事	-4162
▁甚少	-4163
▁生前	-4164
▁生长	-4165
▁用不	-4166
▁田野	-4167
▁电力	-4168
▁画面	-4169
▁瘫痪	-4170
▁登山	-4171
▁的中	-4172
▁的体	-4173
▁的依	-4174
▁的信	-4175
▁的兵	-4176
▁的准	-4177
▁的前	-4178
▁的北	-4179
▁的名	-4180
▁的命	-4181
▁的图	-4182
▁的巨	-4183
▁的年	-4184
▁的总	-4185
▁的手	-4186
▁的指	-4187
▁的提	-4188
▁的本	-4189
▁的松	-4190
▁的火	-4191
▁的版	-4192
▁的生	-4193
▁的窗	-4194
▁的纯	-4195
▁的老	-4196
▁的良	-4197
▁的论	-4198
▁的起	-4199
▁的遗	-4200
▁的金	-4201
▁的风	-4202
▁目睹	-4203
▁相互	-4204
▁省委	-4205
▁省市	-4206
▁省长	-4207
▁看护	-4208
▁真丝	-4209
▁真实	-4210
▁真的	-4211
▁眼光	-4212
▁着三	-4213
▁睦邻	-4214
▁短期	-4215
▁社论	-4216
▁祝你	-4217
▁祝辞	-4218
▁神话	-4219
▁离石	-4220
▁种田	-4221
▁科教	-4222
▁秧歌	-4223
▁积累	-4224
▁称谓	-4225
▁稳步	-4226
▁空中	-4227
▁空域	-4228
▁突出	-4229
▁立即	-4230
▁笔触	-4231
▁等的	-4232
▁精致	-4233
▁纺织	-4234
▁终极	-4235
▁维修	-4236
▁绵绵	-4237
▁绿化	-4238
▁缅怀	-4239
▁编者	-4240
▁编著	-4241
▁编辑	-4242
▁编选	-4243
▁缤纷	-4244
▁缩小	-4245
▁缺乏	-4246
▁罕见	-4247
▁美丽	-4248
▁美元	-4249
▁美好	-4250
▁美学	-4251
▁羽毛	-4252
▁老板	-4253
▁而上	-4254
▁而无	-4255
▁而有	-4256
▁耕耘	-4257
▁聪明	-4258
▁肯定	-4259
▁背着	-4260
▁能从	-4261
▁脚下	-4262
▁脱了	-4263
▁自由	-4264
▁舆论	-4265
▁航线	-4266
▁般的	-4267
▁良好	-4268
▁良性	-4269
▁良田	-4270
▁良知	-4271
▁色彩	-4272
▁花生	-4273
▁萝卜	-4274
▁董事	-4275
▁藏族	-4276
▁街头	-4277
▁补助	-4278
▁表妹	-4279
▁表明	-4280
▁装帧	-4281
▁西亚	-4282
▁要比	-4283
▁观光	-4284
▁观察	-4285
▁观看	-4286
▁觉得	-4287
▁誓词	-4288
▁警方	-4289
▁计生	-4290
▁训练	-4291
▁记忆	-4292
▁记载	-4293
▁记述	-4294
▁讲究	-4295
▁讲解	-4296
▁详细	-4297
▁语言	-4298
▁说是	-4299
▁诸多	-4300
▁读书	-4301
▁调动	-4302
▁谋士	-4303
▁谱写	-4304
▁豫剧	-4305
▁负担	-4306
▁贫富	-4307
▁购买	-4308
▁贯穿	-4309
▁贵州	-4310
▁资本	-4311
▁赠送	-4312
▁趋向	-4313
▁路段	-4314
▁身世	-4315
▁身体	-4316
▁车道	-4317
▁转化	-4318
▁轻度	-4319
▁运动	-4320
▁运行	-4321
▁近百	-4322
▁还会	-4323
▁还要	-4324
▁这份	-4325
▁这套	-4326
▁这篇	-4327
▁进取	-4328
▁连年	-4329
▁送去	-4330
▁造出	-4331
▁造成	-4332
▁道理	-4333
▁那个	-4334
▁邻里	-4335
▁配置	-4336
▁重建	-4337
▁重的	-4338
▁金色	-4339
▁针对	-4340
▁钞票	-4341
▁钟楼	-4342
▁钢架	-4343
▁银川	-4344
▁锦绣	-4345
▁长远	-4346
▁门口	-4347
▁阶级	-4348
▁阿姨	-4349
▁陆机	-4350
▁陈天	-4351
▁降低	-4352
▁除了	-4353
▁随处	-4354
▁随意	-4355
▁雅俗	-4356
▁雪域	-4357
▁雷达	-4358
▁震撼	-4359
▁露脸	-4360
▁青联	-4361
▁非法	-4362
▁靠着	-4363
▁面世	-4364
▁面额	-4365
▁预报	-4366
▁领土	-4367
▁领略	-4368
▁频频	-4369
▁风格	-4370
▁风气	-4371
▁饲料	-4372
▁首相	-4373
▁驻阿	-4374
▁驾车	-4375
▁骄傲	-4376
▁高奏	-4377
▁高挂	-4378
▁高潮	-4379
▁鬼神	-4380
▁鲜明	-4381
▁鲜菜	-4382
之以恒	-4383
交管局	-4384
桑比克	-4385
过难关	-4386
▁197	-4387
▁972	-4388
▁一体化	-4389
▁一系列	-4390
▁不必贪	-4391
▁为前提	-4392
▁依多金	-4393
▁克林顿	-4394
▁凯旋门	-4395
▁刘步飞	-4396
▁到处是	-4397
▁加拿大	-4398
▁卡比拉	-4399
▁县长韩	-4400
▁周一期	-4401
▁塔克拉	-4402
▁塔里木	-4403
▁增添了	-4404
▁大运河	-4405
▁夫斯基	-4406
▁奥地利	-4407
▁孩子们	-4408
▁小伙子	-4409
▁尤其是	-4410
▁局局长	-4411
▁山西省	-4412
▁希萨诺	-4413
▁年轻的	-4414
▁彭珮云	-4415
▁徐义昭	-4416
▁徐悲鸿	-4417
▁心协力	-4418
▁总工会	-4419
▁批评家	-4420
▁找上门	-4421
▁指战员	-4422
▁摄氏度	-4423
▁曾多次	-4424
▁机长张	-4425
▁李瑞环	-4426
▁汪道涵	-4427
▁沧海横	-4428
▁河北省	-4429
▁深深地	-4430
▁湖州市	-4431
▁烈军属	-4432
▁爱好者	-4433
▁田庄乡	-4434
▁由衷地	-4435
▁男女老	-4436
▁画雄鹰	-4437
▁病防治	-4438
▁的剖析	-4439
▁的桥梁	-4440
▁的立场	-4441
▁的赞誉	-4442
▁约旦河	-4443
▁罗宾逊	-4444
▁肩负着	-4445
▁胡彩玲	-4446
▁茶话会	-4447
▁表达了	-4448
▁被评为	-4449
▁贺年卡	-4450
▁贾建舟	-4451
▁越来越	-4452
▁迟浩田	-4453
▁迟迟不	-4454
▁里窥视	-4455
▁金泳三	-4456
▁马尼拉	-4457
▁高丽生	-4458
▁乌鲁木齐	-4459
▁人车分流	-4460
▁伊斯兰堡	-4461
▁党报党刊	-4462
▁千锤百炼	-4463
▁半本是她	-4464
▁双向传送	-4465
▁可歌可泣	-4466
▁因地制宜	-4467
▁山西画院	-4468
▁市交管局	-4469
▁持之以恒	-4470
▁施特劳斯	-4471
▁暖湿气流	-4472
▁欢聚一堂	-4473
▁渡过难关	-4474
▁背土造田	-4475
▁良性循环	-4476
▁莫桑比克	-4477
▁董建华等	-4478
▁随处可见	-4479
▁驻阿联酋	-4480
▁一九九七年	-4481
▁塔克拉玛干	-4482
▁机长张启彬	-4483
▁菠	-4484
▁葫	-4485
▁蒂	-4486
▁蔚	-4487
▁蕾	-4488
▁薛	-4489
▁袖	-4490
▁裕	-4491
▁裹	-4492
▁讨	-4493
▁译	-4494
▁误	-4495
▁诺	-4496
▁谷	-4497
▁豁	-4498
▁豪	-4499
▁索	-4500
▁紫	-4501
▁纬	-4502
▁绑	-4503
▁续	-4504
▁绳	-4505
▁翠	-4506
▁肤	-4507
▁肥	-4508
▁肿	-4509
▁腊	-4510
▁膏	-4511
▁臂	-4512
▁臾	-4513
▁芍	-4514
▁芝	-4515
▁芭	-4516
▁芳	-4517
▁苹	-4518
▁茅	-4519
▁茫	-4520
▁莅	-4521
▁莎	-4522
▁贞	-4523
▁贬	-4524
▁赋	-4525
▁赐	-4526
▁赖	-4527
▁赡	-4528
▁赫	-4529
▁赭	-4530
▁跋	-4531
▁跷	-4532
▁躺	-4533
▁辅	-4534
▁迄	-4535
▁迭	-4536
▁遏	-4537
▁遒	-4538
▁遮	-4539
▁邱	-4540
▁邵	-4541
▁邹	-4542
▁郊	-4543
▁鉴	-4544
▁钦	-4545
▁钩	-4546
▁链	-4547
▁锁	-4548
▁错	-4549
▁锲	-4550
▁镜	-4551
▁镶	-4552
▁阂	-4553
▁阑	-4554
▁霜	-4555
▁霸	-4556
▁颂	-4557
▁颖	-4558
▁骑	-4559
▁魅	-4560
▁鲍	-4561
▁鲶	-4562
▁鸢	-4563
▁麦	-4564
▁麻	-4565
▁黔	-4566
▁龄	-4567
一秒	-4568
上级	-4569
丝笼	-4570
中调	-4571
乱差	-4572
于没	-4573
些年	-4574
亩产	-4575
付钱	-4576
凶杀	-4577
到肉	-4578
前跑	-4579
区办	-4580
双民	-4581
古稀	-4582
和柏	-4583
团团	-4584
围住	-4585
国琦	-4586
地注	-4587
大法	-4588
子劲	-4589
安街	-4590
实可	-4591
局管	-4592
展翼	-4593
巴嫩	-4594
布扎	-4595
布赫	-4596
年货	-4597
建谁	-4598
开朗	-4599
▁煌	-4600
▁燕	-4601
▁爪	-4602
▁牢	-4603
▁犯	-4604
▁玲	-4605
▁甲	-4606
▁略	-4607
▁症	-4608
▁盎	-4609
▁盲	-4610
▁眷	-4611
▁砍	-4612
▁移	-4613
▁稻	-4614
▁窘	-4615
▁粒	-4616
▁粪	-4617
▁萧	-4618
▁谭	-4619
▁锻	-4620
▁闹	-4621
举副	-4622
作物	-4623
儿子	-4624
具抱	-4625
力抓	-4626
合悲	-4627
吹箫	-4628
垃圾	-4629
墨耘	-4630
太人	-4631
始皇	-4632
子竖	-4633
定居	-4634
寻隐	-4635
希涅	-4636
张振	-4637
彩的	-4638
往开	-4639
心劲	-4640
念和	-4641
手缩	-4642
拘留	-4643
挂着	-4644
政总	-4645
文崔	-4646
新李	-4647
普托	-4648
林嵩	-4649
果送	-4650
欢度	-4651
欲试	-4652
死回	-4653
毛绒	-4654
水哄	-4655
永泉	-4656
永黄	-4657
沙汀	-4658
清香	-4659
港赶	-4660
澄澄	-4661
激情	-4662
熔一	-4663
牺牲	-4664
珊瑚	-4665
界顿	-4666
的聚	-4667
的芹	-4668
的谢	-4669
皆灵	-4670
着寒	-4671
砚田	-4672
碰硬	-4673
磋商	-4674
稍逊	-4675
笋岗	-4676
类旁	-4677
精微	-4678
纠纷	-4679
终令	-4680
继鸿	-4681
肉色	-4682
能传	-4683
范硕	-4684
茵茵	-4685
荒赢	-4686
落和	-4687
虬曲	-4688
蜜罐	-4689
行长	-4690
要叫	-4691
观火	-4692
计纷	-4693
论点	-4694
读由	-4695
近住	-4696
进嘴	-4697
遵循	-4698
郭凯	-4699
▁歼	-4700
▁殊	-4701
▁残	-4702
▁殖	-4703
▁氛	-4704
▁氢	-4705
▁汝	-4706
▁沪	-4707
▁沾	-4708
▁泣	-4709
▁泥	-4710
▁泳	-4711
▁津	-4712
▁洼	-4713
▁浸	-4714
▁涂	-4715
▁涣	-4716
▁涪	-4717
▁涯	-4718
▁淌	-4719
▁湾	-4720
▁溜	-4721
▁溧	-4722
▁滥	-4723
▁澈	-4724
▁箫	-4725
乐园	-4726
于纸	-4727
人郭	-4728
俨然	-4729
入隶	-4730
县柘	-4731
同恺	-4732
商厦	-4733
国耻	-4734
土芳	-4735
大桥	-4736
奖励	-4737
更浪	-4738
机呈	-4739
江畔	-4740
污染	-4741
渤海	-4742
温暖	-4743
炽热	-4744
王萍	-4745
的池	-4746
种洼	-4747
简引	-4748
而锐	-4749
西戎	-4750
质朴	-4751
跃的	-4752
郭沫	-4753
问候	-4754
颇丰	-4755
风骚	-4756
马去	-4757
高频	-4758
鸟画	-4759
▁.7	-4760
▁02	-4761
▁28	-4762
▁42	-4763
▁44	-4764
▁52	-4765
▁74	-4766
▁85	-4767
▁95	-4768
▁‘0	-4769
▁”!	-4770
▁”(	-4771
▁”;	-4772
▁、1	-4773
▁、5	-4774
▁』,	-4775
▁一举	-4776
▁一二	-4777
▁一度	-4778
▁一张	-4779
▁一提	-4780
▁一是	-4781
▁一点	-4782
▁一群	-4783
▁一边	-4784
▁一部	-4785
▁一面	-4786
▁一颗	-4787
▁一首	-4788
▁丁关	-4789
▁万万	-4790
▁万千	-4791
▁万国	-4792
▁万平	-4793
▁万象	-4794
▁万里	-4795
▁三峡	-4796
▁上对	-4797
▁上投	-4798
▁上百	-4799
▁拦	-4800
▁择	-4801
▁拮	-4802
▁拼	-4803
▁挚	-4804
▁挥	-4805
▁挨	-4806
▁捷	-4807
▁掩	-4808
▁搬	-4809
▁摸	-4810
▁攀	-4811
▁斡	-4812
▁旁	-4813
▁旦	-4814
▁晋	-4815
▁晤	-4816
▁晨	-4817
▁暗	-4818
▁曼	-4819
▁朵	-4820
▁朽	-4821
▁杆	-4822
▁析	-4823
▁栏	-4824
▁桃	-4825
▁桑	-4826
▁械	-4827
▁榫	-4828
▁樊	-4829
▁涝	-4830
到天	-4831
到手	-4832
却万	-4833
及它	-4834
史哲	-4835
哈顿	-4836
在朝	-4837
地操	-4838
如钧	-4839
尔夫	-4840
尖锐	-4841
山雕	-4842
岛遥	-4843
州西	-4844
引下	-4845
得水	-4846
捉座	-4847
掏腰	-4848
撷拾	-4849
斯科	-4850
曲径	-4851
朗氏	-4852
水泥	-4853
永毅	-4854
油马	-4855
现雏	-4856
的鬼	-4857
聚焦	-4858
衣捐	-4859
读硕	-4860
▁下了	-4861
▁下到	-4862
▁下大	-4863
▁不就	-4864
▁不应	-4865
▁不得	-4866
▁不敢	-4867
▁不舍	-4868
▁与夸	-4869
▁专致	-4870
▁且摆	-4871
▁业于	-4872
▁丝万	-4873
▁丝毫	-4874
▁两地	-4875
▁两次	-4876
▁中一	-4877
▁中共	-4878
▁中又	-4879
▁中外	-4880
▁中最	-4881
▁中期	-4882
▁临近	-4883
▁为世	-4884
▁为何	-4885
▁为民	-4886
▁丽堂	-4887
▁丽的	-4888
▁丽风	-4889
▁乃至	-4890
▁之作	-4891
▁之声	-4892
▁之外	-4893
▁乐声	-4894
▁九届	-4895
▁九年	-4896
▁也可	-4897
▁也正	-4898
▁也没	-4899
▁崖	-4900
▁巡	-4901
▁己	-4902
▁帽	-4903
▁庙	-4904
▁廉	-4905
▁弗	-4906
▁弟	-4907
▁弹	-4908
▁彦	-4909
▁忍	-4910
▁忽	-4911
▁怨	-4912
▁恐	-4913
▁恨	-4914
▁悄	-4915
▁悬	-4916
▁惬	-4917
▁戴	-4918
▁扇	-4919
▁扑	-4920
▁扭	-4921
▁折	-4922
▁抛	-4923
▁抠	-4924
▁抽	-4925
▁拆	-4926
▁拓	-4927
▁拙	-4928
▁拟	-4929
▁拢	-4930
▁晓	-4931
▁汾	-4932
▁狱	-4933
▁粹	-4934
▁肃	-4935
▁闭	-4936
一页	-4937
乾坤	-4938
于一	-4939
出谋	-4940
分配	-4941
发运	-4942
同道	-4943
图右	-4944
天地	-4945
妙地	-4946
实无	-4947
家门	-4948
屋后	-4949
岚清	-4950
巾帕	-4951
帙浩	-4952
建荣	-4953
待会	-4954
态可	-4955
怜恤	-4956
惶惶	-4957
慷慨	-4958
扶疏	-4959
收她	-4960
数的	-4961
无悔	-4962
格套	-4963
爱兰	-4964
白血	-4965
相映	-4966
红挂	-4967
被子	-4968
趋缓	-4969
过了	-4970
雨夹	-4971
▁34	-4972
▁》(	-4973
▁之类	-4974
▁乡的	-4975
▁买一	-4976
▁买提	-4977
▁乱超	-4978
▁了上	-4979
▁了全	-4980
▁二等	-4981
▁二重	-4982
▁于以	-4983
▁于历	-4984
▁于本	-4985
▁云龙	-4986
▁些人	-4987
▁亡的	-4988
▁交谈	-4989
▁京西	-4990
▁亮白	-4991
▁亲自	-4992
▁人不	-4993
▁人人	-4994
▁人无	-4995
▁人还	-4996
▁今为	-4997
▁今晚	-4998
▁仍为	-4999
▁坝	-5000
▁垂	-5001
▁垄	-5002
▁垠	-5003
▁埃	-5004
▁埔	-5005
▁域	-5006
▁堤	-5007
▁奴	-5008
▁姓	-5009
▁娇	-5010
▁娓	-5011
▁媚	-5012
▁孚	-5013
▁孝	-5014
▁寨	-5015
▁尖	-5016
▁尘	-5017
▁屈	-5018
▁岂	-5019
▁岭	-5020
▁峻	-5021
▁恋	-5022
▁浦	-5023
▁淳	-5024
▁鞋	-5025
不染	-5026
举棋	-5027
之余	-5028
乡冯	-5029
以画	-5030
其峰	-5031
养和	-5032
冷的	-5033
却鸣	-5034
告诉	-5035
大箴	-5036
姻缘	-5037
宏图	-5038
宝田	-5039
家骅	-5040
少儿	-5041
层次	-5042
屡屡	-5043
市貌	-5044
意浓	-5045
才名	-5046
提琴	-5047
村貌	-5048
死鱼	-5049
民告	-5050
热土	-5051
的善	-5052
的壮	-5053
称为	-5054
西晋	-5055
视学	-5056
贫瘠	-5057
贺卡	-5058
重逢	-5059
量引	-5060
金刚	-5061
问暖	-5062
院高	-5063
面题	-5064
▁从长	-5065
▁代中	-5066
▁以不	-5067
▁以减	-5068
▁以继	-5069
▁们便	-5070
▁们向	-5071
▁们就	-5072
▁任何	-5073
▁份月	-5074
▁伊兹	-5075
▁会有	-5076
▁传来	-5077
▁低了	-5078
▁低息	-5079
▁体地	-5080
▁体的	-5081
▁体育	-5082
▁作业	-5083
▁佩饰	-5084
▁依次	-5085
▁依法	-5086
▁侧台	-5087
▁侧目	-5088
▁保深	-5089
▁信念	-5090
▁修梯	-5091
▁倒不	-5092
▁倡廉	-5093
▁做出	-5094
▁停车	-5095
▁催人	-5096
▁像黄	-5097
▁光明	-5098
▁入冬	-5099
▁剥	-5100
▁剪	-5101
▁割	-5102
▁劈	-5103
▁勘	-5104
▁勾	-5105
▁匆	-5106
▁厉	-5107
▁厌	-5108
▁吟	-5109
▁呕	-5110
▁咨	-5111
▁哪	-5112
▁唐	-5113
▁喻	-5114
▁嘎	-5115
▁嘱	-5116
▁嘹	-5117
▁坎	-5118
▁幽	-5119
▁汤	-5120
▁蹈	-5121
一堑	-5122
个鲜	-5123
京途	-5124
仅九	-5125
勉励	-5126
厦门	-5127
去翻	-5128
叩击	-5129
和周	-5130
在必	-5131
奖四	-5132
宗教	-5133
年华	-5134
我就	-5135
殷墟	-5136
洁地	-5137
洋葱	-5138
独套	-5139
班迪	-5140
的砖	-5141
着冒	-5142
被毁	-5143
论语	-5144
越岭	-5145
身探	-5146
车顶	-5147
里长	-5148
闸门	-5149
陵墓	-5150
鲁番	-5151
鼓浪	-5152
▁上任	-5153
▁上加	-5154
▁仅为	-5155
▁住址	-5156
▁佳肴	-5157
▁全书	-5158
▁全力	-5159
▁全程	-5160
▁兴国	-5161
▁兴致	-5162
▁兵法	-5163
▁其精	-5164
▁具体	-5165
▁兼具	-5166
▁兼备	-5167
▁内将	-5168
▁冒雨	-5169
▁写上	-5170
▁写照	-5171
▁军功	-5172
▁军区	-5173
▁冰雕	-5174
▁冷雪	-5175
▁净的	-5176
▁几位	-5177
▁几滴	-5178
▁出乎	-5179
▁刊发	-5180
▁刘华	-5181
▁刘心	-5182
▁刘盛	-5183
▁创利	-5184
▁创办	-5185
▁利于	-5186
▁别看	-5187
▁到南	-5188
▁到新	-5189
▁到来	-5190
▁到的	-5191
▁到阿	-5192
▁制定	-5193
▁制裁	-5194
▁前一	-5195
▁前在	-5196
▁前夜	-5197
▁剧院	-5198
▁剪纸	-5199
▁丈	-5200
▁么	-5201
▁乘	-5202
▁乾	-5203
▁亏	-5204
▁仔	-5205
▁伍	-5206
▁伦	-5207
▁估	-5208
▁佐	-5209
▁俗	-5210
▁俱	-5211
▁倔	-5212
▁倪	-5213
▁僵	-5214
▁儒	-5215
▁凤	-5216
▁凸	-5217
▁判	-5218
▁嘘	-5219
▁帅	-5220
▁弯	-5221
▁陟	-5222
上到	-5223
下了	-5224
他年	-5225
俯贻	-5226
削减	-5227
卫县	-5228
命感	-5229
宣新	-5230
工践	-5231
志福	-5232
拉克	-5233
朝瑞	-5234
永波	-5235
火台	-5236
禁止	-5237
绍祖	-5238
者师	-5239
荆轲	-5240
藏医	-5241
覆辙	-5242
许齐	-5243
费孝	-5244
运地	-5245
▁一道	-5246
▁万名	-5247
▁丈夫	-5248
▁么高	-5249
▁俗人	-5250
▁俯贻	-5251
▁僵硬	-5252
▁儒庭	-5253
▁冬的	-5254
▁削减	-5255
▁力度	-5256
▁力的	-5257
▁办了	-5258
▁加上	-5259
▁加入	-5260
▁加剧	-5261
▁加各	-5262
▁加重	-5263
▁务员	-5264
▁动地	-5265
▁劲的	-5266
▁劳斯	-5267
▁势下	-5268
▁勉励	-5269
▁勋努	-5270
▁匆匆	-5271
▁十部	-5272
▁千五	-5273
▁半部	-5274
▁华北	-5275
▁南的	-5276
▁卡拉	-5277
▁卡车	-5278
▁印刷	-5279
▁印经	-5280
▁印象	-5281
▁历时	-5282
▁历经	-5283
▁厌倦	-5284
▁厚重	-5285
▁去了	-5286
▁去全	-5287
▁县乡	-5288
▁县有	-5289
▁参考	-5290
▁参观	-5291
▁又是	-5292
▁又给	-5293
▁双边	-5294
▁发动	-5295
▁发言	-5296
▁受损	-5297
▁另发	-5298
▁叩击	-5299
▁卿	-5300
▁塞	-5301
▁幼	-5302
▁废	-5303
▁抒	-5304
▁朴	-5305
▁栓	-5306
▁森	-5307
▁浑	-5308
▁秤	-5309
▁詹	-5310
▁讴	-5311
▁郭	-5312
▁鳜	-5313
否则	-5314
害的	-5315
层互	-5316
引水	-5317
德浩	-5318
掬的	-5319
攥满	-5320
旅客	-5321
曾庆	-5322
梅飘	-5323
苗再	-5324
记忆	-5325
读后	-5326
边好	-5327
迪凯	-5328
▁5、	-5329
▁不上	-5330
▁不想	-5331
▁两位	-5332
▁个个	-5333
▁为每	-5334
▁之后	-5335
▁交往	-5336
▁何鲁	-5337
▁出资	-5338
▁区在	-5339
▁半价	-5340
▁只身	-5341
▁可从	-5342
▁可先	-5343
▁可归	-5344
▁可观	-5345
▁台和	-5346
▁史上	-5347
▁史书	-5348
▁史大	-5349
▁叶利	-5350
▁各方	-5351
▁合同	-5352
▁合拍	-5353
▁同学	-5354
▁同心	-5355
▁同赏	-5356
▁向前	-5357
▁向各	-5358
▁吟到	-5359
▁吴忠	-5360
▁呕心	-5361
▁员罗	-5362
▁周六	-5363
▁呼声	-5364
▁命令	-5365
▁和两	-5366
▁和农	-5367
▁和恶	-5368
▁和民	-5369
▁和气	-5370
▁哈蒂	-5371
▁唐维	-5372
▁喜欢	-5373
▁喜爱	-5374
▁喜讯	-5375
▁喝彩	-5376
▁四海	-5377
▁回首	-5378
▁国会	-5379
▁国学	-5380
▁国应	-5381
▁国道	-5382
▁在不	-5383
▁在他	-5384
▁在其	-5385
▁在几	-5386
▁在同	-5387
▁在哪	-5388
▁在外	-5389
▁在大	-5390
▁在自	-5391
▁在谈	-5392
▁地处	-5393
▁地平	-5394
▁坐到	-5395
▁坐在	-5396
▁坚毅	-5397
▁坡陡	-5398
▁垄断	-5399
▁偷	-5400
▁冶	-5401
▁坦	-5402
▁够	-5403
▁愫	-5404
▁抄	-5405
▁滩	-5406
▁竣	-5407
▁舒	-5408
▁茨	-5409
▁萌	-5410
两次	-5411
乐团	-5412
乐极	-5413
全长	-5414
奥迪	-5415
溪流	-5416
薄雾	-5417
表述	-5418
里插	-5419
锣鼓	-5420
▁、2	-5421
▁三千	-5422
▁上市	-5423
▁下有	-5424
▁中标	-5425
▁串鞭	-5426
▁也有	-5427
▁了几	-5428
▁交接	-5429
▁付出	-5430
▁会副	-5431
▁关的	-5432
▁制的	-5433
▁勘探	-5434
▁后人	-5435
▁周锡	-5436
▁垫支	-5437
▁埃及	-5438
▁堂收	-5439
▁堆群	-5440
▁堪忧	-5441
▁塘里	-5442
▁塞夫	-5443
▁增大	-5444
▁士兵	-5445
▁壮歌	-5446
▁处可	-5447
▁处在	-5448
▁夏季	-5449
▁夏秋	-5450
▁外债	-5451
▁外部	-5452
▁大众	-5453
▁大力	-5454
▁大厦	-5455
▁大小	-5456
▁大山	-5457
▁大有	-5458
▁大都	-5459
▁太郎	-5460
▁夺取	-5461
▁奋力	-5462
▁奋勇	-5463
▁奔赴	-5464
▁奠定	-5465
▁奥妙	-5466
▁如愿	-5467
▁妨碍	-5468
▁委会	-5469
▁姻缘	-5470
▁威胁	-5471
▁娃小	-5472
▁娓娓	-5473
▁子和	-5474
▁孤残	-5475
▁孤独	-5476
▁官邸	-5477
▁定会	-5478
▁定要	-5479
▁实意	-5480
▁实践	-5481
▁宪梓	-5482
▁家和	-5483
▁容忽	-5484
▁容量	-5485
▁宾朋	-5486
▁宾馆	-5487
▁寄寓	-5488
▁寄的	-5489
▁密而	-5490
▁寒峭	-5491
▁寒爱	-5492
▁寒风	-5493
▁寨沟	-5494
▁对联	-5495
▁将一	-5496
▁将来	-5497
▁将这	-5498
▁尊重	-5499
▁伙	-5500
▁叔	-5501
▁哩	-5502
▁嘴	-5503
▁射	-5504
▁术	-5505
▁泄	-5506
▁疏	-5507
▁盖	-5508
▁稚	-5509
▁衔	-5510
▁跟	-5511
▁韦	-5512
▁鲤	-5513
以为	-5514
俘获	-5515
先亡	-5516
千斤	-5517
基会	-5518
大纲	-5519
子你	-5520
挫伤	-5521
白了	-5522
白虎	-5523
苋菜	-5524
▁9.	-5525
▁下来	-5526
▁下车	-5527
▁不尽	-5528
▁不过	-5529
▁业将	-5530
▁为全	-5531
▁九九	-5532
▁乳透	-5533
▁了区	-5534
▁事迹	-5535
▁人能	-5536
▁以后	-5537
▁体现	-5538
▁倾听	-5539
▁全厂	-5540
▁准确	-5541
▁剩余	-5542
▁商业	-5543
▁在原	-5544
▁地写	-5545
▁坚实	-5546
▁增强	-5547
▁子教	-5548
▁孚凌	-5549
▁小小	-5550
▁小时	-5551
▁小觑	-5552
▁少的	-5553
▁尚未	-5554
▁就会	-5555
▁就曾	-5556
▁就要	-5557
▁尺寸	-5558
▁局限	-5559
▁层大	-5560
▁层次	-5561
▁屈服	-5562
▁屋内	-5563
▁属于	-5564
▁属的	-5565
▁屡屡	-5566
▁山间	-5567
▁岗刘	-5568
▁巡游	-5569
▁巨额	-5570
▁差距	-5571
▁已初	-5572
▁巾帕	-5573
▁市里	-5574
▁帷幄	-5575
▁常务	-5576
▁干道	-5577
▁年一	-5578
▁年历	-5579
▁年后	-5580
▁年无	-5581
▁年都	-5582
▁并非	-5583
▁幸福	-5584
▁广生	-5585
▁庄乡	-5586
▁应由	-5587
▁底子	-5588
▁度上	-5589
▁座谈	-5590
▁康生	-5591
▁建新	-5592
▁建起	-5593
▁建造	-5594
▁开通	-5595
▁式在	-5596
▁引水	-5597
▁引进	-5598
▁弗纶	-5599
▁傍	-5600
▁券	-5601
▁器	-5602
▁崛	-5603
▁掘	-5604
▁沂	-5605
▁澎	-5606
▁瑰	-5607
▁畔	-5608
▁瞒	-5609
▁穆	-5610
▁缴	-5611
▁耶	-5612
▁赁	-5613
▁踢	-5614
▁辆	-5615
力于	-5616
协与	-5617
地唱	-5618
如烟	-5619
姜跌	-5620
将相	-5621
山伯	-5622
左右	-5623
恩仇	-5624
方米	-5625
比宁	-5626
浩瀚	-5627
游鱼	-5628
熊熊	-5629
移默	-5630
突击	-5631
远眺	-5632
那瓜	-5633
▁一天	-5634
▁不但	-5635
▁不时	-5636
▁中每	-5637
▁亿人	-5638
▁们是	-5639
▁件大	-5640
▁倘佯	-5641
▁别国	-5642
▁南北	-5643
▁口的	-5644
▁地面	-5645
▁基层	-5646
▁姜跌	-5647
▁平的	-5648
▁底谷	-5649
▁张亮	-5650
▁张彦	-5651
▁张震	-5652
▁弹击	-5653
▁强的	-5654
▁当年	-5655
▁当然	-5656
▁形态	-5657
▁彻底	-5658
▁往里	-5659
▁很不	-5660
▁很小	-5661
▁徐俊	-5662
▁得以	-5663
▁得几	-5664
▁循环	-5665
▁心事	-5666
▁心地	-5667
▁忧虑	-5668
▁快乐	-5669
▁念与	-5670
▁怜恤	-5671
▁总是	-5672
▁恰逢	-5673
▁悠久	-5674
▁患了	-5675
▁悲鸿	-5676
▁情与	-5677
▁情却	-5678
▁惊心	-5679
▁意和	-5680
▁感召	-5681
▁感和	-5682
▁感慨	-5683
▁感觉	-5684
▁愿望	-5685
▁慷慨	-5686
▁懈怠	-5687
▁成熟	-5688
▁我一	-5689
▁我为	-5690
▁我军	-5691
▁我看	-5692
▁我还	-5693
▁战线	-5694
▁战车	-5695
▁所属	-5696
▁所能	-5697
▁手张	-5698
▁手抓	-5699
:『	-5700
▁仪	-5701
▁劼	-5702
▁叱	-5703
▁寓	-5704
▁惨	-5705
▁捍	-5706
▁捧	-5707
▁皮	-5708
▁篓	-5709
▁裁	-5710
▁谦	-5711
▁阔	-5712
占全	-5713
外泄	-5714
大渡	-5715
家宝	-5716
庆林	-5717
氤氲	-5718
泪满	-5719
淡淡	-5720
熟悉	-5721
留念	-5722
茫草	-5723
视着	-5724
谢碑	-5725
顺应	-5726
▁上空	-5727
▁不为	-5728
▁中还	-5729
▁事的	-5730
▁仍将	-5731
▁优化	-5732
▁余件	-5733
▁依据	-5734
▁八个	-5735
▁共计	-5736
▁其实	-5737
▁出一	-5738
▁出自	-5739
▁刘云	-5740
▁利地	-5741
▁到十	-5742
▁区大	-5743
▁医务	-5744
▁千里	-5745
▁叱咤	-5746
▁和鼓	-5747
▁外出	-5748
▁外的	-5749
▁大明	-5750
▁孤本	-5751
▁已在	-5752
▁当前	-5753
▁很好	-5754
▁得不	-5755
▁忘朴	-5756
▁怀抱	-5757
▁愿和	-5758
▁或者	-5759
▁才是	-5760
▁才智	-5761
▁才有	-5762
▁打开	-5763
▁执拗	-5764
▁执棒	-5765
▁执法	-5766
▁承前	-5767
▁抒发	-5768
▁抓不	-5769
▁抓好	-5770
▁投诉	-5771
▁抛弃	-5772
▁护卫	-5773
▁报以	-5774
▁报社	-5775
▁抵达	-5776
▁拖欠	-5777
▁拘泥	-5778
▁拙见	-5779
▁拢嘴	-5780
▁拱棚	-5781
▁拿起	-5782
▁持久	-5783
▁挥洒	-5784
▁捉座	-5785
▁捍卫	-5786
▁损害	-5787
▁掌声	-5788
▁掏腰	-5789
▁排上	-5790
▁排放	-5791
▁接待	-5792
▁接过	-5793
▁推开	-5794
▁握手	-5795
▁搬迁	-5796
▁摘掉	-5797
▁摘登	-5798
▁摧残	-5799
19	-5800
▁乏	-5801
▁凌	-5802
▁凭	-5803
▁匠	-5804
▁娶	-5805
▁帘	-5806
▁戒	-5807
▁晴	-5808
▁漓	-5809
▁瀑	-5810
▁疫	-5811
▁睛	-5812
▁砂	-5813
▁筛	-5814
▁腕	-5815
▁臆	-5816
▁蕻	-5817
▁霎	-5818
▁鲫	-5819
东渐	-5820
南疆	-5821
增多	-5822
字启	-5823
小路	-5824
挺胸	-5825
枸杞	-5826
殊的	-5827
笔墨	-5828
而死	-5829
豌豆	-5830
镕基	-5831
颜赵	-5832
▁下功	-5833
▁下去	-5834
▁不禁	-5835
▁不足	-5836
▁不适	-5837
▁中宣	-5838
▁乐曲	-5839
▁于不	-5840
▁仍不	-5841
▁伊朗	-5842
▁余帧	-5843
▁元复	-5844
▁冬季	-5845
▁功力	-5846
▁又从	-5847
▁在中	-5848
▁大江	-5849
▁娶媳	-5850
▁婚姻	-5851
▁实效	-5852
▁布的	-5853
▁年大	-5854
▁心眼	-5855
▁忍痛	-5856
▁掌握	-5857
▁提倡	-5858
▁摧毁	-5859
▁摸底	-5860
▁撰写	-5861
▁撰稿	-5862
▁撷拾	-5863
▁攥满	-5864
▁收割	-5865
▁收获	-5866
▁敏感	-5867
▁教学	-5868
▁数以	-5869
▁数字	-5870
▁敲响	-5871
▁文丛	-5872
▁文之	-5873
▁斯科	-5874
▁新兵	-5875
▁施工	-5876
▁旋律	-5877
▁无党	-5878
▁无多	-5879
▁既是	-5880
▁日上	-5881
▁日子	-5882
▁日抵	-5883
▁旧的	-5884
▁早年	-5885
▁时不	-5886
▁昂首	-5887
▁明亮	-5888
▁明代	-5889
▁春意	-5890
▁是个	-5891
▁是为	-5892
▁是令	-5893
▁是因	-5894
▁是我	-5895
▁是用	-5896
▁是相	-5897
▁是被	-5898
▁是这	-5899
▁仰	-5900
▁堡	-5901
▁央	-5902
▁室	-5903
▁尹	-5904
▁愤	-5905
▁昭	-5906
▁暇	-5907
▁栖	-5908
▁翅	-5909
▁聘	-5910
▁胀	-5911
▁臭	-5912
▁葡	-5913
▁蕉	-5914
▁贩	-5915
▁霞	-5916
上月	-5917
乎理	-5918
大川	-5919
天清	-5920
天空	-5921
居乐	-5922
开阔	-5923
往往	-5924
总责	-5925
振铎	-5926
树银	-5927
歌载	-5928
物园	-5929
砖墙	-5930
自治	-5931
▁3%	-5932
▁96	-5933
▁下把	-5934
▁与史	-5935
▁与此	-5936
▁东南	-5937
▁之夜	-5938
▁之美	-5939
▁了半	-5940
▁产值	-5941
▁们想	-5942
▁使之	-5943
▁册册	-5944
▁分摊	-5945
▁卫队	-5946
▁却在	-5947
▁又不	-5948
▁四个	-5949
▁四十	-5950
▁奴役	-5951
▁完善	-5952
▁富裕	-5953
▁就建	-5954
▁年中	-5955
▁延伸	-5956
▁我从	-5957
▁房前	-5958
▁拼搏	-5959
▁是非	-5960
▁是靠	-5961
▁是鲜	-5962
▁景区	-5963
▁更迭	-5964
▁更需	-5965
▁曹禺	-5966
▁曹美	-5967
▁曹金	-5968
▁曾敏	-5969
▁曾经	-5970
▁最终	-5971
▁月中	-5972
▁月二	-5973
▁有几	-5974
▁有十	-5975
▁有待	-5976
▁有感	-5977
▁有机	-5978
▁有权	-5979
▁有益	-5980
▁有限	-5981
▁服从	-5982
▁望您	-5983
▁望着	-5984
▁期望	-5985
▁期的	-5986
▁未来	-5987
▁本来	-5988
▁本质	-5989
▁本身	-5990
▁朱乃	-5991
▁朱训	-5992
▁机会	-5993
▁机组	-5994
▁权和	-5995
▁李长	-5996
▁村办	-5997
▁村和	-5998
▁村委	-5999
▁叉	-6000
▁哇	-6001
▁墙	-6002
▁慢	-6003
▁扉	-6004
▁母	-6005
▁涛	-6006
▁狼	-6007
▁缭	-6008
▁辨	-6009
▁锅	-6010
▁阖	-6011
上马	-6012
入恶	-6013
利源	-6014
半岛	-6015
同下	-6016
名馨	-6017
夏衍	-6018
弦乐	-6019
必及	-6020
搁浅	-6021
撒切	-6022
未止	-6023
渥太	-6024
片般	-6025
老辣	-6026
自立	-6027
花篮	-6028
茄子	-6029
难逃	-6030
饥饿	-6031
▁2.	-6032
▁94	-6033
▁专题	-6034
▁业已	-6035
▁中小	-6036
▁今日	-6037
▁光大	-6038
▁分享	-6039
▁务实	-6040
▁北方	-6041
▁十个	-6042
▁名誉	-6043
▁和我	-6044
▁和美	-6045
▁夏鼐	-6046
▁多么	-6047
▁山一	-6048
▁很少	-6049
▁性格	-6050
▁悟和	-6051
▁惶惶	-6052
▁愿干	-6053
▁揭发	-6054
▁搁浅	-6055
▁撒切	-6056
▁是自	-6057
▁晚会	-6058
▁村庄	-6059
▁条直	-6060
▁条约	-6061
▁来之	-6062
▁来写	-6063
▁来华	-6064
▁来抓	-6065
▁来源	-6066
▁来说	-6067
▁杰出	-6068
▁松劲	-6069
▁松树	-6070
▁板一	-6071
▁极其	-6072
▁枝杈	-6073
▁枸杞	-6074
▁某种	-6075
▁校学	-6076
▁样在	-6077
▁格的	-6078
▁桂冠	-6079
▁桃溪	-6080
▁梦魁	-6081
▁概算	-6082
▁横戈	-6083
▁欠佳	-6084
▁次为	-6085
▁次被	-6086
▁次要	-6087
▁止却	-6088
▁正气	-6089
▁此一	-6090
▁步入	-6091
▁歼击	-6092
▁每周	-6093
▁比原	-6094
▁比较	-6095
▁毕业	-6096
▁毫米	-6097
▁民心	-6098
▁气之	-6099
▁丹	-6100
▁冻	-6101
▁弄	-6102
▁恍	-6103
▁憨	-6104
▁槟	-6105
▁混	-6106
▁磊	-6107
▁箱	-6108
▁缝	-6109
▁翁	-6110
▁陀	-6111
▁陷	-6112
以街	-6113
可替	-6114
史籍	-6115
市乳	-6116
憬悟	-6117
控太	-6118
昌爱	-6119
月季	-6120
的逾	-6121
笔耕	-6122
西姆	-6123
这声	-6124
里夫	-6125
▁,6	-6126
▁一派	-6127
▁上演	-6128
▁为零	-6129
▁了新	-6130
▁减灾	-6131
▁前所	-6132
▁办学	-6133
▁动人	-6134
▁动着	-6135
▁发和	-6136
▁咨询	-6137
▁哲学	-6138
▁坐椅	-6139
▁家族	-6140
▁家里	-6141
▁寂寞	-6142
▁少年	-6143
▁并通	-6144
▁庆市	-6145
▁憬悟	-6146
▁方可	-6147
▁朗氏	-6148
▁本书	-6149
▁榫卯	-6150
▁步的	-6151
▁气和	-6152
▁气球	-6153
▁气的	-6154
▁气质	-6155
▁氛围	-6156
▁氤氲	-6157
▁水产	-6158
▁水等	-6159
▁水面	-6160
▁汝岱	-6161
▁江上	-6162
▁污染	-6163
▁河水	-6164
▁河边	-6165
▁油田	-6166
▁治国	-6167
▁治学	-6168
▁治疗	-6169
▁沿着	-6170
▁法所	-6171
▁法案	-6172
▁波及	-6173
▁注重	-6174
▁泽铣	-6175
▁洁白	-6176
▁洪水	-6177
▁活力	-6178
▁洼地	-6179
▁浇地	-6180
▁济国	-6181
▁浓厚	-6182
▁浩歌	-6183
▁海域	-6184
▁涣散	-6185
▁淡忘	-6186
▁淮河	-6187
▁深处	-6188
▁深远	-6189
▁淳厚	-6190
▁清了	-6191
▁清剿	-6192
▁渥太	-6193
▁温暖	-6194
▁温洁	-6195
▁源泉	-6196
▁溧水	-6197
▁溪流	-6198
▁满了	-6199
▁傅	-6200
▁卧	-6201
▁吧	-6202
▁愁	-6203
▁扣	-6204
▁撑	-6205
▁敌	-6206
▁暴	-6207
▁杯	-6208
▁柔	-6209
▁牧	-6210
▁笼	-6211
▁绚	-6212
▁绪	-6213
▁耀	-6214
▁舰	-6215
▁蜕	-6216
▁赔	-6217
▁赵	-6218
▁迪	-6219
佛经	-6220
安在	-6221
显然	-6222
留连	-6223
证据	-6224
跋涉	-6225
▁49	-6226
▁一代	-6227
▁下面	-6228
▁不够	-6229
▁与国	-6230
▁为本	-6231
▁之以	-6232
▁人次	-6233
▁人登	-6234
▁以前	-6235
▁伤财	-6236
▁佛经	-6237
▁兴起	-6238
▁再创	-6239
▁却一	-6240
▁厦门	-6241
▁取的	-6242
▁另外	-6243
▁回顾	-6244
▁国之	-6245
▁场的	-6246
▁备齐	-6247
▁好地	-6248
▁好干	-6249
▁安徽	-6250
▁宏伟	-6251
▁巨幅	-6252
▁年文	-6253
▁情节	-6254
▁我不	-6255
▁扭转	-6256
▁挂起	-6257
▁挣扎	-6258
▁斡旋	-6259
▁是那	-6260
▁普通	-6261
▁最低	-6262
▁有那	-6263
▁模式	-6264
▁气候	-6265
▁永恒	-6266
▁涉猎	-6267
▁满分	-6268
▁满意	-6269
▁滥觞	-6270
▁滨江	-6271
▁滴落	-6272
▁演绎	-6273
▁漫灌	-6274
▁潘跃	-6275
▁潘驰	-6276
▁潮有	-6277
▁激烈	-6278
▁灭菌	-6279
▁灰暗	-6280
▁灾难	-6281
▁炽热	-6282
▁烟稀	-6283
▁热情	-6284
▁然可	-6285
▁煤矿	-6286
▁照相	-6287
▁照顾	-6288
▁熊熊	-6289
▁熔一	-6290
▁熟悉	-6291
▁爪部	-6292
▁片新	-6293
▁物品	-6294
▁牺牲	-6295
▁犯罪	-6296
▁犹如	-6297
▁犹戎	-6298
▁狂泻	-6299
▁圈	-6300
▁帐	-6301
▁弊	-6302
▁昼	-6303
▁曝	-6304
▁欲	-6305
▁毅	-6306
▁灶	-6307
▁瑙	-6308
▁疆	-6309
▁盏	-6310
▁筝	-6311
▁草	-6312
▁败	-6313
▁踵	-6314
▁释	-6315
帝王	-6316
生悲	-6317
远贱	-6318
选手	-6319
默眺	-6320
▁21	-6321
▁上到	-6322
▁业也	-6323
▁业务	-6324
▁中之	-6325
▁中求	-6326
▁为增	-6327
▁举起	-6328
▁了有	-6329
▁了相	-6330
▁二个	-6331
▁人权	-6332
▁以下	-6333
▁余悸	-6334
▁催还	-6335
▁几亩	-6336
▁医学	-6337
▁医疗	-6338
▁名的	-6339
▁告辞	-6340
▁圆满	-6341
▁在我	-6342
▁坎坷	-6343
▁大关	-6344
▁夺泸	-6345
▁尝试	-6346
▁帙浩	-6347
▁帝王	-6348
▁年被	-6349
▁弊端	-6350
▁揭牌	-6351
▁数万	-6352
▁昼夜	-6353
▁有名	-6354
▁有正	-6355
▁机的	-6356
▁步前	-6357
▁残疾	-6358
▁消失	-6359
▁渡邕	-6360
▁渤海	-6361
▁潜力	-6362
▁狂跌	-6363
▁独创	-6364
▁狭窄	-6365
▁狼牙	-6366
▁猎豹	-6367
▁玉明	-6368
▁王国	-6369
▁王建	-6370
▁王楚	-6371
▁王鸿	-6372
▁环节	-6373
▁现已	-6374
▁珊瑚	-6375
▁班子	-6376
▁理和	-6377
▁瑞甫	-6378
▁甜蜜	-6379
▁生在	-6380
▁生育	-6381
▁用途	-6382
▁田庄	-6383
▁电影	-6384
▁画坛	-6385
▁画展	-6386
▁画的	-6387
▁画集	-6388
▁畅顺	-6389
▁界人	-6390
▁界对	-6391
▁留下	-6392
▁登高	-6393
▁百万	-6394
▁的东	-6395
▁的丰	-6396
▁的书	-6397
▁的产	-6398
▁的以	-6399
▁喊	-6400
▁曙	-6401
▁琅	-6402
▁瑶	-6403
▁禽	-6404
▁脂	-6405
▁芜	-6406
▁诉	-6407
▁钓	-6408
▁隐	-6409
▁鹰	-6410
作栋	-6411
动魄	-6412
手旁	-6413
盖卷	-6414
芙蓉	-6415
血糖	-6416
▁27	-6417
▁7%	-6418
▁一改	-6419
▁上学	-6420
▁不安	-6421
▁不自	-6422
▁主办	-6423
▁久久	-6424
▁于生	-6425
▁人国	-6426
▁仅有	-6427
▁他乡	-6428
▁依靠	-6429
▁做法	-6430
▁农妇	-6431
▁净化	-6432
▁势的	-6433
▁十倍	-6434
▁华南	-6435
▁向全	-6436
▁在全	-6437
▁大雪	-6438
▁如一	-6439
▁对此	-6440
▁就走	-6441
▁山水	-6442
▁市建	-6443
▁应征	-6444
▁弟弟	-6445
▁心中	-6446
▁心态	-6447
▁悬浮	-6448
▁我驻	-6449
▁挺拔	-6450
▁敏杰	-6451
▁斯的	-6452
▁月的	-6453
▁次出	-6454
▁歌曲	-6455
▁毁坏	-6456
▁滚动	-6457
▁燕赵	-6458
▁的优	-6459
▁的作	-6460
▁的先	-6461
▁的共	-6462
▁的兴	-6463
▁的冷	-6464
▁的分	-6465
▁的单	-6466
▁的厂	-6467
▁的古	-6468
▁的可	-6469
▁的同	-6470
▁的启	-6471
▁的喜	-6472
▁的国	-6473
▁的地	-6474
▁的场	-6475
▁的城	-6476
▁的女	-6477
▁的孙	-6478
▁的学	-6479
▁的居	-6480
▁的工	-6481
▁的强	-6482
▁的形	-6483
▁的必	-6484
▁的悲	-6485
▁的想	-6486
▁的感	-6487
▁的收	-6488
▁的救	-6489
▁的无	-6490
▁的早	-6491
▁的时	-6492
▁的普	-6493
▁的未	-6494
▁的权	-6495
▁的正	-6496
▁的步	-6497
▁的水	-6498
▁的激	-6499
▁的男	-6500
▁的直	-6501
▁的眼	-6502
▁的神	-6503
▁的纸	-6504
▁的结	-6505
▁的考	-6506
▁的联	-6507
▁的胸	-6508
▁的英	-6509
▁的讲	-6510
▁的财	-6511
▁的身	-6512
▁的车	-6513
▁的近	-6514
▁的还	-6515
▁的进	-6516
▁的道	-6517
▁的那	-6518
▁的里	-6519
▁的队	-6520
▁的雨	-6521
▁的青	-6522
▁的面	-6523
▁的音	-6524
▁皆灵	-6525
▁益处	-6526
▁盏灯	-6527
▁监控	-6528
▁盛世	-6529
▁目光	-6530
▁直播	-6531
▁直观	-6532
▁相同	-6533
▁相聚	-6534
▁相连	-6535
▁看中	-6536
▁真诚	-6537
▁着一	-6538
▁着手	-6539
▁着晨	-6540
▁着生	-6541
▁着许	-6542
▁瞒你	-6543
▁瞩目	-6544
▁知了	-6545
▁知名	-6546
▁矿工	-6547
▁研制	-6548
▁砖墙	-6549
▁砚田	-6550
▁破天	-6551
▁硝烟	-6552
▁确定	-6553
▁确的	-6554
▁礼物	-6555
▁社长	-6556
▁祝谦	-6557
▁票价	-6558
▁票面	-6559
▁禁止	-6560
▁福建	-6561
▁福的	-6562
▁秀丽	-6563
▁种的	-6564
▁称赞	-6565
▁程序	-6566
▁稍逊	-6567
▁究竟	-6568
▁空前	-6569
▁空气	-6570
▁穿梭	-6571
▁突然	-6572
▁窗户	-6573
▁立传	-6574
▁立场	-6575
▁竖起	-6576
▁竟涨	-6577
▁童话	-6578
▁端的	-6579
▁笋岗	-6580
▁笑声	-6581
▁第四	-6582
▁等功	-6583
▁等国	-6584
▁等数	-6585
▁策的	-6586
▁简明	-6587
▁籍中	-6588
▁米等	-6589
▁粉碎	-6590
▁粗茶	-6591
▁粪便	-6592
▁精确	-6593
▁精粹	-6594
▁纠纷	-6595
▁红叶	-6596
▁红的	-6597
▁红色	-6598
▁纬线	-6599
▁纵死	-6600
▁纸币	-6601
▁线上	-6602
▁细细	-6603
▁细节	-6604
▁经贸	-6605
▁绑架	-6606
▁结果	-6607
▁结论	-6608
▁给予	-6609
▁给每	-6610
▁绝对	-6611
▁绿影	-6612
▁编纂	-6613
▁缭绕	-6614
▁缺憾	-6615
▁罢掉	-6616
▁置于	-6617
▁美的	-6618
▁美食	-6619
▁群体	-6620
▁翻山	-6621
▁翻译	-6622
▁老师	-6623
▁考察	-6624
▁者为	-6625
▁者胡	-6626
▁而且	-6627
▁而从	-6628
▁而言	-6629
▁联邦	-6630
▁肩膀	-6631
▁胜枚	-6632
▁胡绳	-6633
▁腮壳	-6634
▁腹地	-6635
▁腾的	-6636
▁自主	-6637
▁自动	-6638
▁自家	-6639
▁自民	-6640
▁至地	-6641
▁致意	-6642
▁舞台	-6643
▁舞的	-6644
▁节约	-6645
▁芍药	-6646
▁芝姐	-6647
▁芭蕾	-6648
▁花被	-6649
▁苋菜	-6650
▁苗再	-6651
▁苦难	-6652
▁茄子	-6653
▁茅盾	-6654
▁茵茵	-6655
▁荆轲	-6656
▁荡在	-6657
▁荣立	-6658
▁莅渝	-6659
▁莎白	-6660
▁莫大	-6661
▁获益	-6662
▁菠菜	-6663
▁葫芦	-6664
▁蒙山	-6665
▁蒸汽	-6666
▁蒸蒸	-6667
▁蓝的	-6668
▁蕴涵	-6669
▁薄雾	-6670
▁藏历	-6671
▁虚掩	-6672
▁虬曲	-6673
▁蜜罐	-6674
▁血与	-6675
▁行为	-6676
▁行列	-6677
▁行驶	-6678
▁表率	-6679
▁衷心	-6680
▁被炸	-6681
▁袭击	-6682
▁裁军	-6683
▁裹尸	-6684
▁西北	-6685
▁西南	-6686
▁西安	-6687
▁西部	-6688
▁要去	-6689
▁要在	-6690
▁要素	-6691
▁见和	-6692
▁观的	-6693
▁言倦	-6694
▁订阅	-6695
▁让人	-6696
▁议员	-6697
▁论著	-6698
▁论述	-6699
▁证书	-6700
▁证明	-6701
▁评为	-6702
▁识和	-6703
▁诗人	-6704
▁诚挚	-6705
▁话说	-6706
▁话题	-6707
▁诞生	-6708
▁该人	-6709
▁该县	-6710
▁误差	-6711
▁说不	-6712
▁说我	-6713
▁说的	-6714
▁请到	-6715
▁请求	-6716
▁诺贝	-6717
▁谁有	-6718
▁谈到	-6719
▁谢谢	-6720
▁谨严	-6721
▁谨慎	-6722
▁豁达	-6723
▁象的	-6724
▁财富	-6725
▁贫穷	-6726
▁贯彻	-6727
▁贺电	-6728
▁贺词	-6729
▁贾励	-6730
▁贾昭	-6731
▁资料	-6732
▁赞叹	-6733
▁赞赏	-6734
▁赤胆	-6735
▁赭黄	-6736
▁走上	-6737
▁赴塞	-6738
▁赶到	-6739
▁起伏	-6740
▁起步	-6741
▁起火	-6742
▁足球	-6743
▁跃跃	-6744
▁路人	-6745
▁路口	-6746
▁路子	-6747
▁路线	-6748
▁身为	-6749
▁身于	-6750
▁车外	-6751
▁车点	-6752
▁转交	-6753
▁转向	-6754
▁转嫁	-6755
▁载而	-6756
▁较大	-6757
▁较快	-6758
▁辈甘	-6759
▁辉映	-6760
▁辐射	-6761
▁辣椒	-6762
▁边的	-6763
▁边陲	-6764
▁过好	-6765
▁过来	-6766
▁迈向	-6767
▁迈进	-6768
▁迎刃	-6769
▁迎来	-6770
▁运河	-6771
▁近日	-6772
▁还就	-6773
▁这两	-6774
▁这位	-6775
▁这就	-6776
▁这方	-6777
▁这条	-6778
▁进展	-6779
▁连连	-6780
▁追寻	-6781
▁追溯	-6782
▁送到	-6783
▁送给	-6784
▁选举	-6785
▁选段	-6786
▁选购	-6787
▁透过	-6788
▁途径	-6789
▁通史	-6790
▁通的	-6791
▁通讯	-6792
▁逝世	-6793
▁造型	-6794
▁造福	-6795
▁遵循	-6796
▁那么	-6797
▁那些	-6798
▁那时	-6799
▁郑咏	-6800
▁部及	-6801
▁郭伟	-6802
▁都已	-6803
▁配合	-6804
▁配方	-6805
▁醒目	-6806
▁里人	-6807
▁重任	-6808
▁重而	-6809
▁重量	-6810
▁金和	-6811
▁金额	-6812
▁钟声	-6813
▁钢琴	-6814
▁钦佩	-6815
▁铁路	-6816
▁铺叙	-6817
▁铺筑	-6818
▁链条	-6819
▁锋芒	-6820
▁锡铭	-6821
▁锣鼓	-6822
▁锻炼	-6823
▁镶嵌	-6824
▁长王	-6825
▁闪烁	-6826
▁闪耀	-6827
▁问候	-6828
▁闻力	-6829
▁阐述	-6830
▁队一	-6831
▁队员	-6832
▁防汛	-6833
▁阳三	-6834
▁阻挡	-6835
▁阿拉	-6836
▁阿里	-6837
▁陆续	-6838
▁陈陆	-6839
▁陈雁	-6840
▁降到	-6841
▁限于	-6842
▁限制	-6843
▁院内	-6844
▁除非	-6845
▁险金	-6846
▁险阻	-6847
▁随之	-6848
▁随后	-6849
▁随着	-6850
▁隔岸	-6851
▁难觅	-6852
▁难题	-6853
▁雨滴	-6854
▁需求	-6855
▁青海	-6856
▁静的	-6857
▁非凡	-6858
▁非同	-6859
▁非洲	-6860
▁面前	-6861
▁面料	-6862
▁韦耀	-6863
▁韵味	-6864
▁韵盈	-6865
▁频繁	-6866
▁颜色	-6867
▁额为	-6868
▁额达	-6869
▁风中	-6870
▁风情	-6871
▁风貌	-6872
▁风雨	-6873
▁飞的	-6874
▁飞越	-6875
▁餐椅	-6876
▁饥饿	-6877
▁饮水	-6878
▁饺子	-6879
▁馆等	-6880
▁首席	-6881
▁首歌	-6882
▁首长	-6883
▁香榭	-6884
▁马里	-6885
▁验的	-6886
▁骨干	-6887
▁高架	-6888
▁高达	-6889
▁鱼儿	-6890
▁鲁迅	-6891
▁鸣禽	-6892
▁鹏城	-6893
▁黄山	-6894
▁黄菊	-6895
▁鼓掌	-6896
▁齐心	-6897
▁龚雯	-6898
中调剂	-6899
于一九	-6900
他年纪	-6901
俨然像	-6902
到肉猪	-6903
前举棋	-6904
力抓树	-6905
协与海	-6906
却万夫	-6907
却鸣戒	-6908
去翻印	-6909
大法官	-6910
妙地糅	-6911
宗教渊	-6912
实可信	-6913
寻隐秘	-6914
局管辖	-6915
层互访	-6916
州西湖	-6917
建谁有	-6918
往开来	-6919
得水泄	-6920
拘留的	-6921
挂着炎	-6922
政总局	-6923
新李翔	-6924
曾庆红	-6925
树银花	-6926
民告示	-6927
水哄抬	-6928
永黄秋	-6929
油马路	-6930
洁地笃	-6931
清香俏	-6932
火台挺	-6933
生悲丧	-6934
白血病	-6935
的善男	-6936
的聚居	-6937
的谢意	-6938
眼地操	-6939
着寒风	-6940
禁止鸣	-6941
红澄澄	-6942
终令汗	-6943
者奖励	-6944
落和灭	-6945
被分配	-6946
视着潮	-6947
计纷呈	-6948
里长街	-6949
院高僧	-6950
鼓浪屿	-6951
▁‘0’	-6952
▁丁关根	-6953
▁万国权	-6954
▁万平方	-6955
▁下功夫	-6956
▁不久前	-6957
▁不得不	-6958
▁专致精	-6959
▁丝万缕	-6960
▁中卫县	-6961
▁串鞭炮	-6962
▁丽堂皇	-6963
▁丽风光	-6964
▁之一的	-6965
▁乱超乱	-6966
▁二等功	-6967
▁于永波	-6968
▁云宣新	-6969
▁些许齐	-6970
▁亮白昼	-6971
▁亲自罗	-6972
▁从上月	-6973
▁从长远	-6974
▁份月饼	-6975
▁伊拉克	-6976
▁伍绍祖	-6977
▁低息支	-6978
▁何鲁丽	-6979
▁使命感	-6980
▁侧台柱	-6981
▁俗人伦	-6982
▁保深及	-6983
▁倪志福	-6984
▁兼具觉	-6985
▁写下了	-6986
▁军功章	-6987
▁冷雪里	-6988
▁几滴雨	-6989
▁刘云峰	-6990
▁刘华清	-6991
▁刘工践	-6992
▁刘心武	-6993
▁刘盛威	-6994
▁创利润	-6995
▁到阿里	-6996
▁劫难逃	-6997
▁势在必	-6998
▁医务室	-6999
▁千五百	-7000
▁半价供	-7001
▁半身探	-7002
▁单独套	-7003
▁印经院	-7004
▁却未止	-7005
▁叶利钦	-7006
▁吃一堑	-7007
▁吃个鲜	-7008
▁名誉主	-7009
▁后我就	-7010
▁吐鲁番	-7011
▁吴作栋	-7012
▁呕心沥	-7013
▁唐维红	-7014
▁喝着冒	-7015
▁嘉奖四	-7016
▁嘉年华	-7017
▁嘎班迪	-7018
▁回京途	-7019
▁在谈到	-7020
▁址殷墟	-7021
▁块热土	-7022
▁块贫瘠	-7023
▁坪上村	-7024
▁培的壮	-7025
▁堂收拾	-7026
▁堆死鱼	-7027
▁堆群培	-7028
▁奇才名	-7029
▁如西晋	-7030
▁娇告诉	-7031
▁存量引	-7032
▁孙其峰	-7033
▁孙宝田	-7034
▁安居乐	-7035
▁容之余	-7036
▁容市貌	-7037
▁容村貌	-7038
▁寒冷的	-7039
▁寒问暖	-7040
▁封面题	-7041
▁小小的	-7042
▁小提琴	-7043
▁尘不染	-7044
▁尤以画	-7045
▁尹家骅	-7046
▁尾重逢	-7047
▁屈服或	-7048
▁展宏图	-7049
▁左图右	-7050
▁巨额外	-7051
▁帙浩繁	-7052
▁幅趋缓	-7053
▁幸运地	-7054
▁广播电	-7055
▁床被子	-7056
▁度过了	-7057
▁座谈会	-7058
▁征突击	-7059
▁徐建荣	-7060
▁必先亡	-7061
▁志同道	-7062
▁快上马	-7063
▁怨无悔	-7064
▁总数的	-7065
▁惊天地	-7066
▁惨一页	-7067
▁愿这声	-7068
▁憨态可	-7069
▁我以为	-7070
▁或雨夹	-7071
▁承前启	-7072
▁披红挂	-7073
▁担子你	-7074
▁拘格套	-7075
▁招待会	-7076
▁招收她	-7077
▁拿到手	-7078
▁指引下	-7079
▁捐衣捐	-7080
▁损及它	-7081
▁揭发姐	-7082
▁搞的鬼	-7083
▁攻读硕	-7084
▁文史哲	-7085
▁族自治	-7086
▁明白了	-7087
▁是因为	-7088
▁显现雏	-7089
▁晓颜赵	-7090
▁晚上到	-7091
▁曹金良	-7092
▁曼哈顿	-7093
▁有小雪	-7094
▁有机地	-7095
▁朱镕基	-7096
▁李岚清	-7097
▁村委会	-7098
▁杜天清	-7099
▁杜比宁	-7100
▁束俘获	-7101
▁条水泥	-7102
▁条直线	-7103
▁果永毅	-7104
▁染聚焦	-7105
▁柳林县	-7106
▁梁山伯	-7107
▁植物园	-7108
▁楼相映	-7109
▁樊如钧	-7110
▁比原先	-7111
▁毛同恺	-7112
▁汉简引	-7113
▁江大桥	-7114
▁汤更浪	-7115
▁泄于纸	-7116
▁泥土芳	-7117
▁洗国耻	-7118
▁活跃的	-7119
▁浦江畔	-7120
▁浩如烟	-7121
▁深层次	-7122
▁渡大渡	-7123
▁温家宝	-7124
▁游乐园	-7125
▁溪流汇	-7126
▁满外泄	-7127
▁潜移默	-7128
▁澈的池	-7129
▁灾害的	-7130
▁炮乐极	-7131
▁炼老辣	-7132
▁热泪满	-7133
▁熊熊怒	-7134
▁熔一炉	-7135
▁特殊的	-7136
▁犹太人	-7137
▁王大川	-7138
▁王朝瑞	-7139
▁王者师	-7140
▁玩具抱	-7141
▁玩到天	-7142
▁球选手	-7143
▁瓦希涅	-7144
▁瓦西姆	-7145
▁甚高频	-7146
▁病而死	-7147
▁的体育	-7148
▁的儿子	-7149
▁的史籍	-7150
▁的天空	-7151
▁的磋商	-7152
▁的笔墨	-7153
▁的记忆	-7154
▁的贺卡	-7155
▁的跋涉	-7156
▁的问候	-7157
▁眷念和	-7158
▁眼界顿	-7159
▁硬碰硬	-7160
▁禁地唱	-7161
▁离合悲	-7162
▁秦始皇	-7163
▁立方米	-7164
▁笔精微	-7165
▁笛子竖	-7166
▁算论点	-7167
▁管弦乐	-7168
▁篇必及	-7169
▁类可替	-7170
▁精彩的	-7171
▁素养和	-7172
▁缩手缩	-7173
▁罗昌爱	-7174
▁羊毛绒	-7175
▁群团团	-7176
▁翅展翼	-7177
▁翻读由	-7178
▁老区办	-7179
▁老马去	-7180
▁者增多	-7181
▁股激情	-7182
▁胡继鸿	-7183
▁脏乱差	-7184
▁腊梅飘	-7185
▁致力于	-7186
▁舒心劲	-7187
▁花鸟画	-7188
▁若要叫	-7189
▁苹果送	-7190
▁范双民	-7191
▁茫茫草	-7192
▁荣郭凯	-7193
▁莫斯科	-7194
▁莫迪凯	-7195
▁营自立	-7196
▁虬曲挺	-7197
▁行行长	-7198
▁街以街	-7199
▁袋里插	-7200
▁袖手旁	-7201
▁被称为	-7202
▁触类旁	-7203
▁谁付钱	-7204
▁谢里夫	-7205
▁谷利源	-7206
▁负总责	-7207
▁贵乎理	-7208
▁贵远贱	-7209
▁贾庆林	-7210
▁赖林嵩	-7211
▁起欢度	-7212
▁起死回	-7213
▁趋于没	-7214
▁趣南疆	-7215
▁足留连	-7216
▁跑前跑	-7217
▁路全长	-7218
▁路小路	-7219
▁蹈覆辙	-7220
▁转化为	-7221
▁转化成	-7222
▁载歌载	-7223
▁近些年	-7224
▁这边好	-7225
▁送旅客	-7226
▁送温暖	-7227
▁透视学	-7228
▁逾古稀	-7229
▁遥控太	-7230
▁那肉色	-7231
▁邵大箴	-7232
▁邹德浩	-7233
▁郑振铎	-7234
▁采访时	-7235
▁野开阔	-7236
▁铁丝笼	-7237
▁铺盖卷	-7238
▁锣鼓喧	-7239
▁长安街	-7240
▁阿布扎	-7241
▁阿联酋	-7242
▁附近住	-7243
▁陈国琦	-7244
▁陈子劲	-7245
▁陪同下	-7246
▁陷入恶	-7247
▁雅文崔	-7248
▁雪片般	-7249
▁雷奥迪	-7250
▁音能传	-7251
▁风东渐	-7252
▁马普托	-7253
▁马那瓜	-7254
▁鲜半岛	-7255
▁鸣谢碑	-7256
▁麦亩产	-7257
▁黎巴嫩	-7258
▁默地注	-7259
▁默默眺	-7260
▁鼠和柏	-7261
▁龚永泉	-7262
将相出谋	-7263
笔耕墨耘	-7264
闸门被毁	-7265
▁二重证据	-7266
▁交响乐团	-7267
▁令禁止鸣	-7268
▁侧目远眺	-7269
▁催还的逾	-7270
▁册册浩瀚	-7271
▁剩余的砖	-7272
▁十里长街	-7273
▁半部论语	-7274
▁历时仅九	-7275
▁合影留念	-7276
▁吟到恩仇	-7277
▁吴宗教渊	-7278
▁吴忠市乳	-7279
▁周六和周	-7280
▁圣洁地笃	-7281
▁坐到车顶	-7282
▁塘里游鱼	-7283
▁夜却鸣戒	-7284
▁娃小金刚	-7285
▁孤残少儿	-7286
▁安民告示	-7287
▁寒爱意浓	-7288
▁寺的善男	-7289
▁寺院高僧	-7290
▁层大花篮	-7291
▁岗刘乡冯	-7292
▁巧妙地糅	-7293
▁建于一九	-7294
▁忘朴实无	-7295
▁惊心动魄	-7296
▁房前屋后	-7297
▁手张爱兰	-7298
▁扭转乾坤	-7299
▁抵达家门	-7300
▁挤得水泄	-7301
▁捉座山雕	-7302
▁撒切尔夫	-7303
▁敏感尖锐	-7304
▁教学大纲	-7305
▁昂首挺胸	-7306
▁杭州西湖	-7307
▁柏油马路	-7308
▁歼击机呈	-7309
▁残疾人郭	-7310
▁洼地种洼	-7311
▁海协与海	-7312
▁淳厚质朴	-7313
▁溧水县柘	-7314
▁滨江商厦	-7315
▁潘跃王萍	-7316
▁火树银花	-7317
▁烽火台挺	-7318
▁牵挂着炎	-7319
▁王鸿举副	-7320
▁破天荒赢	-7321
▁稍逊风骚	-7322
▁窥寻隐秘	-7323
▁等功两次	-7324
▁米等作物	-7325
▁继往开来	-7326
▁绿影扶疏	-7327
▁翻山越岭	-7328
▁茵茵的芹	-7329
▁莎白港赶	-7330
▁获益颇丰	-7331
▁蕾清香俏	-7332
▁被拘留的	-7333
▁该局管辖	-7334
▁详实可信	-7335
▁误差一秒	-7336
▁请求上级	-7337
▁谁建谁有	-7338
▁谋计纷呈	-7339
▁谨严而锐	-7340
▁豁达开朗	-7341
▁贩的聚居	-7342
▁贾永黄秋	-7343
▁跃跃欲试	-7344
▁邮政总局	-7345
▁隔岸观火	-7346
▁霸水哄抬	-7347
▁顶着寒风	-7348
▁馆等年货	-7349
▁高层互访	-7350
▁别看他年纪	-7351
▁厦门鼓浪屿	-7352
▁封面题字启	-7353
▁尤以画名馨	-7354
▁床被子发运	-7355
▁患了白血病	-7356
▁憨态可掬的	-7357
▁损及它在朝	-7358
▁曼哈顿岛遥	-7359
▁板一眼地操	-7360
▁横戈却万夫	-7361
▁止却俨然像	-7362
▁汉简引入隶	-7363
▁满分者奖励	-7364
▁爪部力抓树	-7365
▁犹太人定居	-7366
▁眷念和淡淡	-7367
▁笛子竖吹箫	-7368
▁素养和表述	-7369
▁纵死终令汗	-7370
▁群团团围住	-7371
▁苗再新李翔	-7372
▁苹果送进嘴	-7373
▁范双民张振	-7374
▁诚挚的谢意	-7375
▁配方到肉猪	-7376
▁险金中调剂	-7377
▁首席大法官	-7378
▁麦亩产千斤	-7379
▁印经院去翻印	-7380
▁堆死鱼前举棋	-7381
▁帝王将相出谋	-7382
▁幸运地被分配	-7383
▁柏油马路曲径	-7384
▁海协与海基会	-7385
▁炮乐极生悲丧	-7386
▁砚田笔耕墨耘	-7387
▁趋于没落和灭	-7388
▁默地注视着潮	-7389
▁循	-7390
▁牺	-7391
▁辐	-7392
化为	-7393
化成	-7394
却俨	-7395
厚质	-7396
地种	-7397
它在	-7398
底谷	-7399
▁熔	-7400
子发	-7401
容之	-7402
容市	-7403
容忽	-7404
容量	-7405
宾馆	-7406
寂寞	-7407
寄寓	-7408
寄的	-7409
密而	-7410
寒峭	-7411
寒爱	-7412
寒风	-7413
对联	-7414
寺院	-7415
将一	-7416
将来	-7417
小时	-7418
尘不	-7419
尤以	-7420
就曾	-7421
尺寸	-7422
局限	-7423
屋内	-7424
展宏	-7425
山一	-7426
山间	-7427
左图	-7428
巧妙	-7429
差一	-7430
差距	-7431
已在	-7432
市建	-7433
市里	-7434
帷幄	-7435
常务	-7436
平的	-7437
年历	-7438
年后	-7439
年大	-7440
年文	-7441
年无	-7442
年都	-7443
并通	-7444
并非	-7445
幸运	-7446
广生	-7447
庆市	-7448
应征	-7449
应由	-7450
座山	-7451
座谈	-7452
延伸	-7453
建起	-7454
建造	-7455
开来	-7456
式在	-7457
引进	-7458
弗纶	-7459
弟弟	-7460
张亮	-7461
张彦	-7462
张震	-7463
当前	-7464
当年	-7465
当然	-7466
形态	-7467
彻底	-7468
征突	-7469
很不	-7470
很少	-7471
徐建	-7472
得以	-7473
得几	-7474
心中	-7475
心地	-7476
志同	-7477
忘朴	-7478
忧虑	-7479
快上	-7480
念与	-7481
怀抱	-7482
总数	-7483
总是	-7484
恰逢	-7485
悠久	-7486
悬浮	-7487
情与	-7488
情节	-7489
惊天	-7490
意和	-7491
感和	-7492
感尖	-7493
感觉	-7494
愿和	-7495
愿干	-7496
愿望	-7497
愿这	-7498
憨态	-7499
上村	-7500
令汗	-7501
和气	-7502
咨询	-7503
哈蒂	-7504
唐维	-7505
喜欢	-7506
喜爱	-7507
喜讯	-7508
喝彩	-7509
喝着	-7510
嘉奖	-7511
四个	-7512
回首	-7513
国之	-7514
国会	-7515
国应	-7516
圆满	-7517
在中	-7518
在他	-7519
在全	-7520
在其	-7521
在哪	-7522
在外	-7523
在自	-7524
在谈	-7525
地处	-7526
场的	-7527
址殷	-7528
坐椅	-7529
块热	-7530
坡陡	-7531
垫支	-7532
培的	-7533
堆死	-7534
堆群	-7535
堪忧	-7536
增大	-7537
士兵	-7538
壮歌	-7539
处在	-7540
备齐	-7541
夏秋	-7542
夏鼐	-7543
外债	-7544
外出	-7545
外的	-7546
外部	-7547
多么	-7548
夜却	-7549
大众	-7550
大关	-7551
大军	-7552
大力	-7553
大厦	-7554
大都	-7555
大雪	-7556
夺取	-7557
夺泸	-7558
奇才	-7559
奋勇	-7560
奔赴	-7561
奠定	-7562
奥妙	-7563
奴役	-7564
好地	-7565
威胁	-7566
娓娓	-7567
婚姻	-7568
子和	-7569
存量	-7570
孙其	-7571
孚凌	-7572
孤本	-7573
孤残	-7574
安居	-7575
安徽	-7576
宏伟	-7577
官邸	-7578
定会	-7579
实意	-7580
实践	-7581
家族	-7582
家里	-7583
就会	-7584
懈怠	-7585
成熟	-7586
我看	-7587
我驻	-7588
或者	-7589
或雨	-7590
战车	-7591
所能	-7592
手张	-7593
打开	-7594
执拗	-7595
执法	-7596
扭转	-7597
承前	-7598
抓不	-7599
万夫	-7600
制定	-7601
前在	-7602
前所	-7603
剧院	-7604
力度	-7605
办了	-7606
办学	-7607
功力	-7608
加入	-7609
加剧	-7610
加重	-7611
务员	-7612
务实	-7613
动人	-7614
动着	-7615
势在	-7616
势的	-7617
匆匆	-7618
北方	-7619
区大	-7620
医学	-7621
医疗	-7622
十倍	-7623
千里	-7624
半身	-7625
半部	-7626
华北	-7627
华南	-7628
单独	-7629
南北	-7630
南的	-7631
印经	-7632
印象	-7633
却一	-7634
却在	-7635
历经	-7636
厚重	-7637
县乡	-7638
县有	-7639
参考	-7640
参观	-7641
又不	-7642
又是	-7643
双边	-7644
发动	-7645
取的	-7646
受损	-7647
口的	-7648
另发	-7649
另外	-7650
只身	-7651
可从	-7652
可先	-7653
可观	-7654
台和	-7655
史上	-7656
史书	-7657
史大	-7658
叶利	-7659
吃一	-7660
各方	-7661
后人	-7662
后我	-7663
向前	-7664
吟到	-7665
吴作	-7666
吴宗	-7667
吴忠	-7668
呕心	-7669
员罗	-7670
周六	-7671
呼声	-7672
命令	-7673
和两	-7674
和农	-7675
和恶	-7676
太郎	-7677
宪梓	-7678
小雪	-7679
岸观	-7680
影留	-7681
战线	-7682
报以	-7683
报社	-7684
披红	-7685
担子	-7686
拘格	-7687
拘泥	-7688
招收	-7689
拢嘴	-7690
拱棚	-7691
拼搏	-7692
拿起	-7693
挂起	-7694
指引	-7695
挤得	-7696
挥洒	-7697
挺拔	-7698
损及	-7699
▁帙	-7700
们向	-7701
们就	-7702
们是	-7703
件大	-7704
任何	-7705
份月	-7706
伊拉	-7707
优化	-7708
会副	-7709
会有	-7710
传来	-7711
低了	-7712
住址	-7713
体地	-7714
体现	-7715
体育	-7716
余悸	-7717
作业	-7718
佩饰	-7719
依据	-7720
依次	-7721
依法	-7722
侧台	-7723
侧目	-7724
保深	-7725
信念	-7726
倡廉	-7727
做出	-7728
催人	-7729
催还	-7730
元复	-7731
光明	-7732
全力	-7733
全厂	-7734
关的	-7735
兴国	-7736
兵法	-7737
其精	-7738
具体	-7739
兼具	-7740
再创	-7741
冒雨	-7742
写上	-7743
写下	-7744
军功	-7745
冬季	-7746
冬的	-7747
冰雕	-7748
冷雪	-7749
净化	-7750
净的	-7751
准确	-7752
减灾	-7753
几亩	-7754
出一	-7755
出乎	-7756
出自	-7757
出资	-7758
分摊	-7759
刊发	-7760
刘盛	-7761
利地	-7762
利润	-7763
别看	-7764
到十	-7765
到南	-7766
到的	-7767
到阿	-7768
功章	-7769
台柱	-7770
在原	-7771
埃及	-7772
安民	-7773
少的	-7774
属于	-7775
心武	-7776
息支	-7777
感慨	-7778
我以	-7779
损害	-7780
掌握	-7781
排上	-7782
接过	-7783
揭牌	-7784
搞的	-7785
搬迁	-7786
摘掉	-7787
摘登	-7788
摸底	-7789
播电	-7790
撰写	-7791
收割	-7792
敏杰	-7793
数以	-7794
数字	-7795
文之	-7796
文选	-7797
斡旋	-7798
斯的	-7799
▁污	-7800
一的	-7801
下来	-7802
下车	-7803
下面	-7804
不够	-7805
不安	-7806
不就	-7807
不尽	-7808
不得	-7809
不想	-7810
不禁	-7811
不自	-7812
不足	-7813
不适	-7814
与国	-7815
专致	-7816
专题	-7817
业也	-7818
业于	-7819
业已	-7820
丝万	-7821
丝毫	-7822
两位	-7823
中一	-7824
中又	-7825
中外	-7826
中宣	-7827
中最	-7828
中期	-7829
串鞭	-7830
为全	-7831
为本	-7832
为零	-7833
丽的	-7834
久久	-7835
久前	-7836
之作	-7837
之外	-7838
之夜	-7839
之类	-7840
之美	-7841
乐声	-7842
乐曲	-7843
九届	-7844
也正	-7845
也没	-7846
买一	-7847
买提	-7848
乳透	-7849
了全	-7850
了几	-7851
了区	-7852
了半	-7853
了新	-7854
二个	-7855
二等	-7856
于不	-7857
于以	-7858
于历	-7859
于本	-7860
亡的	-7861
交响	-7862
交往	-7863
交谈	-7864
京西	-7865
人不	-7866
人无	-7867
人权	-7868
人登	-7869
人能	-7870
人还	-7871
仅为	-7872
今为	-7873
今日	-7874
今晚	-7875
仍不	-7876
从上	-7877
代中	-7878
令禁	-7879
以下	-7880
以不	-7881
以前	-7882
以继	-7883
几位	-7884
堂皇	-7885
得不	-7886
新兵	-7887
方到	-7888
方可	-7889
施工	-7890
族自	-7891
无多	-7892
既是	-7893
日上	-7894
日抵	-7895
旧的	-7896
时不	-7897
时仅	-7898
明代	-7899
,6	-7900
02	-7901
2.	-7902
21	-7903
3%	-7904
42	-7905
44	-7906
52	-7907
5、	-7908
7%	-7909
74	-7910
85	-7911
9.	-7912
94	-7913
95	-7914
”;	-7915
、2	-7916
、5	-7917
』,	-7918
一代	-7919
一天	-7920
一提	-7921
一是	-7922
一派	-7923
一群	-7924
一边	-7925
一道	-7926
一部	-7927
一面	-7928
一首	-7929
万万	-7930
万国	-7931
万里	-7932
三千	-7933
三峡	-7934
上任	-7935
上加	-7936
上学	-7937
上对	-7938
上演	-7939
上百	-7940
下到	-7941
下功	-7942
下大	-7943
与此	-7944
以减	-7945
低息	-7946
共计	-7947
关根	-7948
刘华	-7949
创利	-7950
国权	-7951
处可	-7952
尹家	-7953
平方	-7954
教渊	-7955
明白	-7956
春意	-7957
是个	-7958
是为	-7959
是我	-7960
是用	-7961
是自	-7962
是这	-7963
是那	-7964
是靠	-7965
景区	-7966
曲挺	-7967
更需	-7968
曹禺	-7969
曹金	-7970
曼哈	-7971
曾敏	-7972
最低	-7973
月中	-7974
月二	-7975
月的	-7976
有几	-7977
有十	-7978
有名	-7979
有待	-7980
有益	-7981
有那	-7982
服从	-7983
望您	-7984
望着	-7985
期望	-7986
期的	-7987
本质	-7988
本身	-7989
朱乃	-7990
朱镕	-7991
机会	-7992
机的	-7993
机组	-7994
权和	-7995
李岚	-7996
李长	-7997
村办	-7998
村庄	-7999
12	-8000
仍将	-8001
伊朗	-8002
公里	-8003
勋努	-8004
和我	-8005
土造	-8006
年卡	-8007
心眼	-8008
拖欠	-8009
教学	-8010
曲印	-8011
杜天	-8012
杜比	-8013
来之	-8014
来抓	-8015
来源	-8016
杭州	-8017
杰出	-8018
松劲	-8019
板一	-8020
极其	-8021
林县	-8022
柏油	-8023
样在	-8024
格的	-8025
桂冠	-8026
梁山	-8027
梦魁	-8028
植物	-8029
楼相	-8030
樊如	-8031
模式	-8032
欠佳	-8033
次为	-8034
次出	-8035
次要	-8036
歌曲	-8037
止却	-8038
此一	-8039
步伐	-8040
步前	-8041
歼击	-8042
残疾	-8043
每个	-8044
比原	-8045
民心	-8046
气之	-8047
气候	-8048
气和	-8049
气球	-8050
氛围	-8051
水县	-8052
水泄	-8053
水等	-8054
水面	-8055
永恒	-8056
汉简	-8057
汝岱	-8058
江上	-8059
江商	-8060
汤更	-8061
没落	-8062
河边	-8063
油田	-8064
治学	-8065
泄于	-8066
法官	-8067
法所	-8068
法案	-8069
波及	-8070
泥土	-8071
注视	-8072
泽铣	-8073
洗国	-8074
活跃	-8075
洼地	-8076
浇地	-8077
济国	-8078
浓厚	-8079
浦江	-8080
浩如	-8081
海协	-8082
海域	-8083
涉猎	-8084
涣散	-8085
淡忘	-8086
深及	-8087
深处	-8088
深层	-8089
深远	-8090
清了	-8091
渡邕	-8092
满意	-8093
滥觞	-8094
滴落	-8095
滴雨	-8096
演绎	-8097
潘跃	-8098
潜移	-8099
27	-8100
90	-8101
▁怜	-8102
下有	-8103
世纪	-8104
依多	-8105
儒庭	-8106
六和	-8107
分类	-8108
加上	-8109
区在	-8110
南省	-8111
发行	-8112
四十	-8113
地图	-8114
就能	-8115
州市	-8116
快速	-8117
我为	-8118
推进	-8119
提倡	-8120
救助	-8121
昌盛	-8122
春的	-8123
昨天	-8124
是两	-8125
景观	-8126
更是	-8127
曾多	-8128
最初	-8129
月份	-8130
未曾	-8131
杂志	-8132
权益	-8133
李瑞	-8134
束缚	-8135
条小	-8136
来临	-8137
来宾	-8138
果不	-8139
架次	-8140
查处	-8141
桂林	-8142
桌边	-8143
次的	-8144
欣慰	-8145
正点	-8146
此间	-8147
殃及	-8148
水浜	-8149
汪道	-8150
沟通	-8151
法国	-8152
法律	-8153
注目	-8154
洁的	-8155
流量	-8156
消灭	-8157
涉及	-8158
深深	-8159
清华	-8160
渡过	-8161
满载	-8162
火烧	-8163
灰暗	-8164
炮乐	-8165
炸伤	-8166
点和	-8167
炼老	-8168
热闹	-8169
烽火	-8170
然可	-8171
照相	-8172
照耀	-8173
照顾	-8174
燕赵	-8175
爪部	-8176
爱好	-8177
片新	-8178
特技	-8179
犯罪	-8180
犹太	-8181
犹如	-8182
狂泻	-8183
狂跌	-8184
独具	-8185
独创	-8186
狭窄	-8187
率和	-8188
王国	-8189
王楚	-8190
王者	-8191
王鸿	-8192
环节	-8193
现已	-8194
班子	-8195
球选	-8196
理和	-8197
瑞甫	-8198
瓦希	-8199
49	-8200
上升	-8201
之处	-8202
人定	-8203
仅有	-8204
以恒	-8205
养殖	-8206
动地	-8207
名誉	-8208
四周	-8209
图书	-8210
垄断	-8211
大型	-8212
宣布	-8213
家园	-8214
对一	-8215
将于	-8216
就走	-8217
屏幕	-8218
展出	-8219
展望	-8220
展现	-8221
属下	-8222
山川	-8223
巡游	-8224
工资	-8225
巨变	-8226
已有	-8227
已达	-8228
幅度	-8229
平凡	-8230
年代	-8231
并茂	-8232
度的	-8233
庭院	-8234
建筑	-8235
建议	-8236
引述	-8237
强的	-8238
当选	-8239
彩色	-8240
影视	-8241
很快	-8242
心协	-8243
必要	-8244
怀揣	-8245
怎么	-8246
悟出	-8247
情地	-8248
惊喜	-8249
想见	-8250
成员	-8251
成长	-8252
战友	-8253
战胜	-8254
扎实	-8255
找上	-8256
承贷	-8257
抓住	-8258
担心	-8259
拒绝	-8260
指出	-8261
换届	-8262
授权	-8263
揭示	-8264
援助	-8265
收取	-8266
效应	-8267
新型	-8268
方案	-8269
无微	-8270
无数	-8271
早已	-8272
春节	-8273
有一	-8274
朴实	-8275
止鸣	-8276
浩歌	-8277
浩然	-8278
湿气	-8279
甜蜜	-8280
生在	-8281
田野	-8282
由衷	-8283
电影	-8284
画坛	-8285
画展	-8286
画面	-8287
界人	-8288
界对	-8289
留下	-8290
疾人	-8291
病防	-8292
登高	-8293
白昼	-8294
白港	-8295
的东	-8296
的丰	-8297
的书	-8298
的产	-8299
’9	-8300
上了	-8301
个人	-8302
主动	-8303
也是	-8304
体的	-8305
写着	-8306
创造	-8307
利院	-8308
务必	-8309
动辄	-8310
势头	-8311
区的	-8312
十七	-8313
千锤	-8314
升旗	-8315
半年	-8316
半本	-8317
华夏	-8318
南宁	-8319
南方	-8320
占地	-8321
县市	-8322
参股	-8323
取代	-8324
取消	-8325
受益	-8326
变为	-8327
古城	-8328
号码	-8329
各行	-8330
合唱	-8331
名著	-8332
向传	-8333
呈现	-8334
周一	-8335
和审	-8336
和水	-8337
和睦	-8338
和解	-8339
品的	-8340
哈尔	-8341
哈马	-8342
四家	-8343
四是	-8344
困境	-8345
在各	-8346
地制	-8347
坚韧	-8348
堵车	-8349
塔克	-8350
塔里	-8351
增产	-8352
外地	-8353
多年	-8354
大胆	-8355
大量	-8356
天下	-8357
太阳	-8358
夫斯	-8359
失传	-8360
失衡	-8361
奥地	-8362
她那	-8363
好评	-8364
好转	-8365
妹妹	-8366
学会	-8367
学和	-8368
学校	-8369
学的	-8370
孩子	-8371
定期	-8372
客商	-8373
将在	-8374
山水	-8375
开通	-8376
情况	-8377
想象	-8378
拉玛	-8379
撤军	-8380
旅游	-8381
本是	-8382
欢聚	-8383
清剿	-8384
的以	-8385
的优	-8386
的作	-8387
的依	-8388
的信	-8389
的兴	-8390
的兵	-8391
的冷	-8392
的分	-8393
的北	-8394
的单	-8395
的厂	-8396
的可	-8397
的史	-8398
的启	-8399
48	-8400
”!	-8401
一百	-8402
万亩	-8403
两地	-8404
为止	-8405
之两	-8406
之师	-8407
也可	-8408
也曾	-8409
书的	-8410
买回	-8411
予以	-8412
争取	-8413
五是	-8414
亩地	-8415
享受	-8416
京沪	-8417
人和	-8418
人心	-8419
人才	-8420
人死	-8421
人车	-8422
今后	-8423
以至	-8424
们在	-8425
仿佛	-8426
会见	-8427
会长	-8428
住在	-8429
使其	-8430
依赖	-8431
侠骨	-8432
保卫	-8433
保留	-8434
先河	-8435
克林	-8436
党报	-8437
公正	-8438
共有	-8439
具觉	-8440
典籍	-8441
养鱼	-8442
再新	-8443
再现	-8444
冰雪	-8445
几天	-8446
凯旋	-8447
分子	-8448
分成	-8449
分量	-8450
划拨	-8451
刘志	-8452
刘步	-8453
则多	-8454
创建	-8455
利落	-8456
前已	-8457
前景	-8458
加拿	-8459
北风	-8460
华安	-8461
卡比	-8462
各以	-8463
各界	-8464
周围	-8465
地说	-8466
块贫	-8467
大有	-8468
实况	-8469
导致	-8470
巴黎	-8471
弹击	-8472
性的	-8473
戈却	-8474
手中	-8475
握手	-8476
政治	-8477
暖亮	-8478
曲调	-8479
有正	-8480
条水	-8481
桥本	-8482
气质	-8483
牡丹	-8484
的命	-8485
的喜	-8486
的国	-8487
的图	-8488
的地	-8489
的场	-8490
的女	-8491
的孙	-8492
的学	-8493
的居	-8494
的工	-8495
的巨	-8496
的年	-8497
的形	-8498
的必	-8499
,2	-8500
/3	-8501
39	-8502
45	-8503
55	-8504
一份	-8505
一体	-8506
一家	-8507
一批	-8508
一系	-8509
万吨	-8510
万平	-8511
上台	-8512
不住	-8513
不到	-8514
不开	-8515
不必	-8516
不相	-8517
专访	-8518
两者	-8519
严寒	-8520
严峻	-8521
丰收	-8522
临川	-8523
临时	-8524
临近	-8525
久不	-8526
书画	-8527
二十	-8528
亲手	-8529
价供	-8530
保护	-8531
全年	-8532
分裂	-8533
创新	-8534
到自	-8535
募捐	-8536
包袱	-8537
反腐	-8538
吸引	-8539
家庭	-8540
岁的	-8541
巴基	-8542
干部	-8543
平理	-8544
徐悲	-8545
找准	-8546
有对	-8547
横戈	-8548
欢快	-8549
渡大	-8550
珍惜	-8551
电部	-8552
的悲	-8553
的想	-8554
的感	-8555
的提	-8556
的收	-8557
的无	-8558
的普	-8559
的松	-8560
的桥	-8561
的正	-8562
的水	-8563
的生	-8564
的眼	-8565
的磋	-8566
的神	-8567
的窗	-8568
的立	-8569
的纯	-8570
的纸	-8571
的结	-8572
的考	-8573
的胸	-8574
的良	-8575
的记	-8576
的讲	-8577
的贺	-8578
的跋	-8579
的车	-8580
的进	-8581
的遗	-8582
的里	-8583
的问	-8584
的队	-8585
的音	-8586
益处	-8587
益颇	-8588
盛威	-8589
目光	-8590
目睹	-8591
目远	-8592
直播	-8593
直观	-8594
相聚	-8595
相连	-8596
省市	-8597
看他	-8598
真的	-8599
)、	-8600
88	-8601
”、	-8602
▁捉	-8603
一定	-8604
一片	-8605
不但	-8606
代奇	-8607
公园	-8608
内塔	-8609
分享	-8610
创办	-8611
半数	-8612
商业	-8613
大成	-8614
德国	-8615
怨无	-8616
截至	-8617
户户	-8618
所以	-8619
所谓	-8620
批评	-8621
承担	-8622
抢救	-8623
拙见	-8624
拜年	-8625
拥有	-8626
挑选	-8627
挤在	-8628
接着	-8629
接触	-8630
改组	-8631
救援	-8632
文告	-8633
新风	-8634
新鲜	-8635
方法	-8636
方的	-8637
无家	-8638
日晚	-8639
日的	-8640
旨在	-8641
昂首	-8642
显示	-8643
显著	-8644
普遍	-8645
有些	-8646
有人	-8647
有类	-8648
服装	-8649
未能	-8650
本领	-8651
机遇	-8652
李升	-8653
材料	-8654
横吹	-8655
歌舞	-8656
正义	-8657
江西	-8658
河南	-8659
治理	-8660
泰国	-8661
洪水	-8662
湖州	-8663
濒临	-8664
灾害	-8665
爆竹	-8666
物价	-8667
狠抓	-8668
王学	-8669
现了	-8670
理性	-8671
生动	-8672
生机	-8673
的双	-8674
的多	-8675
的西	-8676
的话	-8677
的预	-8678
看中	-8679
真诚	-8680
眼光	-8681
眼地	-8682
眼界	-8683
着手	-8684
着晨	-8685
着炎	-8686
着生	-8687
着许	-8688
知了	-8689
知名	-8690
短期	-8691
矿工	-8692
研制	-8693
破坏	-8694
硝烟	-8695
硬碰	-8696
确保	-8697
确定	-8698
确实	-8699
下去	-8700
书记	-8701
从事	-8702
伤财	-8703
但是	-8704
便是	-8705
党派	-8706
前屋	-8707
包括	-8708
南部	-8709
卡翁	-8710
厂房	-8711
厂里	-8712
原因	-8713
原有	-8714
又在	-8715
友谊	-8716
双方	-8717
反党	-8718
反映	-8719
发菜	-8720
只要	-8721
可信	-8722
同意	-8723
名人	-8724
员工	-8725
命名	-8726
商品	-8727
图谱	-8728
坪上	-8729
基斯	-8730
塔拉	-8731
多个	-8732
多元	-8733
大大	-8734
大陆	-8735
夫妇	-8736
女儿	-8737
奶奶	-8738
如今	-8739
如此	-8740
妥协	-8741
存在	-8742
实的	-8743
宣传	-8744
家中	-8745
富裕	-8746
对待	-8747
将对	-8748
少生	-8749
尤其	-8750
就以	-8751
就有	-8752
局局	-8753
局部	-8754
岁月	-8755
布局	-8756
布置	-8757
年前	-8758
年底	-8759
度过	-8760
延长	-8761
建管	-8762
强大	-8763
往来	-8764
徘徊	-8765
忘记	-8766
忙碌	-8767
忧其	-8768
态度	-8769
恩佐	-8770
愉快	-8771
感谢	-8772
懂得	-8773
成效	-8774
承包	-8775
拉瓜	-8776
整洁	-8777
更大	-8778
本来	-8779
校学	-8780
歌剧	-8781
海基	-8782
烈的	-8783
玩具	-8784
理解	-8785
生快	-8786
画雄	-8787
的步	-8788
的联	-8789
礼物	-8790
社长	-8791
祝谦	-8792
祝辞	-8793
神话	-8794
票面	-8795
禁地	-8796
种植	-8797
种的	-8798
科研	-8799
16	-8800
17	-8801
1、	-8802
22	-8803
32	-8804
7.	-8805
82	-8806
▁俯	-8807
一下	-8808
一把	-8809
一时	-8810
一番	-8811
一致	-8812
一项	-8813
七十	-8814
三是	-8815
三次	-8816
三通	-8817
下乡	-8818
不仅	-8819
不再	-8820
不可	-8821
与其	-8822
专业	-8823
业和	-8824
两亩	-8825
两年	-8826
个县	-8827
为之	-8828
主任	-8829
主体	-8830
举措	-8831
义务	-8832
之路	-8833
之际	-8834
二是	-8835
二百	-8836
云南	-8837
五百	-8838
交给	-8839
亲人	-8840
人群	-8841
仓库	-8842
代的	-8843
优惠	-8844
似乎	-8845
你们	-8846
倘佯	-8847
做了	-8848
停止	-8849
健身	-8850
允许	-8851
八一	-8852
共和	-8853
内涵	-8854
军营	-8855
军装	-8856
准备	-8857
几个	-8858
几年	-8859
分忧	-8860
创汇	-8861
到家	-8862
前夕	-8863
前的	-8864
办水	-8865
勇敢	-8866
十二	-8867
十大	-8868
反复	-8869
发放	-8870
她们	-8871
好干	-8872
娱乐	-8873
学者	-8874
尉健	-8875
尼亚	-8876
年仅	-8877
彭珮	-8878
抒发	-8879
收拾	-8880
散文	-8881
月饼	-8882
标语	-8883
深化	-8884
激光	-8885
相当	-8886
秧歌	-8887
称谓	-8888
程序	-8889
究竟	-8890
空域	-8891
穿梭	-8892
突然	-8893
窗户	-8894
立即	-8895
立场	-8896
立方	-8897
竖吹	-8898
竖起	-8899
.6	-8900
23	-8901
不为	-8902
产业	-8903
位置	-8904
使命	-8905
光大	-8906
分社	-8907
刘乡	-8908
卖主	-8909
去了	-8910
参展	-8911
合作	-8912
同的	-8913
国民	-8914
地笃	-8915
坚信	-8916
大国	-8917
大运	-8918
它们	-8919
小小	-8920
帮助	-8921
患了	-8922
意见	-8923
成功	-8924
所在	-8925
放飞	-8926
显现	-8927
村宅	-8928
标志	-8929
树立	-8930
格外	-8931
格局	-8932
欢庆	-8933
歌唱	-8934
此次	-8935
毁坏	-8936
比勒	-8937
比赛	-8938
水产	-8939
深刻	-8940
率先	-8941
现象	-8942
珍贵	-8943
瑞士	-8944
用于	-8945
界的	-8946
百年	-8947
的不	-8948
的准	-8949
的小	-8950
的意	-8951
的时	-8952
的有	-8953
的笔	-8954
的经	-8955
的高	-8956
福利	-8957
积累	-8958
竟涨	-8959
笑声	-8960
等作	-8961
等国	-8962
等地	-8963
策的	-8964
签署	-8965
简单	-8966
简明	-8967
篇章	-8968
籍中	-8969
米等	-8970
类可	-8971
粉碎	-8972
粗茶	-8973
累计	-8974
红叶	-8975
红灯	-8976
红的	-8977
约旦	-8978
级偏	-8979
纪实	-8980
纪念	-8981
纬线	-8982
纲领	-8983
纵死	-8984
纸币	-8985
经典	-8986
经常	-8987
经济	-8988
经理	-8989
经贸	-8990
经验	-8991
绑架	-8992
结果	-8993
结论	-8994
给予	-8995
给每	-8996
维修	-8997
维持	-8998
维红	-8999
▁珊	-9000
不见	-9001
与夸	-9002
么高	-9003
乡的	-9004
事件	-9005
人类	-9006
仍然	-9007
以往	-9008
们的	-9009
会费	-9010
伴唱	-9011
伴随	-9012
使我	-9013
使馆	-9014
依托	-9015
兵书	-9016
刘云	-9017
初步	-9018
利于	-9019
制裁	-9020
前两	-9021
华的	-9022
南京	-9023
博物	-9024
又一	-9025
受到	-9026
各个	-9027
吸收	-9028
和那	-9029
四海	-9030
回应	-9031
困难	-9032
国有	-9033
地同	-9034
垦区	-9035
境界	-9036
多的	-9037
多种	-9038
大农	-9039
大批	-9040
大田	-9041
奉献	-9042
妇女	-9043
宗旨	-9044
定的	-9045
密切	-9046
对外	-9047
小到	-9048
小康	-9049
履行	-9050
岗亭	-9051
市区	-9052
带头	-9053
年一	-9054
并不	-9055
当代	-9056
当时	-9057
德的	-9058
感受	-9059
成人	-9060
指数	-9061
挖掘	-9062
摆脱	-9063
收回	-9064
整顿	-9065
新闻	-9066
无论	-9067
日前	-9068
是将	-9069
更多	-9070
有小	-9071
有所	-9072
有限	-9073
步的	-9074
消防	-9075
淀粉	-9076
溧水	-9077
牵挂	-9078
生存	-9079
电脑	-9080
的天	-9081
的美	-9082
相对	-9083
练市	-9084
绿影	-9085
缓解	-9086
缔造	-9087
编纂	-9088
编著	-9089
编辑	-9090
缤纷	-9091
缩手	-9092
缺憾	-9093
罕见	-9094
罗宾	-9095
罗干	-9096
罗昌	-9097
罢掉	-9098
羊毛	-9099
29	-9100
:‘	-9101
▁勉	-9102
▁炽	-9103
一次	-9104
三年	-9105
不懈	-9106
专门	-9107
东直	-9108
两个	-9109
中共	-9110
中有	-9111
为纽	-9112
主干	-9113
主权	-9114
九八	-9115
也要	-9116
了我	-9117
前夜	-9118
原来	-9119
去全	-9120
响应	-9121
国两	-9122
国家	-9123
图像	-9124
在一	-9125
在异	-9126
地写	-9127
大明	-9128
如常	-9129
就职	-9130
意味	-9131
成立	-9132
所画	-9133
护卫	-9134
持之	-9135
整体	-9136
旋律	-9137
最近	-9138
机长	-9139
梅塔	-9140
死终	-9141
每月	-9142
每次	-9143
沉思	-9144
港人	-9145
灿烂	-9146
热烈	-9147
爱国	-9148
爸爸	-9149
特区	-9150
王建	-9151
用笔	-9152
的中	-9153
的全	-9154
的外	-9155
的强	-9156
的最	-9157
相互	-9158
省长	-9159
瞒你	-9160
站在	-9161
筹集	-9162
紧张	-9163
约翰	-9164
纽约	-9165
织制	-9166
终于	-9167
经历	-9168
经费	-9169
绝对	-9170
绿化	-9171
羊肉	-9172
美好	-9173
美学	-9174
美的	-9175
群体	-9176
群团	-9177
群培	-9178
翻印	-9179
翻译	-9180
翻读	-9181
老板	-9182
老马	-9183
考察	-9184
者为	-9185
者胡	-9186
而从	-9187
而同	-9188
而无	-9189
而有	-9190
而言	-9191
耕墨	-9192
耕耘	-9193
联和	-9194
联系	-9195
联邦	-9196
聚居	-9197
聚集	-9198
肩膀	-9199
5%	-9200
‰,	-9201
一九	-9202
上为	-9203
上投	-9204
东西	-9205
中心	-9206
了两	-9207
了白	-9208
做法	-9209
党政	-9210
典型	-9211
出租	-9212
利税	-9213
北部	-9214
协议	-9215
单位	-9216
印度	-9217
即将	-9218
历程	-9219
受伤	-9220
号召	-9221
和完	-9222
品种	-9223
国歌	-9224
国际	-9225
图文	-9226
在国	-9227
在此	-9228
城区	-9229
处于	-9230
大事	-9231
大小	-9232
天津	-9233
孔繁	-9234
宣誓	-9235
家乡	-9236
家们	-9237
家的	-9238
将是	-9239
就是	-9240
岁末	-9241
崇高	-9242
市长	-9243
带动	-9244
带着	-9245
平等	-9246
开了	-9247
引起	-9248
往事	-9249
志愿	-9250
总局	-9251
想到	-9252
意识	-9253
捐赠	-9254
改造	-9255
敬老	-9256
数百	-9257
文献	-9258
新建	-9259
无法	-9260
日在	-9261
是有	-9262
是被	-9263
更加	-9264
最佳	-9265
有着	-9266
欢乐	-9267
武装	-9268
民间	-9269
气的	-9270
济南	-9271
海内	-9272
润五	-9273
温宪	-9274
满足	-9275
甚至	-9276
的自	-9277
社评	-9278
纪录	-9279
纷呈	-9280
罗马	-9281
老爱	-9282
老院	-9283
肯定	-9284
背土	-9285
胜枚	-9286
胡彩	-9287
胡花	-9288
能力	-9289
脏乱	-9290
脚下	-9291
脱了	-9292
腊梅	-9293
腮壳	-9294
腹地	-9295
自发	-9296
自家	-9297
自民	-9298
自然	-9299
.4	-9300
0.	-9301
3.	-9302
三个	-9303
三位	-9304
下的	-9305
严格	-9306
为国	-9307
主席	-9308
主张	-9309
了与	-9310
云宣	-9311
互补	-9312
互访	-9313
亚洲	-9314
人大	-9315
会员	-9316
伤亡	-9317
作用	-9318
佳节	-9319
依然	-9320
保障	-9321
信心	-9322
儿童	-9323
充分	-9324
充满	-9325
光辉	-9326
克服	-9327
全民	-9328
公安	-9329
切入	-9330
努力	-9331
十年	-9332
品格	-9333
团结	-9334
坚强	-9335
始终	-9336
媒体	-9337
席大	-9338
平稳	-9339
庄严	-9340
建交	-9341
所属	-9342
推动	-9343
日益	-9344
有权	-9345
李鹏	-9346
村村	-9347
来华	-9348
步步	-9349
每周	-9350
江省	-9351
波兰	-9352
激动	-9353
灌溉	-9354
焦作	-9355
王将	-9356
甚高	-9357
电子	-9358
的金	-9359
目的	-9360
相信	-9361
省柴	-9362
祝愿	-9363
红澄	-9364
纷纷	-9365
经院	-9366
胜利	-9367
能源	-9368
自我	-9369
自罗	-9370
自豪	-9371
至少	-9372
致意	-9373
致精	-9374
致词	-9375
舆论	-9376
舒心	-9377
舞台	-9378
舞的	-9379
航班	-9380
航线	-9381
良性	-9382
良知	-9383
艰巨	-9384
艰辛	-9385
艰难	-9386
色彩	-9387
节煤	-9388
节约	-9389
芭蕾	-9390
花卉	-9391
花生	-9392
花被	-9393
花鸟	-9394
苏联	-9395
若干	-9396
若要	-9397
苦难	-9398
英国	-9399
一大	-9400
一条	-9401
一样	-9402
万多	-9403
上下	-9404
上年	-9405
下把	-9406
不会	-9407
不时	-9408
专程	-9409
业的	-9410
个个	-9411
为何	-9412
为增	-9413
书系	-9414
事迹	-9415
五十	-9416
五星	-9417
产千	-9418
享誉	-9419
位于	-9420
体制	-9421
体系	-9422
元月	-9423
党的	-9424
公益	-9425
兵学	-9426
军队	-9427
出口	-9428
办公	-9429
加工	-9430
勒斯	-9431
北大	-9432
十多	-9433
厂长	-9434
发言	-9435
各族	-9436
向全	-9437
启发	-9438
和民	-9439
回到	-9440
多人	-9441
大会	-9442
大荒	-9443
女作	-9444
对象	-9445
工业	-9446
工艺	-9447
布厂	-9448
年产	-9449
并购	-9450
应该	-9451
张安	-9452
张爱	-9453
很有	-9454
惊心	-9455
报纸	-9456
拱坝	-9457
推向	-9458
摊位	-9459
文古	-9460
有不	-9461
有效	-9462
染聚	-9463
正在	-9464
澳门	-9465
灾难	-9466
爱的	-9467
生前	-9468
留的	-9469
的气	-9470
的风	-9471
监督	-9472
祝你	-9473
第四	-9474
红旗	-9475
线上	-9476
编写	-9477
苹果	-9478
范双	-9479
范围	-9480
茅盾	-9481
茫茫	-9482
茵的	-9483
荣立	-9484
莅渝	-9485
莎白	-9486
莫大	-9487
菠菜	-9488
萝卜	-9489
著作	-9490
著名	-9491
董事	-9492
董建	-9493
葫芦	-9494
蒙山	-9495
蒸汽	-9496
蒸蒸	-9497
蓝的	-9498
蔓延	-9499
一国	-9500
丁玉	-9501
世间	-9502
个大	-9503
中小	-9504
主持	-9505
之争	-9506
九七	-9507
事故	-9508
代化	-9509
价格	-9510
休眠	-9511
优秀	-9512
会上	-9513
何鲁	-9514
保证	-9515
做好	-9516
元的	-9517
全体	-9518
共产	-9519
兵器	-9520
再就	-9521
军人	-9522
农户	-9523
出台	-9524
力量	-9525
加强	-9526
动摇	-9527
势下	-9528
十五	-9529
协会	-9530
周年	-9531
呼吁	-9532
国春	-9533
国的	-9534
图为	-9535
地位	-9536
地的	-9537
坐到	-9538
处的	-9539
大中	-9540
如果	-9541
安理	-9542
将有	-9543
小伙	-9544
居民	-9545
干脆	-9546
总额	-9547
户办	-9548
户头	-9549
房前	-9550
担任	-9551
振兴	-9552
推行	-9553
搜集	-9554
是在	-9555
来写	-9556
杨子	-9557
极大	-9558
比克	-9559
比额	-9560
汇率	-9561
治国	-9562
洋洲	-9563
演员	-9564
漫灌	-9565
热泪	-9566
照片	-9567
特点	-9568
特色	-9569
犹戎	-9570
用途	-9571
畅顺	-9572
的文	-9573
的财	-9574
直接	-9575
矛盾	-9576
秘书	-9577
秦华	-9578
算论	-9579
经过	-9580
结束	-9581
绘画	-9582
继承	-9583
者奖	-9584
联欢	-9585
良好	-9586
落实	-9587
蒙古	-9588
蔬菜	-9589
蕴涵	-9590
蕾清	-9591
藏历	-9592
藏文	-9593
藏族	-9594
虚掩	-9595
虹花	-9596
血与	-9597
血病	-9598
行业	-9599
0%	-9600
24	-9601
▁	-9602
,	-9603
的	-9604
。	-9605
、	-9606
一	-9607
国	-9608
年	-9609
人	-9610
1	-9611
中	-9612
在	-9613
了	-9614
大	-9615
和	-9616
0	-9617
有	-9618
9	-9619
是	-9620
为	-9621
新	-9622
地	-9623
民	-9624
发	-9625
生	-9626
业	-9627
这	-9628
全	-9629
出	-9630
“	-9631
”	-9632
不	-9633
家	-9634
上	-9635
以	-9636
们	-9637
个	-9638
作	-9639
来	-9640
到	-9641
会	-9642
文	-9643
多	-9644
行	-9645
成	-9646
日	-9647
经	-9648
学	-9649
同	-9650
我	-9651
农	-9652
工	-9653
者	-9654
2	-9655
华	-9656
进	-9657
开	-9658
部	-9659
展	-9660
建	-9661
区	-9662
对	-9663
市	-9664
.	-9665
主	-9666
时	-9667
元	-9668
水	-9669
要	-9670
自	-9671
与	-9672
政	-9673
重	-9674
动	-9675
本	-9676
他	-9677
产	-9678
月	-9679
于	-9680
实	-9681
下	-9682
8	-9683
3	-9684
前	-9685
利	-9686
现	-9687
记	-9688
加	-9689
高	-9690
之	-9691
社	-9692
村	-9693
理	-9694
万	-9695
事	-9696
两	-9697
化	-9698
而	-9699
各	-9700
心	-9701
起	-9702
长	-9703
面	-9704
5	-9705
代	-9706
关	-9707
报	-9708
济	-9709
小	-9710
(	-9711
)	-9712
其	-9713
史	-9714
方	-9715
表	-9716
南	-9717
美	-9718
6	-9719
世	-9720
合	-9721
明	-9722
7	-9723
使	-9724
就	-9725
设	-9726
说	-9727
:	-9728
将	-9729
好	-9730
通	-9731
—	-9732
活	-9733
等	-9734
交	-9735
天	-9736
界	-9737
统	-9738
《	-9739
》	-9740
书	-9741
共	-9742
平	-9743
也	-9744
着	-9745
历	-9746
过	-9747
里	-9748
场	-9749
定	-9750
分	-9751
入	-9752
后	-9753
外	-9754
计	-9755
4	-9756
北	-9757
十	-9758
资	-9759
改	-9760
从	-9761
公	-9762
得	-9763
金	-9764
体	-9765
电	-9766
道	-9767
制	-9768
用	-9769
县	-9770
次	-9771
系	-9772
党	-9773
力	-9774
总	-9775
持	-9776
港	-9777
特	-9778
并	-9779
结	-9780
路	-9781
;	-9782
军	-9783
基	-9784
程	-9785
向	-9786
子	-9787
度	-9788
香	-9789
户	-9790
西	-9791
达	-9792
可	-9793
困	-9794
当	-9795
育	-9796
目	-9797
种	-9798
员	-9799
已	-9800
广	-9801
三	-9802
创	-9803
山	-9804
气	-9805
还	-9806
题	-9807
划	-9808
去	-9809
强	-9810
机	-9811
正	-9812
治	-9813
集	-9814
京	-9815
务	-9816
提	-9817
术	-9818
能	-9819
问	-9820
性	-9821
步	-9822
九	-9823
安	-9824
企	-9825
位	-9826
名	-9827
少	-9828
然	-9829
第	-9830
都	-9831
非	-9832
今	-9833
先	-9834
内	-9835
情	-9836
所	-9837
老	-9838
解	-9839
乡	-9840
导	-9841
版	-9842
立	-9843
精	-9844
联	-9845
及	-9846
品	-9847
府	-9848
收	-9849
江	-9850
门	-9851
间	-9852
委	-9853
意	-9854
无	-9855
法	-9856
乐	-9857
如	-9858
推	-9859
此	-9860
增	-9861
画	-9862
管	-9863
举	-9864
团	-9865
最	-9866
由	-9867
古	-9868
式	-9869
海	-9870
物	-9871
贫	-9872
战	-9873
图	-9874
更	-9875
难	-9876
些	-9877
保	-9878
放	-9879
样	-9880
论	-9881
革	-9882
传	-9883
形	-9884
把	-9885
相	-9886
近	-9887
城	-9888
布	-9889
组	-9890
车	-9891
领	-9892
群	-9893
际	-9894
首	-9895
义	-9896
五	-9897
点	-9898
节	-9899
协	-9900
岸	-9901
每	-9902
深	-9903
青	-9904
众	-9905
处	-9906
志	-9907
又	-9908
干	-9909
示	-9910
风	-9911
原	-9912
取	-9913
回	-9914
局	-9915
庆	-9916
张	-9917
投	-9918
祖	-9919
续	-9920
被	-9921
%	-9922
神	-9923
项	-9924
亿	-9925
决	-9926
厂	-9927
数	-9928
省	-9929
给	-9930
馆	-9931
优	-9932
台	-9933
应	-9934
引	-9935
想	-9936
据	-9937
服	-9938
条	-9939
田	-9940
纪	-9941
职	-9942
院	-9943
二	-9944
云	-9945
施	-9946
织	-9947
致	-9948
色	-9949
造	-9950
但	-9951
始	-9952
手	-9953
指	-9954
期	-9955
极	-9956
欢	-9957
比	-9958
流	-9959
演	-9960
队	-9961
坚	-9962
带	-9963
视	-9964
那	-9965
势	-9966
参	-9967
她	-9968
片	-9969
级	-9970
象	-9971
量	-9972
龙	-9973
东	-9974
思	-9975
支	-9976
族	-9977
环	-9978
益	-9979
盛	-9980
调	-9981
值	-9982
受	-9983
币	-9984
感	-9985
技	-9986
接	-9987
看	-9988
继	-9989
花	-9990
话	-9991
光	-9992
别	-9993
变	-9994
型	-9995
央	-9996
整	-9997
率	-9998
严	-9999
再	-10000
几	-10001
口	-10002
常	-10003
快	-10004
斯	-10005
望	-10006
祝	-10007
维	-10008
费	-10009
转	-10010
任	-10011
信	-10012
办	-10013
愿	-10014
效	-10015
认	-10016
音	-10017
头	-10018
格	-10019
艺	-10020
读	-10021
千	-10022
士	-10023
旦	-10024
果	-10025
百	-10026
直	-10027
真	-10028
积	-10029
选	-10030
亚	-10031
件	-10032
功	-10033
只	-10034
命	-10035
商	-10036
求	-10037
爱	-10038
空	-10039
良	-10040
英	-10041
议	-10042
写	-10043
卢	-10044
反	-10045
四	-10046
境	-10047
女	-10048
完	-10049
富	-10050
旗	-10051
林	-10052
知	-10053
至	-10054
藏	-10055
融	-10056
观	-10057
走	-10058
防	-10059
列	-10060
则	-10061
却	-10062
因	-10063
它	-10064
影	-10065
态	-10066
标	-10067
清	-10068
献	-10069
稳	-10070
考	-10071
规	-10072
身	-10073
迎	-10074
银	-10075
飞	-10076
专	-10077
兴	-10078
响	-10079
均	-10080
权	-10081
游	-10082
科	-10083
许	-10084
镇	-10085
降	-10086
马	-10087
做	-10088
八	-10089
助	-10090
双	-10091
己	-10092
德	-10093
李	-10094
温	-10095
类	-10096
讲	-10097
质	-10098
运	-10099
丛	-10100
争	-10101
切	-10102
归	-10103
往	-10104
拉	-10105
教	-10106
歌	-10107
没	-10108
源	-10109
王	-10110
见	-10111
边	-10112
连	-10113
兵	-10114
巴	-10115
彩	-10116
斗	-10117
确	-10118
航	-10119
评	-10120
钱	-10121
亩	-10122
况	-10123
副	-10124
域	-10125
夏	-10126
帮	-10127
必	-10128
扶	-10129
武	-10130
河	-10131
泽	-10132
满	-10133
略	-10134
础	-10135
笔	-10136
籍	-10137
编	-10138
货	-10139
?	-10140
俄	-10141
具	-10142
兼	-10143
友	-10144
告	-10145
园	-10146
存	-10147
才	-10148
景	-10149
研	-10150
究	-10151
红	-10152
线	-10153
装	-10154
识	-10155
额	-10156
供	-10157
努	-10158
升	-10159
半	-10160
川	-10161
很	-10162
护	-10163
故	-10164
款	-10165
照	-10166
脱	-10167
荣	-10168
街	-10169
该	-10170
责	-10171
七	-10172
价	-10173
减	-10174
周	-10175
善	-10176
复	-10177
尽	-10178
席	-10179
春	-10180
紧	-10181
罗	-10182
营	-10183
警	-10184
鲜	-10185
『	-10186
』	-10187
临	-10188
司	-10189
喜	-10190
夜	-10191
套	-10192
孙	-10193
庭	-10194
录	-10195
早	-10196
油	-10197
洲	-10198
球	-10199
米	-10200
繁	-10201
胞	-10202
范	-10203
谋	-10204
退	-10205
速	-10206
随	-10207
令	-10208
克	-10209
养	-10210
包	-10211
岁	-10212
扎	-10213
批	-10214
未	-10215
约	-10216
菜	-10217
著	-10218
谈	-10219
贺	-10220
较	-10221
远	-10222
雄	-10223
!	-10224
仅	-10225
何	-10226
依	-10227
刘	-10228
刻	-10229
占	-10230
印	-10231
声	-10232
孔	-10233
宁	-10234
密	-10235
尔	-10236
巨	-10237
念	-10238
慰	-10239
承	-10240
抓	-10241
摄	-10242
显	-10243
梁	-10244
注	-10245
火	-10246
热	-10247
落	-10248
证	-10249
采	-10250
驻	-10251
黄	-10252
午	-10253
土	-10254
奋	-10255
客	-10256
宣	-10257
尼	-10258
州	-10259
希	-10260
庄	-10261
底	-10262
或	-10263
曲	-10264
案	-10265
模	-10266
澳	-10267
激	-10268
称	-10269
终	-10270
贸	-10271
述	-10272
送	-10273
针	-10274
雨	-10275
震	-10276
鱼	-10277
份	-10278
伍	-10279
伟	-10280
健	-10281
儿	-10282
准	-10283
初	-10284
卡	-10285
召	-10286
容	-10287
曾	-10288
独	-10289
破	-10290
章	-10291
艰	-10292
访	-10293
负	-10294
阳	-10295
丽	-10296
乎	-10297
仪	-10298
低	-10299
便	-10300
卫	-10301
即	-10302
号	-10303
备	-10304
居	-10305
怀	-10306
按	-10307
挥	-10308
斤	-10309
断	-10310
晚	-10311
材	-10312
构	-10313
波	-10314
派	-10315
琛	-10316
禁	-10317
福	-10318
纷	-10319
购	-10320
贵	-10321
超	-10322
迹	-10323
雪	-10324
韩	-10325
么	-10326
亡	-10327
亲	-10328
仍	-10329
伤	-10330
促	-10331
典	-10332
冷	-10333
劳	-10334
围	-10335
塔	-10336
奇	-10337
座	-10338
康	-10339
排	-10340
探	-10341
控	-10342
烈	-10343
石	-10344
纳	-10345
聚	-10346
胡	-10347
让	-10348
讯	-10349
逐	-10350
销	-10351
·	-10352
住	-10353
侨	-10354
充	-10355
冬	-10356
夫	-10357
寒	-10358
察	-10359
息	-10360
散	-10361
映	-10362
智	-10363
查	-10364
汇	-10365
泾	-10366
状	-10367
珍	-10368
登	-10369
眼	-10370
素	-10371
署	-10372
背	-10373
舞	-10374
苦	-10375
茶	-10376
财	-10377
足	-10378
辉	-10379
验	-10380
’	-10381
刚	-10382
卖	-10383
危	-10384
吕	-10385
吸	-10386
字	-10387
徐	-10388
救	-10389
旧	-10390
根	-10391
死	-10392
段	-10393
消	-10394
湾	-10395
留	-10396
白	-10397
短	-10398
突	-10399
策	-10400
纸	-10401
胜	-10402
谁	-10403
邓	-10404
郑	-10405
阶	-10406
互	-10407
余	-10408
你	-10409
佳	-10410
兰	-10411
剧	-10412
勒	-10413
厚	-10414
唱	-10415
妇	-10416
幅	-10417
序	-10418
待	-10419
忘	-10420
恢	-10421
易	-10422
树	-10423
浩	-10424
瑞	-10425
粮	-10426
补	-10427
言	-10428
贷	-10429
轻	-10430
遗	-10431
陈	-10432
需	-10433
顿	-10434
齐	-10435
且	-10436
丰	-10437
修	-10438
停	-10439
像	-10440
勃	-10441
医	-10442
器	-10443
墨	-10444
太	-10445
层	-10446
担	-10447
拥	-10448
括	-10449
拿	-10450
振	-10451
措	-10452
敬	-10453
旅	-10454
暖	-10455
束	-10456
架	-10457
氛	-10458
焦	-10459
玉	-10460
索	-10461
荒	-10462
虽	-10463
觉	-10464
角	-10465
越	-10466
跨	-10467
追	-10468
阵	-10469
阿	-10470
限	-10471
食	-10472
丝	-10473
久	-10474
习	-10475
判	-10476
单	-10477
厅	-10478
叙	-10479
启	-10480
哈	-10481
失	-10482
官	-10483
审	-10484
律	-10485
怎	-10486
拍	-10487
捐	-10488
普	-10489
横	-10490
玲	-10491
班	-10492
甚	-10493
秀	-10494
筹	-10495
篇	-10496
置	-10497
股	-10498
蒙	-10499
誉	-10500
词	-10501
请	-10502
趋	-10503
辆	-10504
辞	-10505
适	-10506
遇	-10507
顺	-10508
须	-10509
鸣	-10510
丁	-10511
买	-10512
候	-10513
六	-10514
冲	-10515
博	-10516
另	-10517
呼	-10518
坦	-10519
奏	-10520
宾	-10521
属	-10522
峰	-10523
忧	-10524
房	-10525
托	-10526
扬	-10527
拓	-10528
挤	-10529
摆	-10530
料	-10531
既	-10532
星	-10533
朋	-10534
木	-10535
析	-10536
止	-10537
润	-10538
潮	-10539
爸	-10540
筑	-10541
纯	-10542
绍	-10543
绩	-10544
绿	-10545
耶	-10546
肉	-10547
舍	-10548
若	-10549
违	-10550
配	-10551
钟	-10552
闻	-10553
附	-10554
静	-10555
预	-10556
鼓	-10557
乌	-10558
什	-10559
介	-10560
伊	-10561
偏	-10562
击	-10563
右	-10564
坡	-10565
培	-10566
壮	-10567
夕	-10568
奶	-10569
岗	-10570
帜	-10571
征	-10572
恩	-10573
悲	-10574
惠	-10575
描	-10576
援	-10577
搞	-10578
朝	-10579
朱	-10580
松	-10581
殖	-10582
毛	-10583
泛	-10584
洁	-10585
浙	-10586
渐	-10587
湖	-10588
灵	-10589
煌	-10590
离	-10591
秦	-10592
税	-10593
竟	-10594
童	-10595
纽	-10596
综	-10597
脑	-10598
莫	-10599
萨	-10600
语	-10601
谓	-10602
谢	-10603
赞	-10604
跃	-10605
跑	-10606
载	-10607
透	-10608
雅	-10609
雷	-10610
休	-10611
伴	-10612
倡	-10613
凡	-10614
吨	-10615
听	-10616
圳	-10617
奖	-10618
妈	-10619
孤	-10620
尊	-10621
尤	-10622
届	-10623
左	-10624
差	-10625
师	-10626
扩	-10627
找	-10628
挑	-10629
换	-10630
授	-10631
摊	-10632
板	-10633
桑	-10634
欣	-10635
永	-10636
沙	-10637
渡	-10638
滨	-10639
灌	-10640
瓜	-10641
疆	-10642
病	-10643
监	-10644
盾	-10645
秩	-10646
穿	-10647
窗	-10648
签	-10649
简	-10650
耕	-10651
胀	-10652
脚	-10653
苏	-10654
获	-10655
蔬	-10656
血	-10657
衣	-10658
贡	-10659
赠	-10660
遍	-10661
键	-10662
阅	-10663
露	-10664
C	-10665
°	-10666
‘	-10667
亮	-10668
劲	-10669
勇	-10670
叶	-10671
吁	-10672
吴	-10673
哲	-10674
喷	-10675
坝	-10676
妹	-10677
妻	-10678
季	-10679
孩	-10680
延	-10681
异	-10682
役	-10683
彻	-10684
循	-10685
忆	-10686
忠	-10687
悟	-10688
抗	-10689
拱	-10690
挂	-10691
播	-10692
敢	-10693
核	-10694
桥	-10695
概	-10696
氏	-10697
沧	-10698
沼	-10699
泰	-10700
涨	-10701
淡	-10702
渠	-10703
烂	-10704
烟	-10705
狂	-10706
矛	-10707
秋	-10708
租	-10709
站	-10710
竞	-10711
细	-10712
缓	-10713
羊	-10714
翻	-10715
般	-10716
荡	-10717
董	-10718
衡	-10719
触	-10720
誓	-10721
豆	-10722
豪	-10723
貌	-10724
赏	-10725
赢	-10726
迈	-10727
迟	-10728
逾	-10729
邮	-10730
醒	-10731
陆	-10732
除	-10733
靠	-10734
骨	-10735
鲁	-10736
付	-10737
似	-10738
例	-10739
倒	-10740
兑	-10741
冉	-10742
净	-10743
刊	-10744
卷	-10745
压	-10746
呈	-10747
呢	-10748
味	-10749
哥	-10750
固	-10751
圣	-10752
坐	-10753
块	-10754
堵	-10755
塞	-10756
够	-10757
宗	-10758
岭	-10759
幼	-10760
惊	-10761
懈	-10762
执	-10763
招	-10764
旋	-10765
末	-10766
杨	-10767
梅	-10768
棚	-10769
森	-10770
楼	-10771
欠	-10772
毅	-10773
毫	-10774
沉	-10775
沟	-10776
津	-10777
洪	-10778
浓	-10779
涉	-10780
涵	-10781
溉	-10782
滚	-10783
漠	-10784
潜	-10785
灯	-10786
灾	-10787
疑	-10788
盘	-10789
竹	-10790
笑	-10791
算	-10792
粉	-10793
累	-10794
练	-10795
绘	-10796
绝	-10797
缘	-10798
缩	-10799
胆	-10800
脸	-10801
菲	-10802
蕊	-10803
览	-10804
订	-10805
训	-10806
贯	-10807
贴	-10808
贾	-10809
趣	-10810
踏	-10811
邻	-10812
险	-10813
隆	-10814
频	-10815
鹏	-10816
‰	-10817
丹	-10818
乱	-10819
享	-10820
仁	-10821
仰	-10822
佩	-10823
俊	-10824
偿	-10825
册	-10826
冒	-10827
冰	-10828
剖	-10829
匙	-10830
吃	-10831
吗	-10832
嘉	-10833
囊	-10834
垦	-10835
堂	-10836
姐	-10837
宪	-10838
屋	-10839
峡	-10840
崇	-10841
幕	-10842
库	-10843
微	-10844
急	-10845
恭	-10846
悦	-10847
打	-10848
抢	-10849
择	-10850
挺	-10851
掉	-10852
掘	-10853
揭	-10854
搜	-10855
撤	-10856
撰	-10857
攻	-10858
旨	-10859
昌	-10860
晨	-10861
曹	-10862
枪	-10863
染	-10864
校	-10865
植	-10866
毁	-10867
毕	-10868
汉	-10869
泳	-10870
洋	-10871
浪	-10872
淮	-10873
灭	-10874
灿	-10875
炼	-10876
煤	-10877
爆	-10878
猪	-10879
瓦	-10880
盖	-10881
硬	-10882
礼	-10883
祥	-10884
票	-10885
端	-10886
绵	-10887
缺	-10888
耀	-10889
肯	-10890
胸	-10891
芳	-10892
蓝	-10893
诗	-10894
诚	-10895
课	-10896
谱	-10897
跌	-10898
轨	-10899
输	-10900
钥	-10901
铁	-10902
阔	-10903
陀	-10904
隔	-10905
障	-10906
零	-10907
页	-10908
饲	-10909
鸡	-10910
鸿	-10911
黎	-10912
黑	-10913
默	-10914
龚	-10915
佐	-10916
债	-10917
假	-10918
凝	-10919
凯	-10920
剩	-10921
叫	-10922
吐	-10923
含	-10924
售	-10925
坏	-10926
塘	-10927
奔	-10928
奥	-10929
妙	-10930
妥	-10931
姑	-10932
姜	-10933
威	-10934
宅	-10935
宏	-10936
宜	-10937
宝	-10938
宽	-10939
寄	-10940
寡	-10941
寻	-10942
履	-10943
岛	-10944
巩	-10945
床	-10946
弟	-10947
径	-10948
忙	-10949
恰	-10950
恶	-10951
悉	-10952
截	-10953
拔	-10954
拘	-10955
拜	-10956
挖	-10957
掌	-10958
插	-10959
握	-10960
操	-10961
敏	-10962
敞	-10963
斑	-10964
旱	-10965
昭	-10966
某	-10967
栋	-10968
检	-10969
榭	-10970
欧	-10971
汪	-10972
泉	-10973
洗	-10974
测	-10975
涌	-10976
淀	-10977
添	-10978
滴	-10979
漫	-10980
濒	-10981
灶	-10982
炸	-10983
牌	-10984
牡	-10985
牵	-10986
猎	-10987
玩	-10988
珠	-10989
男	-10990
畅	-10991
畜	-10992
番	-10993
睦	-10994
矿	-10995
禽	-10996
秘	-10997
穷	-10998
窥	-10999
篆	-11000
篓	-11001
纲	-11002
缔	-11003
翁	-11004
肩	-11005
膨	-11006
艳	-11007
蓄	-11008
蓬	-11009
衷	-11010
袭	-11011
覆	-11012
试	-11013
详	-11014
谨	-11015
账	-11016
赛	-11017
赶	-11018
软	-11019
辈	-11020
辖	-11021
迁	-11022
迅	-11023
迪	-11024
途	-11025
遣	-11026
郁	-11027
郭	-11028
野	-11029
锋	-11030
锡	-11031
闭	-11032
阻	-11033
陵	-11034
顶	-11035
顾	-11036
颜	-11037
飘	-11038
驱	-11039
鸟	-11040
/	-11041
A	-11042
B	-11043
丧	-11044
串	-11045
乃	-11046
乏	-11047
乔	-11048
乳	-11049
予	-11050
仓	-11051
伙	-11052
佛	-11053
俗	-11054
倍	-11055
储	-11056
允	-11057
励	-11058
卉	-11059
厦	-11060
否	-11061
吹	-11062
咱	-11063
啊	-11064
喝	-11065
嘴	-11066
址	-11067
坛	-11068
坪	-11069
堡	-11070
夺	-11071
奉	-11072
婚	-11073
媒	-11074
宫	-11075
寺	-11076
封	-11077
射	-11078
尉	-11079
尝	-11080
尾	-11081
屏	-11082
岚	-11083
峻	-11084
帧	-11085
弃	-11086
弥	-11087
弦	-11088
彭	-11089
徊	-11090
徘	-11091
徽	-11092
恒	-11093
患	-11094
愉	-11095
慎	-11096
慧	-11097
憾	-11098
懂	-11099
戈	-11100
抵	-11101
损	-11102
摇	-11103
旁	-11104
昆	-11105
昨	-11106
晤	-11107
朗	-11108
朴	-11109
杰	-11110
柏	-11111
柱	-11112
柴	-11113
桂	-11114
梦	-11115
棉	-11116
椒	-11117
残	-11118
池	-11119
汽	-11120
沪	-11121
泄	-11122
泣	-11123
泥	-11124
泪	-11125
洒	-11126
浇	-11127
滋	-11128
潘	-11129
灰	-11130
炮	-11131
燃	-11132
父	-11133
爷	-11134
牖	-11135
牧	-11136
犹	-11137
狠	-11138
甘	-11139
眉	-11140
督	-11141
瞩	-11142
碌	-11143
祈	-11144
祷	-11145
竖	-11146
绕	-11147
络	-11148
网	-11149
翰	-11150
翼	-11151
耘	-11152
聪	-11153
腮	-11154
腹	-11155
船	-11156
艾	-11157
茭	-11158
药	-11159
蒸	-11160
蔓	-11161
蔚	-11162
虎	-11163
虑	-11164
虹	-11165
衰	-11166
讨	-11167
诉	-11168
诊	-11169
诸	-11170
诺	-11171
谊	-11172
贤	-11173
赖	-11174
赴	-11175
赵	-11176
轮	-11177
辙	-11178
辛	-11179
辣	-11180
逊	-11181
逛	-11182
遥	-11183
邦	-11184
酋	-11185
酒	-11186
钢	-11187
铺	-11188
镕	-11189
闪	-11190
闹	-11191
韵	-11192
颇	-11193
饮	-11194
馨	-11195
驶	-11196
驾	-11197
骤	-11198
鬼	-11199
魂	-11200
魄	-11201
鹰	-11202
麻	-11203
乾	-11204
井	-11205
亦	-11206
亭	-11207
仆	-11208
仿	-11209
伐	-11210
伦	-11211
侠	-11212
侧	-11213
倘	-11214
借	-11215
倦	-11216
倾	-11217
催	-11218
傲	-11219
兄	-11220
兆	-11221
免	-11222
凌	-11223
剑	-11224
割	-11225
劣	-11226
劫	-11227
勋	-11228
募	-11229
勤	-11230
匆	-11231
卜	-11232
句	-11233
叭	-11234
吉	-11235
哀	-11236
哪	-11237
喇	-11238
圆	-11239
垫	-11240
堆	-11241
堪	-11242
塑	-11243
墙	-11244
奠	-11245
妨	-11246
姨	-11247
姻	-11248
娃	-11249
娓	-11250
娱	-11251
孝	-11252
守	-11253
宋	-11254
室	-11255
害	-11256
宿	-11257
寂	-11258
寓	-11259
尖	-11260
尚	-11261
尺	-11262
屡	-11263
岩	-11264
崭	-11265
巧	-11266
巷	-11267
帷	-11268
幸	-11269
廉	-11270
弱	-11271
彦	-11272
彬	-11273
彼	-11274
忽	-11275
怕	-11276
悠	-11277
惜	-11278
惯	-11279
惶	-11280
慨	-11281
戎	-11282
戒	-11283
扫	-11284
扮	-11285
扰	-11286
披	-11287
抱	-11288
拒	-11289
拖	-11290
拨	-11291
拾	-11292
挚	-11293
挣	-11294
掩	-11295
揣	-11296
揽	-11297
搭	-11298
摘	-11299
摧	-11300
摩	-11301
摸	-11302
撼	-11303
敲	-11304
斌	-11305
斐	-11306
斓	-11307
旬	-11308
旺	-11309
昂	-11310
昼	-11311
晋	-11312
暗	-11313
杂	-11314
杜	-11315
杭	-11316
枝	-11317
柳	-11318
柿	-11319
框	-11320
桌	-11321
档	-11322
椅	-11323
欲	-11324
歧	-11325
殃	-11326
殊	-11327
沈	-11328
沿	-11329
洞	-11330
洼	-11331
浜	-11332
湿	-11333
溪	-11334
滞	-11335
漾	-11336
澄	-11337
烧	-11338
烽	-11339
熊	-11340
熟	-11341
牛	-11342
狭	-11343
猛	-11344
玛	-11345
珮	-11346
琴	-11347
琼	-11348
甜	-11349
申	-11350
畔	-11351
疏	-11352
疗	-11353
痕	-11354
痪	-11355
瘫	-11356
皇	-11357
皎	-11358
盆	-11359
盗	-11360
眠	-11361
眺	-11362
睹	-11363
码	-11364
砖	-11365
硕	-11366
硝	-11367
磨	-11368
私	-11369
秧	-11370
移	-11371
稀	-11372
笛	-11373
笼	-11374
答	-11375
箫	-11376
粗	-11377
粹	-11378
糊	-11379
纵	-11380
纺	-11381
绣	-11382
绳	-11383
绸	-11384
缅	-11385
缚	-11386
缤	-11387
罕	-11388
罚	-11389
罢	-11390
羽	-11391
耳	-11392
肖	-11393
脆	-11394
脉	-11395
脏	-11396
腐	-11397
腾	-11398
臣	-11399
舆	-11400
舟	-11401
苍	-11402
茂	-11403
茫	-11404
茵	-11405
草	-11406
莽	-11407
萝	-11408
萧	-11409
蒂	-11410
蕴	-11411
蕾	-11412
藉	-11413
虚	-11414
蛋	-11415
蜜	-11416
袋	-11417
袱	-11418
裁	-11419
裂	-11420
裕	-11421
译	-11422
诞	-11423
谦	-11424
谷	-11425
豫	-11426
贪	-11427
赤	-11428
赫	-11429
跋	-11430
跳	-11431
践	-11432
踞	-11433
轰	-11434
辄	-11435
辐	-11436
辑	-11437
辟	-11438
返	-11439
迭	-11440
逝	-11441
逢	-11442
邀	-11443
邹	-11444
钞	-11445
钦	-11446
钻	-11447
锐	-11448
锤	-11449
锦	-11450
闯	-11451
阐	-11452
阴	-11453
陪	-11454
陶	-11455
隐	-11456
雀	-11457
雕	-11458
韧	-11459
餐	-11460
饱	-11461
饺	-11462
骄	-11463
鸠	-11464
鼠	-11465
丈	-11466
乘	-11467
亏	-11468
仇	-11469
仔	-11470
伏	-11471
伯	-11472
估	-11473
伸	-11474
佯	-11475
俏	-11476
俘	-11477
俨	-11478
俯	-11479
俱	-11480
倔	-11481
倪	-11482
偷	-11483
傅	-11484
傍	-11485
僧	-11486
僵	-11487
儒	-11488
兹	-11489
冠	-11490
冯	-11491
冶	-11492
冻	-11493
凤	-11494
凭	-11495
凶	-11496
凸	-11497
刃	-11498
刷	-11499
券	-11500
剂	-11501
削	-11502
剥	-11503
剪	-11504
剿	-11505
劈	-11506
劼	-11507
勉	-11508
勘	-11509
勾	-11510
匠	-11511
卧	-11512
卯	-11513
卿	-11514
厉	-11515
厌	-11516
叉	-11517
叔	-11518
叩	-11519
叱	-11520
叹	-11521
吟	-11522
吧	-11523
呕	-11524
咏	-11525
咤	-11526
咨	-11527
哄	-11528
哇	-11529
哩	-11530
唐	-11531
喊	-11532
喧	-11533
喻	-11534
嘎	-11535
嘘	-11536
嘱	-11537
嘹	-11538
圈	-11539
圾	-11540
坎	-11541
坤	-11542
坷	-11543
垂	-11544
垃	-11545
垄	-11546
垠	-11547
埃	-11548
埔	-11549
堑	-11550
堤	-11551
墓	-11552
墟	-11553
壳	-11554
夸	-11555
夹	-11556
奴	-11557
姆	-11558
姓	-11559
娇	-11560
娶	-11561
媚	-11562
媳	-11563
嫁	-11564
嫩	-11565
孚	-11566
寞	-11567
寨	-11568
寸	-11569
尘	-11570
尸	-11571
尹	-11572
屈	-11573
屿	-11574
岂	-11575
岱	-11576
峭	-11577
崔	-11578
崖	-11579
崛	-11580
嵌	-11581
嵩	-11582
巡	-11583
巾	-11584
帅	-11585
帐	-11586
帕	-11587
帘	-11588
帙	-11589
帝	-11590
帽	-11591
幄	-11592
幽	-11593
庙	-11594
废	-11595
弄	-11596
弊	-11597
弗	-11598
弯	-11599
弹	-11600
忍	-11601
怒	-11602
怜	-11603
怠	-11604
怨	-11605
恋	-11606
恍	-11607
恐	-11608
恤	-11609
恨	-11610
恺	-11611
悄	-11612
悔	-11613
您	-11614
悬	-11615
悸	-11616
惨	-11617
惬	-11618
愁	-11619
愤	-11620
愫	-11621
慢	-11622
慷	-11623
憨	-11624
憬	-11625
戴	-11626
扇	-11627
扉	-11628
扑	-11629
扣	-11630
扭	-11631
抄	-11632
抒	-11633
折	-11634
抛	-11635
抠	-11636
抬	-11637
抽	-11638
拆	-11639
拗	-11640
拙	-11641
拟	-11642
拢	-11643
拦	-11644
拮	-11645
拼	-11646
挡	-11647
挨	-11648
挫	-11649
捉	-11650
捍	-11651
捧	-11652
捷	-11653
掏	-11654
掬	-11655
搁	-11656
搏	-11657
搬	-11658
撑	-11659
撒	-11660
撷	-11661
攀	-11662
攥	-11663
敌	-11664
斡	-11665
晓	-11666
晴	-11667
暇	-11668
暴	-11669
曙	-11670
曝	-11671
曼	-11672
替	-11673
朵	-11674
朽	-11675
杀	-11676
杆	-11677
杈	-11678
杞	-11679
杯	-11680
枚	-11681
枸	-11682
柔	-11683
柘	-11684
栏	-11685
栓	-11686
栖	-11687
桃	-11688
梓	-11689
梭	-11690
梯	-11691
械	-11692
棋	-11693
棒	-11694
楚	-11695
榫	-11696
槟	-11697
樊	-11698
歼	-11699
殷	-11700
母	-11701
氢	-11702
氤	-11703
氲	-11704
汀	-11705
汗	-11706
汛	-11707
汝	-11708
污	-11709
汤	-11710
汾	-11711
沂	-11712
沥	-11713
沫	-11714
沾	-11715
泸	-11716
泻	-11717
浅	-11718
浑	-11719
浦	-11720
浮	-11721
浸	-11722
涂	-11723
涅	-11724
涛	-11725
涝	-11726
涣	-11727
涪	-11728
涯	-11729
淌	-11730
淳	-11731
混	-11732
渊	-11733
渝	-11734
渤	-11735
渥	-11736
溜	-11737
溧	-11738
溯	-11739
滥	-11740
滩	-11741
漏	-11742
漓	-11743
澈	-11744
澎	-11745
瀑	-11746
瀚	-11747
炉	-11748
炎	-11749
炽	-11750
烁	-11751
熔	-11752
燕	-11753
爪	-11754
牙	-11755
牢	-11756
牲	-11757
牺	-11758
犯	-11759
狱	-11760
狼	-11761
珊	-11762
琅	-11763
琦	-11764
瑙	-11765
瑚	-11766
瑰	-11767
瑶	-11768
甫	-11769
甲	-11770
疫	-11771
疾	-11772
症	-11773
痛	-11774
瘠	-11775
皆	-11776
皮	-11777
盈	-11778
盎	-11779
盏	-11780
盲	-11781
眷	-11782
睛	-11783
瞒	-11784
砂	-11785
砍	-11786
砚	-11787
碍	-11788
碎	-11789
碑	-11790
碰	-11791
磊	-11792
磋	-11793
禺	-11794
秒	-11795
秤	-11796
稍	-11797
稚	-11798
稻	-11799
稿	-11800
穆	-11801
窄	-11802
窘	-11803
竣	-11804
笃	-11805
笋	-11806
筛	-11807
筝	-11808
箱	-11809
箴	-11810
篮	-11811
粒	-11812
粪	-11813
粲	-11814
糅	-11815
糖	-11816
紫	-11817
纂	-11818
纠	-11819
纬	-11820
纶	-11821
绎	-11822
绑	-11823
绒	-11824
绚	-11825
绪	-11826
缕	-11827
缝	-11828
缭	-11829
缴	-11830
罐	-11831
罪	-11832
翅	-11833
翔	-11834
翠	-11835
耻	-11836
聘	-11837
肃	-11838
肤	-11839
肥	-11840
肴	-11841
肿	-11842
胁	-11843
脂	-11844
腊	-11845
腕	-11846
腰	-11847
膀	-11848
膏	-11849
臂	-11850
臆	-11851
臭	-11852
臾	-11853
舒	-11854
舰	-11855
芍	-11856
芒	-11857
芙	-11858
芜	-11859
芝	-11860
芦	-11861
芭	-11862
芹	-11863
苋	-11864
苗	-11865
苹	-11866
茄	-11867
茅	-11868
茨	-11869
荆	-11870
莅	-11871
莎	-11872
菊	-11873
菌	-11874
菠	-11875
萌	-11876
萍	-11877
葡	-11878
葫	-11879
葱	-11880
蓉	-11881
蕉	-11882
蕻	-11883
薄	-11884
薛	-11885
虬	-11886
蜕	-11887
衍	-11888
衔	-11889
袖	-11890
裹	-11891
觅	-11892
觑	-11893
觞	-11894
詹	-11895
讴	-11896
询	-11897
误	-11898
谭	-11899
豁	-11900
豌	-11901
豹	-11902
贝	-11903
贞	-11904
败	-11905
贩	-11906
贬	-11907
贱	-11908
贻	-11909
赁	-11910
赋	-11911
赐	-11912
赔	-11913
赡	-11914
赭	-11915
距	-11916
跟	-11917
跷	-11918
踢	-11919
踵	-11920
蹈	-11921
躺	-11922
轲	-11923
辅	-11924
辨	-11925
迄	-11926
逃	-11927
遏	-11928
遒	-11929
遮	-11930
遵	-11931
邕	-11932
邱	-11933
邵	-11934
邸	-11935
郊	-11936
郎	-11937
释	-11938
鉴	-11939
钓	-11940
钧	-11941
钩	-11942
铎	-11943
铣	-11944
铭	-11945
链	-11946
锁	-11947
锅	-11948
错	-11949
锣	-11950
锲	-11951
锻	-11952
镜	-11953
镶	-11954
闸	-11955
阂	-11956
阑	-11957
阖	-11958
陟	-11959
陡	-11960
陲	-11961
陷	-11962
隶	-11963
雁	-11964
雏	-11965
雯	-11966
雾	-11967
霎	-11968
霜	-11969
霞	-11970
霸	-11971
鞋	-11972
鞭	-11973
韦	-11974
颂	-11975
颖	-11976
颗	-11977
饥	-11978
饰	-11979
饼	-11980
饿	-11981
驰	-11982
骅	-11983
骑	-11984
骚	-11985
魁	-11986
魅	-11987
鲍	-11988
鲤	-11989
鲫	-11990
鲶	-11991
鳜	-11992
鸢	-11993
麦	-11994
黔	-11995
鼐	-11996
龄	-11997
