<pad>	0
[UNK]	0
▁,	-0
▁的	-1
▁。	-2
▁、	-3
▁中	-4
▁1	-5
▁一	-6
▁人	-7
▁和	-8
▁了	-9
▁在	-10
▁新	-11
▁大	-12
▁发	-13
▁国	-14
▁”	-15
▁是	-16
▁全	-17
▁地	-18
▁上	-19
▁这	-20
▁有	-21
▁为	-22
▁中国	-23
▁文	-24
▁农	-25
▁经	-26
▁年	-27
▁不	-28
▁出	-29
▁建	-30
▁19	-31
▁以	-32
▁我	-33
▁开	-34
▁生	-35
▁0	-36
▁199	-37
▁“	-38
▁工	-39
▁2	-40
▁多	-41
▁成	-42
▁对	-43
▁日	-44
▁他	-45
▁同	-46
▁政	-47
▁各	-48
▁自	-49
▁时	-50
▁重	-51
▁与	-52
▁进	-53
▁发展	-54
▁市	-55
▁来	-56
▁下	-57
▁主	-58
▁家	-59
▁经济	-60
▁人民	-61
▁世	-62
▁到	-63
▁之	-64
▁学	-65
▁记	-66
▁3	-67
▁两	-68
▁说	-69
▁水	-70
▁(	-71
▁实	-72
▁万	-73
▁共	-74
▁高	-75
▁本	-76
▁关	-77
▁历	-78
▁改	-79
▁起	-80
▁美	-81
▁会	-82
▁前	-83
▁作	-84
▁部	-85
▁》	-86
▁我们	-87
▁事	-88
▁北	-89
▁南	-90
▁特	-91
▁等	-92
..	-93
▁公	-94
▁总	-95
▁方	-96
▁小	-97
▁个	-98
▁华	-99
▁将	-100
▁香	-101
▁新年	-102
▁建设	-103
▁记者	-104
▁党	-105
▁村	-106
▁历史	-107
▁元	-108
▁化	-109
▁而	-110
▁加	-111
▁后	-112
▁;	-113
▁现	-114
▁一个	-115
▁5	-116
▁计	-117
▁6	-118
▁从	-119
▁代	-120
▁基	-121
▁社	-122
▁00	-123
▁香港	-124
▁全国	-125
▁于	-126
▁企	-127
▁第	-128
▁企业	-129
▁产	-130
▁提	-131
▁民	-132
▁要	-133
▁农业	-134
▁交	-135
▁就	-136
▁行	-137
▁资	-138
▁9	-139
▁已	-140
▁广	-141
▁国家	-142
▁计划	-143
▁:	-144
▁创	-145
▁推	-146
▁着	-147
▁面	-148
▁世界	-149
▁政府	-150
▁外	-151
▁4	-152
▁8	-153
▁过	-154
▁还	-155
▁里	-156
▁山	-157
▁性	-158
▁长	-159
▁集	-160
▁书	-161
▁县	-162
▁10	-163
▁工作	-164
▁《	-165
▁今	-166
▁户	-167
▁精	-168
▁三	-169
▁举	-170
▁其	-171
▁分	-172
▁利	-173
▁可	-174
▁好	-175
▁表	-176
▁十	-177
▁增	-178
▁当	-179
▁报	-180
▁活	-181
▁联	-182
▁通	-183
▁—	-184
▁也	-185
▁使	-186
▁安	-187
▁最	-188
▁正	-189
▁结	-190
▁军	-191
▁明	-192
▁由	-193
▁组	-194
▁7	-195
▁形	-196
▁所	-197
▁无	-198
▁电	-199
▁达	-200
▁保	-201
▁去	-202
▁如	-203
生育	-204
▁他们	-205
▁月	-206
▁近	-207
▁青	-208
▁首	-209
▁南非	-210
▁本报	-211
▁计划生育	-212
▁)	-213
▁战	-214
▁北京	-215
▁业	-216
▁先	-217
▁心	-218
▁投	-219
▁相	-220
▁管	-221
▁都	-222
▁出版	-223
▁社会	-224
▁原	-225
▁此	-226
▁气	-227
▁祖	-228
▁新的	-229
▁体	-230
▁内	-231
▁合	-232
▁图	-233
▁群	-234
▁金	-235
▁祖国	-236
▁优	-237
▁力	-238
▁区	-239
▁天	-240
▁委	-241
▁平	-242
▁收	-243
▁机	-244
▁每	-245
▁统	-246
▁能	-247
▁两岸	-248
▁活动	-249
▁们	-250
▁传	-251
▁名	-252
▁更	-253
▁次	-254
▁老	-255
▁问	-256
▁地区	-257
▁1997	-258
▁得	-259
▁江	-260
▁理	-261
▁用	-262
▁目	-263
▁生活	-264
▁改革	-265
▁进行	-266
▁回	-267
▁情	-268
▁意	-269
▁指	-270
▁解	-271
▁领	-272
▁工程	-273
▁文明	-274
▁亿	-275
▁制	-276
▁参	-277
▁深	-278
▁者	-279
▁职	-280
▁被	-281
▁动	-282
▁向	-283
▁子	-284
▁给	-285
▁节	-286
▁关系	-287
▁困	-288
▁城	-289
▁服	-290
▁继	-291
▁西	-292
▁路	-293
华社	-294
▁20	-295
▁农民	-296
▁职工	-297
▁新华社	-298
▁乡	-299
▁团	-300
▁坚	-301
▁处	-302
▁展	-303
▁带	-304
▁强	-305
▁思	-306
▁法	-307
▁看	-308
▁中央	-309
▁音	-310
▁实现	-311
▁第一	-312
▁精神	-313
▁群众	-314
▁问题	-315
▁.	-316
▁位	-317
▁又	-318
▁条	-319
▁盛	-320
▁致	-321
▁认	-322
▁1998	-323
▁及	-324
▁史	-325
▁据	-326
▁海	-327
▁维	-328
▁车	-329
▁那	-330
▁中华	-331
▁统一	-332
▁取	-333
▁环	-334
▁画	-335
▁道	-336
▁举行	-337
▁交通	-338
▁国际	-339
▁市场	-340
▁台	-341
▁完	-342
▁干	-343
▁引	-344
▁感	-345
▁把	-346
▁创作	-347
▁开始	-348
▁文化	-349
▁生产	-350
▁组织	-351
▁青年	-352
....	-353
▁再	-354
▁几	-355
▁千	-356
▁反	-357
▁她	-358
▁张	-359
▁数	-360
▁比	-361
▁”,	-362
▁代表	-363
▁元旦	-364
▁共同	-365
▁困难	-366
▁成为	-367
▁音乐	-368
▁东	-369
▁九	-370
▁整	-371
▁演	-372
▁级	-373
▁英	-374
▁规	-375
▁走	-376
▁转	-377
▁银	-378
▁题	-379
▁风	-380
▁领导	-381
▁%	-382
▁专	-383
▁严	-384
▁二	-385
▁卢	-386
▁厂	-387
▁科	-388
▁良	-389
▁——	-390
▁一年	-391
▁去年	-392
▁文学	-393
▁服务	-394
▁五	-395
▁定	-396
▁应	-397
▁欢	-398
▁祝	-399
▁稳	-400
▁系	-401
▁艺	-402
▁讲	-403
▁贫	-404
▁项	-405
云龙	-406
▁世纪	-407
▁了一	-408
▁事业	-409
▁今天	-410
▁方面	-411
▁的一	-412
▁结合	-413
▁自己	-414
▁重要	-415
▁银行	-416
▁丛	-417
▁入	-418
▁决	-419
▁协	-420
▁双	-421
▁只	-422
▁影	-423
▁支	-424
▁教	-425
▁然	-426
▁率	-427
▁省	-428
▁知	-429
▁积	-430
▁读	-431
▁连	-432
▁产业	-433
▁我国	-434
▁民族	-435
▁水利	-436
▁管理	-437
▁这一	-438
▁做	-439
▁局	-440
▁愿	-441
▁没	-442
▁点	-443
▁种	-444
▁万元	-445
▁丛书	-446
▁卢布	-447
▁基础	-448
▁村民	-449
▁美国	-450
▁盛云龙	-451
▁俄	-452
▁兵	-453
▁四	-454
▁因	-455
▁帮	-456
▁度	-457
▁手	-458
▁技	-459
▁流	-460
▁编	-461
▁考	-462
▁观	-463
▁许	-464
▁”。	-465
▁人的	-466
▁传统	-467
▁政治	-468
▁继续	-469
▁这个	-470
▁并	-471
▁很	-472
▁武	-473
▁物	-474
▁田	-475
▁选	-476
▁队	-477
▁12	-478
▁主要	-479
▁人们	-480
▁发表	-481
▁和平	-482
▁报道	-483
▁积极	-484
▁兼	-485
▁努	-486
▁少	-487
▁期	-488
▁步	-489
▁清	-490
▁爱	-491
▁真	-492
▁费	-493
▁运	-494
▁飞	-495
▁加强	-496
▁努力	-497
▁基本	-498
▁外交	-499
▁学者	-500
▁年来	-501
▁投资	-502
▁环境	-503
▁贫困	-504
▁资金	-505
▁金融	-506
▁信	-507
▁具	-508
▁减	-509
▁半	-510
▁受	-511
▁场	-512
▁女	-513
▁巴	-514
▁接	-515
▁标	-516
▁界	-517
▁百	-518
▁研	-519
▁紧	-520
▁设	-521
▁退	-522
▁马	-523
一步	-524
日电	-525
▁一些	-526
▁增长	-527
▁大使	-528
▁表示	-529
▁进一步	-530
▁1996	-531
▁义	-532
▁光	-533
▁办	-534
▁古	-535
▁尽	-536
▁想	-537
▁放	-538
▁林	-539
▁航	-540
▁货	-541
▁钱	-542
▁间	-543
▁作品	-544
▁取得	-545
▁开放	-546
▁总统	-547
▁目前	-548
▁研究	-549
▁稳定	-550
▁联合	-551
▁艺术	-552
▁出版社	-553
▁价	-554
▁任	-555
▁升	-556
▁占	-557
▁周	-558
▁商	-559
▁喜	-560
▁常	-561
▁往	-562
▁扶	-563
▁摄	-564
▁效	-565
▁春	-566
▁直	-567
▁脱	-568
▁论	-569
▁调	-570
▁谋	-571
▁身	-572
▁馆	-573
▁驻	-574
▁鲜	-575
▁书记	-576
▁保持	-577
▁全面	-578
▁公司	-579
▁干部	-580
▁影响	-581
▁收入	-582
▁没有	-583
▁考古	-584
▁自治	-585
▁许多	-586
▁通过	-587
▁重庆	-588
▁自己的	-589
▁『	-590
▁依	-591
▁兴	-592
▁写	-593
▁岁	-594
▁必	-595
▁志	-596
▁王	-597
▁立	-598
▁较	-599
▁迎	-600
▁人物	-601
▁作为	-602
▁可以	-603
▁同志	-604
▁坚持	-605
▁建立	-606
▁形成	-607
▁技术	-608
▁投入	-609
▁提供	-610
▁支持	-611
▁特别	-612
▁现代	-613
▁集团	-614
▁八	-615
▁刘	-616
▁则	-617
▁印	-618
▁却	-619
▁奋	-620
▁宣	-621
▁希	-622
▁慰	-623
▁未	-624
▁权	-625
▁歌	-626
▁澳	-627
▁笔	-628
▁至	-629
▁艰	-630
▁见	-631
▁警	-632
▁话	-633
▁贸	-634
▁防	-635
泽民	-636
美元	-637
▁上海	-638
▁中的	-639
▁人士	-640
▁以及	-641
▁出了	-642
▁参加	-643
▁同胞	-644
▁增加	-645
▁委员	-646
▁安全	-647
▁家庭	-648
▁已经	-649
▁开发	-650
▁提高	-651
▁美术	-652
▁货币	-653
▁起来	-654
▁集体	-655
▁———	-656
▁亿美元	-657
▁江泽民	-658
▁音乐会	-659
▁亚	-660
▁令	-661
▁包	-662
▁号	-663
▁宁	-664
▁彩	-665
▁快	-666
▁态	-667
▁才	-668
▁按	-669
▁故	-670
▁早	-671
▁河	-672
▁油	-673
▁满	-674
▁程	-675
▁空	-676
▁纪	-677
▁落	-678
▁谈	-679
▁象	-680
▁边	-681
▁量	-682
▁随	-683
▁难	-684
九九	-685
其琛	-686
▁80	-687
▁主义	-688
▁人员	-689
▁各地	-690
▁合作	-691
▁大学	-692
▁完成	-693
▁得到	-694
▁慰问	-695
▁成功	-696
▁教育	-697
▁日本	-698
▁时间	-699
▁有关	-700
▁自然	-701
▁还有	-702
▁一九九	-703
▁钱其琛	-704
▁些	-705
▁亩	-706
▁仍	-707
▁促	-708
▁健	-709
▁克	-710
▁初	-711
▁夜	-712
▁套	-713
▁它	-714
▁巨	-715
▁曾	-716
▁治	-717
▁温	-718
▁激	-719
▁独	-720
▁称	-721
▁色	-722
▁著	-723
▁藏	-724
▁负	-725
▁超	-726
▁逐	-727
▁造	-728
▁采	-729
▁门	-730
▁非	-731
仪式	-732
▁15	-733
▁人口	-734
▁优势	-735
▁先生	-736
▁关心	-737
▁农村	-738
▁创造	-739
▁回归	-740
▁团结	-741
▁图片	-742
▁广大	-743
▁思想	-744
▁扶贫	-745
▁推动	-746
▁提出	-747
▁政协	-748
▁的人	-749
▁解决	-750
▁资源	-751
▁过去	-752
▁自治区	-753
▁....	-754
▁......	-755
▁仅	-756
▁伟	-757
▁便	-758
▁充	-759
▁副	-760
▁即	-761
▁变	-762
▁员	-763
▁品	-764
▁头	-765
▁奇	-766
▁孔	-767
▁孙	-768
▁客	-769
▁导	-770
▁布	-771
▁座	-772
▁持	-773
▁李	-774
▁极	-775
▁波	-776
▁游	-777
▁火	-778
▁版	-779
▁状	-780
▁米	-781
▁繁	-782
▁背	-783
▁花	-784
▁该	-785
▁黄	-786
▁下降	-787
▁两国	-788
▁今年	-789
▁全球	-790
▁全部	-791
▁决定	-792
▁减少	-793
▁各界	-794
▁山区	-795
▁希望	-796
▁帮助	-797
▁开展	-798
▁成就	-799
▁来自	-800
▁每年	-801
▁澳门	-802
▁英雄	-803
▁读者	-804
▁起了	-805
:“	-806
▁云	-807
▁亲	-808
▁份	-809
▁众	-810
▁低	-811
▁养	-812
▁劳	-813
▁危	-814
▁友	-815
▁吕	-816
▁吸	-817
▁园	-818
▁型	-819
▁存	-820
▁居	-821
▁庆	-822
▁探	-823
▁曲	-824
▁望	-825
▁热	-826
▁照	-827
▁确	-828
▁示	-829
▁茶	-830
▁访	-831
▁财	-832
▁送	-833
▁邓	-834
▁郑	-835
▁销	-836
▁阶	-837
▁革	-838
▁韩	-839
也纳	-840
▁30	-841
▁万人	-842
▁中心	-843
▁为主	-844
▁乡镇	-845
▁促进	-846
▁全区	-847
▁公路	-848
▁兼并	-849
▁参与	-850
▁双泾	-851
▁吕梁	-852
▁好的	-853
▁宁夏	-854
▁小型	-855
▁开馆	-856
▁所有	-857
▁推进	-858
▁条件	-859
▁来的	-860
▁由于	-861
▁脱贫	-862
▁节日	-863
▁西藏	-864
▁认为	-865
▁谋略	-866
▁进入	-867
▁退伍	-868
▁韩国	-869
▁维也纳	-870
▁!	-871
▁’	-872
▁乐	-873
▁典	-874
▁冷	-875
▁卡	-876
▁卫	-877
▁召	-878
▁徐	-879
▁恢	-880
▁承	-881
▁抓	-882
▁拉	-883
▁晚	-884
▁根	-885
▁格	-886
▁登	-887
▁眼	-888
▁粮	-889
▁线	-890
▁终	-891
▁罗	-892
▁街	-893
▁装	-894
▁让	-895
▁贵	-896
▁贺	-897
、《	-898
和国	-899
小平	-900
▁一起	-901
▁严重	-902
▁人均	-903
▁亿元	-904
▁会议	-905
▁伟大	-906
▁全市	-907
▁具有	-908
▁危机	-909
▁台湾	-910
▁学术	-911
▁带来	-912
▁形式	-913
▁报告	-914
▁指导	-915
▁正式	-916
▁民主	-917
▁水平	-918
▁电视	-919
▁的大	-920
▁科技	-921
▁经营	-922
▁费县	-923
▁这样	-924
▁这种	-925
▁部分	-926
▁》、《	-927
▁共和国	-928
▁考古学	-929
▁联合国	-930
▁邓小平	-931
31	-932
▁?	-933
▁』	-934
▁但	-935
▁值	-936
▁停	-937
▁切	-938
▁功	-939
▁寒	-940
▁怀	-941
▁批	-942
▁拥	-943
▁敬	-944
▁消	-945
▁港	-946
▁胜	-947
▁胡	-948
▁虽	-949
▁证	-950
▁评	-951
▁跨	-952
▁追	-953
▁速	-954
▁遗	-955
▁需	-956
▁,“	-957
▁:“	-958
▁》,	-959
▁一种	-960
▁产品	-961
▁以来	-962
▁使用	-963
▁先进	-964
▁其他	-965
▁分别	-966
▁到了	-967
▁化的	-968
▁发生	-969
▁各种	-970
▁地震	-971
▁城乡	-972
▁大家	-973
▁实施	-974
▁对于	-975
▁广场	-976
▁强调	-977
▁情况	-978
▁改值	-979
▁故事	-980
▁气温	-981
▁系列	-982
▁紧密	-983
▁行政	-984
▁规模	-985
▁解放	-986
▁负责	-987
▁这些	-988
▁连续	-989
▁都是	-990
▁重视	-991
▁革命	-992
▁项目	-993
▁首都	-994
▁·	-995
▁丰	-996
▁京	-997
▁儿	-998
▁务	-999
▁势	-1000
▁医	-1001
▁墨	-1002
▁底	-1003
▁德	-1004
▁怎	-1005
▁救	-1006
▁旅	-1007
▁旧	-1008
▁显	-1009
▁样	-1010
▁注	-1011
▁洲	-1012
▁焦	-1013
▁献	-1014
▁突	-1015
▁筹	-1016
▁红	-1017
▁约	-1018
▁言	-1019
▁责	-1020
▁质	-1021
▁贷	-1022
▁适	-1023
▁镇	-1024
▁阿	-1025
▁额	-1026
五大	-1027
▁0%	-1028
▁一定	-1029
▁上的	-1030
▁不同	-1031
▁不断	-1032
▁主席	-1033
▁之间	-1034
▁交流	-1035
▁公斤	-1036
▁利益	-1037
▁制度	-1038
▁十分	-1039
▁召开	-1040
▁各国	-1041
▁在一	-1042
▁在这	-1043
▁城市	-1044
▁基金	-1045
▁奋斗	-1046
▁她们	-1047
▁实行	-1048
▁建交	-1049
▁性的	-1050
▁恢复	-1051
▁探索	-1052
▁推出	-1053
▁政策	-1054
▁旅游	-1055
▁时代	-1056
▁明天	-1057
▁来到	-1058
▁气氛	-1059
▁油画	-1060
▁的新	-1061
▁系统	-1062
▁繁荣	-1063
▁维护	-1064
▁老人	-1065
▁良好	-1066
▁表演	-1067
▁要求	-1068
▁记录	-1069
▁贷款	-1070
▁达到	-1071
▁进程	-1072
▁部门	-1073
▁重点	-1074
▁双泾村	-1075
▁争	-1076
▁件	-1077
▁你	-1078
▁冬	-1079
▁冲	-1080
▁博	-1081
▁另	-1082
▁命	-1083
▁哈	-1084
▁善	-1085
▁土	-1086
▁妇	-1087
▁官	-1088
▁幅	-1089
▁扎	-1090
▁拍	-1091
▁控	-1092
▁旗	-1093
▁既	-1094
▁普	-1095
▁智	-1096
▁瑞	-1097
▁甚	-1098
▁留	-1099
▁短	-1100
▁破	-1101
▁素	-1102
▁营	-1103
▁蒙	-1104
▁请	-1105
▁趋	-1106
▁辉	-1107
▁违	-1108
▁阳	-1109
▁附	-1110
▁陈	-1111
▁雨	-1112
▁鱼	-1113
产品	-1114
其中	-1115
耶德	-1116
色列	-1117
▁%。	-1118
▁.5	-1119
▁70	-1120
▁上午	-1121
▁专家	-1122
▁了解	-1123
▁众多	-1124
▁健康	-1125
▁党的	-1126
▁关于	-1127
▁农副	-1128
▁出现	-1129
▁劳动	-1130
▁包括	-1131
▁华人	-1132
▁原则	-1133
▁反映	-1134
▁发挥	-1135
▁各类	-1136
▁同时	-1137
▁同样	-1138
▁后的	-1139
▁四川	-1140
▁国内	-1141
▁地方	-1142
▁多少	-1143
▁大的	-1144
▁如何	-1145
▁存款	-1146
▁学生	-1147
▁定了	-1148
▁年的	-1149
▁当地	-1150
▁总理	-1151
▁战斗	-1152
▁拍卖	-1153
▁改变	-1154
▁整理	-1155
▁方案	-1156
▁方针	-1157
▁期间	-1158
▁焦作	-1159
▁状况	-1160
▁现在	-1161
▁理论	-1162
▁的心	-1163
▁的是	-1164
▁示范	-1165
▁虽然	-1166
▁表现	-1167
▁警察	-1168
▁讲话	-1169
▁谈判	-1170
▁责任	-1171
▁违章	-1172
▁道路	-1173
▁重大	-1174
▁198	-1175
▁以色列	-1176
▁委员会	-1177
▁农副产品	-1178
▁丁	-1179
▁七	-1180
▁丝	-1181
▁互	-1182
▁什	-1183
▁介	-1184
▁伊	-1185
▁住	-1186
▁刚	-1187
▁呼	-1188
▁声	-1189
▁复	-1190
▁夏	-1191
▁失	-1192
▁始	-1193
▁审	-1194
▁富	-1195
▁庄	-1196
▁或	-1197
▁拿	-1198
▁振	-1199
▁措	-1200
▁搞	-1201
▁散	-1202
▁斯	-1203
▁果	-1204
▁树	-1205
▁案	-1206
▁死	-1207
▁汇	-1208
▁浙	-1209
▁石	-1210
▁离	-1211
▁秦	-1212
▁纯	-1213
▁综	-1214
▁育	-1215
▁若	-1216
▁莫	-1217
▁视	-1218
▁远	-1219
▁配	-1220
▁阵	-1221
▁降	-1222
▁雅	-1223
▁雪	-1224
▁雷	-1225
▁顺	-1226
七年	-1227
两制	-1228
利设	-1229
务院	-1230
图片	-1231
大利	-1232
少年	-1233
斯坦	-1234
理论	-1235
罗斯	-1236
▁13	-1237
▁25	-1238
▁50	-1239
▁60	-1240
▁不是	-1241
▁个人	-1242
▁义务	-1243
▁介绍	-1244
▁任务	-1245
▁作用	-1246
▁作者	-1247
▁党派	-1248
▁出席	-1249
▁前夕	-1250
▁前进	-1251
▁北大	-1252
▁卫生	-1253
▁古代	-1254
▁各项	-1255
▁喜庆	-1256
▁园区	-1257
▁国旗	-1258
▁学习	-1259
▁小扎	-1260
▁平均	-1261
▁广泛	-1262
▁庆祝	-1263
▁开拓	-1264
▁必须	-1265
▁怎样	-1266
▁成了	-1267
▁战略	-1268
▁拥有	-1269
▁持续	-1270
▁推广	-1271
▁措施	-1272
▁改善	-1273
▁散文	-1274
▁旗帜	-1275
▁更加	-1276
▁机场	-1277
▁正是	-1278
▁武器	-1279
▁浙江	-1280
▁物质	-1281
▁特困	-1282
▁特色	-1283
▁看到	-1284
▁真正	-1285
▁知识	-1286
▁第二	-1287
▁粮食	-1288
▁组成	-1289
▁结构	-1290
▁综合	-1291
▁而不	-1292
▁联系	-1293
▁致富	-1294
▁逐步	-1295
▁部长	-1296
▁重新	-1297
▁阶段	-1298
▁需要	-1299
利设施	-1300
国两制	-1301
▁俄罗斯	-1302
▁国务院	-1303
▁大学生	-1304
▁小型水	-1305
▁青少年	-1306
▁1991	-1307
▁小扎耶德	-1308
▁开馆仪式	-1309
▁一九九七年	-1310
▁邓小平理论	-1311
▁小型水利设施	-1312
▁伤	-1313
▁伴	-1314
▁何	-1315
▁修	-1316
▁准	-1317
▁列	-1318
▁单	-1319
▁口	-1320
▁启	-1321
▁域	-1322
▁培	-1323
▁塔	-1324
▁境	-1325
▁容	-1326
▁密	-1327
▁尊	-1328
▁层	-1329
▁岗	-1330
▁待	-1331
▁忘	-1332
▁扩	-1333
▁找	-1334
▁挑	-1335
▁挤	-1336
▁捐	-1337
▁描	-1338
▁摆	-1339
▁景	-1340
▁暖	-1341
▁朋	-1342
▁材	-1343
▁架	-1344
▁横	-1345
▁欣	-1346
▁沙	-1347
▁监	-1348
▁禁	-1349
▁福	-1350
▁秩	-1351
▁签	-1352
▁篇	-1353
▁类	-1354
▁绿	-1355
▁股	-1356
▁脚	-1357
▁菜	-1358
▁蔬	-1359
▁议	-1360
▁讯	-1361
▁谁	-1362
▁贡	-1363
▁购	-1364
▁跑	-1365
▁轻	-1366
▁钟	-1367
▁院	-1368
▁预	-1369
▁鸣	-1370
作家	-1371
年来	-1372
支部	-1373
空气	-1374
▁一条	-1375
▁一直	-1376
▁三十	-1377
▁个月	-1378
▁人类	-1379
▁什么	-1380
▁以上	-1381
▁作出	-1382
▁保护	-1383
▁信息	-1384
▁关注	-1385
▁关键	-1386
▁养殖	-1387
▁内容	-1388
▁利用	-1389
▁力量	-1390
▁千万	-1391
▁协商	-1392
▁南京	-1393
▁吸引	-1394
▁大事	-1395
▁孔玲	-1396
▁实际	-1397
▁巨大	-1398
▁应当	-1399
▁建成	-1400
▁形势	-1401
▁总结	-1402
▁意义	-1403
▁战争	-1404
▁效益	-1405
▁敬老	-1406
▁文物	-1407
▁文献	-1408
▁日报	-1409
▁日益	-1410
▁时刻	-1411
▁明显	-1412
▁明确	-1413
▁是一	-1414
▁朋友	-1415
▁未来	-1416
▁机制	-1417
▁标准	-1418
▁根据	-1419
▁欢迎	-1420
▁江南	-1421
▁深圳	-1422
▁演出	-1423
▁火山	-1424
▁然而	-1425
▁特点	-1426
▁独立	-1427
▁理解	-1428
▁用水	-1429
▁的好	-1430
▁目标	-1431
▁科学	-1432
▁秩序	-1433
▁程度	-1434
▁第三	-1435
▁自叙	-1436
▁艰苦	-1437
▁蔬菜	-1438
▁认识	-1439
▁设施	-1440
▁贡献	-1441
▁财政	-1442
▁资产	-1443
▁转变	-1444
▁辉煌	-1445
▁追求	-1446
▁部署	-1447
▁顺利	-1448
▁领域	-1449
▁题材	-1450
▁党支部	-1451
▁冷空气	-1452
▁女作家	-1453
▁意大利	-1454
▁现代化	-1455
▁解放军	-1456
▁近年来	-1457
▁且	-1458
▁临	-1459
▁买	-1460
▁佳	-1461
▁倡	-1462
▁助	-1463
▁午	-1464
▁厅	-1465
▁厚	-1466
▁叶	-1467
▁听	-1468
▁告	-1469
▁喷	-1470
▁均	-1471
▁太	-1472
▁夫	-1473
▁奖	-1474
▁妻	-1475
▁孤	-1476
▁尔	-1477
▁尤	-1478
▁属	-1479
▁左	-1480
▁忧	-1481
▁恩	-1482
▁扬	-1483
▁抗	-1484
▁担	-1485
▁拱	-1486
▁摊	-1487
▁族	-1488
▁朱	-1489
▁核	-1490
▁概	-1491
▁求	-1492
▁沧	-1493
▁沼	-1494
▁泰	-1495
▁济	-1496
▁浩	-1497
▁渠	-1498
▁片	-1499
▁珍	-1500
▁白	-1501
▁矛	-1502
▁竞	-1503
▁简	-1504
▁纽	-1505
▁羊	-1506
▁耕	-1507
▁聚	-1508
▁舞	-1509
▁苦	-1510
▁获	-1511
▁董	-1512
▁补	-1513
▁角	-1514
▁赞	-1515
▁足	-1516
▁跃	-1517
▁辞	-1518
▁针	-1519
▁顿	-1520
▁验	-1521
▁齐	-1522
主户	-1523
产党	-1524
偏北	-1525
八年	-1526
农场	-1527
到中	-1528
加坡	-1529
华侨	-1530
华孙	-1531
古籍	-1532
同时	-1533
就业	-1534
玉珍	-1535
理会	-1536
西亚	-1537
部门	-1538
▁.4	-1539
▁1.	-1540
▁11	-1541
▁26	-1542
▁40	-1543
▁58	-1544
▁—8	-1545
▁一位	-1546
▁一样	-1547
▁东部	-1548
▁丰富	-1549
▁为了	-1550
▁主持	-1551
▁二十	-1552
▁仪式	-1553
▁价格	-1554
▁优先	-1555
▁优秀	-1556
▁保证	-1557
▁信心	-1558
▁做好	-1559
▁党委	-1560
▁全体	-1561
▁军人	-1562
▁农户	-1563
▁农田	-1564
▁几乎	-1565
▁出台	-1566
▁出的	-1567
▁分析	-1568
▁区域	-1569
▁协会	-1570
▁反对	-1571
▁可能	-1572
▁各级	-1573
▁呼吁	-1574
▁国民	-1575
▁地位	-1576
▁大会	-1577
▁妻子	-1578
▁安排	-1579
▁居民	-1580
▁年产	-1581
▁广州	-1582
▁形象	-1583
▁总额	-1584
▁成果	-1585
▁户办	-1586
▁按照	-1587
▁振兴	-1588
▁接受	-1589
▁文艺	-1590
▁新疆	-1591
▁方式	-1592
▁旧币	-1593
▁时期	-1594
▁是在	-1595
▁更多	-1596
▁最后	-1597
▁标志	-1598
▁武装	-1599
▁汇率	-1600
▁沼气	-1601
▁渠道	-1602
▁照片	-1603
▁现实	-1604
▁理想	-1605
▁甚至	-1606
▁画家	-1607
▁直接	-1608
▁矛盾	-1609
▁祝贺	-1610
▁突破	-1611
▁经过	-1612
▁经验	-1613
▁结束	-1614
▁统计	-1615
▁继承	-1616
▁联欢	-1617
▁节目	-1618
▁英国	-1619
▁落实	-1620
▁蒙古	-1621
▁藏文	-1622
▁行动	-1623
▁评论	-1624
▁调查	-1625
▁走出	-1626
▁走向	-1627
▁车辆	-1628
▁遗存	-1629
▁采取	-1630
▁面临	-1631
▁面积	-1632
▁飞机	-1633
▁高度	-1634
▁高效	-1635
主户头	-1636
偏北风	-1637
小到中	-1638
▁丁玉珍	-1639
▁共产党	-1640
▁再就业	-1641
▁安理会	-1642
▁敬老院	-1643
▁新加坡	-1644
▁秦华孙	-1645
▁良好的	-1646
▁华人华侨	-1647
▁无主户头	-1648
▁有关部门	-1649
▁级偏北风	-1650
▁藏文古籍	-1651
▁一九九八年	-1652
98	-1653
▁°	-1654
▁丽	-1655
▁乌	-1656
▁似	-1657
▁像	-1658
▁六	-1659
▁冉	-1660
▁凡	-1661
▁划	-1662
▁别	-1663
▁剧	-1664
▁压	-1665
▁呢	-1666
▁堵	-1667
▁士	-1668
▁壮	-1669
▁奶	-1670
▁孩	-1671
▁尼	-1672
▁川	-1673
▁差	-1674
▁异	-1675
▁式	-1676
▁录	-1677
▁忠	-1678
▁悟	-1679
▁执	-1680
▁换	-1681
▁援	-1682
▁斗	-1683
▁施	-1684
▁朝	-1685
▁松	-1686
▁板	-1687
▁查	-1688
▁模	-1689
▁毛	-1690
▁派	-1691
▁湖	-1692
▁潜	-1693
▁灌	-1694
▁益	-1695
▁神	-1696
▁站	-1697
▁筑	-1698
▁纷	-1699
▁纸	-1700
▁翻	-1701
▁苏	-1702
▁荣	-1703
▁血	-1704
▁览	-1705
▁觉	-1706
▁语	-1707
▁贯	-1708
▁贾	-1709
▁赢	-1710
▁踏	-1711
▁迈	-1712
▁邮	-1713
▁际	-1714
▁隆	-1715
▁静	-1716
▁鼓	-1717
▁龙	-1718
、“	-1719
内外	-1720
安惠	-1721
尔滨	-1722
庄乡	-1723
星红	-1724
花蕊	-1725
西哥	-1726
▁14	-1727
▁23	-1728
▁5%	-1729
▁一切	-1730
▁一大	-1731
▁一次	-1732
▁万多	-1733
▁主权	-1734
▁事故	-1735
▁事迹	-1736
▁令人	-1737
▁价值	-1738
▁会上	-1739
▁传记	-1740
▁位于	-1741
▁体制	-1742
▁体系	-1743
▁元月	-1744
▁全县	-1745
▁全村	-1746
▁再次	-1747
▁军委	-1748
▁军队	-1749
▁农场	-1750
▁决心	-1751
▁出口	-1752
▁切实	-1753
▁加工	-1754
▁加快	-1755
▁北部	-1756
▁县的	-1757
▁发出	-1758
▁发行	-1759
▁史籍	-1760
▁各族	-1761
▁回到	-1762
▁土地	-1763
▁如果	-1764
▁宣布	-1765
▁导致	-1766
▁尽快	-1767
▁展示	-1768
▁岁的	-1769
▁工业	-1770
▁左右	-1771
▁巴勒	-1772
▁布厂	-1773
▁带领	-1774
▁并购	-1775
▁广西	-1776
▁应该	-1777
▁开了	-1778
▁引导	-1779
▁快速	-1780
▁性和	-1781
▁感到	-1782
▁扩大	-1783
▁报纸	-1784
▁拱坝	-1785
▁指挥	-1786
▁控制	-1787
▁推向	-1788
▁提前	-1789
▁摊位	-1790
▁整治	-1791
▁新币	-1792
▁无家	-1793
▁日讯	-1794
▁有利	-1795
▁有的	-1796
▁格局	-1797
▁正在	-1798
▁死亡	-1799
▁沙漠	-1800
▁波兰	-1801
▁流通	-1802
▁演员	-1803
▁激动	-1804
▁灌溉	-1805
▁生命	-1806
▁生态	-1807
▁用笔	-1808
▁的情	-1809
▁相信	-1810
▁祝愿	-1811
▁管制	-1812
▁纷纷	-1813
▁美元	-1814
▁老年	-1815
▁胜利	-1816
▁能源	-1817
▁自豪	-1818
▁航班	-1819
▁航空	-1820
▁著名	-1821
▁西方	-1822
▁解困	-1823
▁认真	-1824
▁访问	-1825
▁贸易	-1826
▁赢得	-1827
▁起降	-1828
▁超过	-1829
▁趋势	-1830
▁边防	-1831
▁这项	-1832
▁进步	-1833
▁退休	-1834
▁速度	-1835
▁那样	-1836
▁那里	-1837
▁部队	-1838
▁长城	-1839
▁阳光	-1840
▁雷达	-1841
▁非常	-1842
▁首先	-1843
▁鲜花	-1844
十五大	-1845
星红旗	-1846
▁’98	-1847
▁”、“	-1848
▁北大荒	-1849
▁哈尔滨	-1850
▁墨西哥	-1851
▁张安惠	-1852
▁浙江省	-1853
▁海内外	-1854
▁焦作市	-1855
▁的一年	-1856
▁胡花蕊	-1857
一国两制	-1858
▁五星红旗	-1859
▁巴勒斯坦	-1860
▁有小到中	-1861
▁党的十五大	-1862
▁‰	-1863
▁享	-1864
▁余	-1865
▁例	-1866
▁候	-1867
▁偿	-1868
▁兑	-1869
▁冰	-1870
▁吗	-1871
▁吨	-1872
▁吴	-1873
▁响	-1874
▁嘉	-1875
▁囊	-1876
▁围	-1877
▁圣	-1878
▁块	-1879
▁垦	-1880
▁字	-1881
▁宗	-1882
▁宾	-1883
▁岸	-1884
▁崇	-1885
▁师	-1886
▁序	-1887
▁归	-1888
▁恭	-1889
▁房	-1890
▁打	-1891
▁托	-1892
▁护	-1893
▁招	-1894
▁排	-1895
▁揭	-1896
▁搜	-1897
▁撤	-1898
▁攻	-1899
▁木	-1900
▁束	-1901
▁杨	-1902
▁梅	-1903
▁欠	-1904
▁汉	-1905
▁沉	-1906
▁浓	-1907
▁涉	-1908
▁润	-1909
▁淡	-1910
▁淮	-1911
▁滚	-1912
▁潮	-1913
▁灿	-1914
▁烈	-1915
▁烟	-1916
▁爆	-1917
▁爸	-1918
▁狂	-1919
▁瓦	-1920
▁病	-1921
▁祥	-1922
▁秋	-1923
▁窗	-1924
▁竟	-1925
▁算	-1926
▁缓	-1927
▁缩	-1928
▁缺	-1929
▁肯	-1930
▁菲	-1931
▁融	-1932
▁誉	-1933
▁诗	-1934
▁课	-1935
▁越	-1936
▁轨	-1937
▁输	-1938
▁迟	-1939
▁透	-1940
▁逾	-1941
▁遇	-1942
▁钥	-1943
▁闻	-1944
▁阅	-1945
▁限	-1946
▁雄	-1947
▁靠	-1948
▁饲	-1949
▁黑	-1950
▁龚	-1951
其峰	-1952
利院	-1953
制衣	-1954
匙孔	-1955
南省	-1956
可归	-1957
大中	-1958
度尼	-1959
循环	-1960
战员	-1961
氏度	-1962
泽东	-1963
爱幼	-1964
繁森	-1965
而且	-1966
角村	-1967
话会	-1968
里的	-1969
▁0.	-1970
▁24	-1971
▁3.	-1972
▁万亩	-1973
▁三个	-1974
▁三位	-1975
▁上下	-1976
▁不会	-1977
▁业绩	-1978
▁东方	-1979
▁严格	-1980
▁中文	-1981
▁主体	-1982
▁主张	-1983
▁之一	-1984
▁之路	-1985
▁九届	-1986
▁书画	-1987
▁亚洲	-1988
▁产生	-1989
▁人大	-1990
▁优质	-1991
▁会员	-1992
▁伤亡	-1993
▁佳节	-1994
▁便是	-1995
▁保障	-1996
▁倡议	-1997
▁值得	-1998
▁儿童	-1999
▁充满	-2000
▁光辉	-2001
▁克服	-2002
▁公里	-2003
▁其中	-2004
▁典型	-2005
▁军事	-2006
▁出租	-2007
▁利税	-2008
▁加元	-2009
▁加大	-2010
▁医院	-2011
▁十五	-2012
▁十多	-2013
▁午夜	-2014
▁协议	-2015
▁协调	-2016
▁单位	-2017
▁即将	-2018
▁历程	-2019
▁原子	-2020
▁友好	-2021
▁发达	-2022
▁受伤	-2023
▁号召	-2024
▁合理	-2025
▁同意	-2026
▁周围	-2027
▁喷发	-2028
▁国的	-2029
▁国防	-2030
▁图为	-2031
▁图文	-2032
▁在国	-2033
▁在此	-2034
▁地的	-2035
▁城区	-2036
▁处于	-2037
▁大田	-2038
▁大街	-2039
▁天津	-2040
▁奇迹	-2041
▁如此	-2042
▁实的	-2043
▁宣誓	-2044
▁家乡	-2045
▁对象	-2046
▁将是	-2047
▁尊老	-2048
▁尤其	-2049
▁就是	-2050
▁尽管	-2051
▁山西	-2052
▁崇高	-2053
▁工人	-2054
▁帮扶	-2055
▁平等	-2056
▁平衡	-2057
▁庄严	-2058
▁开创	-2059
▁引起	-2060
▁强烈	-2061
▁当时	-2062
▁彩旗	-2063
▁思考	-2064
▁思路	-2065
▁恭城	-2066
▁想到	-2067
▁意识	-2068
▁成绩	-2069
▁所在	-2070
▁技法	-2071
▁拉萨	-2072
▁捐赠	-2073
▁搜集	-2074
▁搞好	-2075
▁改造	-2076
▁斗争	-2077
▁新建	-2078
▁无法	-2079
▁普及	-2080
▁最佳	-2081
▁最高	-2082
▁有着	-2083
▁极大	-2084
▁样的	-2085
▁欢乐	-2086
▁气象	-2087
▁水费	-2088
▁没收	-2089
▁沧桑	-2090
▁泰国	-2091
▁济南	-2092
▁海外	-2093
▁润五	-2094
▁深刻	-2095
▁湖州	-2096
▁演奏	-2097
▁灿烂	-2098
▁热烈	-2099
▁爸爸	-2100
▁特区	-2101
▁状态	-2102
▁狂欢	-2103
▁看望	-2104
▁真实	-2105
▁社评	-2106
▁祝福	-2107
▁站在	-2108
▁筹集	-2109
▁纽约	-2110
▁终于	-2111
▁经历	-2112
▁经费	-2113
▁羊肉	-2114
▁美德	-2115
▁能够	-2116
▁致以	-2117
▁苏联	-2118
▁观念	-2119
▁角度	-2120
▁设计	-2121
▁调整	-2122
▁贵阳	-2123
▁迎接	-2124
▁逐渐	-2125
▁造成	-2126
▁邮电	-2127
▁都有	-2128
▁针织	-2129
▁长的	-2130
▁隆重	-2131
▁难以	-2132
▁面对	-2133
▁鼓舞	-2134
制衣厂	-2135
▁不同的	-2136
▁十五大	-2137
▁印度尼	-2138
▁孔繁森	-2139
▁孙其峰	-2140
▁指战员	-2141
▁摄氏度	-2142
▁毛泽东	-2143
▁福利院	-2144
▁茶话会	-2145
▁象角村	-2146
▁赢得了	-2147
▁钥匙孔	-2148
▁大田庄乡	-2149
▁尊老爱幼	-2150
▁无家可归	-2151
▁印度尼西亚	-2152
▁针织制衣厂	-2153
)(	-2154
▁亡	-2155
▁付	-2156
▁佩	-2157
▁侨	-2158
▁假	-2159
▁冒	-2160
▁净	-2161
▁凝	-2162
▁剖	-2163
▁勃	-2164
▁勇	-2165
▁卖	-2166
▁卷	-2167
▁吃	-2168
▁吐	-2169
▁呈	-2170
▁哲	-2171
▁坐	-2172
▁备	-2173
▁奏	-2174
▁妥	-2175
▁宅	-2176
▁察	-2177
▁屋	-2178
▁履	-2179
▁峡	-2180
▁巩	-2181
▁币	-2182
▁念	-2183
▁惊	-2184
▁截	-2185
▁抢	-2186
▁拜	-2187
▁挂	-2188
▁挖	-2189
▁授	-2190
▁敞	-2191
▁断	-2192
▁昌	-2193
▁易	-2194
▁星	-2195
▁曹	-2196
▁构	-2197
▁某	-2198
▁桥	-2199
▁检	-2200
▁段	-2201
▁毕	-2202
▁毫	-2203
▁永	-2204
▁洋	-2205
▁洗	-2206
▁洪	-2207
▁淀	-2208
▁源	-2209
▁濒	-2210
▁灵	-2211
▁牡	-2212
▁牵	-2213
▁猪	-2214
▁玉	-2215
▁玩	-2216
▁球	-2217
▁瓜	-2218
▁畅	-2219
▁畜	-2220
▁盘	-2221
▁礼	-2222
▁税	-2223
▁穿	-2224
▁童	-2225
▁端	-2226
▁篆	-2227
▁练	-2228
▁细	-2229
▁织	-2230
▁绘	-2231
▁缔	-2232
▁置	-2233
▁署	-2234
▁肩	-2235
▁胸	-2236
▁脸	-2237
▁般	-2238
▁艳	-2239
▁范	-2240
▁荒	-2241
▁荡	-2242
▁蓄	-2243
▁蓬	-2244
▁豆	-2245
▁辈	-2246
▁迹	-2247
▁遣	-2248
▁邻	-2249
▁除	-2250
▁险	-2251
▁零	-2252
▁露	-2253
▁页	-2254
▁驱	-2255
二月	-2256
公安	-2257
利亚	-2258
勒陀	-2259
实地	-2260
干道	-2261
把手	-2262
新风	-2263
物馆	-2264
直门	-2265
管制	-2266
膨胀	-2267
达岭	-2268
龙江	-2269
▁)(	-2270
▁.6	-2271
▁:‘	-2272
▁一日	-2273
▁七十	-2274
▁三年	-2275
▁下的	-2276
▁不懈	-2277
▁不能	-2278
▁专门	-2279
▁业的	-2280
▁两个	-2281
▁中东	-2282
▁之所	-2283
▁之际	-2284
▁乐队	-2285
▁也要	-2286
▁书法	-2287
▁书籍	-2288
▁事件	-2289
▁产量	-2290
▁亲切	-2291
▁人生	-2292
▁仍然	-2293
▁以往	-2294
▁们的	-2295
▁伴随	-2296
▁但是	-2297
▁使馆	-2298
▁依托	-2299
▁充分	-2300
▁先后	-2301
▁全年	-2302
▁公布	-2303
▁兵书	-2304
▁冲击	-2305
▁刚刚	-2306
▁创汇	-2307
▁初步	-2308
▁前两	-2309
▁前景	-2310
▁动员	-2311
▁勃勃	-2312
▁千名	-2313
▁华侨	-2314
▁南部	-2315
▁占全	-2316
▁厂长	-2317
▁历代	-2318
▁又一	-2319
▁受到	-2320
▁只能	-2321
▁只要	-2322
▁吸收	-2323
▁商品	-2324
▁回应	-2325
▁因素	-2326
▁团体	-2327
▁基地	-2328
▁堵塞	-2329
▁增产	-2330
▁处理	-2331
▁多人	-2332
▁多元	-2333
▁多种	-2334
▁大厅	-2335
▁大批	-2336
▁女儿	-2337
▁妇女	-2338
▁始终	-2339
▁孤寡	-2340
▁孩子	-2341
▁完全	-2342
▁客人	-2343
▁密切	-2344
▁富强	-2345
▁对外	-2346
▁小康	-2347
▁就在	-2348
▁就职	-2349
▁履行	-2350
▁岁末	-2351
▁巩固	-2352
▁市区	-2353
▁市民	-2354
▁带动	-2355
▁带头	-2356
▁年前	-2357
▁并不	-2358
▁当今	-2359
▁心灵	-2360
▁感受	-2361
▁成立	-2362
▁才能	-2363
▁担心	-2364
▁拿出	-2365
▁指出	-2366
▁挑战	-2367
▁挖掘	-2368
▁描述	-2369
▁摆脱	-2370
▁收回	-2371
▁效应	-2372
▁整个	-2373
▁文字	-2374
▁新航	-2375
▁新闻	-2376
▁无疑	-2377
▁无论	-2378
▁日前	-2379
▁日在	-2380
▁日起	-2381
▁是将	-2382
▁是有	-2383
▁曲目	-2384
▁最大	-2385
▁最近	-2386
▁有大	-2387
▁有所	-2388
▁有效	-2389
▁机构	-2390
▁树立	-2391
▁根本	-2392
▁格外	-2393
▁欢庆	-2394
▁歌唱	-2395
▁正常	-2396
▁此次	-2397
▁每天	-2398
▁比赛	-2399
▁消息	-2400
▁淀粉	-2401
▁清醒	-2402
▁港人	-2403
▁濒临	-2404
▁牡丹	-2405
▁率先	-2406
▁现象	-2407
▁珍贵	-2408
▁理性	-2409
▁瑞士	-2410
▁生存	-2411
▁用于	-2412
▁界的	-2413
▁百年	-2414
▁的不	-2415
▁的意	-2416
▁的最	-2417
▁的气	-2418
▁的这	-2419
▁监控	-2420
▁目的	-2421
▁相比	-2422
▁着这	-2423
▁知道	-2424
▁短短	-2425
▁石油	-2426
▁确保	-2427
▁种种	-2428
▁称谓	-2429
▁竞争	-2430
▁筑路	-2431
▁筹资	-2432
▁篆刻	-2433
▁紧张	-2434
▁纪录	-2435
▁纪念	-2436
▁经常	-2437
▁编写	-2438
▁耕地	-2439
▁背景	-2440
▁能力	-2441
▁自觉	-2442
▁自身	-2443
▁至少	-2444
▁良性	-2445
▁艰难	-2446
▁获得	-2447
▁蓬勃	-2448
▁街道	-2449
▁规划	-2450
▁规定	-2451
▁规范	-2452
▁象征	-2453
▁质量	-2454
▁贯彻	-2455
▁路子	-2456
▁过程	-2457
▁还是	-2458
▁这是	-2459
▁这次	-2460
▁适应	-2461
▁选择	-2462
▁通胀	-2463
▁通货	-2464
▁遇到	-2465
▁遣散	-2466
▁都要	-2467
▁采用	-2468
▁销售	-2469
▁长期	-2470
▁长江	-2471
▁阅读	-2472
▁随着	-2473
▁集中	-2474
▁面貌	-2475
▁预计	-2476
▁风景	-2477
▁风采	-2478
▁首批	-2479
▁验收	-2480
▁高兴	-2481
▁高峰	-2482
▁鲜活	-2483
▁黄河	-2484
▁一把手	-2485
▁东直门	-2486
▁主干道	-2487
▁八达岭	-2488
▁十二月	-2489
▁博物馆	-2490
▁大农场	-2491
▁实实地	-2492
▁年产值	-2493
▁更多的	-2494
▁有利于	-2495
▁标志着	-2496
▁比勒陀	-2497
▁边防军	-2498
▁黑龙江	-2499
▁良性循环	-2500
▁通货膨胀	-2501
▁雷达管制	-2502
▁无家可归者	-2503
▁有小到中雨	-2504
▁比勒陀利亚	-2505
40	-2506
▁A	-2507
▁‘	-2508
▁久	-2509
▁么	-2510
▁乎	-2511
▁乔	-2512
▁乱	-2513
▁亮	-2514
▁仓	-2515
▁供	-2516
▁允	-2517
▁册	-2518
▁况	-2519
▁刊	-2520
▁剩	-2521
▁叫	-2522
▁唱	-2523
▁啊	-2524
▁喝	-2525
▁塘	-2526
▁夺	-2527
▁奉	-2528
▁奔	-2529
▁奥	-2530
▁妈	-2531
▁妹	-2532
▁姑	-2533
▁威	-2534
▁婚	-2535
▁媒	-2536
▁宏	-2537
▁宪	-2538
▁寄	-2539
▁寺	-2540
▁封	-2541
▁尉	-2542
▁尾	-2543
▁屏	-2544
▁弥	-2545
▁彭	-2546
▁役	-2547
▁彻	-2548
▁征	-2549
▁律	-2550
▁徘	-2551
▁微	-2552
▁忙	-2553
▁急	-2554
▁恶	-2555
▁悉	-2556
▁患	-2557
▁悲	-2558
▁愉	-2559
▁懂	-2560
▁抵	-2561
▁拔	-2562
▁拘	-2563
▁掉	-2564
▁掌	-2565
▁播	-2566
▁敏	-2567
▁料	-2568
▁斤	-2569
▁旋	-2570
▁旱	-2571
▁栋	-2572
▁桂	-2573
▁梦	-2574
▁欧	-2575
▁款	-2576
▁止	-2577
▁毁	-2578
▁浇	-2579
▁测	-2580
▁浪	-2581
▁涌	-2582
▁渐	-2583
▁渡	-2584
▁滋	-2585
▁潘	-2586
▁灰	-2587
▁灾	-2588
▁炸	-2589
▁燃	-2590
▁犹	-2591
▁狠	-2592
▁猎	-2593
▁班	-2594
▁男	-2595
▁眉	-2596
▁瞩	-2597
▁矿	-2598
▁祈	-2599
▁票	-2600
▁祷	-2601
▁秘	-2602
▁究	-2603
▁穷	-2604
▁策	-2605
▁籍	-2606
▁累	-2607
▁纲	-2608
▁绝	-2609
▁聪	-2610
▁胞	-2611
▁蔓	-2612
▁衷	-2613
▁袭	-2614
▁覆	-2615
▁触	-2616
▁训	-2617
▁词	-2618
▁诚	-2619
▁详	-2620
▁诸	-2621
▁谢	-2622
▁谨	-2623
▁谱	-2624
▁账	-2625
▁贴	-2626
▁赠	-2627
▁赶	-2628
▁趣	-2629
▁跌	-2630
▁软	-2631
▁载	-2632
▁辖	-2633
▁迅	-2634
▁述	-2635
▁途	-2636
▁逛	-2637
▁遍	-2638
▁钢	-2639
▁铁	-2640
▁铺	-2641
▁锋	-2642
▁锡	-2643
▁闪	-2644
▁陆	-2645
▁隔	-2646
▁震	-2647
▁顶	-2648
▁频	-2649
▁食	-2650
▁饮	-2651
▁驾	-2652
▁骤	-2653
▁鹰	-2654
▁黎	-2655
▁默	-2656
一飞	-2657
上年	-2658
不衰	-2659
严禁	-2660
丽生	-2661
丽舍	-2662
乎情	-2663
书长	-2664
亚胡	-2665
以军	-2666
件事	-2667
倒闭	-2668
养量	-2669
加拉	-2670
华清	-2671
协力	-2672
卢巴	-2673
同地	-2674
命感	-2675
和景	-2676
塔尼	-2677
增强	-2678
大街	-2679
好者	-2680
学贤	-2681
广西	-2682
建华	-2683
律宾	-2684
快富	-2685
悲鸿	-2686
拉尔	-2687
拿大	-2688
方米	-2689
旧迎	-2690
有芳	-2691
村庄	-2692
来了	-2693
柴节	-2694
毅仁	-2695
治港	-2696
深地	-2697
煤灶	-2698
画院	-2699
立了	-2700
约而	-2701
翁达	-2702
联酋	-2703
花园	-2704
镕基	-2705
露出	-2706
马和	-2707
骨鸡	-2708
▁),	-2709
▁.8	-2710
▁16	-2711
▁17	-2712
▁29	-2713
▁32	-2714
▁84	-2715
▁一下	-2716
▁一套	-2717
▁一项	-2718
▁万吨	-2719
▁三是	-2720
▁三次	-2721
▁不仅	-2722
▁不再	-2723
▁不可	-2724
▁不忘	-2725
▁与其	-2726
▁中学	-2727
▁主任	-2728
▁举措	-2729
▁义诊	-2730
▁乔石	-2731
▁九七	-2732
▁了我	-2733
▁二是	-2734
▁互补	-2735
▁交给	-2736
▁交融	-2737
▁人与	-2738
▁人在	-2739
▁人才	-2740
▁人数	-2741
▁人群	-2742
▁从事	-2743
▁仓库	-2744
▁优惠	-2745
▁会费	-2746
▁位置	-2747
▁你们	-2748
▁停止	-2749
▁允许	-2750
▁光荣	-2751
▁党政	-2752
▁全民	-2753
▁全镇	-2754
▁公园	-2755
▁兴建	-2756
▁兵学	-2757
▁其它	-2758
▁其实	-2759
▁养鱼	-2760
▁内涵	-2761
▁军装	-2762
▁冬季	-2763
▁准备	-2764
▁凝聚	-2765
▁几个	-2766
▁刚果	-2767
▁到一	-2768
▁办水	-2769
▁动迁	-2770
▁势头	-2771
▁勇敢	-2772
▁化和	-2773
▁千余	-2774
▁升起	-2775
▁半数	-2776
▁华南	-2777
▁卖主	-2778
▁印尼	-2779
▁即使	-2780
▁厂房	-2781
▁厂里	-2782
▁原因	-2783
▁原有	-2784
▁县县	-2785
▁及其	-2786
▁友谊	-2787
▁双方	-2788
▁发扬	-2789
▁发现	-2790
▁古籍	-2791
▁另一	-2792
▁另外	-2793
▁只是	-2794
▁只有	-2795
▁各个	-2796
▁合影	-2797
▁合格	-2798
▁名人	-2799
▁吐乌	-2800
▁听说	-2801
▁命名	-2802
▁品格	-2803
▁喜悦	-2804
▁因此	-2805
▁国和	-2806
▁国歌	-2807
▁场所	-2808
▁坚决	-2809
▁坚强	-2810
▁垦区	-2811
▁培养	-2812
▁处的	-2813
▁外长	-2814
▁多数	-2815
▁多次	-2816
▁大型	-2817
▁大大	-2818
▁夫妇	-2819
▁女士	-2820
▁奶奶	-2821
▁好像	-2822
▁如今	-2823
▁妈妈	-2824
▁妥协	-2825
▁存在	-2826
▁学院	-2827
▁它们	-2828
▁完善	-2829
▁完整	-2830
▁官员	-2831
▁实地	-2832
▁宣传	-2833
▁家们	-2834
▁寒冬	-2835
▁对待	-2836
▁少生	-2837
▁就有	-2838
▁局部	-2839
▁展望	-2840
▁山川	-2841
▁山沟	-2842
▁岁月	-2843
▁工厂	-2844
▁巴以	-2845
▁巴基	-2846
▁市委	-2847
▁市长	-2848
▁布局	-2849
▁年底	-2850
▁广阔	-2851
▁开局	-2852
▁引人	-2853
▁引发	-2854
▁引述	-2855
▁当家	-2856
▁彩虹	-2857
▁往来	-2858
▁徘徊	-2859
▁德国	-2860
▁心的	-2861
▁忘记	-2862
▁忙碌	-2863
▁忧其	-2864
▁态度	-2865
▁恩佐	-2866
▁愉快	-2867
▁意味	-2868
▁懂得	-2869
▁成人	-2870
▁战役	-2871
▁截至	-2872
▁户户	-2873
▁所以	-2874
▁所画	-2875
▁承包	-2876
▁承担	-2877
▁抓住	-2878
▁投产	-2879
▁抢救	-2880
▁拜年	-2881
▁挤在	-2882
▁推行	-2883
▁攻坚	-2884
▁放水	-2885
▁政局	-2886
▁故乡	-2887
▁救助	-2888
▁救援	-2889
▁敞开	-2890
▁数十	-2891
▁整洁	-2892
▁文选	-2893
▁新春	-2894
▁方法	-2895
▁日电	-2896
▁显示	-2897
▁显著	-2898
▁普遍	-2899
▁智慧	-2900
▁最早	-2901
▁有人	-2902
▁机关	-2903
▁机遇	-2904
▁李鹏	-2905
▁林果	-2906
▁栋梁	-2907
▁核心	-2908
▁梅塔	-2909
▁模范	-2910
▁欢聚	-2911
▁欣赏	-2912
▁欧洲	-2913
▁正义	-2914
▁武警	-2915
▁每个	-2916
▁毫不	-2917
▁民间	-2918
▁水是	-2919
▁永远	-2920
▁江西	-2921
▁河南	-2922
▁治理	-2923
▁注意	-2924
▁注目	-2925
▁深入	-2926
▁温棚	-2927
▁滋润	-2928
▁满足	-2929
▁激越	-2930
▁爆竹	-2931
▁牵头	-2932
▁狠抓	-2933
▁玉茭	-2934
▁现了	-2935
▁现出	-2936
▁电脑	-2937
▁画面	-2938
▁界限	-2939
▁百分	-2940
▁的主	-2941
▁的外	-2942
▁的小	-2943
▁的有	-2944
▁的深	-2945
▁的重	-2946
▁监督	-2947
▁相当	-2948
▁省区	-2949
▁真情	-2950
▁眼下	-2951
▁瞩目	-2952
▁破坏	-2953
▁破船	-2954
▁确实	-2955
▁种植	-2956
▁科研	-2957
▁稳中	-2958
▁窗牖	-2959
▁等地	-2960
▁签署	-2961
▁签订	-2962
▁简单	-2963
▁篇章	-2964
▁精确	-2965
▁素质	-2966
▁累计	-2967
▁红灯	-2968
▁约翰	-2969
▁纲领	-2970
▁练市	-2971
▁经久	-2972
▁经典	-2973
▁经理	-2974
▁结果	-2975
▁绘画	-2976
▁维持	-2977
▁缓解	-2978
▁缔造	-2979
▁编撰	-2980
▁罗干	-2981
▁美好	-2982
▁者们	-2983
▁聚集	-2984
▁聪明	-2985
▁肯定	-2986
▁背土	-2987
▁背篓	-2988
▁自发	-2989
▁自我	-2990
▁致词	-2991
▁艰巨	-2992
▁艰辛	-2993
▁花卉	-2994
▁若干	-2995
▁范围	-2996
▁著作	-2997
▁蔓延	-2998
▁行业	-2999
▁行的	-3000
▁补贴	-3001
▁覆盖	-3002
▁观点	-3003
▁规律	-3004
▁讲解	-3005
▁讲述	-3006
▁设备	-3007
▁课题	-3008
▁谱写	-3009
▁贺年	-3010
▁贺词	-3011
▁资料	-3012
▁走进	-3013
▁跑道	-3014
▁路线	-3015
▁身边	-3016
▁轨道	-3017
▁软禁	-3018
▁较为	-3019
▁输入	-3020
▁达成	-3021
▁迅速	-3022
▁过渡	-3023
▁运作	-3024
▁还不	-3025
▁这里	-3026
▁进取	-3027
▁进展	-3028
▁远远	-3029
▁适当	-3030
▁选定	-3031
▁通信	-3032
▁通告	-3033
▁郑州	-3034
▁部的	-3035
▁采访	-3036
▁问候	-3037
▁队伍	-3038
▁阵线	-3039
▁阵阵	-3040
▁零下	-3041
▁面值	-3042
▁风格	-3043
▁首次	-3044
▁香榭	-3045
▁驱车	-3046
▁鸣枪	-3047
加拉瓜	-3048
和景仰	-3049
旧迎新	-3050
▁340	-3051
▁不约而	-3052
▁乌骨鸡	-3053
▁云南省	-3054
▁使命感	-3055
▁内塔尼	-3056
▁刘华清	-3057
▁加拿大	-3058
▁卡翁达	-3059
▁发乎情	-3060
▁国防部	-3061
▁塔拉尔	-3062
▁奇卢巴	-3063
▁小农场	-3064
▁就以军	-3065
▁带动了	-3066
▁徐悲鸿	-3067
▁徐有芳	-3068
▁心协力	-3069
▁所在的	-3070
▁显露出	-3071
▁朱镕基	-3072
▁极大地	-3073
▁树新风	-3074
▁比上年	-3075
▁深深地	-3076
▁爱好者	-3077
▁特困户	-3078
▁王学贤	-3079
▁用笔精	-3080
▁省柴节	-3081
▁确立了	-3082
▁秘书长	-3083
▁立方米	-3084
▁荣毅仁	-3085
▁菲律宾	-3086
▁董建华	-3087
▁迎来了	-3088
▁这件事	-3089
▁通胀率	-3090
▁邮电部	-3091
▁阿联酋	-3092
▁饲养量	-3093
▁高丽生	-3094
丽舍大街	-3095
▁一国两制	-3096
▁少生快富	-3097
▁尼加拉瓜	-3098
▁山西画院	-3099
▁巴基斯坦	-3100
▁彩虹花园	-3101
▁港人治港	-3102
▁濒临倒闭	-3103
▁经久不衰	-3104
▁辞旧迎新	-3105
▁不约而同地	-3106
▁内塔尼亚胡	-3107
▁省柴节煤灶	-3108
▁阅读和景仰	-3109
▁香榭丽舍大街	-3110
:『	-3111
▁/	-3112
▁丧	-3113
▁串	-3114
▁乃	-3115
▁习	-3116
▁乳	-3117
▁予	-3118
▁井	-3119
▁亦	-3120
▁仁	-3121
▁仿	-3122
▁休	-3123
▁侠	-3124
▁侧	-3125
▁倍	-3126
▁倘	-3127
▁债	-3128
▁倾	-3129
▁偏	-3130
▁催	-3131
▁兄	-3132
▁兆	-3133
▁免	-3134
▁凯	-3135
▁刻	-3136
▁剑	-3137
▁劲	-3138
▁勋	-3139
▁勒	-3140
▁募	-3141
▁厦	-3142
▁叙	-3143
▁右	-3144
▁司	-3145
▁吉	-3146
▁否	-3147
▁哀	-3148
▁喇	-3149
▁固	-3150
▁圆	-3151
▁址	-3152
▁坛	-3153
▁坡	-3154
▁坪	-3155
▁垫	-3156
▁堂	-3157
▁堆	-3158
▁塑	-3159
▁奠	-3160
▁妨	-3161
▁娃	-3162
▁娱	-3163
▁季	-3164
▁宋	-3165
▁宝	-3166
▁宫	-3167
▁宽	-3168
▁宿	-3169
▁寻	-3170
▁尚	-3171
▁尝	-3172
▁尺	-3173
▁岚	-3174
▁岛	-3175
▁崭	-3176
▁巧	-3177
▁巷	-3178
▁幕	-3179
▁幸	-3180
▁床	-3181
▁府	-3182
▁庭	-3183
▁康	-3184
▁延	-3185
▁弃	-3186
▁弦	-3187
▁弱	-3188
▁径	-3189
▁恰	-3190
▁悦	-3191
▁懈	-3192
▁戈	-3193
▁扮	-3194
▁披	-3195
▁拒	-3196
▁拖	-3197
▁挣	-3198
▁挺	-3199
▁借	-3200
▁姐	-3201
▁姜	-3202
▁息	-3203
▁损	-3204
▁插	-3205
▁握	-3206
▁揽	-3207
▁摘	-3208
▁摧	-3209
▁摩	-3210
▁撰	-3211
▁操	-3212
▁敢	-3213
▁敲	-3214
▁斐	-3215
▁斑	-3216
▁旨	-3217
▁旬	-3218
▁旺	-3219
▁昂	-3220
▁昆	-3221
▁映	-3222
▁昨	-3223
▁晨	-3224
▁末	-3225
▁杂	-3226
▁杜	-3227
▁杰	-3228
▁枝	-3229
▁枪	-3230
▁柳	-3231
▁柿	-3232
▁校	-3233
▁框	-3234
▁桌	-3235
▁档	-3236
▁棉	-3237
▁棚	-3238
▁植	-3239
▁歧	-3240
▁殃	-3241
▁殊	-3242
▁汪	-3243
▁汽	-3244
▁沈	-3245
▁沟	-3246
▁沿	-3247
▁泣	-3248
▁泽	-3249
▁洁	-3250
▁洒	-3251
▁洞	-3252
▁滨	-3253
▁滴	-3254
▁漫	-3255
▁漾	-3256
▁灭	-3257
▁灯	-3258
▁烂	-3259
▁烽	-3260
▁煤	-3261
▁父	-3262
▁爷	-3263
▁牛	-3264
▁牧	-3265
▁狭	-3266
▁猛	-3267
▁琼	-3268
▁甘	-3269
▁甜	-3270
▁申	-3271
▁疑	-3272
▁痕	-3273
▁瘫	-3274
▁盆	-3275
▁睦	-3276
▁硬	-3277
▁磨	-3278
▁秀	-3279
▁私	-3280
▁租	-3281
▁窥	-3282
▁竖	-3283
▁章	-3284
▁竹	-3285
▁笑	-3286
▁笛	-3287
▁笼	-3288
▁答	-3289
▁粉	-3290
▁纵	-3291
▁纺	-3292
▁绵	-3293
▁缅	-3294
▁缤	-3295
▁网	-3296
▁罕	-3297
▁罢	-3298
▁羽	-3299
▁耳	-3300
▁胆	-3301
▁脉	-3302
▁脏	-3303
▁脑	-3304
▁腮	-3305
▁腹	-3306
▁臣	-3307
▁舆	-3308
▁舍	-3309
▁芳	-3310
▁苍	-3311
▁莽	-3312
▁萝	-3313
▁萧	-3314
▁蓝	-3315
▁蔚	-3316
▁蕴	-3317
▁虎	-3318
▁虚	-3319
▁蛋	-3320
▁衣	-3321
▁誓	-3322
▁订	-3323
▁识	-3324
▁诞	-3325
▁谓	-3326
▁豫	-3327
▁赤	-3328
▁赴	-3329
▁跋	-3330
▁轮	-3331
▁轰	-3332
▁辐	-3333
▁辟	-3334
▁返	-3335
▁逝	-3336
▁遥	-3337
▁邀	-3338
▁邹	-3339
▁酒	-3340
▁醒	-3341
▁野	-3342
▁钞	-3343
▁锦	-3344
▁阻	-3345
▁陪	-3346
▁陵	-3347
▁陶	-3348
▁须	-3349
▁颇	-3350
▁颜	-3351
▁飘	-3352
▁饺	-3353
▁驶	-3354
▁骄	-3355
▁鬼	-3356
▁魂	-3357
▁鲁	-3358
▁鸟	-3359
▁鸡	-3360
▁鹏	-3361
▁麻	-3362
一堂	-3363
一期	-3364
一番	-3365
一遍	-3366
上了	-3367
上到	-3368
上村	-3369
上涨	-3370
上演	-3371
上门	-3372
与海	-3373
两豆	-3374
中版	-3375
义昭	-3376
之以	-3377
之动	-3378
之处	-3379
乎理	-3380
乐趣	-3381
九五	-3382
事情	-3383
事求	-3384
事知	-3385
交管	-3386
人数	-3387
亿日	-3388
以为	-3389
伙子	-3390
会晤	-3391
传送	-3392
体化	-3393
健身	-3394
储备	-3395
光冷	-3396
克拉	-3397
入了	-3398
全局	-3399
兰堡	-3400
军八	-3401
军属	-3402
分流	-3403
制宜	-3404
前提	-3405
动摇	-3406
劳斯	-3407
北省	-3408
区办	-3409
十七	-3410
发行	-3411
可见	-3412
史哲	-3413
和自	-3414
因而	-3415
国权	-3416
地利	-3417
坚信	-3418
基会	-3419
处是	-3420
备了	-3421
多次	-3422
多金	-3423
大桥	-3424
大部	-3425
女老	-3426
委会	-3427
子女	-3428
定的	-3429
宾逊	-3430
寒风	-3431
尼拉	-3432
局长	-3433
层次	-3434
工会	-3435
干警	-3436
年之	-3437
并茂	-3438
建舟	-3439
建谁	-3440
彩玲	-3441
必贪	-3442
情地	-3443
愿者	-3444
成效	-3445
才智	-3446
斑鸠	-3447
斯基	-3448
旋门	-3449
日献	-3450
旦河	-3451
时候	-3452
明珠	-3453
易辙	-3454
是她	-3455
有升	-3456
有名	-3457
木齐	-3458
本领	-3459
来越	-3460
林顿	-3461
桑比	-3462
步飞	-3463
比拉	-3464
泳三	-3465
浩田	-3466
海横	-3467
添了	-3468
激情	-3469
玛干	-3470
瑞环	-3471
病防	-3472
百炼	-3473
的感	-3474
的火	-3475
的群	-3476
的西	-3477
直线	-3478
真情	-3479
着三	-3480
称为	-3481
窥视	-3482
立场	-3483
立派	-3484
米兰	-3485
纽带	-3486
肉色	-3487
致使	-3488
色的	-3489
荣誉	-3490
萨诺	-3491
视学	-3492
记忆	-3493
评为	-3494
评家	-3495
谈会	-3496
负着	-3497
轻的	-3498
辣椒	-3499
达了	-3500
过难	-3501
迟不	-3502
造田	-3503
道涵	-3504
里木	-3505
金额	-3506
长韩	-3507
问暖	-3508
险阻	-3509
题性	-3510
▁%,	-3511
▁.3	-3512
▁1、	-3513
▁22	-3514
▁39	-3515
▁42	-3516
▁44	-3517
▁45	-3518
▁48	-3519
▁62	-3520
▁63	-3521
▁7.	-3522
▁8.	-3523
▁90	-3524
▁一件	-3525
▁一份	-3526
▁一家	-3527
▁一张	-3528
▁一支	-3529
▁一百	-3530
▁一般	-3531
▁一辆	-3532
▁万名	-3533
▁三通	-3534
▁上年	-3535
▁上述	-3536
▁下午	-3537
▁不到	-3538
▁专业	-3539
▁专程	-3540
▁业和	-3541
▁丝毫	-3542
▁丝绸	-3543
▁两年	-3544
▁严峻	-3545
▁个县	-3546
▁个大	-3547
▁丰收	-3548
▁临川	-3549
▁主动	-3550
▁举办	-3551
▁之急	-3552
▁乌鲁	-3553
▁也是	-3554
▁也有	-3555
▁习惯	-3556
▁乡村	-3557
▁书系	-3558
▁买回	-3559
▁了以	-3560
▁了大	-3561
▁争取	-3562
▁事务	-3563
▁二百	-3564
▁云南	-3565
▁云龙	-3566
▁互相	-3567
▁五十	-3568
▁五是	-3569
▁交响	-3570
▁享受	-3571
▁享誉	-3572
▁京城	-3573
▁京沪	-3574
▁亲手	-3575
▁人心	-3576
▁人权	-3577
▁人车	-3578
▁仅是	-3579
▁今后	-3580
▁他的	-3581
▁代的	-3582
▁们在	-3583
▁们都	-3584
▁份额	-3585
▁仿佛	-3586
▁伊斯	-3587
▁休眠	-3588
▁优良	-3589
▁会见	-3590
▁传授	-3591
▁伴唱	-3592
▁似乎	-3593
▁位老	-3594
▁依然	-3595
▁依赖	-3596
▁侠骨	-3597
▁保留	-3598
▁修筑	-3599
▁做了	-3600
▁停车	-3601
▁儿女	-3602
▁兄弟	-3603
▁充足	-3604
▁光彩	-3605
▁党和	-3606
▁全军	-3607
▁公正	-3608
▁关怀	-3609
▁兴起	-3610
▁兵器	-3611
▁兵法	-3612
▁典籍	-3613
▁冬泳	-3614
▁冰雪	-3615
▁冲突	-3616
▁减轻	-3617
▁几年	-3618
▁出发	-3619
▁出自	-3620
▁分子	-3621
▁分忧	-3622
▁分裂	-3623
▁划拨	-3624
▁创新	-3625
▁制定	-3626
▁前已	-3627
▁剖析	-3628
▁功夫	-3629
▁动了	-3630
▁募捐	-3631
▁包袱	-3632
▁十年	-3633
▁千锤	-3634
▁半本	-3635
▁华夏	-3636
▁原来	-3637
▁县市	-3638
▁双向	-3639
▁反复	-3640
▁反应	-3641
▁反腐	-3642
▁发电	-3643
▁受益	-3644
▁变为	-3645
▁古城	-3646
▁号码	-3647
▁合并	-3648
▁启发	-3649
▁呈现	-3650
▁呼声	-3651
▁命运	-3652
▁和水	-3653
▁喇叭	-3654
▁四是	-3655
▁回忆	-3656
▁因地	-3657
▁围绕	-3658
▁国有	-3659
▁图像	-3660
▁图谱	-3661
▁地处	-3662
▁坚守	-3663
▁坚韧	-3664
▁培训	-3665
▁塑造	-3666
▁增强	-3667
▁壮歌	-3668
▁处罚	-3669
▁复苏	-3670
▁外债	-3671
▁外地	-3672
▁多年	-3673
▁多的	-3674
▁夜晚	-3675
▁大地	-3676
▁大成	-3677
▁大胆	-3678
▁大陆	-3679
▁天上	-3680
▁天下	-3681
▁天气	-3682
▁太阳	-3683
▁失传	-3684
▁失衡	-3685
▁奉献	-3686
▁好评	-3687
▁好转	-3688
▁妹妹	-3689
▁姑妈	-3690
▁娱乐	-3691
▁媒体	-3692
▁学校	-3693
▁学的	-3694
▁宗旨	-3695
▁定期	-3696
▁审慎	-3697
▁客商	-3698
▁客观	-3699
▁家园	-3700
▁宿舍	-3701
▁将于	-3702
▁将在	-3703
▁将对	-3704
▁小说	-3705
▁尚未	-3706
▁局面	-3707
▁屏幕	-3708
▁展开	-3709
▁山水	-3710
▁岗亭	-3711
▁巨变	-3712
▁巨幅	-3713
▁已有	-3714
▁已达	-3715
▁巴黎	-3716
▁布置	-3717
▁带着	-3718
▁幅度	-3719
▁平凡	-3720
▁广播	-3721
▁弥补	-3722
▁强劲	-3723
▁当代	-3724
▁当选	-3725
▁彭珮	-3726
▁影视	-3727
▁待遇	-3728
▁很大	-3729
▁很好	-3730
▁很少	-3731
▁很快	-3732
▁得好	-3733
▁微笑	-3734
▁怀揣	-3735
▁怎么	-3736
▁悟出	-3737
▁惊喜	-3738
▁意见	-3739
▁感谢	-3740
▁成效	-3741
▁成长	-3742
▁我军	-3743
▁战友	-3744
▁战胜	-3745
▁所谓	-3746
▁扎实	-3747
▁执法	-3748
▁找准	-3749
▁承贷	-3750
▁担任	-3751
▁拒绝	-3752
▁拥挤	-3753
▁换届	-3754
▁授权	-3755
▁探讨	-3756
▁接触	-3757
▁描绘	-3758
▁揭示	-3759
▁援助	-3760
▁撤军	-3761
▁收到	-3762
▁收购	-3763
▁救灾	-3764
▁教授	-3765
▁数字	-3766
▁整顿	-3767
▁斑斓	-3768
▁方向	-3769
▁施特	-3770
▁日子	-3771
▁旨在	-3772
▁早在	-3773
▁早已	-3774
▁早期	-3775
▁旺盛	-3776
▁昆明	-3777
▁昌盛	-3778
▁春天	-3779
▁春节	-3780
▁昨天	-3781
▁是两	-3782
▁普通	-3783
▁暖亮	-3784
▁更是	-3785
▁有一	-3786
▁有几	-3787
▁有限	-3788
▁服装	-3789
▁望台	-3790
▁未曾	-3791
▁未能	-3792
▁杂志	-3793
▁权益	-3794
▁材料	-3795
▁村村	-3796
▁束缚	-3797
▁来了	-3798
▁杨子	-3799
▁林皎	-3800
▁某些	-3801
▁柳林	-3802
▁桂林	-3803
▁桌边	-3804
▁桥本	-3805
▁检查	-3806
▁检阅	-3807
▁概念	-3808
▁概括	-3809
▁模式	-3810
▁横吹	-3811
▁欣慰	-3812
▁歌剧	-3813
▁歌舞	-3814
▁此而	-3815
▁此间	-3816
▁步伐	-3817
▁殃及	-3818
▁每月	-3819
▁每次	-3820
▁比额	-3821
▁毕竟	-3822
▁汽车	-3823
▁沉思	-3824
▁沉稳	-3825
▁沟通	-3826
▁浓厚	-3827
▁浓郁	-3828
▁浩荡	-3829
▁浪潮	-3830
▁海协	-3831
▁消灭	-3832
▁消除	-3833
▁涉及	-3834
▁淡忘	-3835
▁深化	-3836
▁清晨	-3837
▁温宪	-3838
▁温馨	-3839
▁游客	-3840
▁满载	-3841
▁火烧	-3842
▁炸伤	-3843
▁烂漫	-3844
▁烈斯	-3845
▁热闹	-3846
▁照耀	-3847
▁现有	-3848
▁珍惜	-3849
▁理事	-3850
▁甚少	-3851
▁生动	-3852
▁生机	-3853
▁田野	-3854
▁痕迹	-3855
▁瘫痪	-3856
▁登高	-3857
▁的多	-3858
▁的手	-3859
▁的热	-3860
▁的精	-3861
▁的老	-3862
▁目睹	-3863
▁相互	-3864
▁相对	-3865
▁省市	-3866
▁省长	-3867
▁眼光	-3868
▁睦邻	-3869
▁短期	-3870
▁礼物	-3871
▁祝辞	-3872
▁离石	-3873
▁积累	-3874
▁稳步	-3875
▁空中	-3876
▁突出	-3877
▁立了	-3878
▁立场	-3879
▁竖起	-3880
▁笑声	-3881
▁笔触	-3882
▁米兰	-3883
▁精粹	-3884
▁纪实	-3885
▁纸币	-3886
▁纺织	-3887
▁细节	-3888
▁绵绵	-3889
▁绿化	-3890
▁缅怀	-3891
▁编辑	-3892
▁缤纷	-3893
▁缩小	-3894
▁缺乏	-3895
▁罕见	-3896
▁美丽	-3897
▁羽毛	-3898
▁者的	-3899
▁耕耘	-3900
▁联邦	-3901
▁脚下	-3902
▁舆论	-3903
▁航线	-3904
▁色彩	-3905
▁色的	-3906
▁萝卜	-3907
▁街头	-3908
▁表妹	-3909
▁表明	-3910
▁衷心	-3911
▁装帧	-3912
▁要比	-3913
▁觉得	-3914
▁誓词	-3915
▁训练	-3916
▁记忆	-3917
▁记载	-3918
▁诚挚	-3919
▁诞生	-3920
▁详细	-3921
▁语言	-3922
▁诸多	-3923
▁调动	-3924
▁谋士	-3925
▁豫剧	-3926
▁负担	-3927
▁财富	-3928
▁购买	-3929
▁贯穿	-3930
▁贵州	-3931
▁赞誉	-3932
▁赞赏	-3933
▁赠送	-3934
▁赤胆	-3935
▁转化	-3936
▁转让	-3937
▁辐射	-3938
▁运动	-3939
▁运用	-3940
▁还要	-3941
▁连年	-3942
▁造福	-3943
▁邻里	-3944
▁郑重	-3945
▁都在	-3946
▁都市	-3947
▁配置	-3948
▁重的	-3949
▁金色	-3950
▁钞票	-3951
▁钟声	-3952
▁钟楼	-3953
▁钢架	-3954
▁银川	-3955
▁锦绣	-3956
▁长篇	-3957
▁门口	-3958
▁间接	-3959
▁阶级	-3960
▁阿姨	-3961
▁降低	-3962
▁随处	-3963
▁随意	-3964
▁雅俗	-3965
▁雪域	-3966
▁震撼	-3967
▁露脸	-3968
▁靠着	-3969
▁面前	-3970
▁顶着	-3971
▁预报	-3972
▁领土	-3973
▁频频	-3974
▁饲料	-3975
▁首脑	-3976
▁马来	-3977
▁驾车	-3978
▁骄傲	-3979
▁高涨	-3980
▁高潮	-3981
▁鱼儿	-3982
▁黄土	-3983
之以恒	-3984
事求是	-3985
交管局	-3986
亿日元	-3987
大中小	-3988
建谁有	-3989
明珠塔	-3990
桑比克	-3991
病防治	-3992
过难关	-3993
▁197	-3994
▁236	-3995
▁一体化	-3996
▁万国权	-3997
▁三十六	-3998
▁不必贪	-3999
▁为之动	-4000
▁为前提	-4001
▁为纽带	-4002
▁主题性	-4003
▁人与事	-4004
▁价上涨	-4005
▁似之处	-4006
▁依多金	-4007
▁俄发行	-4008
▁假日献	-4009
▁克林顿	-4010
▁具备了	-4011
▁凯旋门	-4012
▁出现了	-4013
▁刘步飞	-4014
▁到处是	-4015
▁前两次	-4016
▁加入了	-4017
▁卡比拉	-4018
▁原子钟	-4019
▁县长韩	-4020
▁周一期	-4021
▁图文兼	-4022
▁坪上村	-4023
▁塔克拉	-4024
▁塔里木	-4025
▁增添了	-4026
▁夫斯基	-4027
▁奥地利	-4028
▁孩子们	-4029
▁小伙子	-4030
▁尤其是	-4031
▁局局长	-4032
▁山西省	-4033
▁市公安	-4034
▁希萨诺	-4035
▁年轻的	-4036
▁座谈会	-4037
▁弦易辙	-4038
▁往事知	-4039
▁徐义昭	-4040
▁志愿者	-4041
▁总人数	-4042
▁总工会	-4043
▁我以为	-4044
▁批评家	-4045
▁找上门	-4046
▁揽全局	-4047
▁文史哲	-4048
▁晚上到	-4049
▁曾多次	-4050
▁李瑞环	-4051
▁村委会	-4052
▁村里的	-4053
▁条直线	-4054
▁正是这	-4055
▁江大桥	-4056
▁汪道涵	-4057
▁沧海横	-4058
▁河北省	-4059
▁海南省	-4060
▁深层次	-4061
▁烈军属	-4062
▁特定的	-4063
▁男女老	-4064
▁的事情	-4065
▁的立场	-4066
▁空军八	-4067
▁约旦河	-4068
▁罗宾逊	-4069
▁罗马和	-4070
▁老区办	-4071
▁股激情	-4072
▁肩负着	-4073
▁胡彩玲	-4074
▁表达了	-4075
▁被称为	-4076
▁被评为	-4077
▁见成效	-4078
▁贵乎理	-4079
▁贺年卡	-4080
▁贾建舟	-4081
▁越来越	-4082
▁跑道延	-4083
▁迟浩田	-4084
▁迟迟不	-4085
▁那肉色	-4086
▁里窥视	-4087
▁金大中	-4088
▁金泳三	-4089
▁马尼拉	-4090
与海基会	-4091
公安干警	-4092
里的村庄	-4093
▁万亿日元	-4094
▁乌鲁木齐	-4095
▁人车分流	-4096
▁伊斯兰堡	-4097
▁全民健身	-4098
▁千锤百炼	-4099
▁半本是她	-4100
▁华南大部	-4101
▁双向传送	-4102
▁名大中小	-4103
▁因地制宜	-4104
▁图文并茂	-4105
▁实事求是	-4106
▁市交管局	-4107
▁施特劳斯	-4108
▁欢聚一堂	-4109
▁毫不动摇	-4110
▁渡过难关	-4111
▁稳中有升	-4112
▁聪明才智	-4113
▁背土造田	-4114
▁艰难险阻	-4115
▁莫桑比克	-4116
▁董建华等	-4117
▁谁建谁有	-4118
▁随处可见	-4119
▁顶着寒风	-4120
▁首脑会晤	-4121
▁马来西亚	-4122
▁东方明珠塔	-4123
▁假日献真情	-4124
▁塔克拉玛干	-4125
▁有小到中雪	-4126
▁空军八一飞	-4127
▁罗马和米兰	-4128
▁老年病防治	-4129
▁海协与海基会	-4130
▁都市里的村庄	-4131
”;	-4132
▁脆	-4133
▁腊	-4134
▁腾	-4135
▁臂	-4136
▁臾	-4137
▁芍	-4138
▁芝	-4139
▁芭	-4140
▁苹	-4141
▁茅	-4142
▁茫	-4143
▁药	-4144
▁莎	-4145
▁葫	-4146
▁蒂	-4147
▁蕾	-4148
▁藉	-4149
▁袋	-4150
▁袖	-4151
▁裕	-4152
▁讨	-4153
▁试	-4154
▁误	-4155
▁诺	-4156
▁谷	-4157
▁豁	-4158
▁豪	-4159
▁贞	-4160
▁贬	-4161
▁赋	-4162
▁赐	-4163
▁赖	-4164
▁赡	-4165
▁赫	-4166
▁赭	-4167
▁跷	-4168
▁蹈	-4169
▁躺	-4170
▁辅	-4171
▁迄	-4172
▁迭	-4173
▁遏	-4174
▁遒	-4175
▁遮	-4176
▁邱	-4177
▁邵	-4178
▁郊	-4179
▁郭	-4180
▁钦	-4181
▁钩	-4182
▁链	-4183
▁锁	-4184
▁错	-4185
▁锲	-4186
▁镜	-4187
▁镶	-4188
▁闹	-4189
▁阐	-4190
▁阑	-4191
▁陟	-4192
▁霜	-4193
▁颖	-4194
▁饱	-4195
▁骑	-4196
▁骨	-4197
▁魄	-4198
▁魅	-4199
▁粒	-4200
▁粗	-4201
▁粪	-4202
▁糊	-4203
▁索	-4204
▁紫	-4205
▁纬	-4206
▁绑	-4207
▁续	-4208
▁翠	-4209
▁肖	-4210
▁肤	-4211
▁肥	-4212
▁肿	-4213
▁莅	-4214
▁蒸	-4215
▁讴	-4216
▁鲍	-4217
▁鲶	-4218
▁麦	-4219
▁龄	-4220
一床	-4221
一段	-4222
一秒	-4223
丁玲	-4224
三幅	-4225
上级	-4226
下了	-4227
下跌	-4228
不堪	-4229
不容	-4230
不景	-4231
不相	-4232
个做	-4233
中调	-4234
为止	-4235
之外	-4236
乐声	-4237
书立	-4238
乱差	-4239
于没	-4240
于用	-4241
些年	-4242
亩产	-4243
人哲	-4244
人流	-4245
付钱	-4246
以节	-4247
作干	-4248
作物	-4249
公认	-4250
再累	-4251
凶杀	-4252
到南	-4253
到肉	-4254
前往	-4255
前跑	-4256
力更	-4257
勇往	-4258
勒断	-4259
区县	-4260
千斤	-4261
厂部	-4262
双民	-4263
取的	-4264
古稀	-4265
否把	-4266
和柏	-4267
商谈	-4268
团团	-4269
围住	-4270
国琦	-4271
在临	-4272
在鹏	-4273
地注	-4274
地评	-4275
垃圾	-4276
备期	-4277
大法	-4278
大涨	-4279
天湖	-4280
子劲	-4281
安街	-4282
实可	-4283
对政	-4284
对照	-4285
对联	-4286
将为	-4287
小钱	-4288
局管	-4289
展翼	-4290
巴嫩	-4291
布扎	-4292
布赫	-4293
年货	-4294
并的	-4295
开朗	-4296
张天	-4297
张振	-4298
彩球	-4299
▁珠	-4300
▁甲	-4301
▁略	-4302
▁症	-4303
▁盎	-4304
▁盗	-4305
▁盲	-4306
▁眷	-4307
▁磋	-4308
▁秧	-4309
▁移	-4310
▁稻	-4311
▁窘	-4312
▁踞	-4313
▁锻	-4314
下面	-4315
为选	-4316
之鼓	-4317
买提	-4318
于历	-4319
交叉	-4320
传神	-4321
其父	-4322
合唱	-4323
合悲	-4324
合法	-4325
吹箫	-4326
和审	-4327
和楼	-4328
和真	-4329
在哪	-4330
地穿	-4331
墨耘	-4332
多么	-4333
大专	-4334
始皇	-4335
子竖	-4336
孩曲	-4337
寻隐	-4338
尔目	-4339
希涅	-4340
彩的	-4341
往开	-4342
念和	-4343
思变	-4344
恰恰	-4345
悲愤	-4346
意于	-4347
或手	-4348
或雨	-4349
所抒	-4350
手缩	-4351
指数	-4352
文崔	-4353
新李	-4354
无际	-4355
明智	-4356
易就	-4357
普托	-4358
有厚	-4359
有类	-4360
村串	-4361
松鼠	-4362
林嵩	-4363
楼相	-4364
欢度	-4365
欲试	-4366
此一	-4367
步入	-4368
死回	-4369
毛绒	-4370
水哄	-4371
水浜	-4372
永泉	-4373
永黄	-4374
测调	-4375
海声	-4376
清目	-4377
清秀	-4378
清香	-4379
满窗	-4380
澄澄	-4381
特意	-4382
珊瑚	-4383
瑙河	-4384
生倒	-4385
生平	-4386
电线	-4387
界顿	-4388
白港	-4389
百米	-4390
的临	-4391
的尝	-4392
的帐	-4393
的旗	-4394
的聚	-4395
的花	-4396
的芹	-4397
的谢	-4398
的车	-4399
▁澈	-4400
▁炮	-4401
▁炼	-4402
▁熔	-4403
▁燕	-4404
▁爪	-4405
▁牌	-4406
▁牺	-4407
▁犯	-4408
▁狱	-4409
与制	-4410
个性	-4411
为支	-4412
举副	-4413
么多	-4414
乐极	-4415
书形	-4416
具抱	-4417
力抓	-4418
发之	-4419
发了	-4420
台挺	-4421
台胞	-4422
国者	-4423
大有	-4424
太人	-4425
定居	-4426
式和	-4427
把握	-4428
挂着	-4429
新天	-4430
朝瑞	-4431
机组	-4432
水蒸	-4433
深受	-4434
炽热	-4435
的味	-4436
的池	-4437
皆灵	-4438
着晨	-4439
瞒你	-4440
石膏	-4441
砚田	-4442
硝烟	-4443
碰硬	-4444
禽鸟	-4445
移默	-4446
稍逊	-4447
笋岗	-4448
类旁	-4449
纠纷	-4450
纷飞	-4451
终令	-4452
绚丽	-4453
继鸿	-4454
缓行	-4455
老舍	-4456
而有	-4457
聚焦	-4458
能传	-4459
艾芜	-4460
花被	-4461
范硕	-4462
茫草	-4463
茵茵	-4464
荆轲	-4465
菠菜	-4466
蓝的	-4467
蜜罐	-4468
行长	-4469
衷地	-4470
袋还	-4471
被拘	-4472
被毁	-4473
西城	-4474
西戎	-4475
要叫	-4476
覆辙	-4477
观火	-4478
詹建	-4479
计纷	-4480
讯等	-4481
论点	-4482
话题	-4483
读由	-4484
赵新	-4485
足留	-4486
踢足	-4487
边陲	-4488
达夫	-4489
近住	-4490
通亿	-4491
遵循	-4492
郭凯	-4493
郭沫	-4494
都饱	-4495
释放	-4496
量随	-4497
镇结	-4498
阴有	-4499
▁汝	-4500
▁池	-4501
▁污	-4502
▁沪	-4503
▁泉	-4504
▁津	-4505
▁洼	-4506
▁浑	-4507
▁浦	-4508
▁涂	-4509
▁涣	-4510
▁涪	-4511
▁涯	-4512
▁淌	-4513
▁湾	-4514
▁溜	-4515
▁溧	-4516
▁滥	-4517
▁箫	-4518
▁裹	-4519
三千	-4520
与厚	-4521
乐园	-4522
于纸	-4523
区有	-4524
厚质	-4525
县柘	-4526
后果	-4527
商厦	-4528
国耻	-4529
如泉	-4530
层互	-4531
更浪	-4532
民乐	-4533
汇大	-4534
江畔	-4535
汾阳	-4536
混称	-4537
渤海	-4538
温暖	-4539
然正	-4540
王萍	-4541
理和	-4542
的审	-4543
的才	-4544
的韵	-4545
种洼	-4546
紧挨	-4547
转译	-4548
镇洋	-4549
闸门	-4550
陈俊	-4551
震林	-4552
韵盈	-4553
领略	-4554
颇丰	-4555
题的	-4556
风筝	-4557
风骚	-4558
馆等	-4559
马去	-4560
高频	-4561
鱼以	-4562
鲤鱼	-4563
鳜鱼	-4564
鸟画	-4565
鸣谢	-4566
▁02	-4567
▁47	-4568
▁54	-4569
▁74	-4570
▁85	-4571
▁95	-4572
▁98	-4573
▁‘0	-4574
▁‰,	-4575
▁一月	-4576
▁一点	-4577
▁一股	-4578
▁一面	-4579
▁丁关	-4580
▁万平	-4581
▁万象	-4582
▁三峡	-4583
▁不久	-4584
▁不应	-4585
▁不开	-4586
▁不得	-4587
▁不怕	-4588
▁不敢	-4589
▁不绝	-4590
▁专致	-4591
▁且摆	-4592
▁东西	-4593
▁丝万	-4594
▁严而	-4595
▁中外	-4596
▁中有	-4597
▁中秋	-4598
▁串成	-4599
”?	-4600
▁析	-4601
▁染	-4602
▁柱	-4603
▁栓	-4604
▁桃	-4605
▁桑	-4606
▁梁	-4607
▁械	-4608
▁椒	-4609
▁榫	-4610
▁樊	-4611
▁残	-4612
▁殖	-4613
▁氏	-4614
▁氛	-4615
▁氢	-4616
▁涝	-4617
中一	-4618
之类	-4619
人郭	-4620
俨然	-4621
元庄	-4622
光的	-4623
入隶	-4624
县前	-4625
发令	-4626
变求	-4627
同恺	-4628
在阔	-4629
地做	-4630
地操	-4631
太郎	-4632
强渡	-4633
斯科	-4634
时每	-4635
曲径	-4636
机呈	-4637
来水	-4638
林徽	-4639
桥梁	-4640
次的	-4641
歼击	-4642
油马	-4643
的话	-4644
神妙	-4645
简引	-4646
花鲜	-4647
荒赢	-4648
虬曲	-4649
西湖	-4650
账太	-4651
车顶	-4652
▁为国	-4653
▁丽堂	-4654
▁丽风	-4655
▁乃至	-4656
▁久便	-4657
▁之中	-4658
▁之后	-4659
▁之处	-4660
▁乐团	-4661
▁九八	-4662
▁也可	-4663
▁也将	-4664
▁也正	-4665
▁也诚	-4666
▁乱超	-4667
▁了两	-4668
▁了新	-4669
▁二分	-4670
▁二等	-4671
▁二重	-4672
▁互帮	-4673
▁交往	-4674
▁亦会	-4675
▁产前	-4676
▁亮白	-4677
▁仅四	-4678
▁今晚	-4679
▁仍为	-4680
▁仍在	-4681
▁从长	-4682
▁代中	-4683
▁以至	-4684
▁们向	-4685
▁任何	-4686
▁份月	-4687
▁伊兹	-4688
▁伊拉	-4689
▁低于	-4690
▁低息	-4691
▁住在	-4692
▁住热	-4693
▁何况	-4694
▁何鲁	-4695
▁佳肴	-4696
▁使其	-4697
▁依恋	-4698
▁侧台	-4699
▁挥	-4700
▁摇	-4701
▁摸	-4702
▁攀	-4703
▁斡	-4704
▁旁	-4705
▁旦	-4706
▁暗	-4707
▁曼	-4708
▁朵	-4709
▁朽	-4710
▁杭	-4711
两翼	-4712
之作	-4713
之年	-4714
事宜	-4715
及它	-4716
古树	-4717
可辨	-4718
哈顿	-4719
在朝	-4720
大爷	-4721
对终	-4722
尔夫	-4723
尖锐	-4724
尽的	-4725
山雕	-4726
岛遥	-4727
已然	-4728
年轮	-4729
开口	-4730
引菲	-4731
张启	-4732
必要	-4733
捉座	-4734
掏腰	-4735
搬迁	-4736
撷拾	-4737
数据	-4738
数百	-4739
暴又	-4740
曝光	-4741
朗氏	-4742
来临	-4743
来早	-4744
水泥	-4745
点和	-4746
的鬼	-4747
而起	-4748
衣捐	-4749
读硕	-4750
踵而	-4751
金良	-4752
齐地	-4753
▁体的	-4754
▁侧目	-4755
▁保命	-4756
▁保定	-4757
▁保深	-4758
▁信念	-4759
▁修梯	-4760
▁倘佯	-4761
▁借助	-4762
▁倡廉	-4763
▁偏于	-4764
▁停下	-4765
▁停机	-4766
▁催还	-4767
▁像钻	-4768
▁像黄	-4769
▁元一	-4770
▁元的	-4771
▁先河	-4772
▁光明	-4773
▁党报	-4774
▁入了	-4775
▁入冬	-4776
▁全力	-4777
▁全方	-4778
▁公安	-4779
▁兼具	-4780
▁兼备	-4781
▁冒雨	-4782
▁写下	-4783
▁写照	-4784
▁写生	-4785
▁写着	-4786
▁军功	-4787
▁冰雕	-4788
▁况转	-4789
▁净的	-4790
▁几句	-4791
▁几滴	-4792
▁凡响	-4793
▁凡是	-4794
▁出生	-4795
▁刘心	-4796
▁刘志	-4797
▁刘振	-4798
▁创利	-4799
▁惬	-4800
▁憬	-4801
▁戴	-4802
▁扑	-4803
▁折	-4804
▁抛	-4805
▁抽	-4806
▁拆	-4807
▁拓	-4808
▁拙	-4809
▁拟	-4810
▁拢	-4811
▁拦	-4812
▁择	-4813
▁拼	-4814
▁绳	-4815
▁肃	-4816
▁闭	-4817
一元	-4818
一式	-4819
一页	-4820
不舍	-4821
乾坤	-4822
了青	-4823
到天	-4824
到手	-4825
刻都	-4826
却万	-4827
参观	-4828
均具	-4829
家门	-4830
岚清	-4831
帷幕	-4832
开那	-4833
引下	-4834
得水	-4835
态可	-4836
惶惶	-4837
意和	-4838
慷慨	-4839
成员	-4840
扭转	-4841
拉机	-4842
收割	-4843
收她	-4844
格套	-4845
水站	-4846
洪俊	-4847
爱兰	-4848
的木	-4849
红挂	-4850
能融	-4851
腮壳	-4852
行旨	-4853
▁别看	-4854
▁到来	-4855
▁制裁	-4856
▁剧照	-4857
▁剧院	-4858
▁办了	-4859
▁办公	-4860
▁办好	-4861
▁加剧	-4862
▁助村	-4863
▁势在	-4864
▁十里	-4865
▁千五	-4866
▁千方	-4867
▁升到	-4868
▁半身	-4869
▁半部	-4870
▁卢萨	-4871
▁印刷	-4872
▁印经	-4873
▁印象	-4874
▁即通	-4875
▁卷台	-4876
▁历时	-4877
▁厚的	-4878
▁厚礼	-4879
▁县有	-4880
▁又有	-4881
▁双边	-4882
▁反党	-4883
▁发放	-4884
▁发菜	-4885
▁取消	-4886
▁受损	-4887
▁另发	-4888
▁叫我	-4889
▁可归	-4890
▁史上	-4891
▁叶利	-4892
▁吃一	-4893
▁吃胡	-4894
▁合拍	-4895
▁后我	-4896
▁向前	-4897
▁启迪	-4898
▁吴忠	-4899
▁廉	-4900
▁弗	-4901
▁弟	-4902
▁弹	-4903
▁彦	-4904
▁彬	-4905
▁彼	-4906
▁循	-4907
▁徽	-4908
▁忆	-4909
▁忍	-4910
▁忽	-4911
▁怜	-4912
▁怨	-4913
▁恐	-4914
▁恨	-4915
▁悄	-4916
▁悬	-4917
▁扇	-4918
▁掩	-4919
▁晓	-4920
▁牢	-4921
▁谭	-4922
▁霸	-4923
两部	-4924
于一	-4925
作主	-4926
刘少	-4927
功立	-4928
同道	-4929
和情	-4930
宁静	-4931
实无	-4932
家煌	-4933
小心	-4934
常地	-4935
建荣	-4936
张震	-4937
悠久	-4938
手捧	-4939
扶疏	-4940
无悔	-4941
日的	-4942
梅飘	-4943
理无	-4944
白血	-4945
的来	-4946
的松	-4947
落和	-4948
进了	-4949
速波	-4950
道德	-4951
道理	-4952
餐椅	-4953
高挂	-4954
▁人请	-4955
▁听见	-4956
▁吸取	-4957
▁吸着	-4958
▁周六	-4959
▁周锡	-4960
▁命令	-4961
▁和解	-4962
▁哈蒂	-4963
▁哈马	-4964
▁商会	-4965
▁善了	-4966
▁喜爱	-4967
▁喜讯	-4968
▁喝大	-4969
▁喝彩	-4970
▁嘉奖	-4971
▁回京	-4972
▁困境	-4973
▁围场	-4974
▁围界	-4975
▁国会	-4976
▁图书	-4977
▁圆润	-4978
▁圣洁	-4979
▁在自	-4980
▁在谈	-4981
▁地域	-4982
▁地说	-4983
▁坐在	-4984
▁块贫	-4985
▁坡陡	-4986
▁垫支	-4987
▁基层	-4988
▁堂收	-4989
▁堆死	-4990
▁堆群	-4991
▁堵车	-4992
▁塘里	-4993
▁境界	-4994
▁墨神	-4995
▁声中	-4996
▁备齐	-4997
▁夏季	-4998
▁外汇	-4999
▁尖	-5000
▁尘	-5001
▁屈	-5002
▁届	-5003
▁峻	-5004
▁崖	-5005
▁巡	-5006
▁己	-5007
▁席	-5008
▁幽	-5009
▁库	-5010
▁庙	-5011
不染	-5012
乡冯	-5013
以画	-5014
出谋	-5015
分配	-5016
到家	-5017
务实	-5018
发运	-5019
图右	-5020
大建	-5021
妙地	-5022
宏图	-5023
家骅	-5024
屡屡	-5025
巾帕	-5026
市的	-5027
帘的	-5028
帙浩	-5029
帷幄	-5030
排上	-5031
提琴	-5032
是那	-5033
气排	-5034
洁净	-5035
然更	-5036
自罗	-5037
萨尔	-5038
被子	-5039
趋缓	-5040
过了	-5041
重逢	-5042
铁映	-5043
雨也	-5044
面题	-5045
▁55	-5046
▁住进	-5047
▁培的	-5048
▁壮实	-5049
▁外部	-5050
▁多个	-5051
▁夜深	-5052
▁大军	-5053
▁大力	-5054
▁大多	-5055
▁天一	-5056
▁太行	-5057
▁失正	-5058
▁头脑	-5059
▁夺取	-5060
▁奇才	-5061
▁奋勇	-5062
▁奋的	-5063
▁奋进	-5064
▁奏感	-5065
▁奏等	-5066
▁奔腾	-5067
▁奔赴	-5068
▁奠定	-5069
▁奥妙	-5070
▁妨碍	-5071
▁姑姑	-5072
▁威胁	-5073
▁娃小	-5074
▁存量	-5075
▁孙宝	-5076
▁孙金	-5077
▁季花	-5078
▁孤残	-5079
▁孤独	-5080
▁宅的	-5081
▁安在	-5082
▁安民	-5083
▁宏观	-5084
▁官邸	-5085
▁定的	-5086
▁实践	-5087
▁审与	-5088
▁审视	-5089
▁宪梓	-5090
▁家中	-5091
▁家禽	-5092
▁容之	-5093
▁容地	-5094
▁容量	-5095
▁宽进	-5096
▁宾朋	-5097
▁宾馆	-5098
▁寄些	-5099
▁奴	-5100
▁姓	-5101
▁娇	-5102
▁娓	-5103
▁媚	-5104
▁孚	-5105
▁孝	-5106
▁宜	-5107
▁害	-5108
▁寂	-5109
▁寨	-5110
▁泪	-5111
▁浸	-5112
▁竣	-5113
▁阂	-5114
之师	-5115
云岩	-5116
人翁	-5117
养和	-5118
冷雪	-5119
创办	-5120
口限	-5121
告诉	-5122
和联	-5123
地接	-5124
大箴	-5125
姜昆	-5126
姻缘	-5127
子兵	-5128
家禽	-5129
寄的	-5130
少儿	-5131
市貌	-5132
得当	-5133
情民	-5134
意浓	-5135
扫除	-5136
控的	-5137
提炼	-5138
村貌	-5139
染着	-5140
气袭	-5141
的善	-5142
管内	-5143
结缘	-5144
者师	-5145
西晋	-5146
金刚	-5147
院高	-5148
▁刘盛	-5149
▁奴役	-5150
▁姻缘	-5151
▁娓娓	-5152
▁孚凌	-5153
▁寂寞	-5154
▁密而	-5155
▁寒爱	-5156
▁寒风	-5157
▁察民	-5158
▁寨沟	-5159
▁将以	-5160
▁尊重	-5161
▁小时	-5162
▁少华	-5163
▁就业	-5164
▁就可	-5165
▁尺寸	-5166
▁屈服	-5167
▁屋内	-5168
▁屋的	-5169
▁展出	-5170
▁属下	-5171
▁属于	-5172
▁属的	-5173
▁屡屡	-5174
▁岗刘	-5175
▁巡游	-5176
▁巨额	-5177
▁差异	-5178
▁差距	-5179
▁已初	-5180
▁巷的	-5181
▁巷队	-5182
▁市的	-5183
▁帮困	-5184
▁常常	-5185
▁干脆	-5186
▁平稳	-5187
▁年代	-5188
▁年内	-5189
▁年成	-5190
▁幸福	-5191
▁幸运	-5192
▁应由	-5193
▁底色	-5194
▁座都	-5195
▁康生	-5196
▁引黄	-5197
▁弗纶	-5198
▁张亮	-5199
▁喊	-5200
▁喻	-5201
▁嘎	-5202
▁嘱	-5203
▁嘹	-5204
▁坎	-5205
▁坝	-5206
▁垄	-5207
▁垠	-5208
▁埃	-5209
▁埔	-5210
▁堤	-5211
▁堪	-5212
▁岩	-5213
▁淳	-5214
▁鞋	-5215
东渐	-5216
中型	-5217
举棋	-5218
京剧	-5219
供销	-5220
入股	-5221
几只	-5222
升的	-5223
却鸣	-5224
唐维	-5225
嘘寒	-5226
地缘	-5227
天写	-5228
天水	-5229
席卷	-5230
年华	-5231
年身	-5232
指被	-5233
殷墟	-5234
水狂	-5235
深处	-5236
热土	-5237
班迪	-5238
的双	-5239
的洪	-5240
的遗	-5241
着冒	-5242
神态	-5243
笑语	-5244
藉沉	-5245
钱补	-5246
院系	-5247
陵墓	-5248
雄劲	-5249
集散	-5250
馆牌	-5251
鱼前	-5252
▁交接	-5253
▁佩饰	-5254
▁却在	-5255
▁唐维	-5256
▁嘘寒	-5257
▁嘹亮	-5258
▁坎坷	-5259
▁垄断	-5260
▁埃及	-5261
▁堪忧	-5262
▁姜跌	-5263
▁张彦	-5264
▁张震	-5265
▁弹击	-5266
▁当年	-5267
▁形态	-5268
▁征突	-5269
▁很小	-5270
▁徐俊	-5271
▁得而	-5272
▁循环	-5273
▁徽高	-5274
▁忧虑	-5275
▁快乐	-5276
▁怀抱	-5277
▁思念	-5278
▁恨水	-5279
▁恩来	-5280
▁恰逢	-5281
▁恶化	-5282
▁悠久	-5283
▁患了	-5284
▁感慨	-5285
▁感觉	-5286
▁慷慨	-5287
▁憬悟	-5288
▁懈怠	-5289
▁戈比	-5290
▁成熟	-5291
▁我一	-5292
▁或者	-5293
▁所属	-5294
▁手中	-5295
▁手张	-5296
▁执拗	-5297
▁执棒	-5298
▁扭转	-5299
9.	-5300
▁劣	-5301
▁劫	-5302
▁励	-5303
▁勘	-5304
▁匆	-5305
▁厉	-5306
▁厌	-5307
▁吟	-5308
▁含	-5309
▁呕	-5310
▁咨	-5311
▁咱	-5312
▁哪	-5313
▁拮	-5314
▁晤	-5315
▁涛	-5316
▁鉴	-5317
一与	-5318
不甚	-5319
不针	-5320
仅九	-5321
劼人	-5322
勉励	-5323
勤公	-5324
去翻	-5325
叩击	-5326
可泣	-5327
和周	-5328
和睦	-5329
和那	-5330
因为	-5331
在评	-5332
处大	-5333
学谦	-5334
宗教	-5335
小雪	-5336
市乳	-5337
度高	-5338
是个	-5339
有益	-5340
死板	-5341
深藏	-5342
独套	-5343
的富	-5344
真丝	-5345
硬币	-5346
论语	-5347
越岭	-5348
迎刃	-5349
际由	-5350
鲁番	-5351
99.	-5352
▁18	-5353
▁似路	-5354
▁住址	-5355
▁保卫	-5356
▁劫难	-5357
▁劼人	-5358
▁勉励	-5359
▁勘探	-5360
▁勤公	-5361
▁匆匆	-5362
▁厌倦	-5363
▁叩击	-5364
▁吟到	-5365
▁呕心	-5366
▁咨询	-5367
▁咱们	-5368
▁扶持	-5369
▁投诉	-5370
▁抛弃	-5371
▁护卫	-5372
▁披露	-5373
▁抵达	-5374
▁担子	-5375
▁拉开	-5376
▁拖欠	-5377
▁拙见	-5378
▁拜酒	-5379
▁拢嘴	-5380
▁拱棚	-5381
▁持久	-5382
▁挑选	-5383
▁挥洒	-5384
▁捉座	-5385
▁掉队	-5386
▁掌声	-5387
▁掏腰	-5388
▁描写	-5389
▁揭开	-5390
▁援韩	-5391
▁搬迁	-5392
▁摘掉	-5393
▁摘登	-5394
▁摧残	-5395
▁摧毁	-5396
▁摸底	-5397
▁撰写	-5398
▁撰稿	-5399
▁俱	-5400
▁倒	-5401
▁倪	-5402
▁储	-5403
▁僵	-5404
▁儒	-5405
▁凤	-5406
▁凸	-5407
▁判	-5408
▁剪	-5409
▁劈	-5410
▁帅	-5411
▁帝	-5412
▁泾	-5413
与倔	-5414
个分	-5415
乐部	-5416
书名	-5417
亡其	-5418
俯贻	-5419
偷盗	-5420
兑换	-5421
党刊	-5422
凭着	-5423
削减	-5424
办公	-5425
动读	-5426
县水	-5427
基则	-5428
工践	-5429
市斤	-5430
平四	-5431
应征	-5432
志福	-5433
我脑	-5434
抢劫	-5435
沂蒙	-5436
的奋	-5437
的砖	-5438
的颜	-5439
订阅	-5440
许齐	-5441
费孝	-5442
阿里	-5443
▁俯贻	-5444
▁偷盗	-5445
▁僵硬	-5446
▁儒庭	-5447
▁兆国	-5448
▁冒着	-5449
▁凭着	-5450
▁削减	-5451
▁剪纸	-5452
▁助总	-5453
▁勋努	-5454
▁安居	-5455
▁寒峭	-5456
▁帝王	-5457
▁撷拾	-5458
▁故土	-5459
▁敏感	-5460
▁敏捷	-5461
▁数百	-5462
▁整体	-5463
▁文丛	-5464
▁新鲜	-5465
▁旁没	-5466
▁旋律	-5467
▁无微	-5468
▁既有	-5469
▁昂首	-5470
▁是我	-5471
▁显现	-5472
▁晓颜	-5473
▁晚年	-5474
▁暖流	-5475
▁暴又	-5476
▁更迭	-5477
▁曹禺	-5478
▁曹美	-5479
▁曾敏	-5480
▁曾经	-5481
▁月份	-5482
▁有力	-5483
▁有机	-5484
▁望您	-5485
▁朝鲁	-5486
▁本领	-5487
▁朱乃	-5488
▁机会	-5489
▁机长	-5490
▁村落	-5491
▁杜天	-5492
▁束俘	-5493
▁条例	-5494
▁条约	-5495
▁来临	-5496
▁来抓	-5497
▁松劲	-5498
▁松树	-5499
▁乏	-5500
▁仔	-5501
▁伍	-5502
▁伦	-5503
▁估	-5504
▁佐	-5505
▁俊	-5506
▁俗	-5507
▁射	-5508
▁弯	-5509
▁汤	-5510
▁缘	-5511
一时	-5512
一棉	-5513
一边	-5514
丈夫	-5515
三反	-5516
上百	-5517
不怕	-5518
两斤	-5519
乐团	-5520
人同	-5521
人泪	-5522
以至	-5523
信念	-5524
全家	-5525
公仆	-5526
十几	-5527
南疆	-5528
命令	-5529
在其	-5530
处良	-5531
大锅	-5532
始刊	-5533
宣新	-5534
宽逾	-5535
币戈	-5536
有轻	-5537
白宫	-5538
的灶	-5539
的粗	-5540
着生	-5541
禁止	-5542
绍祖	-5543
者赞	-5544
藏医	-5545
证据	-5546
读后	-5547
这首	-5548
鱼等	-5549
鼓浪	-5550
▁》。	-5551
▁丈夫	-5552
▁众益	-5553
▁俗人	-5554
▁兑换	-5555
▁又给	-5556
▁市里	-5557
▁帮带	-5558
▁怀大	-5559
▁情却	-5560
▁文章	-5561
▁日晚	-5562
▁杰出	-5563
▁板一	-5564
▁极端	-5565
▁构成	-5566
▁果敢	-5567
▁果永	-5568
▁枝杈	-5569
▁架次	-5570
▁某种	-5571
▁校学	-5572
▁桃溪	-5573
▁桥梁	-5574
▁梅花	-5575
▁梦魁	-5576
▁棚内	-5577
▁植物	-5578
▁概算	-5579
▁樊如	-5580
▁欠佳	-5581
▁次要	-5582
▁止却	-5583
▁正规	-5584
▁歼击	-5585
▁毫米	-5586
▁水产	-5587
▁汝岱	-5588
▁污染	-5589
▁汾阳	-5590
▁沂蒙	-5591
▁治疗	-5592
▁洋洲	-5593
▁洋葱	-5594
▁洗车	-5595
▁洪水	-5596
▁浇地	-5597
▁测定	-5598
▁测量	-5599
2/	-5600
▁仆	-5601
▁伙	-5602
▁卿	-5603
▁器	-5604
▁塞	-5605
▁帽	-5606
▁愫	-5607
▁萌	-5608
▁跟	-5609
上马	-5610
不开	-5611
光英	-5612
八一	-5613
动地	-5614
品种	-5615
四十	-5616
大陆	-5617
天下	-5618
奥迪	-5619
学透	-5620
家园	-5621
山腹	-5622
志愿	-5623
所谓	-5624
来保	-5625
歌载	-5626
永波	-5627
汪锋	-5628
的魄	-5629
着手	-5630
舍小	-5631
苗再	-5632
菜绿	-5633
表述	-5634
车和	-5635
转让	-5636
迪凯	-5637
里摆	-5638
长街	-5639
顺应	-5640
▁几群	-5641
▁剩余	-5642
▁塞夫	-5643
▁奖共	-5644
▁家和	-5645
▁寄寓	-5646
▁小觑	-5647
▁川籍	-5648
▁扩容	-5649
▁松等	-5650
▁民心	-5651
▁洼地	-5652
▁海口	-5653
▁涣散	-5654
▁涪陵	-5655
▁淌了	-5656
▁淡红	-5657
▁清剿	-5658
▁清唱	-5659
▁游人	-5660
▁源泉	-5661
▁溧水	-5662
▁滚滚	-5663
▁滥觞	-5664
▁滴落	-5665
▁演绎	-5666
▁漫灌	-5667
▁潘驰	-5668
▁潜能	-5669
▁激情	-5670
▁激烈	-5671
▁灭人	-5672
▁灭菌	-5673
▁灰和	-5674
▁灰暗	-5675
▁炼老	-5676
▁炽热	-5677
▁热的	-5678
▁热络	-5679
▁煤矿	-5680
▁熔一	-5681
▁爪部	-5682
▁版面	-5683
▁物品	-5684
▁物种	-5685
▁牺牲	-5686
▁犯罪	-5687
▁犹戎	-5688
▁独创	-5689
▁狭窄	-5690
▁猛增	-5691
▁玉明	-5692
▁王大	-5693
▁王楚	-5694
▁珊瑚	-5695
▁班子	-5696
▁琼斯	-5697
▁瑙河	-5698
▁瑞甫	-5699
27	-5700
▁坦	-5701
▁够	-5702
▁愁	-5703
▁抄	-5704
▁搭	-5705
▁泄	-5706
▁疏	-5707
▁秤	-5708
▁稚	-5709
▁茨	-5710
▁韦	-5711
一的	-5712
三通	-5713
中巴	-5714
之行	-5715
书系	-5716
价供	-5717
全长	-5718
凌叔	-5719
几年	-5720
恩仇	-5721
文选	-5722
旅客	-5723
有人	-5724
李德	-5725
红白	-5726
薄雾	-5727
边好	-5728
锣鼓	-5729
▁2.	-5730
▁乳透	-5731
▁五国	-5732
▁准确	-5733
▁南宁	-5734
▁周边	-5735
▁和睦	-5736
▁够纯	-5737
▁常给	-5738
▁建议	-5739
▁抄本	-5740
▁损害	-5741
▁支付	-5742
▁敲响	-5743
▁旋的	-5744
▁晚会	-5745
▁每篇	-5746
▁满外	-5747
▁烟稀	-5748
▁照顾	-5749
▁甘珠	-5750
▁甜蜜	-5751
▁生长	-5752
▁电力	-5753
▁电子	-5754
▁电网	-5755
▁画坛	-5756
▁画透	-5757
▁畅顺	-5758
▁界人	-5759
▁留下	-5760
▁病而	-5761
▁症结	-5762
▁登山	-5763
▁百一	-5764
▁百万	-5765
▁百家	-5766
▁的信	-5767
▁的全	-5768
▁的国	-5769
▁的提	-5770
▁的生	-5771
▁的美	-5772
▁的西	-5773
▁的话	-5774
▁的预	-5775
▁皆灵	-5776
▁盆景	-5777
▁直播	-5778
▁相聚	-5779
▁真丝	-5780
▁瞒你	-5781
▁矿工	-5782
▁砚田	-5783
▁破天	-5784
▁硝烟	-5785
▁祝谦	-5786
▁祥和	-5787
▁票价	-5788
▁禁地	-5789
▁禁止	-5790
▁禁要	-5791
▁离我	-5792
▁私房	-5793
▁秋两	-5794
▁租赁	-5795
▁租金	-5796
▁秤盘	-5797
▁秧歌	-5798
▁称的	-5799
34	-5800
▁嘴	-5801
▁崛	-5802
▁扰	-5803
▁术	-5804
▁盖	-5805
▁缴	-5806
▁衔	-5807
▁钻	-5808
▁顾	-5809
上迈	-5810
两次	-5811
以街	-5812
前屋	-5813
多画	-5814
大纲	-5815
学问	-5816
将相	-5817
山伯	-5818
带着	-5819
庆林	-5820
我剖	-5821
户抓	-5822
挫伤	-5823
浩瀚	-5824
游鱼	-5825
熊熊	-5826
爱心	-5827
片欢	-5828
白虎	-5829
的天	-5830
盘鼓	-5831
自珍	-5832
选者	-5833
那瓜	-5834
里插	-5835
▁88	-5836
▁之情	-5837
▁以后	-5838
▁体现	-5839
▁便齐	-5840
▁倾听	-5841
▁健身	-5842
▁南北	-5843
▁否则	-5844
▁局限	-5845
▁层大	-5846
▁师长	-5847
▁彻底	-5848
▁抓不	-5849
▁教学	-5850
▁曝光	-5851
▁来源	-5852
▁河边	-5853
▁滨江	-5854
▁熊熊	-5855
▁的巨	-5856
▁的形	-5857
▁确定	-5858
▁禽鸟	-5859
▁称赞	-5860
▁稍逊	-5861
▁穷则	-5862
▁立即	-5863
▁童声	-5864
▁笔记	-5865
▁等功	-5866
▁简明	-5867
▁算得	-5868
▁管道	-5869
▁粉碎	-5870
▁精心	-5871
▁紫蓝	-5872
▁纠纷	-5873
▁纬线	-5874
▁纯朴	-5875
▁纯真	-5876
▁纵死	-5877
▁纸鸢	-5878
▁纽带	-5879
▁经贸	-5880
▁绑架	-5881
▁给我	-5882
▁绚丽	-5883
▁绝不	-5884
▁绝对	-5885
▁维修	-5886
▁绿影	-5887
▁缺时	-5888
▁网络	-5889
▁罗昌	-5890
▁罗马	-5891
▁罢掉	-5892
▁翻山	-5893
▁翻译	-5894
▁翻飞	-5895
▁老板	-5896
▁考虑	-5897
▁者增	-5898
▁而有	-5899
▁仪	-5900
▁傍	-5901
▁券	-5902
▁捍	-5903
▁掘	-5904
▁汀	-5905
▁滩	-5906
▁瑰	-5907
▁畔	-5908
▁跳	-5909
▁闯	-5910
▁鼠	-5911
不为	-5912
京后	-5913
今之	-5914
会去	-5915
华的	-5916
友朋	-5917
在冬	-5918
坐到	-5919
如烟	-5920
学精	-5921
小路	-5922
惊心	-5923
旱田	-5924
果送	-5925
湿气	-5926
热情	-5927
生林	-5928
职业	-5929
自谋	-5930
蕻菜	-5931
远眺	-5932
▁:『	-5933
▁一块	-5934
▁一批	-5935
▁上升	-5936
▁丧失	-5937
▁依据	-5938
▁到十	-5939
▁医务	-5940
▁厦门	-5941
▁底谷	-5942
▁心眼	-5943
▁承前	-5944
▁捍卫	-5945
▁是由	-5946
▁次被	-5947
▁温洁	-5948
▁溜排	-5949
▁潘跃	-5950
▁点评	-5951
▁烽火	-5952
▁窥破	-5953
▁编著	-5954
▁肤色	-5955
▁背着	-5956
▁胜枚	-5957
▁脉络	-5958
▁脚步	-5959
▁腾空	-5960
▁致力	-5961
▁良知	-5962
▁芍药	-5963
▁芝姐	-5964
▁芳香	-5965
▁苗再	-5966
▁若无	-5967
▁苦难	-5968
▁茅盾	-5969
▁茵茵	-5970
▁荒地	-5971
▁荡的	-5972
▁莅渝	-5973
▁菠菜	-5974
▁萧红	-5975
▁葫芦	-5976
▁蒸蒸	-5977
▁蓄水	-5978
▁蔚然	-5979
▁蕻菜	-5980
▁薄雾	-5981
▁蜜罐	-5982
▁袖手	-5983
▁被合	-5984
▁被省	-5985
▁袭击	-5986
▁装车	-5987
▁西安	-5988
▁西部	-5989
▁要在	-5990
▁观光	-5991
▁览观	-5992
▁言倦	-5993
▁警示	-5994
▁讨论	-5995
▁讯导	-5996
▁讲义	-5997
▁证书	-5998
▁该刊	-5999
▁叱	-6000
▁寓	-6001
▁惨	-6002
▁湿	-6003
▁漓	-6004
▁皮	-6005
▁裁	-6006
▁辆	-6007
▁雀	-6008
▁饥	-6009
一辆	-6010
中标	-6011
人相	-6012
余帧	-6013
在校	-6014
大渡	-6015
大跳	-6016
子厚	-6017
字启	-6018
家宝	-6019
比宁	-6020
氤氲	-6021
江头	-6022
汪塘	-6023
游客	-6024
熟悉	-6025
留念	-6026
的主	-6027
的英	-6028
▁亩次	-6029
▁令观	-6030
▁写意	-6031
▁刘云	-6032
▁到自	-6033
▁叱咤	-6034
▁回荡	-6035
▁就能	-6036
▁山一	-6037
▁已在	-6038
▁忘朴	-6039
▁招待	-6040
▁掌握	-6041
▁比原	-6042
▁氤氲	-6043
▁熟悉	-6044
▁的家	-6045
▁称不	-6046
▁立传	-6047
▁粪便	-6048
▁给予	-6049
▁胜多	-6050
▁裁军	-6051
▁警方	-6052
▁讴歌	-6053
▁详考	-6054
▁请求	-6055
▁诺贝	-6056
▁谁维	-6057
▁谢谢	-6058
▁谢里	-6059
▁谨慎	-6060
▁谷利	-6061
▁豁达	-6062
▁负总	-6063
▁财力	-6064
▁财长	-6065
▁贫穷	-6066
▁贬值	-6067
▁购进	-6068
▁贵远	-6069
▁贺卡	-6070
▁贺电	-6071
▁贾励	-6072
▁贾昭	-6073
▁赫然	-6074
▁赭黄	-6075
▁赵新	-6076
▁起火	-6077
▁起的	-6078
▁足球	-6079
▁跃跃	-6080
▁跋涉	-6081
▁踢足	-6082
▁躺在	-6083
▁转转	-6084
▁辈出	-6085
▁辈甘	-6086
▁辉映	-6087
▁辟出	-6088
▁辣椒	-6089
▁迄今	-6090
▁迈向	-6091
▁迈进	-6092
▁运行	-6093
▁近半	-6094
▁近日	-6095
▁还就	-6096
▁这套	-6097
▁这本	-6098
▁这条	-6099
7°	-6100
▁匠	-6101
▁句	-6102
▁娶	-6103
▁晴	-6104
▁楼	-6105
▁瀑	-6106
▁疫	-6107
▁睛	-6108
▁砂	-6109
▁筛	-6110
▁腕	-6111
▁赏	-6112
▁邦	-6113
三愿	-6114
党魂	-6115
千名	-6116
只身	-6117
地被	-6118
外运	-6119
挺胸	-6120
新鲜	-6121
枸杞	-6122
法语	-6123
游泳	-6124
的早	-6125
相连	-6126
荒草	-6127
豌豆	-6128
—7°	-6129
▁下去	-6130
▁不足	-6131
▁中去	-6132
▁中山	-6133
▁乐曲	-6134
▁伊朗	-6135
▁充当	-6136
▁写到	-6137
▁十大	-6138
▁升旗	-6139
▁娶媳	-6140
▁婚姻	-6141
▁年大	-6142
▁忍痛	-6143
▁提倡	-6144
▁是靠	-6145
▁朱训	-6146
▁枸杞	-6147
▁泽铣	-6148
▁畅得	-6149
▁肩膀	-6150
▁腕底	-6151
▁获益	-6152
▁行列	-6153
▁进口	-6154
▁进的	-6155
▁述详	-6156
▁追寻	-6157
▁送给	-6158
▁选举	-6159
▁途径	-6160
▁逝世	-6161
▁道理	-6162
▁遗憾	-6163
▁遥控	-6164
▁遥远	-6165
▁遵循	-6166
▁那么	-6167
▁那时	-6168
▁邹家	-6169
▁邹德	-6170
▁郑咏	-6171
▁配方	-6172
▁重任	-6173
▁野开	-6174
▁钢琴	-6175
▁钦佩	-6176
▁铁路	-6177
▁铺叙	-6178
▁铺筑	-6179
▁链条	-6180
▁锋芒	-6181
▁锣鼓	-6182
▁镶嵌	-6183
▁长远	-6184
▁门外	-6185
▁闪烁	-6186
▁闪耀	-6187
▁闸门	-6188
▁闻力	-6189
▁阐述	-6190
▁阳三	-6191
▁阴有	-6192
▁阻挡	-6193
▁阿拉	-6194
▁阿西	-6195
▁阿里	-6196
▁陈陆	-6197
▁陈雁	-6198
▁限于	-6199
▁亏	-6200
▁仰	-6201
▁堡	-6202
▁州	-6203
▁弄	-6204
▁戒	-6205
▁翅	-6206
▁聘	-6207
▁臭	-6208
▁葡	-6209
▁霎	-6210
▁霞	-6211
上月	-6212
就狂	-6213
工笔	-6214
当班	-6215
心手	-6216
无极	-6217
月底	-6218
树银	-6219
求进	-6220
淡淡	-6221
渥太	-6222
着潮	-6223
老师	-6224
被割	-6225
进嘴	-6226
鞭炮	-6227
风谨	-6228
▁96	-6229
▁』。	-6230
▁五年	-6231
▁使我	-6232
▁册册	-6233
▁分摊	-6234
▁却未	-6235
▁四岁	-6236
▁在京	-6237
▁大部	-6238
▁帷幄	-6239
▁怜恤	-6240
▁抓大	-6241
▁拼搏	-6242
▁比较	-6243
▁洁白	-6244
▁消防	-6245
▁淮河	-6246
▁渥太	-6247
▁演唱	-6248
▁点和	-6249
▁的文	-6250
▁竟涨	-6251
▁笋岗	-6252
▁考验	-6253
▁能从	-6254
▁评分	-6255
▁选购	-6256
▁郭伟	-6257
▁醒目	-6258
▁院的	-6259
▁除了	-6260
▁除非	-6261
▁险动	-6262
▁险金	-6263
▁陪我	-6264
▁随后	-6265
▁隔岸	-6266
▁难觅	-6267
▁雄踞	-6268
▁雨滴	-6269
▁雪片	-6270
▁需求	-6271
▁震动	-6272
▁非洲	-6273
▁面向	-6274
▁韦耀	-6275
▁韵盈	-6276
▁领略	-6277
▁频繁	-6278
▁颜六	-6279
▁额为	-6280
▁风使	-6281
▁风气	-6282
▁风貌	-6283
▁风雨	-6284
▁飞行	-6285
▁飞越	-6286
▁饥饿	-6287
▁饮水	-6288
▁饺子	-6289
▁首席	-6290
▁首长	-6291
▁马恩	-6292
▁高奏	-6293
▁鬼神	-6294
▁鲁迅	-6295
▁鲜明	-6296
▁鲤鱼	-6297
▁鸟之	-6298
▁鸣禽	-6299
▁夹	-6300
▁尹	-6301
▁慢	-6302
▁昭	-6303
▁暇	-6304
▁母	-6305
▁浜	-6306
▁滞	-6307
▁穆	-6308
▁缭	-6309
▁贩	-6310
一日	-6311
上周	-6312
主编	-6313
半岛	-6314
名字	-6315
名著	-6316
名馨	-6317
家不	-6318
年份	-6319
或栖	-6320
振铎	-6321
接待	-6322
撒切	-6323
攥满	-6324
是绵	-6325
是述	-6326
曙色	-6327
砖墙	-6328
竟沾	-6329
自治	-6330
陷入	-6331
▁东南	-6332
▁了与	-6333
▁六架	-6334
▁切关	-6335
▁刘磊	-6336
▁四合	-6337
▁夏鼐	-6338
▁夹雪	-6339
▁她那	-6340
▁延伸	-6341
▁当前	-6342
▁成员	-6343
▁拘泥	-6344
▁揭牌	-6345
▁撒切	-6346
▁攥满	-6347
▁是自	-6348
▁曙色	-6349
▁来写	-6350
▁氛围	-6351
▁温暖	-6352
▁爱国	-6353
▁独特	-6354
▁独生	-6355
▁畜牧	-6356
▁砖墙	-6357
▁磋商	-6358
▁缭绕	-6359
▁缺憾	-6360
▁美洲	-6361
▁蔚成	-6362
▁趋向	-6363
▁释放	-6364
▁铺盖	-6365
▁降到	-6366
▁陷入	-6367
▁随手	-6368
▁麻雀	-6369
▁黄菊	-6370
▁默默	-6371
▁齐心	-6372
▁龚雯	-6373
一元钱	-6374
一棉厂	-6375
一的步	-6376
上了归	-6377
上多么	-6378
上迈出	-6379
下了壮	-6380
下步入	-6381
不容忽	-6382
不甚流	-6383
与家园	-6384
两部性	-6385
个个做	-6386
个分册	-6387
中一举	-6388
中版隔	-6389
中调剂	-6390
为支柱	-6391
为选材	-6392
之年仅	-6393
之鼓掌	-6394
乐极生	-6395
乘着生	-6396
也不怕	-6397
书立传	-6398
了青壮	-6399
▁哇	-6400
▁妙	-6401
▁抠	-6402
▁欲	-6403
▁篓	-6404
▁虑	-6405
▁郁	-6406
▁阖	-6407
告示	-6408
在颂	-6409
地笃	-6410
夏衍	-6411
弦乐	-6412
想必	-6413
搁浅	-6414
时搭	-6415
泽尔	-6416
的逾	-6417
精彩	-6418
维和	-6419
自立	-6420
花篮	-6421
高的	-6422
▁再创	-6423
▁医疗	-6424
▁坐椅	-6425
▁大国	-6426
▁宗素	-6427
▁恶劣	-6428
▁惶惶	-6429
▁愿干	-6430
▁抽象	-6431
▁搁浅	-6432
▁欲飞	-6433
▁油田	-6434
▁献给	-6435
▁王鸿	-6436
▁球选	-6437
▁瓜果	-6438
▁甘岭	-6439
▁的中	-6440
▁神话	-6441
▁究竟	-6442
▁编纂	-6443
▁虚掩	-6444
▁话剧	-6445
▁锡铭	-6446
▁陆续	-6447
▁骨干	-6448
于一九	-6449
些许齐	-6450
亡其史	-6451
亲自罗	-6452
人同赏	-6453
人相遇	-6454
今之争	-6455
以节约	-6456
会去砍	-6457
位当班	-6458
体地穿	-6459
作干净	-6460
俨然像	-6461
全家吃	-6462
再度高	-6463
几只铁	-6464
刘少奇	-6465
到南缘	-6466
到肉猪	-6467
力更生	-6468
办公楼	-6469
功立业	-6470
务实求	-6471
十几亩	-6472
华的亲	-6473
却万夫	-6474
却鸣戒	-6475
厚质朴	-6476
去翻印	-6477
发之初	-6478
只身闯	-6479
吴学谦	-6480
和其父	-6481
和情操	-6482
在我脑	-6483
在阔别	-6484
地接纳	-6485
地注视	-6486
处大关	-6487
多的遗	-6488
大专毕	-6489
大中型	-6490
大利亚	-6491
大建筑	-6492
大法官	-6493
天水围	-6494
她一边	-6495
如泉涌	-6496
子女讲	-6497
孩曲印	-6498
宗教渊	-6499
▁冶	-6500
▁冻	-6501
▁卧	-6502
▁味	-6503
▁恍	-6504
▁憨	-6505
▁槟	-6506
▁番	-6507
▁盏	-6508
▁箱	-6509
▁纳	-6510
▁绪	-6511
▁辄	-6512
▁陀	-6513
二首	-6514
产值	-6515
学勤	-6516
小姐	-6517
庭院	-6518
文库	-6519
更新	-6520
笔耕	-6521
西姆	-6522
身穿	-6523
这声	-6524
通航	-6525
钱伟	-6526
▁严禁	-6527
▁伤财	-6528
▁减灾	-6529
▁前的	-6530
▁动人	-6531
▁动辄	-6532
▁宏伟	-6533
▁审美	-6534
▁家里	-6535
▁庆市	-6536
▁授牌	-6537
▁斡旋	-6538
▁榫卯	-6539
▁汉书	-6540
▁热气	-6541
▁猎豹	-6542
▁献辞	-6543
▁畅销	-6544
▁番话	-6545
▁盏灯	-6546
▁董事	-6547
▁让人	-6548
▁论述	-6549
▁误差	-6550
▁转嫁	-6551
▁追溯	-6552
▁那些	-6553
▁鳜鱼	-6554
于历朝	-6555
动地服	-6556
和真诚	-6557
妙地糅	-6558
实可信	-6559
家不远	-6560
寄的钱	-6561
对政变	-6562
对联手	-6563
寻隐秘	-6564
将为增	-6565
尔目录	-6566
尽是那	-6567
局管辖	-6568
层互访	-6569
山深处	-6570
州西湖	-6571
帙浩繁	-6572
带着泥	-6573
常地平	-6574
平四海	-6575
并的四	-6576
底子厚	-6577
张启彬	-6578
张天翼	-6579
形神妙	-6580
彩球飘	-6581
往开来	-6582
得水泄	-6583
态可掬	-6584
意和舒	-6585
我坚信	-6586
房前屋	-6587
扣不舍	-6588
技与制	-6589
挂着炎	-6590
指被炸	-6591
排上几	-6592
控的预	-6593
文风谨	-6594
新李翔	-6595
显然更	-6596
本领看	-6597
机是述	-6598
李升的	-6599
▁傅	-6600
▁吧	-6601
▁夸	-6602
▁幼	-6603
▁废	-6604
▁扉	-6605
▁撑	-6606
▁柔	-6607
▁榭	-6608
▁舰	-6609
▁诉	-6610
▁赔	-6611
▁颗	-6612
人静	-6613
人龙	-6614
佛经	-6615
可替	-6616
含糊	-6617
成风	-6618
无处	-6619
极富	-6620
狼牙	-6621
血糖	-6622
评价	-6623
▁为零	-6624
▁佛经	-6625
▁四周	-6626
▁困扰	-6627
▁壮士	-6628
▁将有	-6629
▁帘的	-6630
▁平静	-6631
▁挂起	-6632
▁揭发	-6633
▁朗氏	-6634
▁永恒	-6635
▁海南	-6636
▁消失	-6637
▁涉猎	-6638
▁混称	-6639
▁渡邕	-6640
▁渤海	-6641
▁港澳	-6642
▁狼牙	-6643
▁的收	-6644
▁禁为	-6645
▁秀丽	-6646
▁考察	-6647
▁胸臆	-6648
▁舰队	-6649
▁荆轲	-6650
▁萧乾	-6651
▁西亚	-6652
▁詹建	-6653
▁讲究	-6654
▁赴塞	-6655
▁锻炼	-6656
▁防汛	-6657
▁陪同	-6658
一片欢	-6659
乐声悠	-6660
力抓树	-6661
村户抓	-6662
来两斤	-6663
来保卫	-6664
来水等	-6665
柏油马	-6666
染着寂	-6667
染聚焦	-6668
树银花	-6669
楼相映	-6670
次的滞	-6671
歌可泣	-6672
此一难	-6673
武之师	-6674
民乐四	-6675
水哄抬	-6676
水狂泻	-6677
水蒸汽	-6678
永黄秋	-6679
汇大江	-6680
测调低	-6681
清目秀	-6682
清香俏	-6683
湿气流	-6684
激光冷	-6685
点和修	-6686
然正气	-6687
理无微	-6688
生动读	-6689
疾人郭	-6690
白港赶	-6691
白血病	-6692
的善男	-6693
的天空	-6694
的尝试	-6695
的悲愤	-6696
的感谢	-6697
的旗杆	-6698
的松软	-6699
”!	-6700
▁圈	-6701
▁墙	-6702
▁岂	-6703
▁敌	-6704
▁斌	-6705
▁昼	-6706
▁毅	-6707
▁琅	-6708
▁瑶	-6709
▁耀	-6710
▁蜕	-6711
▁败	-6712
▁钓	-6713
人蕉	-6714
包含	-6715
就惊	-6716
日常	-6717
曹斌	-6718
那剥	-6719
▁一时	-6720
▁上为	-6721
▁人次	-6722
▁债务	-6723
▁公报	-6724
▁净化	-6725
▁台用	-6726
▁告辞	-6727
▁圆满	-6728
▁圈在	-6729
▁地缘	-6730
▁夺泸	-6731
▁学和	-6732
▁安徽	-6733
▁审议	-6734
▁少量	-6735
▁尝试	-6736
▁巾帕	-6737
▁打扫	-6738
▁扫除	-6739
▁昼夜	-6740
▁有了	-6741
▁来一	-6742
▁潜力	-6743
▁牧村	-6744
▁的经	-6745
▁细细	-6746
▁致意	-6747
▁言人	-6748
▁起伏	-6749
▁踞有	-6750
▁部有	-6751
▁高达	-6752
▁鲜菜	-6753
产供销	-6754
国者必	-6755
的富裕	-6756
的火炮	-6757
的火车	-6758
的粗茶	-6759
的群体	-6760
的聚居	-6761
的英模	-6762
的西欧	-6763
的西部	-6764
的谢意	-6765
的车流	-6766
的韵味	-6767
眼地操	-6768
着三只	-6769
着三晋	-6770
着手抓	-6771
着晨光	-6772
禁止鸣	-6773
等作物	-6774
管内话	-6775
红澄澄	-6776
红辣椒	-6777
终令汗	-6778
缓行驶	-6779
美人蕉	-6780
者赞叹	-6781
而有趣	-6782
舍小家	-6783
落和灭	-6784
蓝的茄	-6785
藉沉郁	-6786
虬曲挺	-6787
计就惊	-6788
计纷呈	-6789
路曲径	-6790
踵而至	-6791
通亿载	-6792
都饱含	-6793
院高僧	-6794
马和圣	-6795
高中版	-6796
鱼以活	-6797
鸣谢碑	-6798
鼓浪屿	-6799
▁杯	-6800
▁添	-6801
▁脂	-6802
▁隐	-6803
▁餐	-6804
作栋	-6805
动魄	-6806
如织	-6807
布栏	-6808
悲丧	-6809
窗口	-6810
芙蓉	-6811
锐利	-6812
▁7%	-6813
▁82	-6814
▁不住	-6815
▁久久	-6816
▁了当	-6817
▁仅有	-6818
▁余悸	-6819
▁使之	-6820
▁依靠	-6821
▁剖学	-6822
▁十倍	-6823
▁华的	-6824
▁参股	-6825
▁向全	-6826
▁回顾	-6827
▁宪章	-6828
▁对此	-6829
▁应征	-6830
▁弟弟	-6831
▁总厂	-6832
▁悬浮	-6833
▁挣扎	-6834
▁挺拔	-6835
▁敏杰	-6836
▁方的	-6837
▁桂冠	-6838
▁歌曲	-6839
▁毁坏	-6840
▁汉子	-6841
▁法律	-6842
▁海里	-6843
▁滚动	-6844
▁燕赵	-6845
▁猪肉	-6846
▁穿梭	-6847
▁第四	-6848
▁胡绳	-6849
▁芭蕾	-6850
▁蕴涵	-6851
▁裹尸	-6852
▁身体	-6853
▁间隔	-6854
▁龙舞	-6855
不相识	-6856
年之久	-6857
情民意	-6858
添餐椅	-6859
这首歌	-6860
齐地立	-6861
龙太郎	-6862
▁‘0’	-6863
▁丁关根	-6864
▁万平方	-6865
▁不久前	-6866
▁不得不	-6867
▁专致精	-6868
▁丝万缕	-6869
▁串鞭炮	-6870
▁丽堂皇	-6871
▁丽风光	-6872
▁么高的	-6873
▁乎白宫	-6874
▁乘着生	-6875
▁买回去	-6876
▁乱超乱	-6877
▁二分之	-6878
▁二等功	-6879
▁于永波	-6880
▁云宣新	-6881
▁互帮互	-6882
▁亦会较	-6883
▁京上演	-6884
▁亮白昼	-6885
▁亮的灶	-6886
▁亲手缝	-6887
▁仅四岁	-6888
▁仍为阴	-6889
▁从上月	-6890
▁从长远	-6891
▁份月饼	-6892
▁伊始刊	-6893
▁伊拉克	-6894
▁伍绍祖	-6895
▁会员国	-6896
▁伦在其	-6897
▁伴有轻	-6898
▁低息支	-6899
▁住热泪	-6900
▁何鲁丽	-6901
▁侧台柱	-6902
▁便齐备	-6903
▁俗人伦	-6904
▁保命田	-6905
▁保深及	-6906
▁俱乐部	-6907
▁倪志福	-6908
▁停下车	-6909
▁停机坪	-6910
▁催人泪	-6911
▁像钻石	-6912
▁全方位	-6913
▁八一飞	-6914
▁兴县水	-6915
▁兼具觉	-6916
▁写书名	-6917
▁军功章	-6918
▁冬的奋	-6919
▁况转播	-6920
▁几滴雨	-6921
▁几群欢	-6922
▁凡响的	-6923
▁出生率	-6924
▁切关怀	-6925
▁刊订阅	-6926
▁刘云峰	-6927
▁刘基则	-6928
▁刘工践	-6929
▁刘心武	-6930
▁刘志丹	-6931
▁刘振英	-6932
▁刘盛威	-6933
▁创利润	-6934
▁到阿里	-6935
▁办公室	-6936
▁办好事	-6937
▁劫难逃	-6938
▁势在必	-6939
▁医务室	-6940
▁十年代	-6941
▁千五百	-6942
▁千方百	-6943
▁半价供	-6944
▁半身探	-6945
▁华夏浩	-6946
▁单一与	-6947
▁单独套	-6948
▁卢萨卡	-6949
▁印经院	-6950
▁却未止	-6951
▁卷台澎	-6952
▁原是个	-6953
▁又不针	-6954
▁叶利钦	-6955
▁吃一堑	-6956
▁后我就	-6957
▁吐鲁番	-6958
▁吴作栋	-6959
▁呕心沥	-6960
▁周年之	-6961
▁命十七	-6962
▁唐维红	-6963
▁喝大运	-6964
▁喝着冒	-6965
▁嘉奖四	-6966
▁嘉年华	-6967
▁嘎班迪	-6968
▁回京途	-6969
▁围场路	-6970
▁图书馆	-6971
▁在谈到	-6972
▁地处杭	-6973
▁址殷墟	-6974
▁块热土	-6975
▁块贫瘠	-6976
▁培的壮	-6977
▁堂收拾	-6978
▁堆群培	-6979
▁堤的洪	-6980
▁墨神韵	-6981
▁声笑语	-6982
▁够纯洁	-6983
▁大中型	-6984
▁大多数	-6985
▁天一响	-6986
▁失正确	-6987
▁奇才名	-6988
▁如西晋	-6989
▁娇告诉	-6990
▁存量引	-6991
▁孙子兵	-6992
▁孙宝田	-6993
▁孙金龙	-6994
▁季花点	-6995
▁孩生育	-6996
▁宅的消	-6997
▁安居乐	-6998
▁宏观调	-6999
▁宗素华	-7000
▁客车和	-7001
▁容之余	-7002
▁容市貌	-7003
▁容村貌	-7004
▁富结缘	-7005
▁寒气袭	-7006
▁寒问暖	-7007
▁察提炼	-7008
▁封面题	-7009
▁小提琴	-7010
▁小雨也	-7011
▁尘不染	-7012
▁尤以画	-7013
▁尹家骅	-7014
▁尽情地	-7015
▁尾气排	-7016
▁尾重逢	-7017
▁屈服或	-7018
▁屋的窗	-7019
▁展宏图	-7020
▁属的邮	-7021
▁左图右	-7022
▁巨额外	-7023
▁巷的高	-7024
▁帙浩繁	-7025
▁常到家	-7026
▁常常要	-7027
▁幅趋缓	-7028
▁广播电	-7029
▁床被子	-7030
▁底色和	-7031
▁度过了	-7032
▁引进了	-7033
▁引黄灌	-7034
▁彬手捧	-7035
▁彭家煌	-7036
▁往日的	-7037
▁征突击	-7038
▁徐建荣	-7039
▁得而知	-7040
▁必学精	-7041
▁志同道	-7042
▁忧的主	-7043
▁快上马	-7044
▁怀大笑	-7045
▁急速波	-7046
▁怨无悔	-7047
▁总的来	-7048
▁悟和自	-7049
▁惨一页	-7050
▁愿这声	-7051
▁户入股	-7052
▁扎耶德	-7053
▁扣不舍	-7054
▁执行旨	-7055
▁扬水站	-7056
▁批成员	-7057
▁承前启	-7058
▁抠开那	-7059
▁披红挂	-7060
▁抵京后	-7061
▁担子你	-7062
▁拖拉机	-7063
▁拘格套	-7064
▁招一式	-7065
▁招收她	-7066
▁拿到手	-7067
▁指引下	-7068
▁挑选哩	-7069
▁捐衣捐	-7070
▁损及它	-7071
▁揭发姐	-7072
▁援引菲	-7073
▁搞的鬼	-7074
▁攻读硕	-7075
▁数千名	-7076
▁新数据	-7077
▁族自治	-7078
▁无尽的	-7079
▁春来早	-7080
▁是因为	-7081
▁显现雏	-7082
▁晓颜赵	-7083
▁曹金良	-7084
▁曼哈顿	-7085
▁有必要	-7086
▁有时候	-7087
▁有机地	-7088
▁朽之作	-7089
▁李学勤	-7090
▁李岚清	-7091
▁李铁映	-7092
▁村落创	-7093
▁杜天清	-7094
▁杜比宁	-7095
▁束俘获	-7096
▁条水泥	-7097
▁杨子荣	-7098
▁果永毅	-7099
▁枪发令	-7100
▁柏油马	-7101
▁样的效	-7102
▁档真丝	-7103
▁梁山伯	-7104
▁植物园	-7105
▁樊如钧	-7106
▁欠账太	-7107
▁每时每	-7108
▁每篇必	-7109
▁比原先	-7110
▁毛同恺	-7111
▁气和自	-7112
▁求变求	-7113
▁汇储备	-7114
▁汉简引	-7115
▁汤更浪	-7116
▁沈震林	-7117
▁沉与厚	-7118
▁泄于纸	-7119
▁洗国耻	-7120
▁浇一遍	-7121
▁浦江畔	-7122
▁浩如烟	-7123
▁海区有	-7124
▁深情地	-7125
▁清理和	-7126
▁温家宝	-7127
▁游乐园	-7128
▁滚滚硝	-7129
▁满外泄	-7130
▁潜移默	-7131
▁澈的池	-7132
▁激光冷	-7133
▁激发了	-7134
▁炼老辣	-7135
▁熊熊怒	-7136
▁熔一炉	-7137
▁片新天	-7138
▁版式和	-7139
▁版面彼	-7140
▁犹太人	-7141
▁献爱心	-7142
▁王光英	-7143
▁王大川	-7144
▁王朝瑞	-7145
▁王者师	-7146
▁玩具抱	-7147
▁玩到天	-7148
▁球选手	-7149
▁瓦买提	-7150
▁瓦希涅	-7151
▁瓦西姆	-7152
▁甚高频	-7153
▁田庄乡	-7154
▁由衷地	-7155
▁病而死	-7156
▁百一十	-7157
▁的合法	-7158
▁的时候	-7159
▁的荣誉	-7160
▁眷念和	-7161
▁眼界顿	-7162
▁着意于	-7163
▁硬碰硬	-7164
▁禁地唱	-7165
▁禁要问	-7166
▁离不开	-7167
▁离合悲	-7168
▁秋两季	-7169
▁种硬币	-7170
▁秦始皇	-7171
▁穷乐趣	-7172
▁笛子竖	-7173
▁策的帐	-7174
▁简厂部	-7175
▁算得知	-7176
▁算论点	-7177
▁管弦乐	-7178
▁管道引	-7179
▁精彩的	-7180
▁素养和	-7181
▁绪的感	-7182
▁绳勒断	-7183
▁编选者	-7184
▁缩小垂	-7185
▁缩手缩	-7186
▁缺时剩	-7187
▁罗昌爱	-7188
▁置在临	-7189
▁羊毛绒	-7190
▁群团团	-7191
▁翅展翼	-7192
▁翻一番	-7193
▁翻读由	-7194
▁老马去	-7195
▁者增多	-7196
▁而恰恰	-7197
▁胡继鸿	-7198
▁能否把	-7199
▁脆坐到	-7200
▁脏乱差	-7201
▁脚下森	-7202
▁脸清秀	-7203
▁腊梅飘	-7204
▁腮的颜	-7205
▁臂或手	-7206
▁臭水浜	-7207
▁致力于	-7208
▁花小钱	-7209
▁花鸟画	-7210
▁若要叫	-7211
▁苦再累	-7212
▁苹果送	-7213
▁范双民	-7214
▁茫茫草	-7215
▁荡在冬	-7216
▁荡的登	-7217
▁荣郭凯	-7218
▁莫不为	-7219
▁莫斯科	-7220
▁莫迪凯	-7221
▁菜集散	-7222
▁营自立	-7223
▁营镇结	-7224
▁落海声	-7225
▁蒙山腹	-7226
▁蓄水池	-7227
▁蓝天写	-7228
▁蓝无际	-7229
▁虽有类	-7230
▁行行长	-7231
▁街以街	-7232
▁袋里插	-7233
▁袖手旁	-7234
▁览观光	-7235
▁览馆等	-7236
▁触类旁	-7237
▁詹建俊	-7238
▁誉主编	-7239
▁议题的	-7240
▁讯导航	-7241
▁诗人哲	-7242
▁谁付钱	-7243
▁谁维修	-7244
▁谢里夫	-7245
▁谷利源	-7246
▁负总责	-7247
▁购金额	-7248
▁贴满窗	-7249
▁贵远贱	-7250
▁贾庆林	-7251
▁赖林嵩	-7252
▁赫然醒	-7253
▁走上了	-7254
▁走村串	-7255
▁赴大陆	-7256
▁赵新兵	-7257
▁起欢度	-7258
▁起死回	-7259
▁趋于没	-7260
▁趣南疆	-7261
▁跌大涨	-7262
▁跑前跑	-7263
▁路下跌	-7264
▁路全长	-7265
▁路小路	-7266
▁踏花被	-7267
▁踢足球	-7268
▁蹈覆辙	-7269
▁转化为	-7270
▁转化成	-7271
▁轻易就	-7272
▁载歌载	-7273
▁辅币戈	-7274
▁近些年	-7275
▁近几年	-7276
▁这么多	-7277
▁这本书	-7278
▁这边好	-7279
▁送旅客	-7280
▁送温暖	-7281
▁适于用	-7282
▁选取的	-7283
▁透视学	-7284
▁通讯等	-7285
▁逾古稀	-7286
▁遍天下	-7287
▁遥控太	-7288
▁邵大箴	-7289
▁邹家华	-7290
▁邹德浩	-7291
▁郁达夫	-7292
▁郑振铎	-7293
▁采访时	-7294
▁里之外	-7295
▁野开阔	-7296
▁铺盖卷	-7297
▁锣鼓喧	-7298
▁长安街	-7299
▁门话题	-7300
▁闪光的	-7301
▁间公认	-7302
▁阿布扎	-7303
▁附近住	-7304
▁陈国琦	-7305
▁陈天湖	-7306
▁陈子劲	-7307
▁陷入恶	-7308
▁雅文崔	-7309
▁雪片般	-7310
▁雪纷飞	-7311
▁零三幅	-7312
▁雷奥迪	-7313
▁需一遍	-7314
▁音能传	-7315
▁页文选	-7316
▁预备期	-7317
▁颇有名	-7318
▁颜色的	-7319
▁风东渐	-7320
▁风使然	-7321
▁马普托	-7322
▁马泽尔	-7323
▁马那瓜	-7324
▁驻足留	-7325
▁鲍洪俊	-7326
▁鲜半岛	-7327
▁鲶鱼等	-7328
▁麦亩产	-7329
▁麻袋还	-7330
▁黎巴嫩	-7331
▁默默眺	-7332
▁龚永泉	-7333
▁龚自珍	-7334
一辆紧挨	-7335
上周被拘	-7336
下步入宽	-7337
下面竟沾	-7338
之类可替	-7339
人流量随	-7340
人龙大跳	-7341
体地穿插	-7342
信念与倔	-7343
再度高涨	-7344
县前元庄	-7345
古今之争	-7346
古树年轮	-7347
后果不堪	-7348
和那深藏	-7349
四十余帧	-7350
地被分配	-7351
多的遗憾	-7352
大有学问	-7353
宽逾百米	-7354
将相出谋	-7355
小到中雪	-7356
小心把握	-7357
小雪或雨	-7358
尽是那绿	-7359
已然可辨	-7360
市的村庄	-7361
常地平静	-7362
庭院里摆	-7363
强渡大渡	-7364
心手相连	-7365
惊心动魄	-7366
持之以恒	-7367
指数就狂	-7368
显然更需	-7369
有人在评	-7370
李升的床	-7371
松鼠和柏	-7372
电线被割	-7373
的才是绵	-7374
的早年身	-7375
的花生倒	-7376
笔耕墨耘	-7377
职业道德	-7378
色的风筝	-7379
花鲜菜绿	-7380
道理以至	-7381
里的在校	-7382
鱼前举棋	-7383
▁1971	-7384
▁4734	-7385
▁一月一日	-7386
▁万象更新	-7387
▁严而锐利	-7388
▁丧失记忆	-7389
▁乘着生肖	-7390
▁二重证据	-7391
▁五国之行	-7392
▁交响乐团	-7393
▁亩次生林	-7394
▁亿人同赏	-7395
▁令禁止鸣	-7396
▁众益处良	-7397
▁住进上百	-7398
▁侧目远眺	-7399
▁偏于所谓	-7400
▁傍着三晋	-7401
▁催还的逾	-7402
▁元一市斤	-7403
▁先亡其史	-7404
▁党报党刊	-7405
▁八个分册	-7406
▁六架红白	-7407
▁兵法名著	-7408
▁内一片欢	-7409
▁册册浩瀚	-7410
▁写意本领	-7411
▁几句日常	-7412
▁凡是应征	-7413
▁初中版隔	-7414
▁剑平四海	-7415
▁剩余的砖	-7416
▁助总金额	-7417
▁勤公布栏	-7418
▁十里长街	-7419
▁千处大关	-7420
▁半年之久	-7421
▁半部论语	-7422
▁印在我脑	-7423
▁历时仅九	-7424
▁厚的工笔	-7425
▁可歌可泣	-7426
▁吃胡老师	-7427
▁合影留念	-7428
▁名的富裕	-7429
▁吟到恩仇	-7430
▁吴宗教渊	-7431
▁吴忠市乳	-7432
▁吸取有益	-7433
▁吸着新鲜	-7434
▁周六和周	-7435
▁哈马和圣	-7436
▁嘘寒问暖	-7437
▁四合的群	-7438
▁圆润雄劲	-7439
▁圣洁地笃	-7440
▁在京上演	-7441
▁塘里游鱼	-7442
▁壮实的双	-7443
▁外汇储备	-7444
▁多个院系	-7445
▁夜却鸣戒	-7446
▁夜深人静	-7447
▁奋的神态	-7448
▁奏等精彩	-7449
▁她寄的钱	-7450
▁她那无处	-7451
▁威武之师	-7452
▁娃小金刚	-7453
▁孤残少儿	-7454
▁安民告示	-7455
▁审与地缘	-7456
▁审美乐趣	-7457
▁容地兑换	-7458
▁宽进口限	-7459
▁寄些钱补	-7460
▁密而得当	-7461
▁寒爱意浓	-7462
▁寒风冷雪	-7463
▁寺的善男	-7464
▁寺院高僧	-7465
▁层办公楼	-7466
▁层大花篮	-7467
▁岗刘乡冯	-7468
▁巧妙地糅	-7469
▁庆市萨尔	-7470
▁建于一九	-7471
▁建功立业	-7472
▁弃的松软	-7473
▁当家作主	-7474
▁当家品种	-7475
▁径的火炮	-7476
▁徽高高挂	-7477
▁忘朴实无	-7478
▁悟和情操	-7479
▁惬意和舒	-7480
▁憨态可掬	-7481
▁戈却万夫	-7482
▁手张爱兰	-7483
▁手本领看	-7484
▁扭转乾坤	-7485
▁抵达家门	-7486
▁拉开帷幕	-7487
▁持之以恒	-7488
▁挣一元钱	-7489
▁挤得水泄	-7490
▁捉座山雕	-7491
▁接踵而至	-7492
▁揭开馆牌	-7493
▁援韩事宜	-7494
▁撒切尔夫	-7495
▁敏感尖锐	-7496
▁教学大纲	-7497
▁整齐地立	-7498
▁旁没开口	-7499
▁既有对终	-7500
▁早期多画	-7501
▁旱之年仅	-7502
▁昂首挺胸	-7503
▁春节来临	-7504
▁暖湿气流	-7505
▁暴又席卷	-7506
▁有大中型	-7507
▁杭州西湖	-7508
▁极端的话	-7509
▁果敢地做	-7510
▁标中一举	-7511
▁档次的滞	-7512
▁歼击机呈	-7513
▁残疾人郭	-7514
▁比在阔别	-7515
▁毫不含糊	-7516
▁沉稳的审	-7517
▁泪如泉涌	-7518
▁洋洲镇洋	-7519
▁洼地种洼	-7520
▁流汇大江	-7521
▁浩然正气	-7522
▁淌了三千	-7523
▁淳厚质朴	-7524
▁游人如织	-7525
▁溧水县柘	-7526
▁滨江商厦	-7527
▁潘跃王萍	-7528
▁澳大利亚	-7529
▁火树银花	-7530
▁炮乐极生	-7531
▁热的年份	-7532
▁烽火台挺	-7533
▁爆发之初	-7534
▁牧为支柱	-7535
▁物种的味	-7536
▁牵挂着炎	-7537
▁特技与制	-7538
▁独特个性	-7539
▁独生子女	-7540
▁献给机组	-7541
▁王鸿举副	-7542
▁生动传神	-7543
▁男孩曲印	-7544
▁画透视学	-7545
▁畅销一时	-7546
▁症结在哪	-7547
▁眉清目秀	-7548
▁眼于历朝	-7549
▁破天荒赢	-7550
▁磋商和审	-7551
▁祥的悲愤	-7552
▁租金和楼	-7553
▁称的桥梁	-7554
▁稍逊风骚	-7555
▁稚和真诚	-7556
▁稳中求进	-7557
▁穷则思变	-7558
▁窥寻隐秘	-7559
▁童声合唱	-7560
▁等功两次	-7561
▁米等作物	-7562
▁素不相识	-7563
▁经过一番	-7564
▁给鱼以活	-7565
▁继往开来	-7566
▁绿影扶疏	-7567
▁缓缓行驶	-7568
▁缘到南缘	-7569
▁罕见的魄	-7570
▁翻山越岭	-7571
▁者的热情	-7572
▁胆的尝试	-7573
▁脚步的临	-7574
▁腕底所抒	-7575
▁腾空而起	-7576
▁自力更生	-7577
▁航管内话	-7578
▁般的车流	-7579
▁若无记忆	-7580
▁茵茵的芹	-7581
▁莎白港赶	-7582
▁获益颇丰	-7583
▁莽的西部	-7584
▁著书立传	-7585
▁蔚成新风	-7586
▁蔚然成风	-7587
▁蕴藉沉郁	-7588
▁蕾清香俏	-7589
▁被动地服	-7590
▁装车外运	-7591
▁该刊创办	-7592
▁该局管辖	-7593
▁误差一秒	-7594
▁请求上级	-7595
▁谋计纷呈	-7596
▁豁达开朗	-7597
▁贩的聚居	-7598
▁贾永黄秋	-7599
▁跃的群体	-7600
▁跃跃欲试	-7601
▁路上迈出	-7602
▁踏着晨光	-7603
▁身的英模	-7604
▁躺在那剥	-7605
▁辟出一段	-7606
▁迄今为止	-7607
▁连年不景	-7608
▁送上了归	-7609
▁邻里和睦	-7610
▁闸门被毁	-7611
▁队的火车	-7612
▁阿西西城	-7613
▁陆机是述	-7614
▁陪我前往	-7615
▁隔岸观火	-7616
▁雪域文库	-7617
▁霸水哄抬	-7618
▁预测调低	-7619
▁颖而有趣	-7620
▁颗都饱含	-7621
▁馆将为增	-7622
▁高层互访	-7623
▁高度评价	-7624
▁魄只身闯	-7625
▁鲜明对照	-7626
▁鸟之两翼	-7627
▁默地注视	-7628
▁鼓楼相映	-7629
▁久便着手抓	-7630
▁么高的荣誉	-7631
▁买回来两斤	-7632
▁令观者赞叹	-7633
▁似路人相遇	-7634
▁保定一棉厂	-7635
▁借助激光冷	-7636
▁兴县水江头	-7637
▁单一与死板	-7638
▁原是个有名	-7639
▁厦门鼓浪屿	-7640
▁台用不甚流	-7641
▁周年之际由	-7642
▁善了产供销	-7643
▁圈在几只铁	-7644
▁太多的遗憾	-7645
▁太行山深处	-7646
▁容量地接纳	-7647
▁察民情民意	-7648
▁封面题字启	-7649
▁尤以画名馨	-7650
▁常给子女讲	-7651
▁床被子发运	-7652
▁康生亲自罗	-7653
▁异常地平静	-7654
▁往日的宁静	-7655
▁必学精学透	-7656
▁忧的主人翁	-7657
▁悟出些许齐	-7658
▁悟和自我剖	-7659
▁患了白血病	-7660
▁扣不舍的木	-7661
▁扫除了青壮	-7662
▁抠开那腮壳	-7663
▁抵京后参观	-7664
▁损及它在朝	-7665
▁故土与家园	-7666
▁曼哈顿岛遥	-7667
▁机长张启彬	-7668
▁板一眼地操	-7669
▁桌边添餐椅	-7670
▁桥本龙太郎	-7671
▁止却俨然像	-7672
▁每时每刻都	-7673
▁汉简引入隶	-7674
▁沉思的韵味	-7675
▁洗车点和修	-7676
▁清理和转译	-7677
▁灭人国者必	-7678
▁灰和水蒸汽	-7679
▁热气的粗茶	-7680
▁爪部力抓树	-7681
▁版式和书形	-7682
▁犹太人定居	-7683
▁甘珠尔目录	-7684
▁眷念和淡淡	-7685
▁着意于生平	-7686
▁禁为之鼓掌	-7687
▁离我家不远	-7688
▁称不上多么	-7689
▁窥破此一难	-7690
▁竖起的旗杆	-7691
▁竖起鸣谢碑	-7692
▁笔记为选材	-7693
▁笛子竖吹箫	-7694
▁素养和表述	-7695
▁紫蓝蓝的茄	-7696
▁纵死终令汗	-7697
▁纽带以节约	-7698
▁绝不会去砍	-7699
▁编选者明智	-7700
▁置在临时搭	-7701
▁群团团围住	-7702
▁脆坐到车顶	-7703
▁苗再新李翔	-7704
▁苹果送进嘴	-7705
▁范双民张振	-7706
▁衷心的感谢	-7707
▁被合并的四	-7708
▁览馆等年货	-7709
▁警方对政变	-7710
▁议题的商谈	-7711
▁诚挚的谢意	-7712
▁走上了自谋	-7713
▁踏花被一床	-7714
▁踞有不容忽	-7715
▁轻易就能融	-7716
▁述详实可信	-7717
▁选取的十七	-7718
▁遥远的西欧	-7719
▁配方到肉猪	-7720
▁闪光的名字	-7721
▁险动作干净	-7722
▁险金中调剂	-7723
▁雄踞着三只	-7724
▁预备期志愿	-7725
▁首席大法官	-7726
▁马恩华的亲	-7727
▁麦亩产千斤	-7728
▁串成人龙大跳	-7729
▁买回去全家吃	-7730
▁二分之一的步	-7731
▁净的庭院里摆	-7732
▁凡响的生动读	-7733
▁凭着信念与倔	-7734
▁剧照四十余帧	-7735
▁助村里的在校	-7736
▁印经院去翻印	-7737
▁听见有人在评	-7738
▁启迪和那深藏	-7739
▁呼声再度高涨	-7740
▁坐在李升的床	-7741
▁堆死鱼前举棋	-7742
▁堤的洪水狂泻	-7743
▁奋进的早年身	-7744
▁季花点染着寂	-7745
▁宏观调控的预	-7746
▁巷的高大建筑	-7747
▁帘的尽是那绿	-7748
▁帝王将相出谋	-7749
▁常常要排上几	-7750
▁幸运地被分配	-7751
▁底色和务实求	-7752
▁座都市的村庄	-7753
▁引进了两部性	-7754
▁悟出道理以至	-7755
▁旋的古树年轮	-7756
▁曙色已然可辨	-7757
▁柏油马路曲径	-7758
▁柳林县前元庄	-7759
▁标中一举中标	-7760
▁棚内花鲜菜绿	-7761
▁气和自来水等	-7762
▁汽车一辆紧挨	-7763
▁淡红的才是绵	-7764
▁炮乐极生悲丧	-7765
▁物品大有学问	-7766
▁琼斯指数就狂	-7767
▁畅得体地穿插	-7768
▁砚田笔耕墨耘	-7769
▁秤盘下面竟沾	-7770
▁绪的感染聚焦	-7771
▁臂或手指被炸	-7772
▁芳香的花生倒	-7773
▁莽的西部边陲	-7774
▁营镇结对联手	-7775
▁蓝天写下了壮	-7776
▁蓝无际的天空	-7777
▁趋于没落和灭	-7778
▁适于用来保卫	-7779
▁遍天下也不怕	-7780
▁部有小到中雪	-7781
▁释放上周被拘	-7782
▁阴有小雪或雨	-7783
▁陪同下步入宽	-7784
▁颜六色的风筝	-7785
▁颜色的彩球飘	-7786
▁麻袋还带着泥	-7787
▁默地注视着潮	-7788
下森	-7789
了壮	-7790
了归	-7791
今为	-7792
出一	-7793
动作	-7794
化为	-7795
化成	-7796
域文	-7797
声合	-7798
声悠	-7799
三只	-7800
和书	-7801
容忽	-7802
差一	-7803
带以	-7804
干净	-7805
年不	-7806
度评	-7807
感染	-7808
成新	-7809
技与	-7810
政变	-7811
斯指	-7812
方对	-7813
无记	-7814
更生	-7815
有不	-7816
果不	-7817
水县	-7818
江商	-7819
没落	-7820
法官	-7821
注视	-7822
流量	-7823
游乐	-7824
滚滚	-7825
滥觞	-7826
滴落	-7827
演唱	-7828
演绎	-7829
潜移	-7830
澳大	-7831
激发	-7832
火台	-7833
火车	-7834
灭人	-7835
灰暗	-7836
炮乐	-7837
点评	-7838
炼老	-7839
热气	-7840
热的	-7841
热络	-7842
烽火	-7843
照顾	-7844
熔一	-7845
燕赵	-7846
爆发	-7847
片新	-7848
版式	-7849
版面	-7850
物种	-7851
牺牲	-7852
独创	-7853
独生	-7854
狭窄	-7855
猛增	-7856
献爱	-7857
王楚	-7858
王鸿	-7859
珠尔	-7860
班子	-7861
球选	-7862
球飘	-7863
琼斯	-7864
瑞甫	-7865
瓦希	-7866
甘岭	-7867
甘珠	-7868
甜蜜	-7869
用来	-7870
由衷	-7871
画坛	-7872
画透	-7873
畅得	-7874
界人	-7875
留下	-7876
症结	-7877
百家	-7878
的信	-7879
的商	-7880
的四	-7881
的国	-7882
的形	-7883
的彩	-7884
的悲	-7885
盘下	-7886
直播	-7887
相聚	-7888
真诚	-7889
眼于	-7890
眼界	-7891
着意	-7892
着炎	-7893
矿工	-7894
硬碰	-7895
确定	-7896
祝谦	-7897
神话	-7898
祥和	-7899
不含	-7900
却俨	-7901
底所	-7902
敢地	-7903
新兵	-7904
本龙	-7905
板一	-7906
构成	-7907
果敢	-7908
枪发	-7909
架次	-7910
桂冠	-7911
档次	-7912
桥本	-7913
梁山	-7914
梅花	-7915
梦魁	-7916
棚内	-7917
植物	-7918
樊如	-7919
欠佳	-7920
歌曲	-7921
正规	-7922
残疾	-7923
每时	-7924
每篇	-7925
比原	-7926
民心	-7927
气和	-7928
氛围	-7929
永恒	-7930
求变	-7931
汉书	-7932
汉简	-7933
汝岱	-7934
污染	-7935
汤更	-7936
沈震	-7937
沉与	-7938
河边	-7939
油田	-7940
泄于	-7941
泪如	-7942
泽铣	-7943
洋洲	-7944
洗国	-7945
洼地	-7946
浇地	-7947
测定	-7948
浓厚	-7949
浦江	-7950
浩如	-7951
海区	-7952
海里	-7953
消防	-7954
涉猎	-7955
涣散	-7956
涪陵	-7957
淡红	-7958
深情	-7959
清唱	-7960
渡邕	-7961
犹太	-7962
献给	-7963
疾人	-7964
的滞	-7965
私房	-7966
秋两	-7967
种的	-7968
租赁	-7969
秧歌	-7970
称不	-7971
稳的	-7972
究竟	-7973
穷乐	-7974
穷则	-7975
穿插	-7976
穿梭	-7977
窥破	-7978
竖吹	-7979
竟涨	-7980
童声	-7981
策的	-7982
简明	-7983
管道	-7984
米等	-7985
粉碎	-7986
精心	-7987
素不	-7988
红的	-7989
红辣	-7990
纬线	-7991
纯朴	-7992
纵死	-7993
线被	-7994
经贸	-7995
绑架	-7996
结在	-7997
结对	-7998
给予	-7999
▁菠	-8000
体地	-8001
品大	-8002
子荣	-8003
它在	-8004
州西	-8005
座山	-8006
开来	-8007
感尖	-8008
拘格	-8009
拘泥	-8010
招收	-8011
拜酒	-8012
拢嘴	-8013
拱棚	-8014
拼搏	-8015
挂起	-8016
指引	-8017
挑选	-8018
挣一	-8019
挥洒	-8020
挺拔	-8021
损及	-8022
损害	-8023
掌握	-8024
提倡	-8025
揭牌	-8026
援引	-8027
援韩	-8028
搞的	-8029
摘掉	-8030
摘登	-8031
摸底	-8032
撰写	-8033
支付	-8034
敏捷	-8035
敏杰	-8036
文章	-8037
斡旋	-8038
旋的	-8039
族自	-8040
无尽	-8041
日晚	-8042
春节	-8043
是我	-8044
是自	-8045
是靠	-8046
晚年	-8047
暖流	-8048
暖湿	-8049
曹禺	-8050
曹金	-8051
曼哈	-8052
曾敏	-8053
月份	-8054
有了	-8055
有力	-8056
有时	-8057
有机	-8058
望您	-8059
期多	-8060
朱乃	-8061
机会	-8062
李学	-8063
李岚	-8064
李铁	-8065
村落	-8066
杜天	-8067
杜比	-8068
条水	-8069
来一	-8070
来抓	-8071
来源	-8072
杨子	-8073
杭州	-8074
杰出	-8075
松劲	-8076
极端	-8077
树年	-8078
档真	-8079
水泄	-8080
没开	-8081
目录	-8082
眼地	-8083
类可	-8084
给我	-8085
给机	-8086
给鱼	-8087
绪的	-8088
缓缓	-8089
编纂	-8090
编著	-8091
缘到	-8092
缩手	-8093
缺时	-8094
网络	-8095
罗昌	-8096
罢掉	-8097
美洲	-8098
群体	-8099
▁扭	-8100
▁歼	-8101
出道	-8102
南缘	-8103
和舒	-8104
地种	-8105
家作	-8106
家品	-8107
少奇	-8108
开帷	-8109
弃的	-8110
引进	-8111
引黄	-8112
弗纶	-8113
弟弟	-8114
张亮	-8115
张彦	-8116
当前	-8117
当年	-8118
形态	-8119
彬手	-8120
彭家	-8121
彻底	-8122
往日	-8123
征突	-8124
径的	-8125
徐建	-8126
得而	-8127
必学	-8128
忘朴	-8129
忧的	-8130
忧虑	-8131
快上	-8132
怀抱	-8133
怜恤	-8134
思念	-8135
急速	-8136
总厂	-8137
总的	-8138
恨水	-8139
恰逢	-8140
悟出	-8141
患了	-8142
悬浮	-8143
情操	-8144
感觉	-8145
愿干	-8146
愿这	-8147
憨态	-8148
懈怠	-8149
戈比	-8150
成熟	-8151
或者	-8152
户入	-8153
手中	-8154
手张	-8155
手本	-8156
打扫	-8157
执拗	-8158
扬水	-8159
扶持	-8160
承前	-8161
抓不	-8162
抓大	-8163
抠开	-8164
披红	-8165
担子	-8166
拉开	-8167
拖欠	-8168
持之	-8169
有学	-8170
测量	-8171
爱国	-8172
的宁	-8173
的家	-8174
的时	-8175
相映	-8176
磋商	-8177
竖起	-8178
端的	-8179
等作	-8180
绝不	-8181
群团	-8182
翻译	-8183
翻读	-8184
翻飞	-8185
老板	-8186
老马	-8187
耕墨	-8188
肤色	-8189
肩膀	-8190
胆的	-8191
胜枚	-8192
脆坐	-8193
脉络	-8194
脚步	-8195
脸清	-8196
腊梅	-8197
腮的	-8198
腾空	-8199
▁汾	-8200
之余	-8201
些钱	-8202
女讲	-8203
子发	-8204
实求	-8205
宪章	-8206
家里	-8207
容之	-8208
容量	-8209
宽进	-8210
宾馆	-8211
寂寞	-8212
寄寓	-8213
密而	-8214
寒气	-8215
寒爱	-8216
察提	-8217
察民	-8218
寺院	-8219
将以	-8220
小时	-8221
少量	-8222
尘不	-8223
尤以	-8224
就能	-8225
尹家	-8226
尺寸	-8227
尽情	-8228
局限	-8229
层办	-8230
屈服	-8231
屋内	-8232
屋的	-8233
展出	-8234
展宏	-8235
山一	-8236
左图	-8237
巧妙	-8238
差距	-8239
已在	-8240
巷的	-8241
师长	-8242
帮困	-8243
帮带	-8244
常给	-8245
干脆	-8246
平稳	-8247
年大	-8248
年成	-8249
幸运	-8250
庆市	-8251
应由	-8252
底色	-8253
底谷	-8254
延伸	-8255
建功	-8256
挤得	-8257
掉队	-8258
播电	-8259
民情	-8260
王者	-8261
的尽	-8262
的文	-8263
立业	-8264
给子	-8265
考察	-8266
而得	-8267
联手	-8268
能否	-8269
自来	-8270
致意	-8271
舍的	-8272
芭蕾	-8273
花生	-8274
芳香	-8275
若要	-8276
苦再	-8277
苦难	-8278
苹果	-8279
范双	-8280
茅盾	-8281
茵的	-8282
荒地	-8283
莎白	-8284
莽的	-8285
菜集	-8286
著书	-8287
董事	-8288
葫芦	-8289
蒙山	-8290
蒸汽	-8291
蒸蒸	-8292
蓝无	-8293
蓝蓝	-8294
蔚成	-8295
蕴涵	-8296
虽有	-8297
血病	-8298
行列	-8299
与地	-8300
个院	-8301
令汗	-8302
声中	-8303
声笑	-8304
备齐	-8305
夏鼐	-8306
外汇	-8307
外部	-8308
多个	-8309
夜却	-8310
大军	-8311
大力	-8312
大国	-8313
大多	-8314
天一	-8315
天翼	-8316
太行	-8317
失正	-8318
头脑	-8319
夺取	-8320
夺泸	-8321
奇才	-8322
奋勇	-8323
奋的	-8324
奋进	-8325
奏感	-8326
奔赴	-8327
奖共	-8328
奠定	-8329
奥妙	-8330
奴役	-8331
她那	-8332
姑姑	-8333
威武	-8334
威胁	-8335
娓娓	-8336
婚姻	-8337
存量	-8338
孙子	-8339
孙金	-8340
孚凌	-8341
季花	-8342
孤残	-8343
宅的	-8344
安居	-8345
安徽	-8346
宏伟	-8347
宏观	-8348
宗素	-8349
官邸	-8350
宝田	-8351
实践	-8352
审与	-8353
审议	-8354
客车	-8355
宪梓	-8356
志同	-8357
才名	-8358
描写	-8359
放上	-8360
故土	-8361
教学	-8362
曲印	-8363
正确	-8364
武之	-8365
民告	-8366
汇储	-8367
深人	-8368
点染	-8369
爪部	-8370
生亲	-8371
的神	-8372
的邮	-8373
的钱	-8374
的预	-8375
禁要	-8376
美乐	-8377
聚居	-8378
行行	-8379
行驶	-8380
街以	-8381
袖手	-8382
被分	-8383
被动	-8384
被合	-8385
被省	-8386
裹尸	-8387
西安	-8388
西部	-8389
要在	-8390
要排	-8391
见的	-8392
言人	-8393
警方	-8394
警示	-8395
让人	-8396
议题	-8397
讲究	-8398
论述	-8399
▁唐	-8400
了产	-8401
京途	-8402
前举	-8403
取有	-8404
合的	-8405
启迪	-8406
吴作	-8407
吴宗	-8408
吴忠	-8409
吸取	-8410
吸着	-8411
呕心	-8412
周六	-8413
周年	-8414
周边	-8415
呼声	-8416
和圣	-8417
和解	-8418
咨询	-8419
咱们	-8420
哈蒂	-8421
哈马	-8422
喜讯	-8423
喝彩	-8424
嘉奖	-8425
嘹亮	-8426
四周	-8427
回荡	-8428
困扰	-8429
围界	-8430
国会	-8431
图书	-8432
圆润	-8433
圆满	-8434
在京	-8435
在李	-8436
在自	-8437
在谈	-8438
地处	-8439
场路	-8440
址殷	-8441
坐椅	-8442
块热	-8443
坡陡	-8444
垄断	-8445
垫支	-8446
培的	-8447
堆死	-8448
堆群	-8449
堤的	-8450
堪忧	-8451
境界	-8452
墨神	-8453
壮士	-8454
壮实	-8455
声再	-8456
大运	-8457
奖四	-8458
将有	-8459
年仅	-8460
惬意	-8461
收拾	-8462
教渊	-8463
既有	-8464
服或	-8465
期志	-8466
李升	-8467
止却	-8468
死鱼	-8469
水围	-8470
洁地	-8471
洋葱	-8472
浩然	-8473
润雄	-8474
港澳	-8475
瓦买	-8476
的壮	-8477
的巨	-8478
的床	-8479
的收	-8480
着新	-8481
种硬	-8482
绳勒	-8483
考虑	-8484
节约	-8485
见有	-8486
访时	-8487
证书	-8488
诗人	-8489
诚挚	-8490
话剧	-8491
该刊	-8492
请求	-8493
谁付	-8494
谁有	-8495
谁维	-8496
调剂	-8497
谋计	-8498
谢意	-8499
一堑	-8500
个有	-8501
之久	-8502
公室	-8503
初中	-8504
利润	-8505
别看	-8506
到十	-8507
到自	-8508
到阿	-8509
前的	-8510
剧院	-8511
办了	-8512
加剧	-8513
动人	-8514
动辄	-8515
势在	-8516
勋努	-8517
匆匆	-8518
医疗	-8519
十倍	-8520
千处	-8521
千方	-8522
升旗	-8523
半年	-8524
半身	-8525
半部	-8526
单独	-8527
南北	-8528
卢萨	-8529
印刷	-8530
印在	-8531
印经	-8532
印象	-8533
即通	-8534
却在	-8535
卷台	-8536
厚的	-8537
厚礼	-8538
厦门	-8539
县有	-8540
参股	-8541
又不	-8542
又有	-8543
双边	-8544
发放	-8545
发菜	-8546
取消	-8547
受损	-8548
另发	-8549
叫我	-8550
可歌	-8551
台澎	-8552
台用	-8553
史上	-8554
叶利	-8555
吃一	-8556
后我	-8557
向前	-8558
吟到	-8559
否则	-8560
听见	-8561
在必	-8562
夏浩	-8563
大关	-8564
好事	-8565
容市	-8566
岸观	-8567
年内	-8568
建议	-8569
张爱	-8570
影留	-8571
总金	-8572
时仅	-8573
歌可	-8574
照四	-8575
版隔	-8576
用不	-8577
的在	-8578
禁地	-8579
空而	-8580
经院	-8581
翻印	-8582
营镇	-8583
萨卡	-8584
被一	-8585
谢谢	-8586
谨慎	-8587
谷利	-8588
负总	-8589
质朴	-8590
贩的	-8591
贫瘠	-8592
购金	-8593
贴满	-8594
贺卡	-8595
贺电	-8596
贾励	-8597
贾昭	-8598
赫然	-8599
一市	-8600
三晋	-8601
下车	-8602
乐四	-8603
于所	-8604
保命	-8605
保深	-8606
俱乐	-8607
倡廉	-8608
停下	-8609
停机	-8610
傍着	-8611
催人	-8612
催还	-8613
元一	-8614
元的	-8615
充当	-8616
先亡	-8617
光明	-8618
党报	-8619
全力	-8620
全方	-8621
公报	-8622
六架	-8623
兵法	-8624
其史	-8625
兼具	-8626
内一	-8627
再创	-8628
冒雨	-8629
写下	-8630
写意	-8631
写生	-8632
军功	-8633
冬的	-8634
冰雕	-8635
况转	-8636
净化	-8637
净的	-8638
准确	-8639
减灾	-8640
几句	-8641
几群	-8642
凡响	-8643
凡是	-8644
出生	-8645
分摊	-8646
切关	-8647
刊订	-8648
刘基	-8649
刘振	-8650
刘盛	-8651
刘磊	-8652
创利	-8653
功章	-8654
吃胡	-8655
响的	-8656
商会	-8657
埃及	-8658
安民	-8659
定一	-8660
属于	-8661
心武	-8662
念与	-8663
报党	-8664
振英	-8665
授牌	-8666
新数	-8667
方位	-8668
是应	-8669
次要	-8670
水江	-8671
法名	-8672
法律	-8673
深及	-8674
滴雨	-8675
潘跃	-8676
激光	-8677
狂泻	-8678
盛威	-8679
目远	-8680
着信	-8681
者必	-8682
者的	-8683
谢里	-8684
走上	-8685
走村	-8686
起伏	-8687
起欢	-8688
起的	-8689
趋向	-8690
趣南	-8691
跃王	-8692
跃的	-8693
路下	-8694
路小	-8695
路曲	-8696
踏花	-8697
踞有	-8698
踞着	-8699
▁帙	-8700
万缕	-8701
下去	-8702
不住	-8703
不得	-8704
不敢	-8705
专致	-8706
中秋	-8707
串成	-8708
丽风	-8709
久便	-8710
么高	-8711
之中	-8712
乎白	-8713
也正	-8714
也要	-8715
也诚	-8716
买回	-8717
乱超	-8718
了新	-8719
二分	-8720
于永	-8721
互帮	-8722
交接	-8723
产前	-8724
京上	-8725
人次	-8726
人请	-8727
仅四	-8728
今晚	-8729
仍为	-8730
从上	-8731
代中	-8732
令禁	-8733
令观	-8734
以活	-8735
们向	-8736
任何	-8737
份月	-8738
伊拉	-8739
伴有	-8740
似路	-8741
低于	-8742
住址	-8743
住进	-8744
体现	-8745
何况	-8746
佩饰	-8747
使之	-8748
依恋	-8749
依据	-8750
侧台	-8751
侧目	-8752
便着	-8753
去全	-8754
台柱	-8755
员国	-8756
四岁	-8757
堂皇	-8758
孩生	-8759
家中	-8760
息支	-8761
感慨	-8762
我就	-8763
战胜	-8764
手缝	-8765
执行	-8766
拉克	-8767
撰稿	-8768
整体	-8769
春来	-8770
月饼	-8771
理以	-8772
电视	-8773
百一	-8774
益处	-8775
等功	-8776
芍药	-8777
花卉	-8778
观者	-8779
规律	-8780
评分	-8781
赞叹	-8782
走出	-8783
路人	-8784
身探	-8785
身的	-8786
躺在	-8787
车一	-8788
转化	-8789
转播	-8790
转转	-8791
轻易	-8792
载歌	-8793
辅币	-8794
辆紧	-8795
辈甘	-8796
边添	-8797
达开	-8798
过一	-8799
47	-8800
8.	-8801
82	-8802
85	-8803
‘0	-8804
▁詹	-8805
▁韵	-8806
一批	-8807
一点	-8808
万象	-8809
上升	-8810
了当	-8811
余悸	-8812
关根	-8813
化的	-8814
博物	-8815
县市	-8816
发展	-8817
各界	-8818
国民	-8819
地服	-8820
地立	-8821
奔腾	-8822
寒峭	-8823
平方	-8824
年卡	-8825
年病	-8826
我坚	-8827
披露	-8828
整齐	-8829
旅游	-8830
更需	-8831
最近	-8832
生子	-8833
的村	-8834
的精	-8835
研究	-8836
称赞	-8837
笑声	-8838
精粹	-8839
纸币	-8840
经费	-8841
绵绵	-8842
绿化	-8843
美丽	-8844
老区	-8845
股激	-8846
背土	-8847
胡彩	-8848
胡花	-8849
节目	-8850
行业	-8851
街头	-8852
表达	-8853
装帧	-8854
见成	-8855
谋士	-8856
财富	-8857
购买	-8858
贵州	-8859
贾建	-8860
赞誉	-8861
赞赏	-8862
赠送	-8863
越来	-8864
跑道	-8865
辐射	-8866
迈向	-8867
迎新	-8868
近些	-8869
近半	-8870
近日	-8871
还带	-8872
还有	-8873
这么	-8874
这套	-8875
这本	-8876
这条	-8877
这边	-8878
进取	-8879
进口	-8880
远的	-8881
迪和	-8882
追寻	-8883
送旅	-8884
选举	-8885
选哩	-8886
选购	-8887
逊风	-8888
透视	-8889
途径	-8890
通讯	-8891
逝世	-8892
逾古	-8893
遍天	-8894
道延	-8895
遗憾	-8896
遥远	-8897
那些	-8898
那绿	-8899
12	-8900
不动	-8901
丧失	-8902
中雪	-8903
令人	-8904
依多	-8905
养殖	-8906
刘乡	-8907
协与	-8908
巡游	-8909
承贷	-8910
拒绝	-8911
指出	-8912
换届	-8913
授权	-8914
接触	-8915
揭示	-8916
援助	-8917
撤军	-8918
救助	-8919
数字	-8920
文史	-8921
方案	-8922
方百	-8923
旨在	-8924
早已	-8925
昌盛	-8926
昨天	-8927
是两	-8928
是这	-8929
暖亮	-8930
更是	-8931
曾多	-8932
有一	-8933
有几	-8934
未曾	-8935
未能	-8936
杂志	-8937
权益	-8938
李瑞	-8939
束缚	-8940
柏油	-8941
桂林	-8942
模式	-8943
欣慰	-8944
此间	-8945
殃及	-8946
每个	-8947
汪道	-8948
沟通	-8949
消灭	-8950
涉及	-8951
淡忘	-8952
渡过	-8953
溧水	-8954
满载	-8955
潜能	-8956
炸伤	-8957
热闹	-8958
照耀	-8959
特定	-8960
犯罪	-8961
现了	-8962
生机	-8963
田野	-8964
界的	-8965
的多	-8966
的立	-8967
目睹	-8968
相互	-8969
省市	-8970
眼光	-8971
短期	-8972
破此	-8973
确保	-8974
祝辞	-8975
积累	-8976
经济	-8977
罗宾	-8978
联系	-8979
董建	-8980
虚掩	-8981
表现	-8982
贵乎	-8983
身体	-8984
车流	-8985
这是	-8986
那肉	-8987
那腮	-8988
邹家	-8989
郁达	-8990
郑咏	-8991
郑振	-8992
部力	-8993
部性	-8994
部有	-8995
部边	-8996
都在	-8997
都市	-8998
里之	-8999
上为	-9000
中外	-9001
中小	-9002
中有	-9003
主动	-9004
书画	-9005
书记	-9006
人定	-9007
仅有	-9008
伦在	-9009
体的	-9010
创造	-9011
包括	-9012
南宁	-9013
四合	-9014
回忆	-9015
图像	-9016
坚韧	-9017
坪上	-9018
塔克	-9019
塔里	-9020
外地	-9021
多年	-9022
大型	-9023
大成	-9024
大胆	-9025
太阳	-9026
夫斯	-9027
失传	-9028
失衡	-9029
奥地	-9030
她寄	-9031
好评	-9032
好转	-9033
妹妹	-9034
学校	-9035
学的	-9036
孩子	-9037
定期	-9038
实事	-9039
将于	-9040
将对	-9041
尚未	-9042
屏幕	-9043
山水	-9044
山深	-9045
巨变	-9046
已有	-9047
已达	-9048
布置	-9049
幅度	-9050
平凡	-9051
座谈	-9052
弦易	-9053
当选	-9054
影视	-9055
很好	-9056
很快	-9057
徐有	-9058
怀揣	-9059
怎么	-9060
总人	-9061
惊喜	-9062
感谢	-9063
成长	-9064
战友	-9065
扎实	-9066
批评	-9067
找准	-9068
拉玛	-9069
文兼	-9070
晚上	-9071
曲挺	-9072
服装	-9073
止鸣	-9074
浩荡	-9075
海基	-9076
满足	-9077
火烧	-9078
生动	-9079
粗茶	-9080
缺乏	-9081
群培	-9082
脏乱	-9083
表演	-9084
讲义	-9085
象更	-9086
路上	-9087
转嫁	-9088
还要	-9089
适当	-9090
重证	-9091
量地	-9092
量引	-9093
金大	-9094
金泳	-9095
金色	-9096
钢架	-9097
钦佩	-9098
钻石	-9099
48	-9100
7%	-9101
一百	-9102
万亩	-9103
与事	-9104
也可	-9105
享受	-9106
京沪	-9107
人心	-9108
人权	-9109
人车	-9110
今后	-9111
代的	-9112
们在	-9113
仿佛	-9114
会见	-9115
似之	-9116
依赖	-9117
侠骨	-9118
俄发	-9119
保留	-9120
做了	-9121
克林	-9122
党和	-9123
公正	-9124
共和	-9125
兴起	-9126
具觉	-9127
典籍	-9128
再新	-9129
写着	-9130
冰雪	-9131
凯旋	-9132
出自	-9133
分子	-9134
分忧	-9135
划拨	-9136
刘步	-9137
前两	-9138
前已	-9139
剑平	-9140
北风	-9141
千锤	-9142
半本	-9143
华南	-9144
卡比	-9145
原来	-9146
反复	-9147
受益	-9148
变为	-9149
古城	-9150
号码	-9151
名大	-9152
向传	-9153
呈现	-9154
周一	-9155
和水	-9156
哈尔	-9157
响乐	-9158
喇叭	-9159
四是	-9160
地制	-9161
客商	-9162
巴黎	-9163
市里	-9164
弹击	-9165
性的	-9166
搜集	-9167
政治	-9168
本是	-9169
林县	-9170
欢聚	-9171
民健	-9172
海协	-9173
深化	-9174
的提	-9175
益颇	-9176
聪明	-9177
能力	-9178
自然	-9179
至少	-9180
良知	-9181
色彩	-9182
设计	-9183
郑重	-9184
重新	-9185
铁路	-9186
铺盖	-9187
铺筑	-9188
链条	-9189
锡铭	-9190
锤百	-9191
锦绣	-9192
镶嵌	-9193
长江	-9194
长远	-9195
门话	-9196
闪烁	-9197
闪耀	-9198
间公	-9199
1、	-9200
22	-9201
39	-9202
45	-9203
55	-9204
▁鲤	-9205
一份	-9206
一体	-9207
一家	-9208
一张	-9209
万名	-9210
万平	-9211
不到	-9212
不必	-9213
专业	-9214
业和	-9215
丝毫	-9216
严峻	-9217
个县	-9218
丰收	-9219
临川	-9220
为之	-9221
为纽	-9222
习惯	-9223
乡村	-9224
争取	-9225
二百	-9226
五是	-9227
亲手	-9228
伊朗	-9229
兼备	-9230
分裂	-9231
创新	-9232
包袱	-9233
十六	-9234
反腐	-9235
吸引	-9236
命田	-9237
喜爱	-9238
回来	-9239
学者	-9240
家庭	-9241
尼西	-9242
岁的	-9243
常常	-9244
徐义	-9245
成功	-9246
推行	-9247
文物	-9248
方的	-9249
无微	-9250
有对	-9251
榭丽	-9252
渡大	-9253
珍惜	-9254
电部	-9255
稳中	-9256
约旦	-9257
罕见	-9258
脚下	-9259
自我	-9260
致词	-9261
舍大	-9262
艰巨	-9263
艰辛	-9264
范围	-9265
西画	-9266
设备	-9267
读和	-9268
谱写	-9269
贷款	-9270
走进	-9271
身边	-9272
达成	-9273
迅速	-9274
迎来	-9275
还不	-9276
这里	-9277
远远	-9278
选定	-9279
逐渐	-9280
通信	-9281
通胀	-9282
造福	-9283
邮电	-9284
郑州	-9285
重要	-9286
阅读	-9287
队伍	-9288
队的	-9289
防治	-9290
阳三	-9291
阵阵	-9292
阶级	-9293
阻挡	-9294
阿拉	-9295
附近	-9296
陆续	-9297
陈天	-9298
陈子	-9299
7.	-9300
88	-9301
▁捉	-9302
一定	-9303
专毕	-9304
两年	-9305
久不	-9306
享誉	-9307
人如	-9308
人治	-9309
以恒	-9310
儒庭	-9311
六和	-9312
半数	-9313
喝着	-9314
国务	-9315
处可	-9316
学和	-9317
少华	-9318
平理	-9319
当代	-9320
怨无	-9321
成立	-9322
我前	-9323
手抓	-9324
拙见	-9325
揽全	-9326
放军	-9327
整洁	-9328
方法	-9329
昂首	-9330
显示	-9331
显著	-9332
显露	-9333
普通	-9334
普遍	-9335
机遇	-9336
树新	-9337
歌舞	-9338
正义	-9339
江西	-9340
河南	-9341
治理	-9342
注目	-9343
深深	-9344
港人	-9345
濒临	-9346
爆竹	-9347
爱好	-9348
牵挂	-9349
狠抓	-9350
王学	-9351
用笔	-9352
画面	-9353
的外	-9354
的小	-9355
相对	-9356
省区	-9357
瞩目	-9358
破坏	-9359
确实	-9360
离不	-9361
种植	-9362
科研	-9363
秘书	-9364
等地	-9365
签署	-9366
简单	-9367
算得	-9368
篇章	-9369
精确	-9370
累计	-9371
红灯	-9372
纲领	-9373
经典	-9374
经理	-9375
结果	-9376
维持	-9377
维红	-9378
缅怀	-9379
缓解	-9380
缔造	-9381
罗干	-9382
美好	-9383
聚集	-9384
肯定	-9385
自发	-9386
节来	-9387
节煤	-9388
资源	-9389
那深	-9390
醒目	-9391
陈陆	-9392
陈雁	-9393
限于	-9394
院去	-9395
院的	-9396
除非	-9397
险动	-9398
陪我	-9399
54	-9400
”、	-9401
久前	-9402
伤财	-9403
全年	-9404
初步	-9405
制定	-9406
可信	-9407
同意	-9408
回去	-9409
国防	-9410
图谱	-9411
垦区	-9412
基斯	-9413
塔拉	-9414
大大	-9415
夫妇	-9416
奶奶	-9417
如今	-9418
妥协	-9419
子你	-9420
存在	-9421
完善	-9422
宣传	-9423
家们	-9424
家吃	-9425
富裕	-9426
对待	-9427
将是	-9428
小农	-9429
少生	-9430
尤其	-9431
就以	-9432
就有	-9433
局局	-9434
局部	-9435
局面	-9436
展望	-9437
山川	-9438
岁月	-9439
差异	-9440
布局	-9441
年底	-9442
度过	-9443
引述	-9444
往来	-9445
徐悲	-9446
徘徊	-9447
德国	-9448
心协	-9449
心的	-9450
忘记	-9451
忙碌	-9452
忧其	-9453
态度	-9454
恩佐	-9455
懂得	-9456
成人	-9457
截至	-9458
户户	-9459
所以	-9460
执法	-9461
承担	-9462
抓住	-9463
抢救	-9464
拉瓜	-9465
拜年	-9466
挤在	-9467
救援	-9468
明才	-9469
材料	-9470
校学	-9471
横吹	-9472
歌剧	-9473
比上	-9474
洪水	-9475
牧为	-9476
瓦西	-9477
甚流	-9478
生快	-9479
的步	-9480
缤纷	-9481
蔓延	-9482
虹花	-9483
要比	-9484
观调	-9485
软禁	-9486
达家	-9487
里游	-9488
防部	-9489
隆重	-9490
随后	-9491
随处	-9492
随手	-9493
隐秘	-9494
隔岸	-9495
难觅	-9496
雅文	-9497
集体	-9498
雨滴	-9499
16	-9500
17	-9501
23	-9502
29	-9503
32	-9504
▁俯	-9505
一下	-9506
一项	-9507
万吨	-9508
三是	-9509
三次	-9510
不仅	-9511
不再	-9512
不可	-9513
与其	-9514
主任	-9515
举措	-9516
了我	-9517
二十	-9518
二是	-9519
云南	-9520
五百	-9521
交给	-9522
人才	-9523
人群	-9524
从事	-9525
仓库	-9526
优惠	-9527
似乎	-9528
位置	-9529
你们	-9530
保卫	-9531
停止	-9532
允许	-9533
公园	-9534
其实	-9535
养鱼	-9536
内涵	-9537
军装	-9538
冬季	-9539
准备	-9540
几个	-9541
刘华	-9542
办水	-9543
加拿	-9544
势头	-9545
勇敢	-9546
募捐	-9547
十二	-9548
升起	-9549
南大	-9550
卡翁	-9551
厂房	-9552
厂里	-9553
原因	-9554
原有	-9555
友谊	-9556
双方	-9557
另外	-9558
名人	-9559
命名	-9560
国有	-9561
娱乐	-9562
实的	-9563
尼亚	-9564
巷队	-9565
干部	-9566
异常	-9567
彭珮	-9568
所画	-9569
找上	-9570
承包	-9571
散文	-9572
显现	-9573
毁坏	-9574
浇一	-9575
约翰	-9576
级偏	-9577
而同	-9578
莅渝	-9579
蔬菜	-9580
被称	-9581
认识	-9582
达管	-9583
院里	-9584
随着	-9585
雄踞	-9586
雪域	-9587
雪或	-9588
雪片	-9589
零下	-9590
雷奥	-9591
需求	-9592
震动	-9593
露脸	-9594
霸水	-9595
青壮	-9596
非洲	-9597
面值	-9598
面前	-9599
一月	-9600
也有	-9601
▁	-9602
,	-9603
的	-9604
。	-9605
、	-9606
一	-9607
国	-9608
年	-9609
人	-9610
1	-9611
中	-9612
在	-9613
了	-9614
大	-9615
和	-9616
0	-9617
有	-9618
9	-9619
是	-9620
为	-9621
新	-9622
地	-9623
民	-9624
发	-9625
生	-9626
业	-9627
这	-9628
全	-9629
出	-9630
“	-9631
”	-9632
不	-9633
家	-9634
上	-9635
以	-9636
们	-9637
个	-9638
作	-9639
来	-9640
到	-9641
会	-9642
文	-9643
多	-9644
行	-9645
成	-9646
日	-9647
经	-9648
学	-9649
同	-9650
我	-9651
农	-9652
工	-9653
者	-9654
2	-9655
华	-9656
进	-9657
开	-9658
部	-9659
展	-9660
建	-9661
区	-9662
对	-9663
市	-9664
.	-9665
主	-9666
时	-9667
元	-9668
水	-9669
要	-9670
自	-9671
与	-9672
政	-9673
重	-9674
动	-9675
本	-9676
他	-9677
产	-9678
月	-9679
于	-9680
实	-9681
下	-9682
8	-9683
3	-9684
前	-9685
利	-9686
现	-9687
记	-9688
加	-9689
高	-9690
之	-9691
社	-9692
村	-9693
理	-9694
万	-9695
事	-9696
两	-9697
化	-9698
而	-9699
各	-9700
心	-9701
起	-9702
长	-9703
面	-9704
5	-9705
代	-9706
关	-9707
报	-9708
济	-9709
小	-9710
(	-9711
)	-9712
其	-9713
史	-9714
方	-9715
表	-9716
南	-9717
美	-9718
6	-9719
世	-9720
合	-9721
明	-9722
7	-9723
使	-9724
就	-9725
设	-9726
说	-9727
:	-9728
将	-9729
好	-9730
通	-9731
—	-9732
活	-9733
等	-9734
交	-9735
天	-9736
界	-9737
统	-9738
《	-9739
》	-9740
书	-9741
共	-9742
平	-9743
也	-9744
着	-9745
历	-9746
过	-9747
里	-9748
场	-9749
定	-9750
分	-9751
入	-9752
后	-9753
外	-9754
计	-9755
4	-9756
北	-9757
十	-9758
资	-9759
改	-9760
从	-9761
公	-9762
得	-9763
金	-9764
体	-9765
电	-9766
道	-9767
制	-9768
用	-9769
县	-9770
次	-9771
系	-9772
党	-9773
力	-9774
总	-9775
持	-9776
港	-9777
特	-9778
并	-9779
结	-9780
路	-9781
;	-9782
军	-9783
基	-9784
程	-9785
向	-9786
子	-9787
度	-9788
香	-9789
户	-9790
西	-9791
达	-9792
可	-9793
困	-9794
当	-9795
育	-9796
目	-9797
种	-9798
员	-9799
已	-9800
广	-9801
三	-9802
创	-9803
山	-9804
气	-9805
还	-9806
题	-9807
划	-9808
去	-9809
强	-9810
机	-9811
正	-9812
治	-9813
集	-9814
京	-9815
务	-9816
提	-9817
术	-9818
能	-9819
问	-9820
性	-9821
步	-9822
九	-9823
安	-9824
企	-9825
位	-9826
名	-9827
少	-9828
然	-9829
第	-9830
都	-9831
非	-9832
今	-9833
先	-9834
内	-9835
情	-9836
所	-9837
老	-9838
解	-9839
乡	-9840
导	-9841
版	-9842
立	-9843
精	-9844
联	-9845
及	-9846
品	-9847
府	-9848
收	-9849
江	-9850
门	-9851
间	-9852
委	-9853
意	-9854
无	-9855
法	-9856
乐	-9857
如	-9858
推	-9859
此	-9860
增	-9861
画	-9862
管	-9863
举	-9864
团	-9865
最	-9866
由	-9867
古	-9868
式	-9869
海	-9870
物	-9871
贫	-9872
战	-9873
图	-9874
更	-9875
难	-9876
些	-9877
保	-9878
放	-9879
样	-9880
论	-9881
革	-9882
传	-9883
形	-9884
把	-9885
相	-9886
近	-9887
城	-9888
布	-9889
组	-9890
车	-9891
领	-9892
群	-9893
际	-9894
首	-9895
义	-9896
五	-9897
点	-9898
节	-9899
协	-9900
岸	-9901
每	-9902
深	-9903
青	-9904
众	-9905
处	-9906
志	-9907
又	-9908
干	-9909
示	-9910
风	-9911
原	-9912
取	-9913
回	-9914
局	-9915
庆	-9916
张	-9917
投	-9918
祖	-9919
续	-9920
被	-9921
%	-9922
神	-9923
项	-9924
亿	-9925
决	-9926
厂	-9927
数	-9928
省	-9929
给	-9930
馆	-9931
优	-9932
台	-9933
应	-9934
引	-9935
想	-9936
据	-9937
服	-9938
条	-9939
田	-9940
纪	-9941
职	-9942
院	-9943
二	-9944
云	-9945
施	-9946
织	-9947
致	-9948
色	-9949
造	-9950
但	-9951
始	-9952
手	-9953
指	-9954
期	-9955
极	-9956
欢	-9957
比	-9958
流	-9959
演	-9960
队	-9961
坚	-9962
带	-9963
视	-9964
那	-9965
势	-9966
参	-9967
她	-9968
片	-9969
级	-9970
象	-9971
量	-9972
龙	-9973
东	-9974
思	-9975
支	-9976
族	-9977
环	-9978
益	-9979
盛	-9980
调	-9981
值	-9982
受	-9983
币	-9984
感	-9985
技	-9986
接	-9987
看	-9988
继	-9989
花	-9990
话	-9991
光	-9992
别	-9993
变	-9994
型	-9995
央	-9996
整	-9997
率	-9998
严	-9999
再	-10000
几	-10001
口	-10002
常	-10003
快	-10004
斯	-10005
望	-10006
祝	-10007
维	-10008
费	-10009
转	-10010
任	-10011
信	-10012
办	-10013
愿	-10014
效	-10015
认	-10016
音	-10017
头	-10018
格	-10019
艺	-10020
读	-10021
千	-10022
士	-10023
旦	-10024
果	-10025
百	-10026
直	-10027
真	-10028
积	-10029
选	-10030
亚	-10031
件	-10032
功	-10033
只	-10034
命	-10035
商	-10036
求	-10037
爱	-10038
空	-10039
良	-10040
英	-10041
议	-10042
写	-10043
卢	-10044
反	-10045
四	-10046
境	-10047
女	-10048
完	-10049
富	-10050
旗	-10051
林	-10052
知	-10053
至	-10054
藏	-10055
融	-10056
观	-10057
走	-10058
防	-10059
列	-10060
则	-10061
却	-10062
因	-10063
它	-10064
影	-10065
态	-10066
标	-10067
清	-10068
献	-10069
稳	-10070
考	-10071
规	-10072
身	-10073
迎	-10074
银	-10075
飞	-10076
专	-10077
兴	-10078
响	-10079
均	-10080
权	-10081
游	-10082
科	-10083
许	-10084
镇	-10085
降	-10086
马	-10087
做	-10088
八	-10089
助	-10090
双	-10091
己	-10092
德	-10093
李	-10094
温	-10095
类	-10096
讲	-10097
质	-10098
运	-10099
丛	-10100
争	-10101
切	-10102
归	-10103
往	-10104
拉	-10105
教	-10106
歌	-10107
没	-10108
源	-10109
王	-10110
见	-10111
边	-10112
连	-10113
兵	-10114
巴	-10115
彩	-10116
斗	-10117
确	-10118
航	-10119
评	-10120
钱	-10121
亩	-10122
况	-10123
副	-10124
域	-10125
夏	-10126
帮	-10127
必	-10128
扶	-10129
武	-10130
河	-10131
泽	-10132
满	-10133
略	-10134
础	-10135
笔	-10136
籍	-10137
编	-10138
货	-10139
?	-10140
俄	-10141
具	-10142
兼	-10143
友	-10144
告	-10145
园	-10146
存	-10147
才	-10148
景	-10149
研	-10150
究	-10151
红	-10152
线	-10153
装	-10154
识	-10155
额	-10156
供	-10157
努	-10158
升	-10159
半	-10160
川	-10161
很	-10162
护	-10163
故	-10164
款	-10165
照	-10166
脱	-10167
荣	-10168
街	-10169
该	-10170
责	-10171
七	-10172
价	-10173
减	-10174
周	-10175
善	-10176
复	-10177
尽	-10178
席	-10179
春	-10180
紧	-10181
罗	-10182
营	-10183
警	-10184
鲜	-10185
『	-10186
』	-10187
临	-10188
司	-10189
喜	-10190
夜	-10191
套	-10192
孙	-10193
庭	-10194
录	-10195
早	-10196
油	-10197
洲	-10198
球	-10199
米	-10200
繁	-10201
胞	-10202
范	-10203
谋	-10204
退	-10205
速	-10206
随	-10207
令	-10208
克	-10209
养	-10210
包	-10211
岁	-10212
扎	-10213
批	-10214
未	-10215
约	-10216
菜	-10217
著	-10218
谈	-10219
贺	-10220
较	-10221
远	-10222
雄	-10223
!	-10224
仅	-10225
何	-10226
依	-10227
刘	-10228
刻	-10229
占	-10230
印	-10231
声	-10232
孔	-10233
宁	-10234
密	-10235
尔	-10236
巨	-10237
念	-10238
慰	-10239
承	-10240
抓	-10241
摄	-10242
显	-10243
梁	-10244
注	-10245
火	-10246
热	-10247
落	-10248
证	-10249
采	-10250
驻	-10251
黄	-10252
午	-10253
土	-10254
奋	-10255
客	-10256
宣	-10257
尼	-10258
州	-10259
希	-10260
庄	-10261
底	-10262
或	-10263
曲	-10264
案	-10265
模	-10266
澳	-10267
激	-10268
称	-10269
终	-10270
贸	-10271
述	-10272
送	-10273
针	-10274
雨	-10275
震	-10276
鱼	-10277
份	-10278
伍	-10279
伟	-10280
健	-10281
儿	-10282
准	-10283
初	-10284
卡	-10285
召	-10286
容	-10287
曾	-10288
独	-10289
破	-10290
章	-10291
艰	-10292
访	-10293
负	-10294
阳	-10295
丽	-10296
乎	-10297
仪	-10298
低	-10299
便	-10300
卫	-10301
即	-10302
号	-10303
备	-10304
居	-10305
怀	-10306
按	-10307
挥	-10308
斤	-10309
断	-10310
晚	-10311
材	-10312
构	-10313
波	-10314
派	-10315
琛	-10316
禁	-10317
福	-10318
纷	-10319
购	-10320
贵	-10321
超	-10322
迹	-10323
雪	-10324
韩	-10325
么	-10326
亡	-10327
亲	-10328
仍	-10329
伤	-10330
促	-10331
典	-10332
冷	-10333
劳	-10334
围	-10335
塔	-10336
奇	-10337
座	-10338
康	-10339
排	-10340
探	-10341
控	-10342
烈	-10343
石	-10344
纳	-10345
聚	-10346
胡	-10347
让	-10348
讯	-10349
逐	-10350
销	-10351
·	-10352
住	-10353
侨	-10354
充	-10355
冬	-10356
夫	-10357
寒	-10358
察	-10359
息	-10360
散	-10361
映	-10362
智	-10363
查	-10364
汇	-10365
泾	-10366
状	-10367
珍	-10368
登	-10369
眼	-10370
素	-10371
署	-10372
背	-10373
舞	-10374
苦	-10375
茶	-10376
财	-10377
足	-10378
辉	-10379
验	-10380
’	-10381
刚	-10382
卖	-10383
危	-10384
吕	-10385
吸	-10386
字	-10387
徐	-10388
救	-10389
旧	-10390
根	-10391
死	-10392
段	-10393
消	-10394
湾	-10395
留	-10396
白	-10397
短	-10398
突	-10399
策	-10400
纸	-10401
胜	-10402
谁	-10403
邓	-10404
郑	-10405
阶	-10406
互	-10407
余	-10408
你	-10409
佳	-10410
兰	-10411
剧	-10412
勒	-10413
厚	-10414
唱	-10415
妇	-10416
幅	-10417
序	-10418
待	-10419
忘	-10420
恢	-10421
易	-10422
树	-10423
浩	-10424
瑞	-10425
粮	-10426
补	-10427
言	-10428
贷	-10429
轻	-10430
遗	-10431
陈	-10432
需	-10433
顿	-10434
齐	-10435
且	-10436
丰	-10437
修	-10438
停	-10439
像	-10440
勃	-10441
医	-10442
器	-10443
墨	-10444
太	-10445
层	-10446
担	-10447
拥	-10448
括	-10449
拿	-10450
振	-10451
措	-10452
敬	-10453
旅	-10454
暖	-10455
束	-10456
架	-10457
氛	-10458
焦	-10459
玉	-10460
索	-10461
荒	-10462
虽	-10463
觉	-10464
角	-10465
越	-10466
跨	-10467
追	-10468
阵	-10469
阿	-10470
限	-10471
食	-10472
丝	-10473
久	-10474
习	-10475
判	-10476
单	-10477
厅	-10478
叙	-10479
启	-10480
哈	-10481
失	-10482
官	-10483
审	-10484
律	-10485
怎	-10486
拍	-10487
捐	-10488
普	-10489
横	-10490
玲	-10491
班	-10492
甚	-10493
秀	-10494
筹	-10495
篇	-10496
置	-10497
股	-10498
蒙	-10499
誉	-10500
词	-10501
请	-10502
趋	-10503
辆	-10504
辞	-10505
适	-10506
遇	-10507
顺	-10508
须	-10509
鸣	-10510
丁	-10511
买	-10512
候	-10513
六	-10514
冲	-10515
博	-10516
另	-10517
呼	-10518
坦	-10519
奏	-10520
宾	-10521
属	-10522
峰	-10523
忧	-10524
房	-10525
托	-10526
扬	-10527
拓	-10528
挤	-10529
摆	-10530
料	-10531
既	-10532
星	-10533
朋	-10534
木	-10535
析	-10536
止	-10537
润	-10538
潮	-10539
爸	-10540
筑	-10541
纯	-10542
绍	-10543
绩	-10544
绿	-10545
耶	-10546
肉	-10547
舍	-10548
若	-10549
违	-10550
配	-10551
钟	-10552
闻	-10553
附	-10554
静	-10555
预	-10556
鼓	-10557
乌	-10558
什	-10559
介	-10560
伊	-10561
偏	-10562
击	-10563
右	-10564
坡	-10565
培	-10566
壮	-10567
夕	-10568
奶	-10569
岗	-10570
帜	-10571
征	-10572
恩	-10573
悲	-10574
惠	-10575
描	-10576
援	-10577
搞	-10578
朝	-10579
朱	-10580
松	-10581
殖	-10582
毛	-10583
泛	-10584
洁	-10585
浙	-10586
渐	-10587
湖	-10588
灵	-10589
煌	-10590
离	-10591
秦	-10592
税	-10593
竟	-10594
童	-10595
纽	-10596
综	-10597
脑	-10598
莫	-10599
萨	-10600
语	-10601
谓	-10602
谢	-10603
赞	-10604
跃	-10605
跑	-10606
载	-10607
透	-10608
雅	-10609
雷	-10610
休	-10611
伴	-10612
倡	-10613
凡	-10614
吨	-10615
听	-10616
圳	-10617
奖	-10618
妈	-10619
孤	-10620
尊	-10621
尤	-10622
届	-10623
左	-10624
差	-10625
师	-10626
扩	-10627
找	-10628
挑	-10629
换	-10630
授	-10631
摊	-10632
板	-10633
桑	-10634
欣	-10635
永	-10636
沙	-10637
渡	-10638
滨	-10639
灌	-10640
瓜	-10641
疆	-10642
病	-10643
监	-10644
盾	-10645
秩	-10646
穿	-10647
窗	-10648
签	-10649
简	-10650
耕	-10651
胀	-10652
脚	-10653
苏	-10654
获	-10655
蔬	-10656
血	-10657
衣	-10658
贡	-10659
赠	-10660
遍	-10661
键	-10662
阅	-10663
露	-10664
C	-10665
°	-10666
‘	-10667
亮	-10668
劲	-10669
勇	-10670
叶	-10671
吁	-10672
吴	-10673
哲	-10674
喷	-10675
坝	-10676
妹	-10677
妻	-10678
季	-10679
孩	-10680
延	-10681
异	-10682
役	-10683
彻	-10684
循	-10685
忆	-10686
忠	-10687
悟	-10688
抗	-10689
拱	-10690
挂	-10691
播	-10692
敢	-10693
核	-10694
桥	-10695
概	-10696
氏	-10697
沧	-10698
沼	-10699
泰	-10700
涨	-10701
淡	-10702
渠	-10703
烂	-10704
烟	-10705
狂	-10706
矛	-10707
秋	-10708
租	-10709
站	-10710
竞	-10711
细	-10712
缓	-10713
羊	-10714
翻	-10715
般	-10716
荡	-10717
董	-10718
衡	-10719
触	-10720
誓	-10721
豆	-10722
豪	-10723
貌	-10724
赏	-10725
赢	-10726
迈	-10727
迟	-10728
逾	-10729
邮	-10730
醒	-10731
陆	-10732
除	-10733
靠	-10734
骨	-10735
鲁	-10736
付	-10737
似	-10738
例	-10739
倒	-10740
兑	-10741
冉	-10742
净	-10743
刊	-10744
卷	-10745
压	-10746
呈	-10747
呢	-10748
味	-10749
哥	-10750
固	-10751
圣	-10752
坐	-10753
块	-10754
堵	-10755
塞	-10756
够	-10757
宗	-10758
岭	-10759
幼	-10760
惊	-10761
懈	-10762
执	-10763
招	-10764
旋	-10765
末	-10766
杨	-10767
梅	-10768
棚	-10769
森	-10770
楼	-10771
欠	-10772
毅	-10773
毫	-10774
沉	-10775
沟	-10776
津	-10777
洪	-10778
浓	-10779
涉	-10780
涵	-10781
溉	-10782
滚	-10783
漠	-10784
潜	-10785
灯	-10786
灾	-10787
疑	-10788
盘	-10789
竹	-10790
笑	-10791
算	-10792
粉	-10793
累	-10794
练	-10795
绘	-10796
绝	-10797
缘	-10798
缩	-10799
胆	-10800
脸	-10801
菲	-10802
蕊	-10803
览	-10804
订	-10805
训	-10806
贯	-10807
贴	-10808
贾	-10809
趣	-10810
踏	-10811
邻	-10812
险	-10813
隆	-10814
频	-10815
鹏	-10816
‰	-10817
丹	-10818
乱	-10819
享	-10820
仁	-10821
仰	-10822
佩	-10823
俊	-10824
偿	-10825
册	-10826
冒	-10827
冰	-10828
剖	-10829
匙	-10830
吃	-10831
吗	-10832
嘉	-10833
囊	-10834
垦	-10835
堂	-10836
姐	-10837
宪	-10838
屋	-10839
峡	-10840
崇	-10841
幕	-10842
库	-10843
微	-10844
急	-10845
恭	-10846
悦	-10847
打	-10848
抢	-10849
择	-10850
挺	-10851
掉	-10852
掘	-10853
揭	-10854
搜	-10855
撤	-10856
撰	-10857
攻	-10858
旨	-10859
昌	-10860
晨	-10861
曹	-10862
枪	-10863
染	-10864
校	-10865
植	-10866
毁	-10867
毕	-10868
汉	-10869
泳	-10870
洋	-10871
浪	-10872
淮	-10873
灭	-10874
灿	-10875
炼	-10876
煤	-10877
爆	-10878
猪	-10879
瓦	-10880
盖	-10881
硬	-10882
礼	-10883
祥	-10884
票	-10885
端	-10886
绵	-10887
缺	-10888
耀	-10889
肯	-10890
胸	-10891
芳	-10892
蓝	-10893
诗	-10894
诚	-10895
课	-10896
谱	-10897
跌	-10898
轨	-10899
输	-10900
钥	-10901
铁	-10902
阔	-10903
陀	-10904
隔	-10905
障	-10906
零	-10907
页	-10908
饲	-10909
鸡	-10910
鸿	-10911
黎	-10912
黑	-10913
默	-10914
龚	-10915
佐	-10916
债	-10917
假	-10918
凝	-10919
凯	-10920
剩	-10921
叫	-10922
吐	-10923
含	-10924
售	-10925
坏	-10926
塘	-10927
奔	-10928
奥	-10929
妙	-10930
妥	-10931
姑	-10932
姜	-10933
威	-10934
宅	-10935
宏	-10936
宜	-10937
宝	-10938
宽	-10939
寄	-10940
寡	-10941
寻	-10942
履	-10943
岛	-10944
巩	-10945
床	-10946
弟	-10947
径	-10948
忙	-10949
恰	-10950
恶	-10951
悉	-10952
截	-10953
拔	-10954
拘	-10955
拜	-10956
挖	-10957
掌	-10958
插	-10959
握	-10960
操	-10961
敏	-10962
敞	-10963
斑	-10964
旱	-10965
昭	-10966
某	-10967
栋	-10968
检	-10969
榭	-10970
欧	-10971
汪	-10972
泉	-10973
洗	-10974
测	-10975
涌	-10976
淀	-10977
添	-10978
滴	-10979
漫	-10980
濒	-10981
灶	-10982
炸	-10983
牌	-10984
牡	-10985
牵	-10986
猎	-10987
玩	-10988
珠	-10989
男	-10990
畅	-10991
畜	-10992
番	-10993
睦	-10994
矿	-10995
禽	-10996
秘	-10997
穷	-10998
窥	-10999
篆	-11000
篓	-11001
纲	-11002
缔	-11003
翁	-11004
肩	-11005
膨	-11006
艳	-11007
蓄	-11008
蓬	-11009
衷	-11010
袭	-11011
覆	-11012
试	-11013
详	-11014
谨	-11015
账	-11016
赛	-11017
赶	-11018
软	-11019
辈	-11020
辖	-11021
迁	-11022
迅	-11023
迪	-11024
途	-11025
遣	-11026
郁	-11027
郭	-11028
野	-11029
锋	-11030
锡	-11031
闭	-11032
阻	-11033
陵	-11034
顶	-11035
顾	-11036
颜	-11037
飘	-11038
驱	-11039
鸟	-11040
/	-11041
A	-11042
B	-11043
丧	-11044
串	-11045
乃	-11046
乏	-11047
乔	-11048
乳	-11049
予	-11050
仓	-11051
伙	-11052
佛	-11053
俗	-11054
倍	-11055
储	-11056
允	-11057
励	-11058
卉	-11059
厦	-11060
否	-11061
吹	-11062
咱	-11063
啊	-11064
喝	-11065
嘴	-11066
址	-11067
坛	-11068
坪	-11069
堡	-11070
夺	-11071
奉	-11072
婚	-11073
媒	-11074
宫	-11075
寺	-11076
封	-11077
射	-11078
尉	-11079
尝	-11080
尾	-11081
屏	-11082
岚	-11083
峻	-11084
帧	-11085
弃	-11086
弥	-11087
弦	-11088
彭	-11089
徊	-11090
徘	-11091
徽	-11092
恒	-11093
患	-11094
愉	-11095
慎	-11096
慧	-11097
憾	-11098
懂	-11099
戈	-11100
抵	-11101
损	-11102
摇	-11103
旁	-11104
昆	-11105
昨	-11106
晤	-11107
朗	-11108
朴	-11109
杰	-11110
柏	-11111
柱	-11112
柴	-11113
桂	-11114
梦	-11115
棉	-11116
椒	-11117
残	-11118
池	-11119
汽	-11120
沪	-11121
泄	-11122
泣	-11123
泥	-11124
泪	-11125
洒	-11126
浇	-11127
滋	-11128
潘	-11129
灰	-11130
炮	-11131
燃	-11132
父	-11133
爷	-11134
牖	-11135
牧	-11136
犹	-11137
狠	-11138
甘	-11139
眉	-11140
督	-11141
瞩	-11142
碌	-11143
祈	-11144
祷	-11145
竖	-11146
绕	-11147
络	-11148
网	-11149
翰	-11150
翼	-11151
耘	-11152
聪	-11153
腮	-11154
腹	-11155
船	-11156
艾	-11157
茭	-11158
药	-11159
蒸	-11160
蔓	-11161
蔚	-11162
虎	-11163
虑	-11164
虹	-11165
衰	-11166
讨	-11167
诉	-11168
诊	-11169
诸	-11170
诺	-11171
谊	-11172
贤	-11173
赖	-11174
赴	-11175
赵	-11176
轮	-11177
辙	-11178
辛	-11179
辣	-11180
逊	-11181
逛	-11182
遥	-11183
邦	-11184
酋	-11185
酒	-11186
钢	-11187
铺	-11188
镕	-11189
闪	-11190
闹	-11191
韵	-11192
颇	-11193
饮	-11194
馨	-11195
驶	-11196
驾	-11197
骤	-11198
鬼	-11199
魂	-11200
魄	-11201
鹰	-11202
麻	-11203
乾	-11204
井	-11205
亦	-11206
亭	-11207
仆	-11208
仿	-11209
伐	-11210
伦	-11211
侠	-11212
侧	-11213
倘	-11214
借	-11215
倦	-11216
倾	-11217
催	-11218
傲	-11219
兄	-11220
兆	-11221
免	-11222
凌	-11223
剑	-11224
割	-11225
劣	-11226
劫	-11227
勋	-11228
募	-11229
勤	-11230
匆	-11231
卜	-11232
句	-11233
叭	-11234
吉	-11235
哀	-11236
哪	-11237
喇	-11238
圆	-11239
垫	-11240
堆	-11241
堪	-11242
塑	-11243
墙	-11244
奠	-11245
妨	-11246
姨	-11247
姻	-11248
娃	-11249
娓	-11250
娱	-11251
孝	-11252
守	-11253
宋	-11254
室	-11255
害	-11256
宿	-11257
寂	-11258
寓	-11259
尖	-11260
尚	-11261
尺	-11262
屡	-11263
岩	-11264
崭	-11265
巧	-11266
巷	-11267
帷	-11268
幸	-11269
廉	-11270
弱	-11271
彦	-11272
彬	-11273
彼	-11274
忽	-11275
怕	-11276
悠	-11277
惜	-11278
惯	-11279
惶	-11280
慨	-11281
戎	-11282
戒	-11283
扫	-11284
扮	-11285
扰	-11286
披	-11287
抱	-11288
拒	-11289
拖	-11290
拨	-11291
拾	-11292
挚	-11293
挣	-11294
掩	-11295
揣	-11296
揽	-11297
搭	-11298
摘	-11299
摧	-11300
摩	-11301
摸	-11302
撼	-11303
敲	-11304
斌	-11305
斐	-11306
斓	-11307
旬	-11308
旺	-11309
昂	-11310
昼	-11311
晋	-11312
暗	-11313
杂	-11314
杜	-11315
杭	-11316
枝	-11317
柳	-11318
柿	-11319
框	-11320
桌	-11321
档	-11322
椅	-11323
欲	-11324
歧	-11325
殃	-11326
殊	-11327
沈	-11328
沿	-11329
洞	-11330
洼	-11331
浜	-11332
湿	-11333
溪	-11334
滞	-11335
漾	-11336
澄	-11337
烧	-11338
烽	-11339
熊	-11340
熟	-11341
牛	-11342
狭	-11343
猛	-11344
玛	-11345
珮	-11346
琴	-11347
琼	-11348
甜	-11349
申	-11350
畔	-11351
疏	-11352
疗	-11353
痕	-11354
痪	-11355
瘫	-11356
皇	-11357
皎	-11358
盆	-11359
盗	-11360
眠	-11361
眺	-11362
睹	-11363
码	-11364
砖	-11365
硕	-11366
硝	-11367
磨	-11368
私	-11369
秧	-11370
移	-11371
稀	-11372
笛	-11373
笼	-11374
答	-11375
箫	-11376
粗	-11377
粹	-11378
糊	-11379
纵	-11380
纺	-11381
绣	-11382
绳	-11383
绸	-11384
缅	-11385
缚	-11386
缤	-11387
罕	-11388
罚	-11389
罢	-11390
羽	-11391
耳	-11392
肖	-11393
脆	-11394
脉	-11395
脏	-11396
腐	-11397
腾	-11398
臣	-11399
舆	-11400
舟	-11401
苍	-11402
茂	-11403
茫	-11404
茵	-11405
草	-11406
莽	-11407
萝	-11408
萧	-11409
蒂	-11410
蕴	-11411
蕾	-11412
藉	-11413
虚	-11414
蛋	-11415
蜜	-11416
袋	-11417
袱	-11418
裁	-11419
裂	-11420
裕	-11421
译	-11422
诞	-11423
谦	-11424
谷	-11425
豫	-11426
贪	-11427
赤	-11428
赫	-11429
跋	-11430
跳	-11431
践	-11432
踞	-11433
轰	-11434
辄	-11435
辐	-11436
辑	-11437
辟	-11438
返	-11439
迭	-11440
逝	-11441
逢	-11442
邀	-11443
邹	-11444
钞	-11445
钦	-11446
钻	-11447
锐	-11448
锤	-11449
锦	-11450
闯	-11451
阐	-11452
阴	-11453
陪	-11454
陶	-11455
隐	-11456
雀	-11457
雕	-11458
韧	-11459
餐	-11460
饱	-11461
饺	-11462
骄	-11463
鸠	-11464
鼠	-11465
丈	-11466
乘	-11467
亏	-11468
仇	-11469
仔	-11470
伏	-11471
伯	-11472
估	-11473
伸	-11474
佯	-11475
俏	-11476
俘	-11477
俨	-11478
俯	-11479
俱	-11480
倔	-11481
倪	-11482
偷	-11483
傅	-11484
傍	-11485
僧	-11486
僵	-11487
儒	-11488
兹	-11489
冠	-11490
冯	-11491
冶	-11492
冻	-11493
凤	-11494
凭	-11495
凶	-11496
凸	-11497
刃	-11498
刷	-11499
券	-11500
剂	-11501
削	-11502
剥	-11503
剪	-11504
剿	-11505
劈	-11506
劼	-11507
勉	-11508
勘	-11509
勾	-11510
匠	-11511
卧	-11512
卯	-11513
卿	-11514
厉	-11515
厌	-11516
叉	-11517
叔	-11518
叩	-11519
叱	-11520
叹	-11521
吟	-11522
吧	-11523
呕	-11524
咏	-11525
咤	-11526
咨	-11527
哄	-11528
哇	-11529
哩	-11530
唐	-11531
喊	-11532
喧	-11533
喻	-11534
嘎	-11535
嘘	-11536
嘱	-11537
嘹	-11538
圈	-11539
圾	-11540
坎	-11541
坤	-11542
坷	-11543
垂	-11544
垃	-11545
垄	-11546
垠	-11547
埃	-11548
埔	-11549
堑	-11550
堤	-11551
墓	-11552
墟	-11553
壳	-11554
夸	-11555
夹	-11556
奴	-11557
姆	-11558
姓	-11559
娇	-11560
娶	-11561
媚	-11562
媳	-11563
嫁	-11564
嫩	-11565
孚	-11566
寞	-11567
寨	-11568
寸	-11569
尘	-11570
尸	-11571
尹	-11572
屈	-11573
屿	-11574
岂	-11575
岱	-11576
峭	-11577
崔	-11578
崖	-11579
崛	-11580
嵌	-11581
嵩	-11582
巡	-11583
巾	-11584
帅	-11585
帐	-11586
帕	-11587
帘	-11588
帙	-11589
帝	-11590
帽	-11591
幄	-11592
幽	-11593
庙	-11594
废	-11595
弄	-11596
弊	-11597
弗	-11598
弯	-11599
弹	-11600
忍	-11601
怒	-11602
怜	-11603
怠	-11604
怨	-11605
恋	-11606
恍	-11607
恐	-11608
恤	-11609
恨	-11610
恺	-11611
悄	-11612
悔	-11613
您	-11614
悬	-11615
悸	-11616
惨	-11617
惬	-11618
愁	-11619
愤	-11620
愫	-11621
慢	-11622
慷	-11623
憨	-11624
憬	-11625
戴	-11626
扇	-11627
扉	-11628
扑	-11629
扣	-11630
扭	-11631
抄	-11632
抒	-11633
折	-11634
抛	-11635
抠	-11636
抬	-11637
抽	-11638
拆	-11639
拗	-11640
拙	-11641
拟	-11642
拢	-11643
拦	-11644
拮	-11645
拼	-11646
挡	-11647
挨	-11648
挫	-11649
捉	-11650
捍	-11651
捧	-11652
捷	-11653
掏	-11654
掬	-11655
搁	-11656
搏	-11657
搬	-11658
撑	-11659
撒	-11660
撷	-11661
攀	-11662
攥	-11663
敌	-11664
斡	-11665
晓	-11666
晴	-11667
暇	-11668
暴	-11669
曙	-11670
曝	-11671
曼	-11672
替	-11673
朵	-11674
朽	-11675
杀	-11676
杆	-11677
杈	-11678
杞	-11679
杯	-11680
枚	-11681
枸	-11682
柔	-11683
柘	-11684
栏	-11685
栓	-11686
栖	-11687
桃	-11688
梓	-11689
梭	-11690
梯	-11691
械	-11692
棋	-11693
棒	-11694
楚	-11695
榫	-11696
槟	-11697
樊	-11698
歼	-11699
殷	-11700
母	-11701
氢	-11702
氤	-11703
氲	-11704
汀	-11705
汗	-11706
汛	-11707
汝	-11708
污	-11709
汤	-11710
汾	-11711
沂	-11712
沥	-11713
沫	-11714
沾	-11715
泸	-11716
泻	-11717
浅	-11718
浑	-11719
浦	-11720
浮	-11721
浸	-11722
涂	-11723
涅	-11724
涛	-11725
涝	-11726
涣	-11727
涪	-11728
涯	-11729
淌	-11730
淳	-11731
混	-11732
渊	-11733
渝	-11734
渤	-11735
渥	-11736
溜	-11737
溧	-11738
溯	-11739
滥	-11740
滩	-11741
漏	-11742
漓	-11743
澈	-11744
澎	-11745
瀑	-11746
瀚	-11747
炉	-11748
炎	-11749
炽	-11750
烁	-11751
熔	-11752
燕	-11753
爪	-11754
牙	-11755
牢	-11756
牲	-11757
牺	-11758
犯	-11759
狱	-11760
狼	-11761
珊	-11762
琅	-11763
琦	-11764
瑙	-11765
瑚	-11766
瑰	-11767
瑶	-11768
甫	-11769
甲	-11770
疫	-11771
疾	-11772
症	-11773
痛	-11774
瘠	-11775
皆	-11776
皮	-11777
盈	-11778
盎	-11779
盏	-11780
盲	-11781
眷	-11782
睛	-11783
瞒	-11784
砂	-11785
砍	-11786
砚	-11787
碍	-11788
碎	-11789
碑	-11790
碰	-11791
磊	-11792
磋	-11793
禺	-11794
秒	-11795
秤	-11796
稍	-11797
稚	-11798
稻	-11799
稿	-11800
穆	-11801
窄	-11802
窘	-11803
竣	-11804
笃	-11805
笋	-11806
筛	-11807
筝	-11808
箱	-11809
箴	-11810
篮	-11811
粒	-11812
粪	-11813
粲	-11814
糅	-11815
糖	-11816
紫	-11817
纂	-11818
纠	-11819
纬	-11820
纶	-11821
绎	-11822
绑	-11823
绒	-11824
绚	-11825
绪	-11826
缕	-11827
缝	-11828
缭	-11829
缴	-11830
罐	-11831
罪	-11832
翅	-11833
翔	-11834
翠	-11835
耻	-11836
聘	-11837
肃	-11838
肤	-11839
肥	-11840
肴	-11841
肿	-11842
胁	-11843
脂	-11844
腊	-11845
腕	-11846
腰	-11847
膀	-11848
膏	-11849
臂	-11850
臆	-11851
臭	-11852
臾	-11853
舒	-11854
舰	-11855
芍	-11856
芒	-11857
芙	-11858
芜	-11859
芝	-11860
芦	-11861
芭	-11862
芹	-11863
苋	-11864
苗	-11865
苹	-11866
茄	-11867
茅	-11868
茨	-11869
荆	-11870
莅	-11871
莎	-11872
菊	-11873
菌	-11874
菠	-11875
萌	-11876
萍	-11877
葡	-11878
葫	-11879
葱	-11880
蓉	-11881
蕉	-11882
蕻	-11883
薄	-11884
薛	-11885
虬	-11886
蜕	-11887
衍	-11888
衔	-11889
袖	-11890
裹	-11891
觅	-11892
觑	-11893
觞	-11894
詹	-11895
讴	-11896
询	-11897
误	-11898
谭	-11899
豁	-11900
豌	-11901
豹	-11902
贝	-11903
贞	-11904
败	-11905
贩	-11906
贬	-11907
贱	-11908
贻	-11909
赁	-11910
赋	-11911
赐	-11912
赔	-11913
赡	-11914
赭	-11915
距	-11916
跟	-11917
跷	-11918
踢	-11919
踵	-11920
蹈	-11921
躺	-11922
轲	-11923
辅	-11924
辨	-11925
迄	-11926
逃	-11927
遏	-11928
遒	-11929
遮	-11930
遵	-11931
邕	-11932
邱	-11933
邵	-11934
邸	-11935
郊	-11936
郎	-11937
释	-11938
鉴	-11939
钓	-11940
钧	-11941
钩	-11942
铎	-11943
铣	-11944
铭	-11945
链	-11946
锁	-11947
锅	-11948
错	-11949
锣	-11950
锲	-11951
锻	-11952
镜	-11953
镶	-11954
闸	-11955
阂	-11956
阑	-11957
阖	-11958
陟	-11959
陡	-11960
陲	-11961
陷	-11962
隶	-11963
雁	-11964
雏	-11965
雯	-11966
雾	-11967
霎	-11968
霜	-11969
霞	-11970
霸	-11971
鞋	-11972
鞭	-11973
韦	-11974
颂	-11975
颖	-11976
颗	-11977
饥	-11978
饰	-11979
饼	-11980
饿	-11981
驰	-11982
骅	-11983
骑	-11984
骚	-11985
魁	-11986
魅	-11987
鲍	-11988
鲤	-11989
鲫	-11990
鲶	-11991
鳜	-11992
鸢	-11993
麦	-11994
黔	-11995
鼐	-11996
龄	-11997
