<pad>	0
[UNK]	0
▁,	-0
▁的	-1
▁。	-2
▁、	-3
▁一	-4
▁中	-5
▁1	-6
▁人	-7
▁在	-8
▁国	-9
▁了	-10
▁和	-11
▁年	-12
▁大	-13
▁是	-14
▁有	-15
▁新	-16
▁发	-17
▁为	-18
▁0	-19
▁这	-20
▁地	-21
▁全	-22
▁出	-23
▁”	-24
▁生	-25
▁上	-26
▁“	-27
▁以	-28
▁我	-29
▁不	-30
▁农	-31
▁中国	-32
▁经	-33
▁到	-34
▁家	-35
▁建	-36
▁日	-37
▁同	-38
▁来	-39
▁开	-40
▁文	-41
▁19	-42
▁199	-43
▁成	-44
▁学	-45
▁对	-46
▁进	-47
▁政	-48
▁个	-49
▁市	-50
▁2	-51
▁他	-52
▁自	-53
▁重	-54
▁与	-55
▁工	-56
▁民	-57
▁发展	-58
▁会	-59
▁多	-60
▁经济	-61
▁实	-62
▁水	-63
▁主	-64
▁各	-65
▁本	-66
▁记	-67
▁于	-68
▁华	-69
▁要	-70
▁下	-71
▁世	-72
▁作	-73
▁月	-74
▁万	-75
▁两	-76
▁事	-77
▁关	-78
▁3	-79
▁前	-80
▁共	-81
▁历	-82
▁时	-83
▁而	-84
▁部	-85
▁人民	-86
▁(	-87
▁使	-88
▁方	-89
▁元	-90
▁说	-91
▁代	-92
▁南	-93
▁之	-94
▁等	-95
▁将	-96
▁村	-97
▁高	-98
▁加	-99
▁小	-100
▁5	-101
..	-102
▁改	-103
▁行	-104
▁计	-105
▁就	-106
▁现	-107
▁起	-108
▁我们	-109
▁北	-110
▁《	-111
▁们	-112
▁从	-113
▁心	-114
▁建设	-115
▁产	-116
▁公	-117
▁香	-118
▁历史	-119
▁交	-120
▁区	-121
▁8	-122
▁》	-123
▁基	-124
▁记者	-125
▁特	-126
▁长	-127
▁县	-128
▁香港	-129
▁社	-130
▁业	-131
▁企	-132
▁党	-133
▁十	-134
▁后	-135
▁电	-136
▁企业	-137
▁其	-138
▁化	-139
▁着	-140
▁面	-141
▁平	-142
▁次	-143
▁美	-144
▁农业	-145
▁外	-146
▁计划	-147
▁6	-148
▁正	-149
▁理	-150
▁里	-151
▁世界	-152
▁4	-153
▁可	-154
▁已	-155
▁创	-156
▁广	-157
▁当	-158
▁集	-159
▁9	-160
▁提	-161
▁精	-162
▁通	-163
▁也	-164
▁今	-165
▁分	-166
▁向	-167
▁好	-168
▁总	-169
▁资	-170
▁政府	-171
▁;	-172
▁制	-173
▁第	-174
▁户	-175
▁活	-176
▁还	-177
▁体	-178
▁用	-179
▁工作	-180
▁增	-181
▁山	-182
▁并	-183
▁过	-184
▁举	-185
▁路	-186
▁动	-187
▁表	-188
▁金	-189
▁:	-190
▁利	-191
▁天	-192
▁委	-193
▁子	-194
▁报	-195
▁解	-196
生育	-197
▁三	-198
▁军	-199
▁合	-200
▁推	-201
▁能	-202
▁南非	-203
▁本报	-204
▁计划生育	-205
▁先	-206
▁内	-207
▁情	-208
▁达	-209
▁00	-210
▁北京	-211
▁国家	-212
▁—	-213
▁如	-214
▁得	-215
▁管	-216
▁组	-217
▁联	-218
▁一个	-219
▁保	-220
▁投	-221
▁无	-222
▁最	-223
▁出版	-224
▁困	-225
▁安	-226
▁江	-227
▁物	-228
▁由	-229
▁群	-230
▁西	-231
▁社会	-232
▁力	-233
▁形	-234
▁明	-235
▁此	-236
▁目	-237
▁者	-238
▁两岸	-239
▁)	-240
▁九	-241
▁书	-242
▁传	-243
▁名	-244
▁所	-245
▁机	-246
▁气	-247
▁结	-248
▁老	-249
▁首	-250
▁1997	-251
▁去	-252
▁强	-253
▁性	-254
▁职	-255
▁问	-256
▁领	-257
▁7	-258
▁取	-259
▁意	-260
▁把	-261
▁祖	-262
▁统	-263
▁间	-264
▁地区	-265
▁改革	-266
▁活动	-267
▁乡	-268
▁优	-269
▁位	-270
▁城	-271
▁干	-272
▁收	-273
▁种	-274
▁近	-275
▁都	-276
▁新年	-277
▁海	-278
▁场	-279
▁定	-280
▁战	-281
▁服	-282
▁原	-283
▁又	-284
▁员	-285
▁更	-286
▁每	-287
▁项	-288
▁他们	-289
▁关系	-290
▁职工	-291
▁但	-292
▁展	-293
▁度	-294
▁法	-295
▁画	-296
▁相	-297
▁系	-298
▁继	-299
▁道	-300
▁青	-301
华社	-302
▁生活	-303
▁五	-304
▁参	-305
▁指	-306
▁中央	-307
▁群众	-308
▁问题	-309
▁亿	-310
▁图	-311
▁坚	-312
▁思	-313
▁放	-314
▁省	-315
▁馆	-316
▁精神	-317
▁1998	-318
▁协	-319
▁团	-320
▁处	-321
▁少	-322
▁据	-323
▁条	-324
▁车	-325
▁实现	-326
▁文明	-327
▁.	-328
▁二	-329
▁回	-330
▁局	-331
▁带	-332
▁张	-333
▁点	-334
▁田	-335
▁给	-336
▁维	-337
▁市场	-338
▁些	-339
▁入	-340
▁及	-341
▁台	-342
▁数	-343
▁演	-344
▁盛	-345
▁致	-346
▁节	-347
▁队	-348
▁组织	-349
▁进行	-350
....	-351
▁样	-352
▁环	-353
▁积	-354
▁被	-355
▁音	-356
▁举行	-357
▁元旦	-358
▁开始	-359
▁水利	-360
▁几	-361
▁应	-362
▁深	-363
▁论	-364
▁代表	-365
▁困难	-366
▁领导	-367
▁再	-368
▁卢	-369
▁史	-370
▁欢	-371
▁步	-372
▁界	-373
▁艺	-374
▁英	-375
▁认	-376
▁银	-377
▁国际	-378
▁文化	-379
▁决	-380
▁规	-381
▁贫	-382
▁转	-383
▁事业	-384
▁服务	-385
▁音乐	-386
▁厂	-387
▁完	-388
▁庆	-389
▁整	-390
▁科	-391
▁程	-392
▁立	-393
▁级	-394
▁考	-395
云龙	-396
▁——	-397
▁交通	-398
▁生产	-399
▁祖国	-400
▁管理	-401
▁银行	-402
▁新华社	-403
▁丛	-404
▁东	-405
▁义	-406
▁反	-407
▁引	-408
▁支	-409
▁看	-410
▁良	-411
▁费	-412
▁走	-413
▁那	-414
▁量	-415
▁万元	-416
▁丛书	-417
▁卢布	-418
▁基础	-419
▁工程	-420
▁民族	-421
▁重要	-422
▁盛云龙	-423
▁信	-424
▁务	-425
▁千	-426
▁受	-427
▁流	-428
▁率	-429
▁祝	-430
▁稳	-431
▁许	-432
▁今天	-433
▁全国	-434
▁政治	-435
▁继续	-436
00	-437
▁努	-438
▁她	-439
▁常	-440
▁影	-441
▁感	-442
▁效	-443
▁教	-444
▁没	-445
▁然	-446
▁研	-447
▁传统	-448
▁共同	-449
▁方面	-450
▁积极	-451
▁严	-452
▁俄	-453
▁双	-454
▁帮	-455
▁往	-456
▁德	-457
▁态	-458
▁想	-459
▁手	-460
▁技	-461
▁接	-462
▁旗	-463
▁知	-464
▁象	-465
▁货	-466
▁连	-467
▁钱	-468
▁农民	-469
▁努力	-470
▁投资	-471
▁环境	-472
▁贫困	-473
▁金融	-474
▁做	-475
▁办	-476
▁只	-477
▁四	-478
▁扶	-479
▁期	-480
▁李	-481
▁标	-482
▁比	-483
▁王	-484
▁直	-485
▁脱	-486
▁讲	-487
▁调	-488
一步	-489
▁加强	-490
▁同时	-491
▁增长	-492
▁表示	-493
▁进一步	-494
▁1996	-495
▁%	-496
▁减	-497
▁因	-498
▁型	-499
▁巴	-500
▁春	-501
▁权	-502
▁果	-503
▁治	-504
▁清	-505
▁紧	-506
▁至	-507
▁航	-508
▁观	-509
▁读	-510
▁身	-511
▁退	-512
▁防	-513
▁取得	-514
▁研究	-515
▁艺术	-516
▁资金	-517
▁出版社	-518
▁值	-519
▁光	-520
▁兵	-521
▁却	-522
▁口	-523
▁古	-524
▁孔	-525
▁必	-526
▁快	-527
▁持	-528
▁格	-529
▁歌	-530
▁确	-531
▁视	-532
▁警	-533
▁运	-534
▁题	-535
▁风	-536
一年	-537
美元	-538
▁公司	-539
▁干部	-540
▁影响	-541
▁目前	-542
▁稳定	-543
▁许多	-544
▁价	-545
▁兴	-546
▁写	-547
▁品	-548
▁均	-549
▁女	-550
▁很	-551
▁才	-552
▁见	-553
▁谋	-554
▁造	-555
▁门	-556
▁马	-557
▁保持	-558
▁同志	-559
▁坚持	-560
▁建立	-561
▁技术	-562
▁投入	-563
▁支持	-564
▁集团	-565
▁专	-566
▁亚	-567
▁任	-568
▁养	-569
▁功	-570
▁周	-571
▁喜	-572
▁宁	-573
▁尽	-574
▁希	-575
▁澳	-576
▁爱	-577
▁百	-578
▁真	-579
▁示	-580
▁编	-581
▁色	-582
▁花	-583
▁话	-584
▁贸	-585
▁边	-586
▁降	-587
▁院	-588
▁飞	-589
▁驻	-590
泽民	-591
▁报道	-592
▁提供	-593
▁提高	-594
▁没有	-595
▁特别	-596
▁货币	-597
▁通过	-598
▁集体	-599
▁亿美元	-600
▁江泽民	-601
:“	-602
▁京	-603
▁依	-604
▁克	-605
▁兼	-606
▁半	-607
▁存	-608
▁它	-609
▁导	-610
▁岁	-611
▁布	-612
▁彩	-613
▁慰	-614
▁摄	-615
▁景	-616
▁术	-617
▁林	-618
▁温	-619
▁空	-620
▁纪	-621
▁该	-622
其琛	-623
▁以及	-624
▁团结	-625
▁已经	-626
▁慰问	-627
▁收入	-628
▁教育	-629
▁第一	-630
▁———	-631
▁钱其琛	-632
▁『	-633
▁争	-634
▁亩	-635
▁仪	-636
▁八	-637
▁商	-638
▁士	-639
▁套	-640
▁扎	-641
▁拉	-642
▁按	-643
▁望	-644
▁武	-645
▁求	-646
▁波	-647
▁热	-648
▁献	-649
▁类	-650
▁藏	-651
▁讯	-652
▁较	-653
▁鲜	-654
治区	-655
▁世纪	-656
▁仪式	-657
▁作品	-658
▁参加	-659
▁发表	-660
▁可以	-661
▁回归	-662
▁图片	-663
▁基本	-664
▁外交	-665
▁思想	-666
▁总统	-667
▁考古	-668
▁解决	-669
▁资源	-670
▁....	-671
▁......	-672
▁乐	-673
▁份	-674
▁具	-675
▁刘	-676
▁则	-677
▁包	-678
▁友	-679
▁告	-680
▁园	-681
▁头	-682
▁孙	-683
▁座	-684
▁愿	-685
▁施	-686
▁早	-687
▁河	-688
▁球	-689
▁背	-690
▁艰	-691
▁落	-692
▁议	-693
▁设	-694
▁访	-695
▁谈	-696
▁负	-697
▁际	-698
了一	-699
工程	-700
▁10	-701
▁优势	-702
▁决定	-703
▁减少	-704
▁创造	-705
▁合作	-706
▁希望	-707
▁帮助	-708
▁广大	-709
▁扶贫	-710
▁推动	-711
▁澳门	-712
▁结合	-713
▁青年	-714
31	-715
▁令	-716
▁件	-717
▁切	-718
▁初	-719
▁升	-720
▁占	-721
▁危	-722
▁吕	-723
▁命	-724
▁域	-725
▁夜	-726
▁己	-727
▁承	-728
▁故	-729
▁曾	-730
▁未	-731
▁满	-732
▁版	-733
▁称	-734
▁笔	-735
▁繁	-736
▁终	-737
▁罗	-738
▁胞	-739
▁营	-740
▁街	-741
▁选	-742
▁逐	-743
▁采	-744
▁非	-745
▁黄	-746
也纳	-747
▁乡镇	-748
▁吕梁	-749
▁增加	-750
▁委员	-751
▁宁夏	-752
▁完成	-753
▁条件	-754
▁脱贫	-755
▁自然	-756
▁英雄	-757
▁西藏	-758
▁谋略	-759
▁退伍	-760
▁维也纳	-761
▁自治区	-762
▁水利工程	-763
▁七	-764
▁亲	-765
▁仅	-766
▁仍	-767
▁何	-768
▁促	-769
▁健	-770
▁儿	-771
▁副	-772
▁午	-773
▁卡	-774
▁印	-775
▁变	-776
▁号	-777
▁奋	-778
▁宣	-779
▁寒	-780
▁录	-781
▁徐	-782
▁恢	-783
▁探	-784
▁油	-785
▁游	-786
▁独	-787
▁福	-788
▁著	-789
▁装	-790
▁让	-791
▁贷	-792
▁贺	-793
▁郑	-794
▁随	-795
▁雪	-796
▁革	-797
▁韩	-798
▁验	-799
、《	-800
主义	-801
理论	-802
▁台湾	-803
▁学者	-804
▁文学	-805
▁科技	-806
▁社会主义	-807
▁’	-808
▁云	-809
▁低	-810
▁劳	-811
▁势	-812
▁奇	-813
▁富	-814
▁巨	-815
▁式	-816
▁怀	-817
▁批	-818
▁抓	-819
▁显	-820
▁根	-821
▁案	-822
▁汇	-823
▁激	-824
▁状	-825
▁益	-826
▁米	-827
▁红	-828
▁约	-829
▁胜	-830
▁胡	-831
▁评	-832
▁跨	-833
▁迎	-834
▁阶	-835
▁难	-836
▁雨	-837
▁震	-838
产品	-839
人士	-840
水利	-841
结合	-842
设施	-843
▁12	-844
▁农村	-845
▁家庭	-846
▁强调	-847
▁形式	-848
▁紧密	-849
▁规模	-850
▁负责	-851
▁连续	-852
▁项目	-853
▁首都	-854
▁》、《	-855
▁伟	-856
▁卫	-857
▁召	-858
▁吸	-859
▁塔	-860
▁居	-861
▁川	-862
▁或	-863
▁拥	-864
▁旅	-865
▁族	-866
▁晚	-867
▁材	-868
▁极	-869
▁照	-870
▁登	-871
▁禁	-872
▁粮	-873
▁素	-874
▁纸	-875
▁线	-876
▁茶	-877
▁责	-878
▁贵	-879
▁述	-880
▁追	-881
▁送	-882
▁遗	-883
▁邓	-884
▁阿	-885
好的	-886
年来	-887
志愿	-888
新的	-889
色列	-890
▁九九	-891
▁分别	-892
▁制度	-893
▁各种	-894
▁城市	-895
▁恢复	-896
▁情况	-897
▁探索	-898
▁旅游	-899
▁繁荣	-900
▁维护	-901
▁贷款	-902
▁革命	-903
▁以色列	-904
▁相结合	-905
▁临	-906
▁互	-907
▁停	-908
▁充	-909
▁冷	-910
▁即	-911
▁叙	-912
▁善	-913
▁土	-914
▁墨	-915
▁妇	-916
▁庄	-917
▁归	-918
▁志	-919
▁忘	-920
▁念	-921
▁怎	-922
▁拍	-923
▁控	-924
▁措	-925
▁救	-926
▁斗	-927
▁智	-928
▁构	-929
▁树	-930
▁注	-931
▁洲	-932
▁派	-933
▁港	-934
▁片	-935
▁眼	-936
▁石	-937
▁籍	-938
▁续	-939
▁菜	-940
▁虽	-941
▁质	-942
▁购	-943
▁超	-944
▁违	-945
▁顺	-946
▁鱼	-947
世纪	-948
小平	-949
文学	-950
部门	-951
▁促进	-952
▁健康	-953
▁关心	-954
▁兼并	-955
▁农副	-956
▁利益	-957
▁包括	-958
▁原则	-959
▁去年	-960
▁反映	-961
▁四川	-962
▁存款	-963
▁拍卖	-964
▁指导	-965
▁据新	-966
▁正式	-967
▁自己	-968
▁讲话	-969
▁谈判	-970
▁责任	-971
▁违章	-972
志愿者	-973
▁跨世纪	-974
▁邓小平	-975
水利设施	-976
▁农副产品	-977
▁据新华社	-978
▁青年志愿者	-979
10	-980
20	-981
”,	-982
▁·	-983
▁丁	-984
▁且	-985
▁丝	-986
▁丽	-987
▁什	-988
▁介	-989
▁众	-990
▁住	-991
▁侨	-992
▁便	-993
▁准	-994
▁剧	-995
▁医	-996
▁厅	-997
▁哈	-998
▁围	-999
▁察	-1000
▁州	-1001
▁底	-1002
▁挤	-1003
▁排	-1004
▁死	-1005
▁消	-1006
▁火	-1007
▁烈	-1008
▁破	-1009
▁秦	-1010
▁突	-1011
▁纯	-1012
▁荣	-1013
▁蒙	-1014
▁觉	-1015
▁财	-1016
▁辉	-1017
▁远	-1018
▁销	-1019
▁镇	-1020
▁陈	-1021
▁需	-1022
▁额	-1023
中国	-1024
会议	-1025
图片	-1026
文古	-1027
斯坦	-1028
日电	-1029
的一	-1030
罗斯	-1031
▁20	-1032
▁书记	-1033
▁产品	-1034
▁人口	-1035
▁介绍	-1036
▁任务	-1037
▁全面	-1038
▁危机	-1039
▁双泾	-1040
▁召开	-1041
▁喜庆	-1042
▁小型	-1043
▁开放	-1044
▁必须	-1045
▁战略	-1046
▁措施	-1047
▁改变	-1048
▁改善	-1049
▁方针	-1050
▁旗帜	-1051
▁物质	-1052
▁状况	-1053
▁知识	-1054
▁示范	-1055
▁粮食	-1056
▁虽然	-1057
▁这个	-1058
▁这是	-1059
▁阶段	-1060
▁俄罗斯	-1061
▁藏文古	-1062
▁1991	-1063
▁邓小平理论	-1064
▁小型水利设施	-1065
▁!	-1066
▁乎	-1067
▁伤	-1068
▁佳	-1069
▁冲	-1070
▁列	-1071
▁刚	-1072
▁助	-1073
▁单	-1074
▁呼	-1075
▁备	-1076
▁复	-1077
▁失	-1078
▁客	-1079
▁容	-1080
▁密	-1081
▁层	-1082
▁岗	-1083
▁左	-1084
▁幅	-1085
▁待	-1086
▁扬	-1087
▁找	-1088
▁振	-1089
▁斤	-1090
▁既	-1091
▁曲	-1092
▁朋	-1093
▁查	-1094
▁沙	-1095
▁瑞	-1096
▁留	-1097
▁短	-1098
▁离	-1099
▁秩	-1100
▁综	-1101
▁署	-1102
▁育	-1103
▁若	-1104
▁莫	-1105
▁蔬	-1106
▁贡	-1107
▁足	-1108
▁辞	-1109
▁适	-1110
▁附	-1111
▁鸣	-1112
▁齐	-1113
业化	-1114
书记	-1115
人们	-1116
人民	-1117
他们	-1118
代化	-1119
全国	-1120
大使	-1121
大利	-1122
成为	-1123
支部	-1124
政协	-1125
是一	-1126
西亚	-1127
000	-1128
▁主席	-1129
▁什么	-1130
▁信息	-1131
▁养殖	-1132
▁创作	-1133
▁华文	-1134
▁城乡	-1135
▁孔玲	-1136
▁广泛	-1137
▁形势	-1138
▁成为	-1139
▁效益	-1140
▁朋友	-1141
▁标准	-1142
▁气氛	-1143
▁秩序	-1144
▁系统	-1145
▁综合	-1146
▁艰苦	-1147
▁蔬菜	-1148
▁认识	-1149
▁贡献	-1150
▁辉煌	-1151
▁过去	-1152
▁追求	-1153
▁重庆	-1154
▁产业化	-1155
▁党支部	-1156
▁在新的	-1157
▁委员会	-1158
▁意大利	-1159
▁现代化	-1160
▁全国政协	-1161
▁华文文学	-1162
▁在新的一年	-1163
98	-1164
▁』	-1165
▁久	-1166
▁乌	-1167
▁伊	-1168
▁你	-1169
▁冬	-1170
▁划	-1171
▁勒	-1172
▁另	-1173
▁叶	-1174
▁吨	-1175
▁听	-1176
▁坡	-1177
▁培	-1178
▁夫	-1179
▁始	-1180
▁尊	-1181
▁尤	-1182
▁庭	-1183
▁恩	-1184
▁挥	-1185
▁捐	-1186
▁授	-1187
▁摆	-1188
▁摊	-1189
▁断	-1190
▁斯	-1191
▁旧	-1192
▁横	-1193
▁欣	-1194
▁沧	-1195
▁潮	-1196
▁焦	-1197
▁白	-1198
▁监	-1199
▁矛	-1200
▁站	-1201
▁签	-1202
▁简	-1203
▁篇	-1204
▁纷	-1205
▁羊	-1206
▁股	-1207
▁荒	-1208
▁补	-1209
▁谁	-1210
▁趋	-1211
▁配	-1212
▁阳	-1213
▁雅	-1214
▁雷	-1215
▁预	-1216
一国	-1217
为主	-1218
主户	-1219
产党	-1220
人的	-1221
内外	-1222
出了	-1223
华孙	-1224
国家	-1225
就业	-1226
林顿	-1227
玉珍	-1228
理会	-1229
空气	-1230
▁:“	-1231
▁保证	-1232
▁先生	-1233
▁先进	-1234
▁劳动	-1235
▁呼吁	-1236
▁奋斗	-1237
▁学习	-1238
▁安全	-1239
▁形成	-1240
▁按照	-1241
▁振兴	-1242
▁政策	-1243
▁旧币	-1244
▁根据	-1245
▁欢迎	-1246
▁武器	-1247
▁矛盾	-1248
▁祝贺	-1249
▁突破	-1250
▁美术	-1251
▁蒙古	-1252
▁遗存	-1253
▁顺利	-1254
主户头	-1255
关部门	-1256
▁丁玉珍	-1257
▁克林顿	-1258
▁共产党	-1259
▁冷空气	-1260
▁秦华孙	-1261
▁近年来	-1262
▁无主户头	-1263
▁藏文古籍	-1264
0%	-1265
▁?	-1266
▁丰	-1267
▁买	-1268
▁余	-1269
▁修	-1270
▁倡	-1271
▁博	-1272
▁启	-1273
▁响	-1274
▁块	-1275
▁堵	-1276
▁境	-1277
▁声	-1278
▁夏	-1279
▁夕	-1280
▁太	-1281
▁奖	-1282
▁妻	-1283
▁孤	-1284
▁官	-1285
▁尔	-1286
▁属	-1287
▁差	-1288
▁币	-1289
▁师	-1290
▁席	-1291
▁律	-1292
▁扩	-1293
▁抗	-1294
▁护	-1295
▁拱	-1296
▁拿	-1297
▁挑	-1298
▁搞	-1299
▁散	-1300
▁敬	-1301
▁松	-1302
▁架	-1303
▁核	-1304
▁概	-1305
▁沼	-1306
▁泰	-1307
▁津	-1308
▁济	-1309
▁浩	-1310
▁渠	-1311
▁源	-1312
▁潜	-1313
▁灌	-1314
▁珍	-1315
▁甚	-1316
▁疆	-1317
▁神	-1318
▁租	-1319
▁竞	-1320
▁纽	-1321
▁织	-1322
▁绩	-1323
▁绿	-1324
▁置	-1325
▁耕	-1326
▁聚	-1327
▁舞	-1328
▁苏	-1329
▁苦	-1330
▁董	-1331
▁融	-1332
▁角	-1333
▁言	-1334
▁证	-1335
▁词	-1336
▁请	-1337
▁谢	-1338
▁贯	-1339
▁赞	-1340
▁越	-1341
▁轻	-1342
▁载	-1343
▁辆	-1344
▁迹	-1345
▁速	-1346
▁针	-1347
▁钟	-1348
▁限	-1349
▁鼓	-1350
▁龙	-1351
、“	-1352
》,	-1353
下降	-1354
偏北	-1355
农民	-1356
合国	-1357
和国	-1358
尔滨	-1359
广场	-1360
总额	-1361
新年	-1362
老院	-1363
而不	-1364
致富	-1365
花蕊	-1366
西哥	-1367
这种	-1368
进行	-1369
▁不断	-1370
▁价值	-1371
▁优秀	-1372
▁其他	-1373
▁十分	-1374
▁左右	-1375
▁巴勒	-1376
▁怎样	-1377
▁扎耶	-1378
▁报告	-1379
▁拥有	-1380
▁拱坝	-1381
▁接受	-1382
▁死亡	-1383
▁沙漠	-1384
▁沼气	-1385
▁灌溉	-1386
▁爱国	-1387
▁独立	-1388
▁电视	-1389
▁直接	-1390
▁纷纷	-1391
▁结束	-1392
▁胜利	-1393
▁茶话	-1394
▁著名	-1395
▁认真	-1396
▁贸易	-1397
▁走向	-1398
▁转变	-1399
▁达到	-1400
▁退休	-1401
一国两	-1402
偏北风	-1403
▁九九七	-1404
▁共和国	-1405
▁再就业	-1406
▁哈尔滨	-1407
▁墨西哥	-1408
▁安理会	-1409
▁敬老院	-1410
▁海内外	-1411
▁的一年	-1412
▁联合国	-1413
▁胡花蕊	-1414
▁巴勒斯坦	-1415
▁有关部门	-1416
)(	-1417
,“	-1418
15	-1419
▁么	-1420
▁亮	-1421
▁偿	-1422
▁像	-1423
▁兑	-1424
▁典	-1425
▁刻	-1426
▁勃	-1427
▁吗	-1428
▁吴	-1429
▁呢	-1430
▁唱	-1431
▁嘉	-1432
▁壮	-1433
▁奏	-1434
▁奶	-1435
▁字	-1436
▁孩	-1437
▁审	-1438
▁宾	-1439
▁尼	-1440
▁征	-1441
▁忠	-1442
▁忧	-1443
▁恭	-1444
▁悟	-1445
▁托	-1446
▁执	-1447
▁担	-1448
▁招	-1449
▁换	-1450
▁援	-1451
▁搜	-1452
▁播	-1453
▁攻	-1454
▁料	-1455
▁普	-1456
▁暖	-1457
▁木	-1458
▁朱	-1459
▁杨	-1460
▁板	-1461
▁桥	-1462
▁毛	-1463
▁浓	-1464
▁浙	-1465
▁润	-1466
▁灵	-1467
▁灿	-1468
▁烟	-1469
▁爸	-1470
▁班	-1471
▁瓦	-1472
▁税	-1473
▁竟	-1474
▁缩	-1475
▁翻	-1476
▁范	-1477
▁获	-1478
▁菲	-1479
▁血	-1480
▁衣	-1481
▁誉	-1482
▁课	-1483
▁谓	-1484
▁貌	-1485
▁贾	-1486
▁跃	-1487
▁透	-1488
▁邮	-1489
▁钥	-1490
▁陆	-1491
▁雄	-1492
▁露	-1493
▁频	-1494
一些	-1495
中心	-1496
作用	-1497
作者	-1498
全部	-1499
其峰	-1500
创作	-1501
利院	-1502
到了	-1503
华夏	-1504
大的	-1505
学者	-1506
安惠	-1507
年代	-1508
度尼	-1509
形象	-1510
总理	-1511
战员	-1512
报道	-1513
改值	-1514
新风	-1515
时间	-1516
有的	-1517
来了	-1518
温暖	-1519
爱幼	-1520
生活	-1521
的人	-1522
的心	-1523
祝愿	-1524
管制	-1525
繁森	-1526
自己	-1527
过去	-1528
这一	-1529
这个	-1530
进程	-1531
题性	-1532
▁严重	-1533
▁亚洲	-1534
▁交流	-1535
▁亿元	-1536
▁他说	-1537
▁价格	-1538
▁伤亡	-1539
▁儿童	-1540
▁充满	-1541
▁分析	-1542
▁参与	-1543
▁发挥	-1544
▁受伤	-1545
▁吸引	-1546
▁奇迹	-1547
▁尊老	-1548
▁庆祝	-1549
▁恭城	-1550
▁意义	-1551
▁成功	-1552
▁所有	-1553
▁捐赠	-1554
▁推进	-1555
▁搜集	-1556
▁散文	-1557
▁新的	-1558
▁时刻	-1559
▁明显	-1560
▁每年	-1561
▁汇率	-1562
▁沧桑	-1563
▁波兰	-1564
▁渠道	-1565
▁灿烂	-1566
▁爸爸	-1567
▁系列	-1568
▁结构	-1569
▁统一	-1570
▁羊肉	-1571
▁英国	-1572
▁落实	-1573
▁认为	-1574
▁访问	-1575
▁读者	-1576
▁费县	-1577
▁起来	-1578
▁趋势	-1579
▁这些	-1580
▁进入	-1581
▁逐步	-1582
▁逐渐	-1583
▁钥匙	-1584
▁领域	-1585
▁飞机	-1586
▁首先	-1587
▁鼓舞	-1588
总理兼	-1589
界人士	-1590
▁”、“	-1591
▁九九八	-1592
▁印度尼	-1593
▁孔繁森	-1594
▁孙其峰	-1595
▁指战员	-1596
▁电视台	-1597
▁福利院	-1598
▁副总理兼	-1599
▁尊老爱幼	-1600
▁货币改值	-1601
▁印度尼西亚	-1602
▁在新的一年里	-1603
1.	-1604
26	-1605
3.	-1606
5%	-1607
7%	-1608
8.	-1609
▁°	-1610
▁亡	-1611
▁享	-1612
▁付	-1613
▁佩	-1614
▁候	-1615
▁六	-1616
▁况	-1617
▁净	-1618
▁凝	-1619
▁别	-1620
▁卷	-1621
▁压	-1622
▁厚	-1623
▁吃	-1624
▁呈	-1625
▁喷	-1626
▁坐	-1627
▁垦	-1628
▁奥	-1629
▁妥	-1630
▁妹	-1631
▁季	-1632
▁寄	-1633
▁峰	-1634
▁崇	-1635
▁巩	-1636
▁异	-1637
▁房	-1638
▁拓	-1639
▁挖	-1640
▁描	-1641
▁揭	-1642
▁昌	-1643
▁映	-1644
▁朝	-1645
▁束	-1646
▁梅	-1647
▁检	-1648
▁模	-1649
▁止	-1650
▁毕	-1651
▁毫	-1652
▁永	-1653
▁汉	-1654
▁泾	-1655
▁淀	-1656
▁渡	-1657
▁滚	-1658
▁濒	-1659
▁灯	-1660
▁爆	-1661
▁牡	-1662
▁牵	-1663
▁玉	-1664
▁畜	-1665
▁病	-1666
▁睦	-1667
▁秀	-1668
▁窗	-1669
▁章	-1670
▁端	-1671
▁筑	-1672
▁筹	-1673
▁算	-1674
▁纲	-1675
▁缓	-1676
▁缔	-1677
▁缺	-1678
▁胆	-1679
▁脑	-1680
▁脚	-1681
▁膨	-1682
▁艳	-1683
▁蓬	-1684
▁衷	-1685
▁语	-1686
▁谱	-1687
▁踏	-1688
▁迅	-1689
▁遇	-1690
▁遣	-1691
▁阅	-1692
▁阵	-1693
▁除	-1694
▁险	-1695
▁零	-1696
▁静	-1697
▁靠	-1698
▁驱	-1699
▁骨	-1700
▁黎	-1701
▁黑	-1702
一九	-1703
一样	-1704
三位	-1705
上午	-1706
不同	-1707
中小	-1708
九届	-1709
事故	-1710
人物	-1711
以为	-1712
作为	-1713
使用	-1714
光辉	-1715
其他	-1716
农场	-1717
出席	-1718
出来	-1719
到一	-1720
十五	-1721
发表	-1722
同样	-1723
国防	-1724
地位	-1725
基本	-1726
多少	-1727
大家	-1728
大批	-1729
大街	-1730
奋斗	-1731
安全	-1732
安门	-1733
实地	-1734
工商	-1735
府武	-1736
循环	-1737
成功	-1738
文明	-1739
文物	-1740
旧迎	-1741
时期	-1742
明天	-1743
星红	-1744
水平	-1745
泽东	-1746
海外	-1747
生态	-1748
电视	-1749
的情	-1750
直门	-1751
米兰	-1752
经营	-1753
美术	-1754
联合	-1755
部分	-1756
部和	-1757
防军	-1758
▁”。	-1759
▁一些	-1760
▁丰富	-1761
▁亲切	-1762
▁保护	-1763
▁倡议	-1764
▁做起	-1765
▁克服	-1766
▁公斤	-1767
▁关键	-1768
▁冲击	-1769
▁刚刚	-1770
▁力量	-1771
▁勒陀	-1772
▁千万	-1773
▁协商	-1774
▁卫生	-1775
▁友好	-1776
▁反政	-1777
▁号召	-1778
▁各类	-1779
▁同胞	-1780
▁和平	-1781
▁喷发	-1782
▁土地	-1783
▁堵塞	-1784
▁如何	-1785
▁孤寡	-1786
▁宣誓	-1787
▁密切	-1788
▁居民	-1789
▁山区	-1790
▁巩固	-1791
▁并购	-1792
▁庄严	-1793
▁应该	-1794
▁开拓	-1795
▁扩大	-1796
▁拉萨	-1797
▁指出	-1798
▁挖掘	-1799
▁控制	-1800
▁推出	-1801
▁提出	-1802
▁摊位	-1803
▁智囊	-1804
▁村民	-1805
▁油画	-1806
▁浙江	-1807
▁淀粉	-1808
▁激动	-1809
▁濒临	-1810
▁热烈	-1811
▁焦作	-1812
▁短短	-1813
▁竞争	-1814
▁纽约	-1815
▁继承	-1816
▁能够	-1817
▁膨胀	-1818
▁航班	-1819
▁蓬勃	-1820
▁解放	-1821
▁警察	-1822
▁调整	-1823
▁调查	-1824
▁贯彻	-1825
▁贵阳	-1826
▁走出	-1827
▁路子	-1828
▁车辆	-1829
▁遣散	-1830
▁重点	-1831
▁销售	-1832
▁阅读	-1833
▁雷达	-1834
▁需要	-1835
▁韩国	-1836
▁预计	-1837
▁验收	-1838
大使馆	-1839
府武装	-1840
星红旗	-1841
次会议	-1842
第九届	-1843
▁东直门	-1844
▁全面推	-1845
▁天安门	-1846
▁张安惠	-1847
▁毛泽东	-1848
▁辞旧迎	-1849
▁边防军	-1850
▁送温暖	-1851
一国两制	-1852
▁五星红旗	-1853
▁爱国人士	-1854
▁级偏北风	-1855
▁脱贫致富	-1856
▁艰苦奋斗	-1857
▁反政府武装	-1858
▁天安门广场	-1859
▁第一次会议	-1860
▁共和国大使馆	-1861
13	-1862
14	-1863
17	-1864
24	-1865
25	-1866
5.	-1867
55	-1868
8%	-1869
:‘	-1870
”;	-1871
▁A	-1872
▁‘	-1873
▁乃	-1874
▁乔	-1875
▁乱	-1876
▁仓	-1877
▁伴	-1878
▁似	-1879
▁供	-1880
▁假	-1881
▁偏	-1882
▁允	-1883
▁冒	-1884
▁冰	-1885
▁剖	-1886
▁剩	-1887
▁勇	-1888
▁吐	-1889
▁哲	-1890
▁啊	-1891
▁器	-1892
▁圣	-1893
▁塘	-1894
▁奉	-1895
▁妈	-1896
▁威	-1897
▁婚	-1898
▁宏	-1899
▁宗	-1900
▁寺	-1901
▁封	-1902
▁屏	-1903
▁履	-1904
▁岸	-1905
▁峡	-1906
▁序	-1907
▁康	-1908
▁延	-1909
▁彭	-1910
▁役	-1911
▁徘	-1912
▁微	-1913
▁忆	-1914
▁忙	-1915
▁急	-1916
▁息	-1917
▁患	-1918
▁愉	-1919
▁懈	-1920
▁抢	-1921
▁拜	-1922
▁掉	-1923
▁撰	-1924
▁敏	-1925
▁敞	-1926
▁旋	-1927
▁旨	-1928
▁旱	-1929
▁易	-1930
▁晨	-1931
▁柴	-1932
▁栋	-1933
▁梦	-1934
▁楼	-1935
▁欧	-1936
▁氛	-1937
▁沪	-1938
▁泽	-1939
▁洁	-1940
▁洋	-1941
▁测	-1942
▁浪	-1943
▁涉	-1944
▁淡	-1945
▁潘	-1946
▁燃	-1947
▁犹	-1948
▁猎	-1949
▁瓜	-1950
▁畅	-1951
▁疑	-1952
▁盘	-1953
▁禽	-1954
▁秋	-1955
▁穿	-1956
▁童	-1957
▁策	-1958
▁篆	-1959
▁累	-1960
▁练	-1961
▁细	-1962
▁绘	-1963
▁绝	-1964
▁网	-1965
▁耀	-1966
▁耶	-1967
▁肩	-1968
▁肯	-1969
▁胸	-1970
▁脸	-1971
▁般	-1972
▁荡	-1973
▁蓄	-1974
▁衡	-1975
▁袭	-1976
▁覆	-1977
▁触	-1978
▁识	-1979
▁诗	-1980
▁诚	-1981
▁诸	-1982
▁豪	-1983
▁账	-1984
▁赠	-1985
▁辈	-1986
▁输	-1987
▁迈	-1988
▁迟	-1989
▁途	-1990
▁逾	-1991
▁遍	-1992
▁邻	-1993
▁铁	-1994
▁闪	-1995
▁闻	-1996
▁阔	-1997
▁阻	-1998
▁隆	-1999
▁页	-2000
▁顿	-2001
▁骤	-2002
▁鸡	-2003
▁鹰	-2004
▁默	-2005
▁龚	-2006
、5	-2007
一下	-2008
一个	-2009
一条	-2010
一番	-2011
一直	-2012
一般	-2013
一起	-2014
一飞	-2015
上博	-2016
上月	-2017
下乡	-2018
不开	-2019
不忘	-2020
个性	-2021
中有	-2022
中版	-2023
为纽	-2024
主席	-2025
之作	-2026
之间	-2027
之际	-2028
也有	-2029
了两	-2030
了解	-2031
亚胡	-2032
产业	-2033
人与	-2034
人华	-2035
人治	-2036
亿元	-2037
以上	-2038
以军	-2039
以来	-2040
作家	-2041
侨胞	-2042
倒闭	-2043
党派	-2044
全市	-2045
全镇	-2046
全长	-2047
其中	-2048
内容	-2049
冉冉	-2050
军装	-2051
农村	-2052
农田	-2053
出现	-2054
利于	-2055
利税	-2056
到来	-2057
制定	-2058
力量	-2059
加拉	-2060
区域	-2061
华南	-2062
华清	-2063
南省	-2064
南部	-2065
去年	-2066
各地	-2067
员会	-2068
和景	-2069
国建	-2070
国的	-2071
在国	-2072
在此	-2073
地方	-2074
地震	-2075
多样	-2076
大业	-2077
大部	-2078
如常	-2079
学术	-2080
学院	-2081
少年	-2082
展示	-2083
工厂	-2084
平均	-2085
平衡	-2086
广西	-2087
开馆	-2088
律宾	-2089
志着	-2090
快富	-2091
性的	-2092
总统	-2093
悲鸿	-2094
战争	-2095
战斗	-2096
所谓	-2097
拉尔	-2098
效应	-2099
文化	-2100
文字	-2101
文选	-2102
新币	-2103
方案	-2104
方法	-2105
日益	-2106
时候	-2107
时刻	-2108
明确	-2109
有对	-2110
有芳	-2111
期间	-2112
本是	-2113
机场	-2114
村庄	-2115
来到	-2116
来的	-2117
样的	-2118
欢晚	-2119
毅仁	-2120
每年	-2121
氏度	-2122
民主	-2123
气温	-2124
水费	-2125
深圳	-2126
煤灶	-2127
特火	-2128
瑞环	-2129
生产	-2130
用水	-2131
画院	-2132
的商	-2133
的好	-2134
的文	-2135
的最	-2136
的气	-2137
的风	-2138
祈祷	-2139
系列	-2140
经典	-2141
统一	-2142
自身	-2143
节日	-2144
花园	-2145
解困	-2146
起的	-2147
路人	-2148
达岭	-2149
这次	-2150
这里	-2151
进入	-2152
道路	-2153
都是	-2154
里的	-2155
重新	-2156
重视	-2157
长城	-2158
间隔	-2159
随笔	-2160
青年	-2161
音乐	-2162
飞行	-2163
马和	-2164
高的	-2165
龙江	-2166
198	-2167
200	-2168
26.	-2169
▁80	-2170
▁三十	-2171
▁下降	-2172
▁之一	-2173
▁乔石	-2174
▁互补	-2175
▁仓库	-2176
▁佳节	-2177
▁使用	-2178
▁保障	-2179
▁信心	-2180
▁值得	-2181
▁停止	-2182
▁允许	-2183
▁全球	-2184
▁关注	-2185
▁凝聚	-2186
▁刚果	-2187
▁勃勃	-2188
▁化的	-2189
▁医院	-2190
▁千余	-2191
▁半年	-2192
▁单位	-2193
▁博览	-2194
▁反对	-2195
▁吸收	-2196
▁因此	-2197
▁塔尼	-2198
▁妈妈	-2199
▁它的	-2200
▁实施	-2201
▁寒冬	-2202
▁少生	-2203
▁尽快	-2204
▁山西	-2205
▁岁月	-2206
▁岁末	-2207
▁巴基	-2208
▁带来	-2209
▁座谈	-2210
▁建交	-2211
▁归者	-2212
▁彩虹	-2213
▁往事	-2214
▁得到	-2215
▁徘徊	-2216
▁忙碌	-2217
▁快速	-2218
▁恩佐	-2219
▁愉快	-2220
▁才能	-2221
▁承担	-2222
▁投产	-2223
▁抗日	-2224
▁拿起	-2225
▁搞好	-2226
▁故事	-2227
▁救援	-2228
▁显著	-2229
▁更多	-2230
▁机制	-2231
▁李鹏	-2232
▁柴节	-2233
▁栋梁	-2234
▁格局	-2235
▁欣赏	-2236
▁欧洲	-2237
▁正是	-2238
▁毫不	-2239
▁气温	-2240
▁江南	-2241
▁润五	-2242
▁深圳	-2243
▁清醒	-2244
▁演出	-2245
▁演奏	-2246
▁演艺	-2247
▁照片	-2248
▁爆竹	-2249
▁牡丹	-2250
▁牵头	-2251
▁玉茭	-2252
▁珍贵	-2253
▁甚至	-2254
▁田庄	-2255
▁监控	-2256
▁监督	-2257
▁目标	-2258
▁破坏	-2259
▁确保	-2260
▁窗牖	-2261
▁签署	-2262
▁签订	-2263
▁篆刻	-2264
▁纲领	-2265
▁经过	-2266
▁缔造	-2267
▁联系	-2268
▁胞和	-2269
▁航空	-2270
▁良好	-2271
▁良性	-2272
▁艰辛	-2273
▁节日	-2274
▁节目	-2275
▁补贴	-2276
▁覆盖	-2277
▁观点	-2278
▁记录	-2279
▁课题	-2280
▁谱写	-2281
▁财政	-2282
▁超过	-2283
▁迅速	-2284
▁这种	-2285
▁适应	-2286
▁选择	-2287
▁邮电	-2288
▁重视	-2289
▁阵阵	-2290
▁隆重	-2291
▁零下	-2292
▁驱车	-2293
▁黄河	-2294
了一条	-2295
人华侨	-2296
人治港	-2297
加拉瓜	-2298
和景仰	-2299
是一个	-2300
的时间	-2301
美好的	-2302
联欢晚	-2303
进行曲	-2304
▁’98	-2305
▁东部和	-2306
▁主题性	-2307
▁佩特火	-2308
▁副主席	-2309
▁塔拉尔	-2310
▁女作家	-2311
▁就以军	-2312
▁已成为	-2313
▁徐悲鸿	-2314
▁徐有芳	-2315
▁所有权	-2316
▁摄氏度	-2317
▁新年好	-2318
▁李瑞环	-2319
▁树新风	-2320
▁渠道筹	-2321
▁纸上博	-2322
▁良好的	-2323
▁菲律宾	-2324
▁解放军	-2325
▁页文选	-2326
▁黑龙江	-2327
全国工商	-2328
海外侨胞	-2329
▁今天上午	-2330
▁兼并总额	-2331
▁化的进程	-2332
▁十分重视	-2333
▁华人华侨	-2334
▁塔尼亚胡	-2335
▁安全飞行	-2336
▁少生快富	-2337
▁尼加拉瓜	-2338
▁山西画院	-2339
▁巴基斯坦	-2340
▁彩虹花园	-2341
▁抗日战争	-2342
▁散文随笔	-2343
▁柴节煤灶	-2344
▁沼气为纽	-2345
▁港人治港	-2346
▁濒临倒闭	-2347
▁良性循环	-2348
▁雷达管制	-2349
▁庆祝联欢晚	-2350
▁演艺界人士	-2351
▁良好的祝愿	-2352
▁阅读和景仰	-2353
▁胞和海外侨胞	-2354
,8	-2355
11	-2356
16	-2357
2%	-2358
23	-2359
34	-2360
43	-2361
46	-2362
49	-2363
7.	-2364
9%	-2365
——	-2366
▁习	-2367
▁乳	-2368
▁予	-2369
▁井	-2370
▁亦	-2371
▁休	-2372
▁伙	-2373
▁侧	-2374
▁倍	-2375
▁倘	-2376
▁债	-2377
▁储	-2378
▁催	-2379
▁兄	-2380
▁兆	-2381
▁募	-2382
▁卖	-2383
▁喇	-2384
▁圆	-2385
▁圳	-2386
▁址	-2387
▁堂	-2388
▁堆	-2389
▁夺	-2390
▁奠	-2391
▁娃	-2392
▁宋	-2393
▁宝	-2394
▁宪	-2395
▁宽	-2396
▁宿	-2397
▁寻	-2398
▁尉	-2399
19	-2400
80	-2401
▁剑	-2402
▁吉	-2403
▁否	-2404
▁尝	-2405
▁尺	-2406
▁届	-2407
▁岭	-2408
▁巧	-2409
▁巷	-2410
▁弥	-2411
▁弦	-2412
▁弱	-2413
▁彬	-2414
▁彻	-2415
▁径	-2416
▁徽	-2417
▁恰	-2418
▁悉	-2419
▁悦	-2420
▁悲	-2421
▁惊	-2422
▁戈	-2423
▁打	-2424
▁扮	-2425
▁扰	-2426
▁抵	-2427
▁拒	-2428
▁拖	-2429
▁拘	-2430
▁挺	-2431
▁损	-2432
▁插	-2433
▁揽	-2434
▁摘	-2435
▁摧	-2436
▁撤	-2437
▁敢	-2438
▁昂	-2439
▁星	-2440
▁昨	-2441
▁曹	-2442
▁末	-2443
▁杂	-2444
▁杜	-2445
▁枝	-2446
▁某	-2447
▁柳	-2448
▁柿	-2449
▁校	-2450
▁桂	-2451
▁框	-2452
▁档	-2453
▁棉	-2454
▁植	-2455
▁欠	-2456
▁歧	-2457
▁段	-2458
▁汪	-2459
▁汽	-2460
▁沈	-2461
▁沉	-2462
▁泣	-2463
▁洗	-2464
▁洞	-2465
▁洪	-2466
▁浇	-2467
▁涌	-2468
▁湖	-2469
▁滋	-2470
▁灰	-2471
▁烂	-2472
▁烽	-2473
▁父	-2474
▁牧	-2475
▁狂	-2476
▁狠	-2477
▁狭	-2478
▁玛	-2479
▁玩	-2480
▁珠	-2481
▁琼	-2482
▁男	-2483
▁痕	-2484
▁瘫	-2485
▁盆	-2486
▁瞩	-2487
▁矿	-2488
▁硬	-2489
▁礼	-2490
▁祥	-2491
▁票	-2492
▁秘	-2493
▁究	-2494
▁穷	-2495
▁竖	-2496
▁竹	-2497
▁笑	-2498
▁笛	-2499
30	-2500
▁串	-2501
▁仿	-2502
▁伍	-2503
▁借	-2504
▁刊	-2505
▁厦	-2506
▁姐	-2507
▁循	-2508
▁截	-2509
▁拔	-2510
▁掌	-2511
▁斐	-2512
▁旬	-2513
▁昆	-2514
▁款	-2515
▁淮	-2516
▁猪	-2517
▁篓	-2518
▁粉	-2519
▁纵	-2520
▁缅	-2521
▁缘	-2522
▁罚	-2523
▁耳	-2524
▁聪	-2525
▁胀	-2526
▁腐	-2527
▁腮	-2528
▁舆	-2529
▁舍	-2530
▁芳	-2531
▁苍	-2532
▁萝	-2533
▁萧	-2534
▁萨	-2535
▁蔓	-2536
▁蔚	-2537
▁蕴	-2538
▁虑	-2539
▁蛋	-2540
▁衰	-2541
▁览	-2542
▁誓	-2543
▁订	-2544
▁讨	-2545
▁训	-2546
▁详	-2547
▁谊	-2548
▁豆	-2549
▁豫	-2550
▁赢	-2551
▁赤	-2552
▁赴	-2553
▁赶	-2554
▁跋	-2555
▁跌	-2556
▁跑	-2557
▁软	-2558
▁辐	-2559
▁逛	-2560
▁逝	-2561
▁邦	-2562
▁邹	-2563
▁郁	-2564
▁酋	-2565
▁醒	-2566
▁野	-2567
▁钞	-2568
▁钢	-2569
▁锡	-2570
▁锦	-2571
▁键	-2572
▁闹	-2573
▁陵	-2574
▁陶	-2575
▁顶	-2576
▁须	-2577
▁颇	-2578
▁颜	-2579
▁食	-2580
▁驶	-2581
▁驾	-2582
▁骄	-2583
▁鲁	-2584
▁麻	-2585
一举	-2586
一家	-2587
一日	-2588
一期	-2589
一派	-2590
一流	-2591
一片	-2592
一股	-2593
一遍	-2594
万亩	-2595
万人	-2596
三通	-2597
上了	-2598
上到	-2599
1—	-2600
▁‰	-2601
▁固	-2602
▁塑	-2603
▁姜	-2604
▁媒	-2605
▁帷	-2606
▁幸	-2607
▁府	-2608
▁恶	-2609
▁握	-2610
▁榭	-2611
▁眉	-2612
▁绵	-2613
▁羽	-2614
▁肉	-2615
▁莽	-2616
▁谨	-2617
▁辟	-2618
▁铺	-2619
▁锤	-2620
一种	-2621
上年	-2622
上村	-2623
上海	-2624
上涨	-2625
上演	-2626
上迈	-2627
上门	-2628
下游	-2629
不上	-2630
不会	-2631
不可	-2632
不合	-2633
不懈	-2634
不敢	-2635
不断	-2636
不是	-2637
不相	-2638
不约	-2639
两豆	-2640
严重	-2641
中东	-2642
中华	-2643
中学	-2644
中的	-2645
中走	-2646
主人	-2647
主张	-2648
丽生	-2649
义昭	-2650
之一	-2651
之以	-2652
之外	-2653
之年	-2654
之所	-2655
之路	-2656
乐团	-2657
乐趣	-2658
书长	-2659
了我	-2660
事录	-2661
事迹	-2662
于不	-2663
于交	-2664
于用	-2665
于美	-2666
五星	-2667
产值	-2668
人为	-2669
人口	-2670
人在	-2671
人均	-2672
人数	-2673
人类	-2674
代的	-2675
众多	-2676
会上	-2677
会员	-2678
会晤	-2679
传送	-2680
体有	-2681
作出	-2682
信念	-2683
健行	-2684
先后	-2685
先消	-2686
先生	-2687
光冷	-2688
光的	-2689
党委	-2690
全区	-2691
全县	-2692
全局	-2693
全球	-2694
全面	-2695
公斤	-2696
公路	-2697
兰堡	-2698
关注	-2699
▁惠	-2700
▁斑	-2701
▁添	-2702
▁漾	-2703
▁臣	-2704
两件	-2705
关键	-2706
典型	-2707
军人	-2708
军八	-2709
军属	-2710
农户	-2711
分析	-2712
分类	-2713
到中	-2714
到过	-2715
制宜	-2716
制衣	-2717
前夕	-2718
前屋	-2719
前已	-2720
前锋	-2721
加元	-2722
加大	-2723
动摇	-2724
勇敢	-2725
化和	-2726
北省	-2727
北部	-2728
区办	-2729
区的	-2730
十七	-2731
十分	-2732
十大	-2733
协议	-2734
南京	-2735
卢巴	-2736
历程	-2737
又极	-2738
双泾	-2739
发乎	-2740
发了	-2741
发现	-2742
发生	-2743
发达	-2744
古代	-2745
可见	-2746
史籍	-2747
各级	-2748
各项	-2749
合唱	-2750
同期	-2751
名人	-2752
名列	-2753
命感	-2754
和审	-2755
和自	-2756
四周	-2757
回应	-2758
回忆	-2759
园区	-2760
国志	-2761
国旗	-2762
在于	-2763
在京	-2764
在的	-2765
在自	-2766
在茶	-2767
地加	-2768
地区	-2769
地接	-2770
地缘	-2771
外地	-2772
多年	-2773
多的	-2774
多立	-2775
多金	-2776
大会	-2777
大型	-2778
大学	-2779
大成	-2780
大荒	-2781
大雨	-2782
天地	-2783
天空	-2784
女儿	-2785
好事	-2786
好像	-2787
好者	-2788
姑妈	-2789
子钟	-2790
学习	-2791
学贤	-2792
安排	-2793
官兵	-2794
定了	-2795
实施	-2796
实际	-2797
宾逊	-2798
对于	-2799
对落	-2800
将为	-2801
将对	-2802
尼拉	-2803
尽快	-2804
局长	-2805
巨额	-2806
已初	-2807
已被	-2808
市财	-2809
平稳	-2810
平静	-2811
年卡	-2812
年报	-2813
并茂	-2814
广普	-2815
底子	-2816
建华	-2817
建筑	-2818
建谁	-2819
开创	-2820
开拓	-2821
开放	-2822
张启	-2823
彩玲	-2824
得到	-2825
心的	-2826
意义	-2827
意识	-2828
感谢	-2829
成了	-2830
成富	-2831
成效	-2832
成果	-2833
战胜	-2834
户办	-2835
才智	-2836
技法	-2837
挂起	-2838
提出	-2839
提前	-2840
摄氏	-2841
改组	-2842
政策	-2843
敬爱	-2844
文丛	-2845
斑鸠	-2846
斯科	-2847
新建	-2848
新航	-2849
新闻	-2850
方面	-2851
日常	-2852
日报	-2853
日本	-2854
旦河	-2855
时的	-2856
易辙	-2857
是做	-2858
是欢	-2859
是那	-2860
最大	-2861
有关	-2862
有所	-2863
期的	-2864
未来	-2865
本书	-2866
本领	-2867
朱镕	-2868
李岚	-2869
村民	-2870
来临	-2871
来越	-2872
步入	-2873
步飞	-2874
武器	-2875
比拉	-2876
比赛	-2877
民间	-2878
气象	-2879
沟通	-2880
没有	-2881
油画	-2882
活动	-2883
海横	-2884
演员	-2885
现代	-2886
现出	-2887
现实	-2888
生动	-2889
用笔	-2890
画集	-2891
百炼	-2892
的专	-2893
的严	-2894
的利	-2895
的厂	-2896
的国	-2897
的审	-2898
的巨	-2899
的年	-2900
的新	-2901
的沉	-2902
的火	-2903
的焦	-2904
的经	-2905
的结	-2906
的老	-2907
的色	-2908
的行	-2909
的西	-2910
的评	-2911
的说	-2912
的邓	-2913
的那	-2914
的韩	-2915
直线	-2916
相信	-2917
相对	-2918
相比	-2919
相聚	-2920
着三	-2921
种种	-2922
称为	-2923
程度	-2924
立传	-2925
立派	-2926
第一	-2927
等级	-2928
系统	-2929
经过	-2930
统计	-2931
美好	-2932
能源	-2933
自发	-2934
自然	-2935
自豪	-2936
艰巨	-2937
色的	-2938
行动	-2939
行署	-2940
表现	-2941
表达	-2942
被炸	-2943
被评	-2944
要而	-2945
观念	-2946
认为	-2947
记录	-2948
记忆	-2949
记者	-2950
讲述	-2951
读者	-2952
象角	-2953
象预	-2954
负担	-2955
资产	-2956
资金	-2957
起了	-2958
跑道	-2959
路线	-2960
轨道	-2961
转让	-2962
辣椒	-2963
达成	-2964
还带	-2965
这些	-2966
这是	-2967
远远	-2968
选编	-2969
通信	-2970
通胀	-2971
速度	-2972
道涵	-2973
部长	-2974
里木	-2975
里窥	-2976
重庆	-2977
金色	-2978
金额	-2979
问候	-2980
问暖	-2981
队伍	-2982
防治	-2983
除了	-2984
随着	-2985
青少	-2986
靠着	-2987
领土	-2988
香榭	-2989
高挂	-2990
高效	-2991
高涨	-2992
鲁木	-2993
100	-2994
10°	-2995
30%	-2996
312	-2997
5.2	-2998
50%	-2999
▁%。	-3000
▁.5	-3001
▁.8	-3002
▁5、	-3003
▁一起	-3004
▁上海	-3005
▁专家	-3006
▁业绩	-3007
▁两国	-3008
▁中华	-3009
▁义诊	-3010
▁之路	-3011
▁买回	-3012
▁争取	-3013
▁二是	-3014
▁亩的	-3015
▁享誉	-3016
▁人们	-3017
▁人物	-3018
▁人的	-3019
▁今年	-3020
▁仍然	-3021
▁以上	-3022
▁件的	-3023
▁仿佛	-3024
▁伊斯	-3025
▁休眠	-3026
▁优质	-3027
▁传记	-3028
▁似乎	-3029
▁位于	-3030
▁作为	-3031
▁作用	-3032
▁依托	-3033
▁做好	-3034
▁元月	-3035
▁兄弟	-3036
▁充分	-3037
▁八项	-3038
▁兵书	-3039
▁兵法	-3040
▁具有	-3041
▁典籍	-3042
▁内容	-3043
▁冉冉	-3044
▁再次	-3045
▁军委	-3046
▁决心	-3047
▁准备	-3048
▁几个	-3049
▁几乎	-3050
▁出了	-3051
▁则多	-3052
▁创新	-3053
▁前进	-3054
▁剖析	-3055
▁动迁	-3056
▁募捐	-3057
▁十五	-3058
▁午夜	-3059
▁华南	-3060
▁协调	-3061
▁占全	-3062
▁占地	-3063
▁即将	-3064
▁厚的	-3065
▁县市	-3066
▁参展	-3067
▁又有	-3068
▁双向	-3069
▁双方	-3070
▁各级	-3071
▁名大	-3072
▁吐乌	-3073
▁听说	-3074
▁启发	-3075
▁呈现	-3076
▁周围	-3077
▁周年	-3078
▁喇叭	-3079
▁喜悦	-3080
▁因地	-3081
▁团体	-3082
▁园区	-3083
▁围绕	-3084
▁图文	-3085
▁在这	-3086
▁坐在	-3087
▁垦区	-3088
▁城区	-3089
▁培训	-3090
▁塑造	-3091
▁复苏	-3092
▁奉献	-3093
▁奶奶	-3094
▁她们	-3095
▁好评	-3096
▁如果	-3097
▁妥协	-3098
▁妻子	-3099
▁媒体	-3100
▁孩子	-3101
▁它们	-3102
▁安排	-3103
▁完善	-3104
▁审慎	-3105
▁客人	-3106
▁宣传	-3107
▁宣布	-3108
▁宿舍	-3109
▁寒风	-3110
▁尽早	-3111
▁尽管	-3112
▁屏幕	-3113
▁山沟	-3114
▁崇高	-3115
▁川籍	-3116
▁带领	-3117
▁常重	-3118
▁幅度	-3119
▁平凡	-3120
▁广州	-3121
▁应当	-3122
▁引导	-3123
▁弥补	-3124
▁当代	-3125
▁当地	-3126
▁形象	-3127
▁彭珮	-3128
▁待遇	-3129
▁很有	-3130
▁德国	-3131
▁必要	-3132
▁忘记	-3133
▁忧其	-3134
▁怀揣	-3135
▁态度	-3136
▁思路	-3137
▁性和	-3138
▁意味	-3139
▁成就	-3140
▁战役	-3141
▁战斗	-3142
▁截至	-3143
▁扎实	-3144
▁执行	-3145
▁承百	-3146
▁把我	-3147
▁抢救	-3148
▁担任	-3149
▁拜年	-3150
▁拿大	-3151
▁指挥	-3152
▁挑战	-3153
▁挑选	-3154
▁挤在	-3155
▁换届	-3156
▁描绘	-3157
▁摆脱	-3158
▁攻坚	-3159
▁故乡	-3160
▁数字	-3161
▁数的	-3162
▁斑斓	-3163
▁斗争	-3164
▁新闻	-3165
▁早期	-3166
▁时间	-3167
▁昆明	-3168
▁昌盛	-3169
▁春天	-3170
▁昨天	-3171
▁显示	-3172
▁晚会	-3173
▁普及	-3174
▁智慧	-3175
▁更是	-3176
▁最佳	-3177
▁期间	-3178
▁未来	-3179
▁未能	-3180
▁机遇	-3181
▁杨子	-3182
▁柳林	-3183
▁树立	-3184
▁根本	-3185
▁格外	-3186
▁梅塔	-3187
▁检查	-3188
▁检阅	-3189
▁概念	-3190
▁模式	-3191
▁模范	-3192
▁欢乐	-3193
▁歌唱	-3194
▁武装	-3195
▁每个	-3196
▁永远	-3197
▁江中	-3198
▁江淮	-3199
▁没收	-3200
▁注重	-3201
▁流通	-3202
▁浓厚	-3203
▁浪潮	-3204
▁消息	-3205
▁深刻	-3206
▁温宪	-3207
▁湖州	-3208
▁滋润	-3209
▁满意	-3210
▁演员	-3211
▁演队	-3212
▁烂漫	-3213
▁烈斯	-3214
▁然而	-3215
▁狠抓	-3216
▁独特	-3217
▁球化	-3218
▁瑞士	-3219
▁田野	-3220
▁画家	-3221
▁痕迹	-3222
▁瘫痪	-3223
▁登高	-3224
▁百家	-3225
▁省委	-3226
▁看到	-3227
▁真实	-3228
▁真情	-3229
▁真的	-3230
▁睦邻	-3231
▁瞩目	-3232
▁知道	-3233
▁破船	-3234
▁确实	-3235
▁祈祷	-3236
▁祝福	-3237
▁禁区	-3238
▁站在	-3239
▁第二	-3240
▁简单	-3241
▁类图	-3242
▁精粹	-3243
▁素质	-3244
▁紧张	-3245
▁累计	-3246
▁纪实	-3247
▁组成	-3248
▁经营	-3249
▁绘画	-3250
▁绵绵	-3251
▁缅怀	-3252
▁缓解	-3253
▁编写	-3254
▁编辑	-3255
▁编选	-3256
▁缩影	-3257
▁缺乏	-3258
▁羽毛	-3259
▁耕地	-3260
▁耕耘	-3261
▁耶德	-3262
▁聪明	-3263
▁肯定	-3264
▁胀率	-3265
▁背篓	-3266
▁脱了	-3267
▁至此	-3268
▁致富	-3269
▁舆论	-3270
▁艳的	-3271
▁花卉	-3272
▁获得	-3273
▁萝卜	-3274
▁著作	-3275
▁蔓延	-3276
▁血与	-3277
▁行动	-3278
▁衡到	-3279
▁表现	-3280
▁衷地	-3281
▁装加	-3282
▁观看	-3283
▁角村	-3284
▁誓词	-3285
▁议题	-3286
▁讲解	-3287
▁诚挚	-3288
▁该火	-3289
▁详细	-3290
▁谢意	-3291
▁豫剧	-3292
▁贯穿	-3293
▁贵州	-3294
▁赞赏	-3295
▁赠送	-3296
▁赤胆	-3297
▁软禁	-3298
▁辐射	-3299
▁输入	-3300
▁迎接	-3301
▁这一	-3302
▁送去	-3303
▁那里	-3304
▁郑州	-3305
▁都市	-3306
▁配置	-3307
▁钞票	-3308
▁锦绣	-3309
▁间的	-3310
▁防线	-3311
▁陆机	-3312
▁限制	-3313
▁限的	-3314
▁随处	-3315
▁雪域	-3316
▁露出	-3317
▁题材	-3318
▁首任	-3319
▁首脑	-3320
▁马来	-3321
▁骄傲	-3322
▁鸣枪	-3323
▁黄土	-3324
一九九	-3325
三下乡	-3326
业为主	-3327
中国常	-3328
中国画	-3329
中有升	-3330
主题性	-3331
之以恒	-3332
书记的	-3333
书记龚	-3334
了一个	-3335
了农民	-3336
了这一	-3337
于交通	-3338
人民币	-3339
人民布	-3340
代经典	-3341
先消灭	-3342
全国总	-3343
全面推	-3344
动人的	-3345
南部海	-3346
原有的	-3347
员会审	-3348
和华南	-3349
在国外	-3350
坪上村	-3351
大事录	-3352
大地震	-3353
大的轰	-3354
安全飞	-3355
对落后	-3356
巨额外	-3357
建谁有	-3358
成为连	-3359
成了一	-3360
成新币	-3361
房前屋	-3362
文化的	-3363
文明号	-3364
是一种	-3365
本是她	-3366
每一个	-3367
的一些	-3368
的主人	-3369
的光辉	-3370
的商品	-3371
的国家	-3372
的地位	-3373
的天空	-3374
的学者	-3375
的形象	-3376
的结果	-3377
的色彩	-3378
的说法	-3379
的间隔	-3380
织制衣	-3381
联合阵	-3382
联户办	-3383
自治区	-3384
跑道延	-3385
迎新年	-3386
这样的	-3387
长张启	-3388
高等级	-3389
10、5	-3390
1986	-3391
7000	-3392
85.2	-3393
—10°	-3394
▁.7%	-3395
▁197	-3396
▁400	-3397
▁三十部	-3398
▁东北部	-3399
▁乌鲁木	-3400
▁云南省	-3401
▁亩基本	-3402
▁从上月	-3403
▁价上涨	-3404
▁但也有	-3405
▁使命感	-3406
▁依多金	-3407
▁偏北风	-3408
▁八达岭	-3409
▁刘华清	-3410
▁刘步飞	-3411
▁初中版	-3412
▁北大荒	-3413
▁卡比拉	-3414
▁原子钟	-3415
▁各民主	-3416
▁周一期	-3417
▁商会议	-3418
▁塔里木	-3419
▁奇卢巴	-3420
▁孔效应	-3421
▁尉健行	-3422
▁局局长	-3423
▁并达成	-3424
▁庄机场	-3425
▁座谈会	-3426
▁庭农场	-3427
▁建交后	-3428
▁弦易辙	-3429
▁往事知	-3430
▁徐义昭	-3431
▁我以为	-3432
▁找上门	-3433
▁揽全局	-3434
▁旱之年	-3435
▁晚上到	-3436
▁有利于	-3437
▁有大雨	-3438
▁望未来	-3439
▁条直线	-3440
▁标志着	-3441
▁每年还	-3442
▁气象预	-3443
▁汪道涵	-3444
▁沧海横	-3445
▁河北省	-3446
▁油画展	-3447
▁津美术	-3448
▁烈军属	-3449
▁焦作市	-3450
▁王学贤	-3451
▁田庄乡	-3452
▁登长城	-3453
▁省十大	-3454
▁祝大家	-3455
▁科学院	-3456
▁秘书长	-3457
▁筑路人	-3458
▁约旦河	-3459
▁罗宾逊	-3460
▁罗马和	-3461
▁胡彩玲	-3462
▁荣毅仁	-3463
▁营中走	-3464
▁董建华	-3465
▁被称为	-3466
▁见成效	-3467
▁警官兵	-3468
▁让人们	-3469
▁课系列	-3470
▁贺年卡	-3471
▁超亿元	-3472
▁越来越	-3473
▁路上迈	-3474
▁迎来了	-3475
▁这两件	-3476
▁锤百炼	-3477
▁雅音乐	-3478
▁青少年	-3479
▁马尼拉	-3480
▁验收委	-3481
军八一飞	-3482
国建成富	-3483
在京上演	-3484
学者文丛	-3485
年报国志	-3486
持之以恒	-3487
敬爱的邓	-3488
生活如常	-3489
美好明天	-3490
美好的未	-3491
要而又极	-3492
里的村庄	-3493
靠着这种	-3494
▁5000	-3495
▁万元解困	-3496
▁伊斯兰堡	-3497
▁先进典型	-3498
▁八项主张	-3499
▁副书记龚	-3500
▁半本是她	-3501
▁华南大部	-3502
▁占全国总	-3503
▁又有多少	-3504
▁双向传送	-3505
▁各界人士	-3506
▁各级党委	-3507
▁名大中小	-3508
▁因地制宜	-3509
▁城区道路	-3510
▁基本路线	-3511
▁增长速度	-3512
▁孔书记的	-3513
▁尽早回应	-3514
▁巨大的轰	-3515
▁并购总额	-3516
▁庄严时刻	-3517
▁当代学术	-3518
▁形式多样	-3519
▁很有意义	-3520
▁拿起武器	-3521
▁新的一年	-3522
▁死于交通	-3523
▁毫不动摇	-3524
▁江中下游	-3525
▁独特个性	-3526
▁相对落后	-3527
▁省委书记	-3528
▁稳中有升	-3529
▁组成部分	-3530
▁统一大业	-3531
▁罗联合阵	-3532
▁考古文物	-3533
▁聪明才智	-3534
▁艳的五星	-3535
▁节日期间	-3536
▁装加工厂	-3537
▁谁建谁有	-3538
▁跃成为连	-3539
▁间的了解	-3540
▁随处可见	-3541
▁青年油画	-3542
▁首任大使	-3543
▁首脑会晤	-3544
▁马来西亚	-3545
▁亩基本农田	-3546
▁亿元人民币	-3547
▁冷空气前锋	-3548
▁卫生三下乡	-3549
▁召开第九届	-3550
▁各民主党派	-3551
▁并达成协议	-3552
▁江南和华南	-3553
▁类美好的未	-3554
▁罗马和米兰	-3555
▁走出了一条	-3556
▁边防军改组	-3557
▁青年文明号	-3558
▁飞机的间隔	-3559
▁5、10、5	-3560
▁东部和南部海	-3561
▁商会议第九届	-3562
▁孔书记的女儿	-3563
▁居民生活如常	-3564
▁川籍学者文丛	-3565
▁常重要而又极	-3566
▁庄机场跑道延	-3567
▁承百年报国志	-3568
▁把我国建成富	-3569
▁正是靠着这种	-3570
▁死于交通事故	-3571
▁藏文古代经典	-3572
▁都市里的村庄	-3573
▁验收委员会审	-3574
,1—	-3575
.43	-3576
12%	-3577
195	-3578
280	-3579
443	-3580
734	-3581
82%	-3582
;46	-3583
▁‰。	-3584
▁习惯	-3585
▁乳透	-3586
▁予以	-3587
▁亦会	-3588
▁伍绍	-3589
▁伙子	-3590
▁侧台	-3591
▁侧目	-3592
▁倘佯	-3593
▁借以	-3594
▁借助	-3595
▁储备	-3596
▁催人	-3597
▁催还	-3598
▁兆国	-3599
▁兆头	-3600
▁刊登	-3601
▁剑武	-3602
▁吉县	-3603
▁吉祥	-3604
▁否则	-3605
▁固定	-3606
▁圆润	-3607
▁圳街	-3608
▁堂收	-3609
▁堆死	-3610
▁堆群	-3611
▁奠定	-3612
▁姑妈	-3613
▁姜春	-3614
▁姜跌	-3615
▁娃小	-3616
▁宋振	-3617
▁宝贵	-3618
▁寻求	-3619
▁尝到	-3620
▁尝试	-3621
▁尺寸	-3622
▁巷的	-3623
▁巷队	-3624
▁恰逢	-3625
▁恶劣	-3626
▁悦地	-3627
▁戈却	-3628
▁扮得	-3629
▁扮演	-3630
▁抵京	-3631
▁拖拉	-3632
▁拘泥	-3633
▁挂起	-3634
▁损害	-3635
▁掌上	-3636
▁摘掉	-3637
▁摘登	-3638
▁摧残	-3639
▁摧毁	-3640
▁撤军	-3641
▁昂首	-3642
▁星夺	-3643
▁曹禺	-3644
▁杜天	-3645
▁杜比	-3646
▁枝杈	-3647
▁枝鲜	-3648
▁某一	-3649
▁校等	-3650
▁桂林	-3651
▁档次	-3652
▁档真	-3653
▁榭丽	-3654
▁欠账	-3655
▁毅仁	-3656
▁汽车	-3657
▁沈震	-3658
▁沉思	-3659
▁洗国	-3660
▁洗车	-3661
▁浇地	-3662
▁添了	-3663
▁灰和	-3664
▁烽火	-3665
▁牧村	-3666
▁狂欢	-3667
▁猪肉	-3668
▁玩具	-3669
▁珠塔	-3670
▁琼斯	-3671
▁男女	-3672
▁盆内	-3673
▁盆景	-3674
▁眉大	-3675
▁眉清	-3676
▁硬碰	-3677
▁礼物	-3678
▁竖起	-3679
▁笛大	-3680
▁笛子	-3681
▁策也	-3682
▁粉碎	-3683
▁累中	-3684
▁纵死	-3685
▁细细	-3686
▁缘到	-3687
▁网的	-3688
▁罚尾	-3689
▁耀目	-3690
▁耳闻	-3691
▁肩负	-3692
▁胸臆	-3693
▁腮的	-3694
▁般的	-3695
▁芳香	-3696
▁荡在	-3697
▁荡殃	-3698
▁萧乾	-3699
24.	-3700
254	-3701
554	-3702
913	-3703
▁乃至	-3704
▁伴有	-3705
▁假日	-3706
▁偏于	-3707
▁冰雕	-3708
▁剖学	-3709
▁勇军	-3710
▁哲学	-3711
▁圣约	-3712
▁塘里	-3713
▁奉为	-3714
▁婚妇	-3715
▁婚育	-3716
▁宏伟	-3717
▁宏观	-3718
▁宗旨	-3719
▁寺院	-3720
▁封面	-3721
▁序性	-3722
▁延伸	-3723
▁微笑	-3724
▁急剧	-3725
▁急速	-3726
▁患了	-3727
▁懈怠	-3728
▁抢客	-3729
▁拜酒	-3730
▁掉队	-3731
▁撰稿	-3732
▁敏感	-3733
▁敏捷	-3734
▁敞豪	-3735
▁旋律	-3736
▁旋的	-3737
▁易就	-3738
▁氛围	-3739
▁沪两	-3740
▁泽铣	-3741
▁洁的	-3742
▁洋葱	-3743
▁测定	-3744
▁浪费	-3745
▁淡淡	-3746
▁淡雅	-3747
▁潘驰	-3748
▁犹太	-3749
▁犹戎	-3750
▁猎豹	-3751
▁畅销	-3752
▁疑是	-3753
▁盘山	-3754
▁穿梭	-3755
▁穿着	-3756
▁童声	-3757
▁萧红	-3758
▁萨尔	-3759
▁蔚成	-3760
▁蕴涵	-3761
▁蕴藉	-3762
▁蛋鸡	-3763
▁袭人	-3764
▁袭击	-3765
▁览馆	-3766
▁触类	-3767
▁诚说	-3768
▁谨慎	-3769
▁赢得	-3770
▁赴塞	-3771
▁赶排	-3772
▁跋涉	-3773
▁跌大	-3774
▁输到	-3775
▁辣椒	-3776
▁迈出	-3777
▁迟在	-3778
▁迟迟	-3779
▁途径	-3780
▁逾古	-3781
▁遍与	-3782
▁邦邮	-3783
▁邻近	-3784
▁野开	-3785
▁铺盖	-3786
▁铺筑	-3787
▁锡生	-3788
▁键环	-3789
▁闪烁	-3790
▁闪耀	-3791
▁闹非	-3792
▁阔前	-3793
▁阻的	-3794
▁须知	-3795
▁颇有	-3796
▁食油	-3797
▁骤地	-3798
▁骤然	-3799
▁麻袋	-3800
▁麻雀	-3801
▁龚自	-3802
一下子	-3803
一个崭	-3804
一举中	-3805
一家年	-3806
一家证	-3807
一流专	-3808
一片欢	-3809
一直无	-3810
一直玩	-3811
一种更	-3812
一起迎	-3813
万公斤	-3814
上了归	-3815
上了自	-3816
上冉冉	-3817
下步入	-3818
不会像	-3819
不可淡	-3820
不合拍	-3821
不合格	-3822
不忘童	-3823
不敢贸	-3824
不断切	-3825
不明确	-3826
不相识	-3827
与了解	-3828
与沟通	-3829
与生态	-3830
中华医	-3831
为一般	-3832
为对于	-3833
主地加	-3834
丽生从	-3835
之一的	-3836
之外的	-3837
之际由	-3838
乏成功	-3839
乐乐团	-3840
也在茶	-3841
也有你	-3842
书立传	-3843
了两人	-3844
了中东	-3845
了全球	-3846
了大批	-3847
了我军	-3848
了部分	-3849
于用来	-3850
亚开馆	-3851
亚总统	-3852
产业的	-3853
产高效	-3854
亩水费	-3855
人与事	-3856
人与众	-3857
人为加	-3858
人到来	-3859
人在叩	-3860
人在评	-3861
人数比	-3862
亿人口	-3863
从象角	-3864
从这里	-3865
从长城	-3866
他自豪	-3867
代的更	-3868
以上货	-3869
以平均	-3870
以文物	-3871
以相信	-3872
以节日	-3873
众多女	-3874
会上讲	-3875
会实际	-3876
会金色	-3877
但发乎	-3878
但气温	-3879
位中学	-3880
低于美	-3881
体前夕	-3882
体有类	-3883
体有近	-3884
作如常	-3885
信念与	-3886
傍着三	-3887
元之间	-3888
充文字	-3889
先后整	-3890
入现代	-3891
全区所	-3892
全市查	-3893
八达岭	-3894
其中江	-3895
其用笔	-3896
具现代	-3897
军人发	-3898
军人那	-3899
▁剑平	-3900
▁病了	-3901
▁端的	-3902
▁筹资	-3903
▁算者	-3904
▁缓其	-3905
▁缓缓	-3906
▁缺时	-3907
▁胆的	-3908
▁脚印	-3909
▁语言	-3910
▁踏步	-3911
▁踏着	-3912
▁踏花	-3913
▁遇到	-3914
▁险动	-3915
▁险家	-3916
▁险金	-3917
▁零三	-3918
▁靠着	-3919
▁骨恐	-3920
▁黎人	-3921
▁黎巴	-3922
▁黎明	-3923
不同凡	-3924
中小园	-3925
于一九	-3926
人物创	-3927
位都是	-3928
作为东	-3929
作为夜	-3930
作为美	-3931
俊出席	-3932
其他各	-3933
其他类	-3934
凸现出	-3935
出现神	-3936
出音乐	-3937
分析与	-3938
刘华清	-3939
利于促	-3940
利地位	-3941
到一件	-3942
到一位	-3943
到一宗	-3944
到中雨	-3945
到全市	-3946
到成功	-3947
前已将	-3948
前高涨	-3949
加大开	-3950
勇敢坚	-3951
化不开	-3952
化和一	-3953
匠心的	-3954
区地位	-3955
区的雷	-3956
十万人	-3957
十五快	-3958
十五次	-3959
十分醒	-3960
华南北	-3961
南京中	-3962
南京市	-3963
占领土	-3964
历程所	-3965
原本是	-3966
原来的	-3967
原生态	-3968
去年十	-3969
县的焦	-3970
又一片	-3971
及大街	-3972
及新闻	-3973
发现典	-3974
发生了	-3975
发表了	-3976
取开放	-3977
取水费	-3978
古代手	-3979
古成果	-3980
句日常	-3981
只提前	-3982
可象角	-3983
史籍之	-3984
同样丰	-3985
名人专	-3986
名人屋	-3987
员时刻	-3988
和使用	-3989
和审美	-3990
和方法	-3991
和自我	-3992
和自来	-3993
和转让	-3994
和领土	-3995
囊人物	-3996
四上午	-3997
四周的	-3998
因种种	-3999
18.	-4000
33.	-4001
35%	-4002
48.	-4003
63.	-4004
8.1	-4005
87%	-4006
95%	-4007
▁享她	-4008
▁佩饰	-4009
▁六个	-4010
▁六位	-4011
▁净化	-4012
▁净的	-4013
▁别看	-4014
▁压力	-4015
▁吃过	-4016
▁妥善	-4017
▁妹三	-4018
▁妹再	-4019
▁季多	-4020
▁季花	-4021
▁异域	-4022
▁揭牌	-4023
▁揭示	-4024
▁映成	-4025
▁朝着	-4026
▁止他	-4027
▁毕生	-4028
▁毕竟	-4029
▁汉子	-4030
▁汉简	-4031
▁泾村	-4032
▁渡过	-4033
▁渡邕	-4034
▁滚滚	-4035
▁爆炸	-4036
▁牵挂	-4037
▁玉明	-4038
▁畜牧	-4039
一样坚	-4040
不同角	-4041
团同样	-4042
园区焦	-4043
国旗升	-4044
国的命	-4045
国防始	-4046
国防部	-4047
在一起	-4048
在全县	-4049
在发生	-4050
在各地	-4051
在深圳	-4052
在的星	-4053
在的深	-4054
在自民	-4055
在这里	-4056
在金色	-4057
地区阴	-4058
地平静	-4059
地接纳	-4060
地进入	-4061
型演员	-4062
处是欢	-4063
多不同	-4064
多少付	-4065
多的笑	-4066
大业将	-4067
大会后	-4068
大农场	-4069
大型温	-4070
大建筑	-4071
大成绩	-4072
大街狂	-4073
好像置	-4074
学习观	-4075
学开创	-4076
安全返	-4077
实地写	-4078
对使用	-4079
对这些	-4080
将对新	-4081
小农场	-4082
少年军	-4083
尽是那	-4084
层经营	-4085
展之作	-4086
山一直	-4087
山来到	-4088
广普及	-4089
广西又	-4090
底子厚	-4091
度自然	-4092
开来的	-4093
开馆牌	-4094
当时的	-4095
往里窥	-4096
得到保	-4097
心国防	-4098
性新闻	-4099
▁抵达	-4100
▁敞开	-4101
▁狭窄	-4102
一些动	-4103
为中心	-4104
了这个	-4105
伟报道	-4106
作者将	-4107
作者的	-4108
光大的	-4109
全部冲	-4110
全部撤	-4111
全部达	-4112
刚报道	-4113
创作演	-4114
到了离	-4115
华夏浩	-4116
在一些	-4117
多一些	-4118
学者的	-4119
将过去	-4120
工作者	-4121
年时间	-4122
总人数	-4123
总统扎	-4124
总统金	-4125
惯于用	-4126
意本领	-4127
成了两	-4128
成了适	-4129
成功一	-4130
我以为	-4131
或新建	-4132
所统计	-4133
手本领	-4134
扫除了	-4135
技法也	-4136
抓不懈	-4137
拟定了	-4138
挂起来	-4139
指被炸	-4140
推广普	-4141
支民间	-4142
政策下	-4143
文化遗	-4144
斯大街	-4145
斯科夫	-4146
新内容	-4147
新时期	-4148
新风采	-4149
无党派	-4150
无记忆	-4151
日报资	-4152
旧的厂	-4153
明确指	-4154
明这一	-4155
是使用	-4156
是做得	-4157
是发达	-4158
是工商	-4159
是广西	-4160
是明确	-4161
是艰巨	-4162
是这个	-4163
有关推	-4164
有对当	-4165
有所扩	-4166
有所遏	-4167
有方法	-4168
有气温	-4169
有的被	-4170
期的读	-4171
期间享	-4172
朽之作	-4173
村民开	-4174
村里的	-4175
来了办	-4176
来了小	-4177
极不相	-4178
标志着	-4179
次以上	-4180
步实施	-4181
每年召	-4182
每年拿	-4183
比去年	-4184
民主共	-4185
气温低	-4186
水时间	-4187
水的利	-4188
活动别	-4189
活动的	-4190
满全球	-4191
激光冷	-4192
灾事迹	-4193
爱好者	-4194
特比赛	-4195
玩的好	-4196
现实表	-4197
理之所	-4198
生产粮	-4199
▁吐鲁	-4200
▁吴宗	-4201
▁吴邦	-4202
▁嘉奖	-4203
▁嘉年	-4204
▁壮丽	-4205
▁壮族	-4206
▁壮歌	-4207
▁奏了	-4208
▁字与	-4209
▁审与	-4210
▁审议	-4211
▁宾朋	-4212
▁征着	-4213
▁忠心	-4214
▁招一	-4215
▁招待	-4216
▁招收	-4217
▁援助	-4218
▁援韩	-4219
▁料货	-4220
▁暖湿	-4221
▁木刻	-4222
▁朱镕	-4223
▁桥本	-4224
▁毛同	-4225
▁浓郁	-4226
▁烟稀	-4227
▁瓦买	-4228
▁瓦希	-4229
▁瓦材	-4230
▁瓦西	-4231
▁税超	-4232
▁竟涨	-4233
▁竟然	-4234
▁翻译	-4235
▁翻读	-4236
▁脸丰	-4237
▁范围	-4238
▁获益	-4239
▁菲卫	-4240
▁贾励	-4241
▁贾建	-4242
▁贾昭	-4243
▁跃跃	-4244
▁透视	-4245
▁邮政	-4246
▁雄强	-4247
▁露脸	-4248
生产风	-4249
生动读	-4250
生动鲜	-4251
生活在	-4252
生活的	-4253
生部长	-4254
用水放	-4255
用水谁	-4256
用笔精	-4257
由之路	-4258
电视塔	-4259
的中华	-4260
的中学	-4261
的事迹	-4262
的人生	-4263
的人际	-4264
的信念	-4265
的内容	-4266
的到来	-4267
的十五	-4268
的厂子	-4269
的回忆	-4270
的地方	-4271
的好奇	-4272
的好风	-4273
的姑妈	-4274
的学术	-4275
的审视	-4276
的审议	-4277
的年轻	-4278
的心灵	-4279
的情思	-4280
的政策	-4281
的文献	-4282
的文艺	-4283
的新居	-4284
的时候	-4285
的最新	-4286
的最深	-4287
的气候	-4288
的沉稳	-4289
的温暖	-4290
的火炮	-4291
的火车	-4292
的电视	-4293
的经历	-4294
的经验	-4295
的美术	-4296
的行列	-4297
的行政	-4298
的西欧	-4299
———	-4300
”、“	-4301
▁亮白	-4302
▁亮的	-4303
▁偿还	-4304
▁兑换	-4305
▁典还	-4306
▁刻哲	-4307
▁刻都	-4308
▁执拗	-4309
▁租私	-4310
▁租金	-4311
▁织在	-4312
▁绩是	-4313
▁绿影	-4314
▁聚一	-4315
▁舞动	-4316
▁苏联	-4317
▁苦功	-4318
▁请代	-4319
▁请有	-4320
▁请求	-4321
▁谢里	-4322
▁越那	-4323
▁速路	-4324
▁钟山	-4325
▁钟情	-4326
▁钟爱	-4327
▁限性	-4328
▁龙舞	-4329
万人奋	-4330
其总额	-4331
农民真	-4332
农民自	-4333
宫广场	-4334
年新年	-4335
文并茂	-4336
无事故	-4337
显下降	-4338
的西部	-4339
的评论	-4340
的重庆	-4341
的风采	-4342
省区的	-4343
着种种	-4344
石文字	-4345
研成果	-4346
第一条	-4347
第一笔	-4348
第三位	-4349
紧进行	-4350
约能源	-4351
线通信	-4352
织系统	-4353
经过严	-4354
给国防	-4355
统一战	-4356
统一的	-4357
老区办	-4358
者相信	-4359
而一些	-4360
而不懈	-4361
而不用	-4362
能作为	-4363
自发到	-4364
自发地	-4365
致不同	-4366
致问候	-4367
艰巨繁	-4368
色的彩	-4369
节日盛	-4370
节日管	-4371
节来临	-4372
表现力	-4373
表现性	-4374
觉行动	-4375
解的情	-4376
计的严	-4377
认为给	-4378
记者林	-4379
记者陈	-4380
读者对	-4381
资产委	-4382
资金和	-4383
起一股	-4384
起了激	-4385
起的旗	-4386
跟不上	-4387
路人相	-4388
路全长	-4389
轨道朝	-4390
轻农民	-4391
近万亩	-4392
还带着	-4393
这一切	-4394
这个村	-4395
这是俄	-4396
这是卖	-4397
这次喷	-4398
这种愿	-4399
▁修费	-4400
▁响应	-4401
▁响的	-4402
▁境外	-4403
▁声中	-4404
▁夏城	-4405
▁夏鼐	-4406
▁奖励	-4407
▁官董	-4408
▁官邸	-4409
▁差异	-4410
▁师友	-4411
▁师长	-4412
▁席了	-4413
▁扩展	-4414
▁抗洪	-4415
▁搞的	-4416
▁松劲	-4417
▁松欢	-4418
▁架次	-4419
▁架红	-4420
▁核心	-4421
▁桂冠	-4422
▁概和	-4423
▁概括	-4424
▁概是	-4425
▁浩浩	-4426
▁浩然	-4427
▁浩田	-4428
▁源财	-4429
▁潜力	-4430
▁珍惜	-4431
▁珍本	-4432
▁甚高	-4433
▁疆吐	-4434
▁疆安	-4435
▁疆的	-4436
▁辆车	-4437
体平衡	-4438
的风格	-4439
这种缺	-4440
进上海	-4441
进入管	-4442
进行粗	-4443
远远超	-4444
迟不敢	-4445
速公路	-4446
遇到过	-4447
部和东	-4448
部的韩	-4449
里来到	-4450
里祈祷	-4451
重地接	-4452
重新部	-4453
重新露	-4454
锲而不	-4455
长大的	-4456
门力量	-4457
限一般	-4458
随着郊	-4459
青年都	-4460
领新航	-4461
马和圣	-4462
高中版	-4463
高于美	-4464
高效优	-4465
高的敬	-4466
高的荣	-4467
高高挂	-4468
鹏报道	-4469
,198	-4470
,87.	-4471
,88%	-4472
.43‰	-4473
153.	-4474
2023	-4475
226.	-4476
2913	-4477
554.	-4478
8.1%	-4479
▁.49	-4480
▁.55	-4481
▁61—	-4482
▁万加元	-4483
▁上海市	-4484
▁两国建	-4485
▁丰富多	-4486
▁临之际	-4487
▁为平稳	-4488
▁书画集	-4489
▁买回来	-4490
▁二是凡	-4491
▁亦会较	-4492
▁享她劳	-4493
▁亮白昼	-4494
▁亮的国	-4495
▁亮的灶	-4496
▁人的歌	-4497
▁人的独	-4498
▁今年正	-4499
156	-4500
8.4	-4501
80%	-4502
914	-4503
▁丰产	-4504
▁买光	-4505
▁余件	-4506
▁余悸	-4507
▁修正	-4508
▁修筑	-4509
▁培养	-4510
▁尊严	-4511
▁尤以	-4512
▁尤其	-4513
▁恩来	-4514
▁授牌	-4515
▁断了	-4516
▁断深	-4517
▁横下	-4518
▁欣慰	-4519
▁潮有	-4520
▁白就	-4521
▁简直	-4522
▁羊毛	-4523
▁股激	-4524
▁荒山	-4525
▁荒机	-4526
▁荒草	-4527
▁谁受	-4528
▁谁管	-4529
▁配合	-4530
▁配方	-4531
▁阳光	-4532
▁雅乐	-4533
▁预测	-4534
▁预言	-4535
一国占	-4536
个人的	-4537
为主业	-4538
了人的	-4539
人的心	-4540
内外所	-4541
出了动	-4542
出了巨	-4543
出了联	-4544
国家民	-4545
国家的	-4546
国家税	-4547
就业渠	-4548
理会轮	-4549
的人来	-4550
8.4‰	-4551
▁丰产丰	-4552
▁件的再	-4553
▁优化和	-4554
▁伙子家	-4555
▁位于市	-4556
▁位于武	-4557
▁低通胀	-4558
▁何来了	-4559
▁余件和	-4560
▁作为卖	-4561
▁侧台柱	-4562
▁侧目远	-4563
▁俊出席	-4564
▁借以阐	-4565
▁债的巨	-4566
▁值得一	-4567
▁值得纪	-4568
▁假日献	-4569
▁做起来	-4570
▁傍着三	-4571
▁催人泪	-4572
▁催还的	-4573
▁充分地	-4574
▁六位女	-4575
▁兵书可	-4576
▁兵法名	-4577
▁典还采	-4578
▁写到了	-4579
▁冬以来	-4580
▁净的庭	-4581
▁凸现出	-4582
▁则不可	-4583
▁则多持	-4584
▁则多达	-4585
▁创新业	-4586
▁创新高	-4587
▁刻哲理	-4588
▁刻都在	-4589
▁剑平四	-4590
▁剑武安	-4591
▁办好事	-4592
▁功作出	-4593
▁动员会	-4594
▁匠心的	-4595
▁升起的	-4596
▁午夜钟	-4597
▁占全厂	-4598
▁卫生部	-4599
)98	-4600
▁』。	-4601
▁久便	-4602
▁伊兹	-4603
▁伊始	-4604
▁伊朗	-4605
▁划分	-4606
▁勒比	-4607
▁另有	-4608
▁叶利	-4609
▁听到	-4610
▁听她	-4611
▁听见	-4612
▁威胁	-4613
▁岗亭	-4614
▁左图	-4615
▁幅地	-4616
▁幅幅	-4617
▁幅标	-4618
▁找准	-4619
▁斤大	-4620
▁暖亮	-4621
▁束俘	-4622
▁留曲	-4623
▁离合	-4624
▁署在	-4625
▁羊油	-4626
▁若要	-4627
▁莫不	-4628
▁莫大	-4629
▁莫如	-4630
▁莫桑	-4631
▁莫迪	-4632
▁键是	-4633
▁齐全	-4634
下军装	-4635
为他们	-4636
书记黄	-4637
人们急	-4638
人们总	-4639
人们眼	-4640
人们诉	-4641
人民军	-4642
人民齐	-4643
他们代	-4644
他们的	-4645
他们造	-4646
出了心	-4647
务书记	-4648
华大使	-4649
去年仅	-4650
大使之	-4651
是一位	-4652
是一例	-4653
是他们	-4654
着日益	-4655
西亚就	-4656
)982	-4657
3000	-4658
▁举成为	-4659
▁久便着	-4660
▁享誉当	-4661
▁伊始刊	-4662
▁划分都	-4663
▁创作历	-4664
▁勒比和	-4665
▁县之一	-4666
▁参与了	-4667
▁参展的	-4668
▁又一举	-4669
▁双文明	-4670
▁反对分	-4671
▁反对强	-4672
▁叙自己	-4673
▁另一股	-4674
▁另有几	-4675
▁叶利钦	-4676
▁吉祥的	-4677
▁吐鲁番	-4678
▁听她们	-4679
▁听见有	-4680
▁听说后	-4681
▁启人的	-4682
▁吴邦国	-4683
▁吸收某	-4684
▁呈下降	-4685
▁命十七	-4686
▁喷发出	-4687
▁嘉年华	-4688
▁囊人物	-4689
▁团体的	-4690
▁图文兼	-4691
▁土地上	-4692
▁圣约翰	-4693
▁坪上村	-4694
▁堆群培	-4695
▁塘里游	-4696
▁境外客	-4697
▁处于不	-4698
▁处第一	-4699
89%	-4700
▁乎情	-4701
▁乎白	-4702
▁乎降	-4703
▁你们	-4704
▁冲突	-4705
▁刚到	-4706
▁助总	-4707
▁呼声	-4708
▁备受	-4709
▁备和	-4710
▁备的	-4711
▁失正	-4712
▁客户	-4713
▁客观	-4714
▁容之	-4715
▁容地	-4716
▁密而	-4717
▁层互	-4718
▁层大	-4719
▁峰每	-4720
▁排近	-4721
▁火树	-4722
▁火烧	-4723
▁烈感	-4724
▁烈的	-4725
▁秦始	-4726
▁纯真	-4727
▁若到	-4728
▁荣郭	-4729
▁蒙山	-4730
▁觉和	-4731
▁觉得	-4732
▁财长	-4733
▁销合	-4734
▁陈俊	-4735
▁陈维	-4736
▁需感	-4737
▁需求	-4738
▁额为	-4739
中国油	-4740
中国队	-4741
中国青	-4742
中的一	-4743
的一大	-4744
的一支	-4745
的一次	-4746
的风筝	-4747
▁乎情贵	-4748
▁乎白宫	-4749
▁乎降低	-4750
▁全面进	-4751
▁刚到部	-4752
▁危机中	-4753
▁呼声再	-4754
▁备受瞩	-4755
▁备和全	-4756
▁备的品	-4757
▁复苏轨	-4758
▁失正确	-4759
▁失记忆	-4760
▁她们是	-4761
▁如果一	-4762
▁妥善地	-4763
▁妹三人	-4764
▁妹再也	-4765
▁姜春云	-4766
▁媒体曝	-4767
▁字与图	-4768
▁它们就	-4769
▁它的建	-4770
▁安全事	-4771
▁安定了	-4772
▁客人猛	-4773
▁宫广场	-4774
▁容之余	-4775
▁容地兑	-4776
▁密而得	-4777
▁寒问暖	-4778
▁寺院高	-4779
▁导产业	-4780
▁导作用	-4781
▁封面题	-4782
▁尊严的	-4783
▁尤其是	-4784
▁尽快予	-4785
▁尽快送	-4786
▁局一日	-4787
▁层互访	-4788
▁层大花	-4789
▁居民利	-4790
▁居民最	-4791
▁届全国	-4792
▁峰每天	-4793
▁川民间	-4794
▁川联合	-4795
▁左图右	-4796
▁差外地	-4797
▁巷的高	-4798
▁带来可	-4799
10%	-4800
106	-4801
▁丝绸	-4802
▁丝都	-4803
▁众益	-4804
▁住两	-4805
▁住宅	-4806
▁住热	-4807
▁住进	-4808
▁便趋	-4809
▁准军	-4810
▁剧院	-4811
▁医典	-4812
▁医务	-4813
▁即使	-4814
▁即响	-4815
▁厅将	-4816
▁厅里	-4817
▁叙是	-4818
▁叙述	-4819
▁哈蒂	-4820
▁墨运	-4821
▁察提	-4822
▁察那	-4823
▁州市	-4824
▁州等	-4825
▁底子	-4826
▁底色	-4827
▁归来	-4828
▁忘了	-4829
▁念的	-4830
▁怎么	-4831
▁排上	-4832
▁排好	-4833
▁构保	-4834
▁注的	-4835
▁派和	-4836
▁眼于	-4837
▁眼界	-4838
▁籍是	-4839
▁续展	-4840
▁购买	-4841
▁购进	-4842
▁超额	-4843
▁鱼等	-4844
为文学	-4845
之路打	-4846
乡一起	-4847
县行动	-4848
国人民	-4849
等部门	-4850
足文学	-4851
▁丝都湖	-4852
▁众益处	-4853
▁住两个	-4854
▁住热泪	-4855
▁住进上	-4856
▁便趋向	-4857
▁兼并后	-4858
▁兼并额	-4859
▁准军事	-4860
▁医务室	-4861
▁厅将于	-4862
▁叙是很	-4863
▁叙述半	-4864
▁墨运用	-4865
▁察提炼	-4866
▁察那各	-4867
▁州等地	-4868
▁幅度为	-4869
▁幅度增	-4870
▁庆实际	-4871
▁序管制	-4872
▁应当建	-4873
▁底色和	-4874
▁庭进行	-4875
▁引了我	-4876
▁归者请	-4877
▁当地报	-4878
▁录作者	-4879
▁德国自	-4880
▁德国邮	-4881
▁必要担	-4882
▁必要的	-4883
▁忘记的	-4884
▁忠实地	-4885
▁念的转	-4886
▁态相对	-4887
▁怎么抓	-4888
▁思路是	-4889
▁急剧恶	-4890
▁性创作	-4891
▁性和创	-4892
▁恭城瑶	-4893
▁悦地滴	-4894
▁惊天地	-4895
▁惯于用	-4896
▁想起了	-4897
▁感人的	-4898
▁愿提出	-4899
▁临中	-4900
▁临县	-4901
▁临时	-4902
▁互帮	-4903
▁伟大	-4904
▁停机	-4905
▁停留	-4906
▁居多	-4907
▁序幕	-4908
▁或十	-4909
▁或者	-4910
▁材不	-4911
▁材料	-4912
▁极一	-4913
▁派出	-4914
▁激情	-4915
▁登山	-4916
▁益激	-4917
▁禁在	-4918
▁禁地	-4919
▁禁要	-4920
▁约翰	-4921
▁线已	-4922
▁胜之	-4923
▁胜枚	-4924
▁胡继	-4925
▁胡绳	-4926
▁茶色	-4927
▁评分	-4928
▁评选	-4929
▁迎式	-4930
▁迎来	-4931
▁述人	-4932
▁述的	-4933
▁述详	-4934
▁追溯	-4935
▁送旅	-4936
▁阶级	-4937
▁阿布	-4938
▁阿里	-4939
▁难以	-4940
▁震撼	-4941
▁震题	-4942
三结合	-4943
多年来	-4944
大的绿	-4945
好的势	-4946
好的成	-4947
好的照	-4948
媒人士	-4949
年来每	-4950
提前二	-4951
新的节	-4952
新的阵	-4953
的严峻	-4954
的设施	-4955
装系列	-4956
都没有	-4957
▁一年来	-4958
▁临中期	-4959
▁互帮互	-4960
▁停机坪	-4961
▁停留在	-4962
▁坐在一	-4963
▁居多数	-4964
▁戈却万	-4965
▁或十年	-4966
▁或者专	-4967
▁战斗故	-4968
▁所有者	-4969
▁扎实深	-4970
▁托底子	-4971
▁执行旨	-4972
▁扩大对	-4973
▁扫除了	-4974
▁扮演过	-4975
▁批全国	-4976
▁抗洪救	-4977
▁抢客人	-4978
▁抵达家	-4979
▁拖拉机	-4980
▁招收她	-4981
▁拥有下	-4982
▁拿大银	-4983
▁拿起笔	-4984
▁挂起崭	-4985
▁挤在门	-4986
▁揭示在	-4987
▁搜集收	-4988
▁搞好施	-4989
▁敏感尖	-4990
▁敞豪华	-4991
▁散文集	-4992
▁数字表	-4993
▁断深化	-4994
▁新的起	-4995
▁旋律久	-4996
▁旋的古	-4997
▁既有对	-4998
▁早期多	-4999
▁仅如	-5000
▁仅有	-5001
▁仍为	-5002
▁仍在	-5003
▁仍将	-5004
▁低了	-5005
▁何光	-5006
▁何识	-5007
▁何鲁	-5008
▁促效	-5009
▁副委	-5010
▁势头	-5011
▁势跃	-5012
▁午飞	-5013
▁印在	-5014
▁印尼	-5015
▁印的	-5016
▁变化	-5017
▁号码	-5018
▁号示	-5019
▁失传	-5020
▁奋的	-5021
▁寒峭	-5022
▁巨变	-5023
▁录了	-5024
▁录美	-5025
▁怀大	-5026
▁怀疑	-5027
▁批成	-5028
▁抓住	-5029
▁抓大	-5030
▁案头	-5031
▁案最	-5032
▁汇储	-5033
▁汇报	-5034
▁消除	-5035
▁游乐	-5036
▁游人	-5037
▁游客	-5038
▁潮难	-5039
▁独具	-5040
▁装装	-5041
▁贷承	-5042
▁贺卡	-5043
▁郑咏	-5044
▁采访	-5045
▁随手	-5046
▁黄山	-5047
▁黄菊	-5048
响乐团	-5049
▁仅如此	-5050
▁仍为阴	-5051
▁仍将持	-5052
▁何识别	-5053
▁何鲁丽	-5054
▁副委员	-5055
▁势跃然	-5056
▁午飞抵	-5057
▁印在我	-5058
▁印尼国	-5059
▁号示范	-5060
▁失传的	-5061
▁奋的神	-5062
▁完成党	-5063
▁录了行	-5064
▁怀大笑	-5065
▁怀疑的	-5066
▁批成员	-5067
▁早期有	-5068
▁昆明南	-5069
▁春天脚	-5070
▁春的心	-5071
▁春的气	-5072
▁昨天披	-5073
▁显示了	-5074
▁更在于	-5075
▁有时候	-5076
▁未能如	-5077
▁朽之作	-5078
▁材不必	-5079
▁村成为	-5080
▁杜比宁	-5081
▁杨子才	-5082
▁松欢快	-5083
▁构保持	-5084
▁构成了	-5085
▁某一题	-5086
▁柳林县	-5087
▁校等附	-5088
▁根本不	-5089
▁格外高	-5090
▁桂林漓	-5091
▁案最多	-5092
▁档次的	-5093
▁欠账太	-5094
▁欢乐祥	-5095
▁每年入	-5096
▁每年有	-5097
▁毛同恺	-5098
▁水的利	-5099
▁令两	-5100
▁令观	-5101
▁切关	-5102
▁升起	-5103
▁卡翁	-5104
▁命令	-5105
▁命脉	-5106
▁域性	-5107
▁域有	-5108
▁夜天	-5109
▁夜深	-5110
▁奥迪	-5111
▁己放	-5112
▁己的	-5113
▁承前	-5114
▁故中	-5115
▁故土	-5116
▁故明	-5117
▁施制	-5118
▁早年	-5119
▁曾敏	-5120
▁未接	-5121
▁未曾	-5122
▁满怀	-5123
▁满水	-5124
▁满足	-5125
▁球把	-5126
▁称为	-5127
▁称谓	-5128
▁笔触	-5129
▁笔讲	-5130
▁终把	-5131
▁罗昌	-5132
▁罗马	-5133
▁背土	-5134
▁胞首	-5135
▁营期	-5136
▁营的	-5137
▁营镇	-5138
▁落海	-5139
▁落进	-5140
▁街头	-5141
▁议政	-5142
▁访中	-5143
▁访时	-5144
▁负总	-5145
▁阿联	-5146
了一份	-5147
了一大	-5148
了一批	-5149
了一种	-5150
制定的	-5151
式开馆	-5152
的工程	-5153
进了两	-5154
▁令观者	-5155
▁切关怀	-5156
▁办了一	-5157
▁卡翁达	-5158
▁域性主	-5159
▁夜深人	-5160
▁己放弃	-5161
▁己的轻	-5162
▁承前启	-5163
▁故中丧	-5164
▁故土与	-5165
▁施制裁	-5166
▁未曾详	-5167
▁永远从	-5168
▁汇储备	-5169
▁江南及	-5170
▁汽车一	-5171
▁沉思的	-5172
▁没收的	-5173
▁洁提出	-5174
▁洁的市	-5175
▁洗车点	-5176
▁浙江率	-5177
▁浙江省	-5178
▁浩田上	-5179
▁涌现出	-5180
▁润五只	-5181
▁淡淡的	-5182
▁淡雅的	-5183
▁游乐园	-5184
▁滚滚硝	-5185
▁满怀信	-5186
▁演员和	-5187
▁演队向	-5188
▁潘大成	-5189
▁潮有广	-5190
▁潮难平	-5191
▁激发了	-5192
▁灰和水	-5193
▁点在于	-5194
▁烈感人	-5195
▁烈的象	-5196
▁热的年	-5197
▁物立传	-5198
▁犹太人	-5199
▁亩地	-5200
▁份地	-5201
▁份施	-5202
▁份额	-5203
▁八月	-5204
▁刘志	-5205
▁刘振	-5206
▁刘明	-5207
▁刘盛	-5208
▁友协	-5209
▁友谊	-5210
▁告后	-5211
▁告辞	-5212
▁告重	-5213
▁园里	-5214
▁围内	-5215
▁士学	-5216
▁头人	-5217
▁头捐	-5218
▁套特	-5219
▁孙子	-5220
▁岭攀	-5221
▁座都	-5222
▁愿干	-5223
▁愿者	-5224
▁愿这	-5225
▁扎达	-5226
▁拉克	-5227
▁按正	-5228
▁捐衣	-5229
▁望无	-5230
▁求得	-5231
▁洞箫	-5232
▁热气	-5233
▁热门	-5234
▁献给	-5235
▁献辞	-5236
▁福在	-5237
▁类的	-5238
▁议和	-5239
▁讯导	-5240
▁讯据	-5241
▁较少	-5242
▁郑振	-5243
▁鲜半	-5244
▁鲜红	-5245
▁鲜花	-5246
▁予以救	-5247
▁亩地诞	-5248
▁份施政	-5249
▁刘志丹	-5250
▁刘振英	-5251
▁刘盛威	-5252
▁告后人	-5253
▁告重申	-5254
▁园里到	-5255
▁垦区累	-5256
▁士学位	-5257
▁头捐款	-5258
▁套特制	-5259
▁孙子兵	-5260
▁座都市	-5261
▁愿者为	-5262
▁愿这声	-5263
▁扎达县	-5264
▁拉克与	-5265
▁按正常	-5266
▁捐衣捐	-5267
▁望无法	-5268
▁求得答	-5269
▁洞箫横	-5270
▁热气的	-5271
▁热门话	-5272
▁独具风	-5273
▁率作用	-5274
▁率平均	-5275
▁玩具抱	-5276
▁珠塔内	-5277
▁琼斯指	-5278
▁瑞士等	-5279
▁瓦买提	-5280
▁瓦希涅	-5281
▁瓦材料	-5282
▁瓦西姆	-5283
▁甚至劳	-5284
▁田一样	-5285
▁画创作	-5286
▁画家之	-5287
▁画技法	-5288
▁畅销一	-5289
▁留曲目	-5290
▁畜产品	-5291
▁疆南部	-5292
▁疆安度	-5293
▁病防治	-5294
▁白就欠	-5295
▁盆内盛	-5296
▁益意识	-5297
▁益激烈	-5298
▁直接帮	-5299
▁专致	-5300
▁专题	-5301
▁仍处	-5302
▁依恋	-5303
▁依赖	-5304
▁依靠	-5305
▁养的	-5306
▁养量	-5307
▁兼具	-5308
▁兼国	-5309
▁半数	-5310
▁半身	-5311
▁半部	-5312
▁周六	-5313
▁存在	-5314
▁它促	-5315
▁它给	-5316
▁布局	-5317
▁布置	-5318
▁希萨	-5319
▁彩旗	-5320
▁景下	-5321
▁景的	-5322
▁术广	-5323
▁术著	-5324
▁林皎	-5325
▁温棚	-5326
▁温洁	-5327
▁献和	-5328
▁百一	-5329
▁百六	-5330
▁百分	-5331
▁纪录	-5332
▁编撰	-5333
▁编纂	-5334
▁编著	-5335
▁花小	-5336
▁花洲	-5337
▁花献	-5338
▁花鸟	-5339
▁该刊	-5340
▁该局	-5341
▁该展	-5342
▁该报	-5343
▁门之	-5344
▁门对	-5345
▁降国	-5346
▁院的	-5347
▁飞越	-5348
▁飞通	-5349
▁马斯	-5350
▁马普	-5351
▁马那	-5352
▁驻足	-5353
央气象	-5354
▁专致精	-5355
▁仍处于	-5356
▁养量达	-5357
▁兼具觉	-5358
▁兼国务	-5359
▁半身探	-5360
▁半部论	-5361
▁周六和	-5362
▁布置现	-5363
▁希萨诺	-5364
▁彩旗飘	-5365
▁景的细	-5366
▁术广度	-5367
▁术著作	-5368
▁渡期的	-5369
▁献和考	-5370
▁百一十	-5371
▁百六十	-5372
▁百分点	-5373
▁直间隔	-5374
▁看到一	-5375
▁看好的	-5376
▁真实写	-5377
▁真实的	-5378
▁真情难	-5379
▁真的能	-5380
▁眼光的	-5381
▁眼界顿	-5382
▁硬碰硬	-5383
▁确实知	-5384
▁确实罕	-5385
▁确程度	-5386
▁禁在他	-5387
▁禁要问	-5388
▁离不开	-5389
▁离合悲	-5390
▁秀的文	-5391
▁种用水	-5392
▁租私房	-5393
▁秦始皇	-5394
▁称不上	-5395
▁税超千	-5396
▁穷乐趣	-5397
▁竖起鸣	-5398
▁竟然消	-5399
▁价和	-5400
▁价的	-5401
▁光大	-5402
▁兴修	-5403
▁兴建	-5404
▁兴的	-5405
▁兵中	-5406
▁写下	-5407
▁写生	-5408
▁却仍	-5409
▁却会	-5410
▁却传	-5411
▁却在	-5412
▁却并	-5413
▁却很	-5414
▁却未	-5415
▁口岸	-5416
▁口的	-5417
▁古籍	-5418
▁均数	-5419
▁女们	-5420
▁女性	-5421
▁很多	-5422
▁很好	-5423
▁很小	-5424
▁必先	-5425
▁必学	-5426
▁必求	-5427
▁快上	-5428
▁才名	-5429
▁才学	-5430
▁才把	-5431
▁才知	-5432
▁歌曲	-5433
▁歌舞	-5434
▁热络	-5435
▁照顾	-5436
▁确所	-5437
▁确规	-5438
▁见就	-5439
▁视学	-5440
▁警严	-5441
▁警方	-5442
▁警示	-5443
▁谋划	-5444
▁谋计	-5445
▁运行	-5446
▁造和	-5447
▁震要	-5448
一年严	-5449
一年来	-5450
其文字	-5451
同上年	-5452
市一年	-5453
拦而不	-5454
美元跌	-5455
▁价和边	-5456
▁光大道	-5457
▁兴的喜	-5458
▁写下的	-5459
▁却仍然	-5460
▁却会深	-5461
▁却传播	-5462
▁却很少	-5463
▁却未止	-5464
▁女们则	-5465
▁很多人	-5466
▁必先亡	-5467
▁必学精	-5468
▁必求精	-5469
▁快上马	-5470
▁才名将	-5471
▁才知道	-5472
▁拦而不	-5473
▁歌舞升	-5474
▁目前费	-5475
▁确所有	-5476
▁确规定	-5477
▁笔讲究	-5478
▁笛大军	-5479
▁笛子竖	-5480
▁第一手	-5481
▁第一条	-5482
▁简直能	-5483
▁类图书	-5484
▁类大型	-5485
▁类的书	-5486
▁素相对	-5487
▁累计发	-5488
▁纵死终	-5489
▁线已完	-5490
▁结过去	-5491
▁绘画透	-5492
▁给全市	-5493
▁给其他	-5494
▁绝不会	-5495
▁绩是值	-5496
▁绿影扶	-5497
▁缓其运	-5498
▁缓缓行	-5499
▁值则	-5500
▁值都	-5501
▁做人	-5502
▁做法	-5503
▁光去	-5504
▁光明	-5505
▁减灾	-5506
▁因为	-5507
▁因根	-5508
▁因素	-5509
▁型的	-5510
▁头村	-5511
▁巴黎	-5512
▁手脚	-5513
▁扶桑	-5514
▁接踵	-5515
▁接过	-5516
▁旗为	-5517
▁春意	-5518
▁春来	-5519
▁春步	-5520
▁春秋	-5521
▁权利	-5522
▁果敢	-5523
▁果永	-5524
▁标中	-5525
▁格套	-5526
▁比前	-5527
▁比原	-5528
▁比赛	-5529
▁比都	-5530
▁治国	-5531
▁清剿	-5532
▁清晨	-5533
▁王光	-5534
▁王宫	-5535
▁王朝	-5536
▁王统	-5537
▁王鸿	-5538
▁直无	-5539
▁秋两	-5540
▁腐败	-5541
▁航人	-5542
▁航天	-5543
▁航线	-5544
▁观念	-5545
▁读这	-5546
▁调放	-5547
▁身影	-5548
▁身的	-5549
▁身着	-5550
▁连接	-5551
▁防汛	-5552
▁防治	-5553
▁亦在此	-5554
▁值则提	-5555
▁做法是	-5556
▁光去看	-5557
▁内全部	-5558
▁因根本	-5559
▁坐在李	-5560
▁头村由	-5561
▁扶桑时	-5562
▁接踵而	-5563
▁春来早	-5564
▁春步步	-5565
▁春秋战	-5566
▁期以来	-5567
▁果敢地	-5568
▁果永毅	-5569
▁比原先	-5570
▁治国平	-5571
▁王光英	-5572
▁王宫里	-5573
▁王朝瑞	-5574
▁王统照	-5575
▁王鸿举	-5576
▁直无暇	-5577
▁秋两季	-5578
▁编选者	-5579
▁缘到南	-5580
▁网的组	-5581
▁罗昌爱	-5582
▁署在总	-5583
▁羊毛绒	-5584
▁羽毛洁	-5585
▁翻一番	-5586
▁耕地面	-5587
▁耶德很	-5588
▁耶德手	-5589
▁联系和	-5590
▁肯古代	-5591
▁肯定地	-5592
▁胆的尝	-5593
▁背土造	-5594
▁胜之道	-5595
▁胞首次	-5596
▁胡继鸿	-5597
▁能出现	-5598
▁脸丰收	-5599
▁况画	-5600
▁努达	-5601
▁千名	-5602
▁千里	-5603
▁双边	-5604
▁反复	-5605
▁反应	-5606
▁她忠	-5607
▁她那	-5608
▁帮困	-5609
▁帮扶	-5610
▁常任	-5611
▁常常	-5612
▁引述	-5613
▁影留	-5614
▁往日	-5615
▁往来	-5616
▁德想	-5617
▁德给	-5618
▁态村	-5619
▁想到	-5620
▁感到	-5621
▁手张	-5622
▁手的	-5623
▁承包	-5624
▁教子	-5625
▁朱光	-5626
▁构严	-5627
▁梅花	-5628
▁没开	-5629
▁然兴	-5630
▁率高	-5631
▁看中	-5632
▁研经	-5633
▁祝愿	-5634
▁祝谦	-5635
▁脑静	-5636
▁费已	-5637
▁费比	-5638
▁走村	-5639
▁那么	-5640
▁量引	-5641
▁况画面	-5642
▁努达美	-5643
▁千名男	-5644
▁反复论	-5645
▁她忠于	-5646
▁她那无	-5647
▁常任理	-5648
▁常常要	-5649
▁引述一	-5650
▁影留念	-5651
▁往日的	-5652
▁往来和	-5653
▁德想不	-5654
▁忧其一	-5655
▁手张爱	-5656
▁手的特	-5657
▁承包耕	-5658
▁教子的	-5659
▁朱光亚	-5660
▁构严谨	-5661
▁没开口	-5662
▁然兴起	-5663
▁率高达	-5664
▁研经费	-5665
▁脑静静	-5666
▁腮的颜	-5667
▁舍大街	-5668
▁舞动着	-5669
▁航人人	-5670
▁良好开	-5671
▁花小钱	-5672
▁花洲文	-5673
▁芳香的	-5674
▁若到张	-5675
▁苦功夫	-5676
▁英国全	-5677
▁英国早	-5678
▁荡在冬	-5679
▁荣郭凯	-5680
▁莫不为	-5681
▁莫大欣	-5682
▁莫迪凯	-5683
▁获益颇	-5684
▁营生产	-5685
▁营的试	-5686
▁萨尔图	-5687
▁落海声	-5688
▁落进大	-5689
▁董其中	-5690
▁蒙山腹	-5691
▁虽然在	-5692
▁虽然渐	-5693
▁蛋鸡饲	-5694
▁血与火	-5695
▁血之作	-5696
▁街头经	-5697
▁衡到失	-5698
▁衷心的	-5699
▁东南	-5700
▁东城	-5701
▁东方	-5702
▁云龙	-5703
▁决策	-5704
▁几滴	-5705
▁卢巴	-5706
▁厂房	-5707
▁培的	-5708
▁应小	-5709
▁应收	-5710
▁整治	-5711
▁整理	-5712
▁整齐	-5713
▁术界	-5714
▁框架	-5715
▁欢人	-5716
▁欢快	-5717
▁步伐	-5718
▁步正	-5719
▁深入	-5720
▁深地	-5721
▁深层	-5722
▁瓜果	-5723
▁科学	-5724
▁程序	-5725
▁程度	-5726
▁立业	-5727
▁立方	-5728
▁级难	-5729
▁艺节	-5730
▁规范	-5731
▁贫穷	-5732
▁费用	-5733
▁转轨	-5734
▁转转	-5735
▁银川	-5736
▁颜六	-5737
▁鲜明	-5738
到中雪	-5739
组来到	-5740
部门在	-5741
▁东城区	-5742
▁东方明	-5743
▁几滴雨	-5744
▁劳动者	-5745
▁培的壮	-5746
▁应小觑	-5747
▁整理出	-5748
▁整齐地	-5749
▁框架的	-5750
▁欢人群	-5751
▁深入到	-5752
▁深地打	-5753
▁深层次	-5754
▁由市财	-5755
▁程度地	-5756
▁立方米	-5757
▁级难题	-5758
▁艺节目	-5759
▁见以为	-5760
▁见到过	-5761
▁视为主	-5762
▁视农村	-5763
▁览馆等	-5764
▁觉得该	-5765
▁角村还	-5766
▁触到了	-5767
▁誓词伴	-5768
▁警严格	-5769
▁讯导航	-5770
▁讲文明	-5771
▁访中美	-5772
▁访时说	-5773
▁评选出	-5774
▁该刊创	-5775
▁该报评	-5776
▁该画集	-5777
▁读者办	-5778
▁谁受益	-5779
▁谋计纷	-5780
▁谢里夫	-5781
▁负总责	-5782
▁财政义	-5783
▁费下降	-5784
▁费已由	-5785
▁费比额	-5786
▁走出底	-5787
▁走村串	-5788
▁超额完	-5789
▁越那里	-5790
▁足读者	-5791
▁跟不上	-5792
▁路全长	-5793
▁踏步前	-5794
▁踏着晨	-5795
▁踏花被	-5796
▁身的英	-5797
▁载光辉	-5798
▁较上年	-5799
▁.6	-5800
▁二年	-5801
▁二月	-5802
▁五年	-5803
▁五百	-5804
▁些老	-5805
▁京城	-5806
▁亿人	-5807
▁但一	-5808
▁但以	-5809
▁但只	-5810
▁但要	-5811
▁入冬	-5812
▁协作	-5813
▁原因	-5814
▁原来	-5815
▁又不	-5816
▁台上	-5817
▁台用	-5818
▁回应	-5819
▁图书	-5820
▁处的	-5821
▁少也	-5822
▁局上	-5823
▁局部	-5824
▁带以	-5825
▁带回	-5826
▁带头	-5827
▁帷幄	-5828
▁张彦	-5829
▁张有	-5830
▁战争	-5831
▁据宣	-5832
▁据悉	-5833
▁放在	-5834
▁数多	-5835
▁数将	-5836
▁数逾	-5837
▁条例	-5838
▁样是	-5839
▁样来	-5840
▁每篇	-5841
▁法治	-5842
▁演练	-5843
▁点评	-5844
▁省区	-5845
▁积占	-5846
▁给我	-5847
▁给本	-5848
▁致意	-5849
▁道上	-5850
▁道路	-5851
▁钢架	-5852
▁队一	-5853
▁队设	-5854
▁音能	-5855
▁馆也	-5856
▁二月回	-5857
▁五百公	-5858
▁些老年	-5859
▁亿人同	-5860
▁他们针	-5861
▁但一大	-5862
▁但以女	-5863
▁但只限	-5864
▁但要对	-5865
▁偿还布	-5866
▁又不针	-5867
▁台用不	-5868
▁图书馆	-5869
▁处的回	-5870
▁局部进	-5871
▁带以节	-5872
▁带回的	-5873
▁张有着	-5874
▁数多超	-5875
▁数将达	-5876
▁样是财	-5877
▁每篇必	-5878
▁澳日报	-5879
▁给我看	-5880
▁给本来	-5881
▁辆车上	-5882
▁输入电	-5883
▁输到监	-5884
▁过其他	-5885
▁迈出了	-5886
▁迎来建	-5887
▁这一兼	-5888
▁这一消	-5889
▁这个乐	-5890
▁这种交	-5891
▁迟迟不	-5892
▁述人事	-5893
▁述的不	-5894
▁述详实	-5895
▁送旅客	-5896
▁选出了	-5897
▁造和扩	-5898
▁造自然	-5899
▁76	-5900
▁久不	-5901
▁九七	-5902
▁乡就	-5903
▁位置	-5904
▁刊订	-5905
▁去上	-5906
▁取向	-5907
▁取消	-5908
▁取舍	-5909
▁名村	-5910
▁名的	-5911
▁城县	-5912
▁城脚	-5913
▁定会	-5914
▁定要	-5915
▁干道	-5916
▁强烈	-5917
▁意识	-5918
▁把两	-5919
▁收益	-5920
▁明天	-5921
▁此一	-5922
▁此中	-5923
▁治病	-5924
▁海和	-5925
▁种植	-5926
▁群团	-5927
▁老年	-5928
▁老板	-5929
▁老马	-5930
▁西方	-5931
▁西是	-5932
▁谨代	-5933
▁跨入	-5934
▁近几	-5935
▁近日	-5936
▁都是	-5937
▁问她	-5938
▁间公	-5939
▁队与	-5940
▁首尾	-5941
▁首席	-5942
▁首批	-5943
一下当	-5944
使深圳	-5945
到了冬	-5946
▁久不衰	-5947
▁九七年	-5948
▁修水利	-5949
▁刊订阅	-5950
▁去上学	-5951
▁取消了	-5952
▁取舍上	-5953
▁名村子	-5954
▁名的富	-5955
▁城脚下	-5956
▁定会好	-5957
▁定要挑	-5958
▁干道设	-5959
▁把两者	-5960
▁新年将	-5961
▁此一项	-5962
▁此中南	-5963
▁海和黄	-5964
▁群团团	-5965
▁老年病	-5966
▁老马去	-5967
▁西是个	-5968
▁谨代表	-5969
▁跨入了	-5970
▁遇到强	-5971
▁遍与特	-5972
▁那里是	-5973
▁邮电业	-5974
▁郑先生	-5975
▁郑州最	-5976
▁郑成功	-5977
▁里之外	-5978
▁重点扶	-5979
▁钟山煤	-5980
▁钢架砖	-5981
▁铺盖卷	-5982
▁销合同	-5983
▁锲而不	-5984
▁镇过去	-5985
▁门之上	-5986
▁间公认	-5987
▁阔前景	-5988
▁队一定	-5989
▁队展示	-5990
▁队设立	-5991
▁阳光明	-5992
▁阿布扎	-5993
▁阿联酋	-5994
▁陆机是	-5995
▁陈俊生	-5996
▁陈维伟	-5997
▁院的讲	-5998
▁险动作	-5999
▁三和	-6000
▁严而	-6001
▁举措	-6002
▁也诚	-6003
▁体制	-6004
▁体现	-6005
▁保命	-6006
▁保安	-6007
▁保定	-6008
▁保深	-6009
▁制区	-6010
▁增大	-6011
▁增收	-6012
▁天一	-6013
▁好的	-6014
▁好经	-6015
▁好转	-6016
▁如有	-6017
▁子们	-6018
▁安在	-6019
▁并且	-6020
▁并向	-6021
▁得多	-6022
▁得而	-6023
▁情节	-6024
▁投劳	-6025
▁报纸	-6026
▁推向	-6027
▁无不	-6028
▁无家	-6029
▁无情	-6030
▁最后	-6031
▁最近	-6032
▁江截	-6033
▁江西	-6034
▁用小	-6035
▁由此	-6036
▁由自	-6037
▁罗干	-6038
▁能力	-6039
▁表演	-6040
▁解困	-6041
▁赞誉	-6042
▁过程	-6043
▁还有	-6044
▁通报	-6045
▁那就	-6046
▁金泳	-6047
人们也	-6048
伐加大	-6049
会之所	-6050
期志愿	-6051
▁一个人	-6052
▁三和当	-6053
▁严而锐	-6054
▁伐加大	-6055
▁体现那	-6056
▁保命田	-6057
▁保定一	-6058
▁保深及	-6059
▁具有继	-6060
▁增收千	-6061
▁天一响	-6062
▁好经理	-6063
▁如有必	-6064
▁并且摆	-6065
▁得而知	-6066
▁情节性	-6067
▁投劳兴	-6068
▁推向前	-6069
▁无不感	-6070
▁无家可	-6071
▁无情更	-6072
▁春天即	-6073
▁江截流	-6074
▁江西泰	-6075
▁用小说	-6076
▁罗干及	-6077
▁能力的	-6078
▁表演队	-6079
▁那就得	-6080
▁金泳三	-6081
▁难以言	-6082
▁雅乐伴	-6083
▁雨是欢	-6084
▁雪域文	-6085
▁雪域高	-6086
▁零三幅	-6087
▁零下数	-6088
▁需一遍	-6089
▁需感受	-6090
▁震题写	-6091
▁露出来	-6092
▁韩国后	-6093
▁韩国输	-6094
▁音能传	-6095
▁颇有名	-6096
▁颜六色	-6097
▁馆也正	-6098
▁首席大	-6099
▁6%	-6100
▁60	-6101
▁98	-6102
▁丁关	-6103
▁从它	-6104
▁从而	-6105
▁代的	-6106
▁使其	-6107
▁元一	-6108
▁公路	-6109
▁公里	-6110
▁前夕	-6111
▁加元	-6112
▁北国	-6113
▁十二	-6114
▁十倍	-6115
▁卷台	-6116
▁可先	-6117
▁可能	-6118
▁小康	-6119
▁就是	-6120
▁已有	-6121
▁平均	-6122
▁平川	-6123
▁平等	-6124
▁广到	-6125
▁当然	-6126
▁心灵	-6127
▁心眼	-6128
▁方案	-6129
▁村落	-6130
▁正在	-6131
▁物馆	-6132
▁特产	-6133
▁特点	-6134
▁特色	-6135
▁畅顺	-6136
▁着这	-6137
▁等行	-6138
▁而恰	-6139
▁而生	-6140
▁而解	-6141
▁而这	-6142
▁行行	-6143
▁费者	-6144
▁起欢	-6145
▁起死	-6146
▁起色	-6147
▁通告	-6148
▁部门	-6149
▁面临	-6150
▁高架	-6151
在形象	-6152
地加以	-6153
▁丁关根	-6154
▁从而在	-6155
▁伍绍祖	-6156
▁使其作	-6157
▁元一市	-6158
▁北国大	-6159
▁十二月	-6160
▁卷台澎	-6161
▁可先由	-6162
▁就是当	-6163
▁村落创	-6164
▁着这来	-6165
▁等行列	-6166
▁而恰恰	-6167
▁而这批	-6168
▁行行长	-6169
▁起欢度	-6170
▁起死回	-6171
▁震要比	-6172
▁马普托	-6173
▁马那瓜	-6174
▁驻足留	-6175
▁高丽生	-6176
▁黄河岸	-6177
▁黄河腹	-6178
▁黎人有	-6179
▁龚自珍	-6180
一举中标	-6181
一九九八	-6182
一些动人	-6183
一家年产	-6184
一家证券	-6185
万人奋勇	-6186
不断切换	-6187
个人的直	-6188
中国的巨	-6189
中的一股	-6190
中的作用	-6191
为主业者	-6192
为他们率	-6193
主地加入	-6194
之外的奇	-6195
乏成功之	-6196
了一个伟	-6197
了一大步	-6198
了一条龙	-6199
▁30	-6200
▁万亿	-6201
▁万国	-6202
▁万多	-6203
▁上午	-6204
▁不住	-6205
▁不绝	-6206
▁与以	-6207
▁为此	-6208
▁主要	-6209
▁二分	-6210
▁他和	-6211
▁他把	-6212
▁以有	-6213
▁会上	-6214
▁全区	-6215
▁全市	-6216
▁全方	-6217
▁全部	-6218
▁其间	-6219
▁到阿	-6220
▁包的	-6221
▁华总	-6222
▁各地	-6223
▁各界	-6224
▁各项	-6225
▁同样	-6226
▁地说	-6227
▁地震	-6228
▁多少	-6229
▁学员	-6230
▁学和	-6231
▁学生	-6232
▁实事	-6233
▁实际	-6234
▁家园	-6235
▁家水	-6236
▁开展	-6237
▁成效	-6238
▁我国	-6239
▁日电	-6240
▁日益	-6241
▁来源	-6242
▁此举	-6243
▁比在	-6244
▁源发	-6245
▁物的	-6246
▁生机	-6247
▁自叙	-6248
▁自豪	-6249
▁要把	-6250
▁要求	-6251
▁贺电	-6252
▁这批	-6253
▁这条	-6254
▁这样	-6255
▁进程	-6256
▁重任	-6257
▁陈国	-6258
▁顶着	-6259
▁风东	-6260
▁马泽	-6261
工厂又	-6262
▁万亿日	-6263
▁万国权	-6264
▁万多册	-6265
▁与以往	-6266
▁中国驻	-6267
▁他和普	-6268
▁全方位	-6269
▁到阿里	-6270
▁包的饺	-6271
▁华总商	-6272
▁各地凡	-6273
▁学和浸	-6274
▁概和精	-6275
▁此举赢	-6276
▁比在阔	-6277
▁渡过难	-6278
▁源发电	-6279
▁物的外	-6280
▁要把青	-6281
▁购金额	-6282
▁陆机在	-6283
▁陈国琦	-6284
▁顶着寒	-6285
▁风东渐	-6286
▁马泽尔	-6287
下步入宽	-6288
了人的本	-6289
了这一激	-6290
了这一点	-6291
于一九六	-6292
于用来保	-6293
云的事迹	-6294
亚总统奇	-6295
交给国防	-6296
产业的兴	-6297
亭全部撤	-6298
人民军队	-6299
)’	-6300
▁魂	-6301
▁魄	-6302
▁魅	-6303
▁鲍	-6304
▁鲤	-6305
▁龄	-6306
下为	-6307
两翼	-6308
产千	-6309
以大	-6310
党魂	-6311
农垦	-6312
在超	-6313
地注	-6314
对照	-6315
展出	-6316
数百	-6317
有四	-6318
有过	-6319
望并	-6320
欢聚	-6321
永泉	-6322
法官	-6323
色便	-6324
被圈	-6325
赶到	-6326
身闯	-6327
鸟之	-6328
默眺	-6329
300	-6330
▁一年	-6331
▁一样	-6332
▁一步	-6333
▁东部	-6334
▁中秋	-6335
▁亩均	-6336
▁人次	-6337
▁人群	-6338
▁但当	-6339
▁余项	-6340
▁兴盛	-6341
▁势在	-6342
▁十位	-6343
▁在河	-6344
▁在谈	-6345
▁在隆	-6346
▁大厅	-6347
▁幅趋	-6348
▁庄乡	-6349
▁排放	-6350
▁救灾	-6351
▁浩荡	-6352
▁的大	-6353
▁的手	-6354
▁的是	-6355
▁脚踏	-6356
▁觉性	-6357
▁路下	-6358
▁辞典	-6359
▁部署	-6360
▁魄只	-6361
▁魅力	-6362
▁鲍洪	-6363
▁鲤鱼	-6364
▁鸟之	-6365
下为民	-6366
产千斤	-6367
以大办	-6368
地注视	-6369
有过程	-6370
望并采	-6371
▁东部还	-6372
▁亩均收	-6373
▁但当她	-6374
▁余项义	-6375
▁兴盛局	-6376
▁势在必	-6377
▁在河南	-6378
▁在谈到	-6379
▁幅趋缓	-6380
▁格局的	-6381
▁焦作就	-6382
▁的大门	-6383
▁的手心	-6384
▁路下跌	-6385
▁限的绝	-6386
▁馆展出	-6387
▁鲍洪俊	-6388
▁鸡被圈	-6389
▁默默眺	-6390
▁龄青年	-6391
▁龚永泉	-6392
亩产千斤	-6393
人物形象	-6394
从长城脚	-6395
以及新闻	-6396
们一下子	-6397
众理之所	-6398
会上讲了	-6399
9/	-6400
▁霎	-6401
▁霜	-6402
▁霞	-6403
▁霸	-6404
▁韦	-6405
▁韧	-6406
▁顾	-6407
▁颖	-6408
▁颗	-6409
▁飘	-6410
▁餐	-6411
▁饲	-6412
▁饺	-6413
三五	-6414
办学	-6415
后果	-6416
哄抬	-6417
地降	-6418
场等	-6419
天气	-6420
对航	-6421
并有	-6422
斯民	-6423
族阵	-6424
片般	-6425
球飘	-6426
的伴	-6427
破了	-6428
而有	-6429
调低	-6430
鞋磨	-6431
韵盈	-6432
饥饿	-6433
▁单终	-6434
▁命运	-6435
▁回到	-6436
▁太行	-6437
▁算论	-6438
▁肩膀	-6439
▁遍天	-6440
▁霸水	-6441
▁鞋磨	-6442
▁韦耀	-6443
▁韧与	-6444
▁韵盈	-6445
▁颗都	-6446
▁餐桌	-6447
▁饥饿	-6448
▁饲料	-6449
▁饺子	-6450
▁高涨	-6451
人三五	-6452
办学起	-6453
后果不	-6454
场等数	-6455
演员共	-6456
而有趣	-6457
除了亏	-6458
▁103	-6459
▁买回去	-6460
▁伴随着	-6461
▁单终于	-6462
▁太行山	-6463
▁杨子荣	-6464
▁算论点	-6465
▁遍天下	-6466
▁雨天气	-6467
▁雪片般	-6468
▁雷斯民	-6469
▁韧与博	-6470
▁颗都饱	-6471
估计的严	-6472
但气温较	-6473
位中学生	-6474
位都是比	-6475
体有类似	-6476
体有近似	-6477
作出不懈	-6478
信念与倔	-6479
值高于美	-6480
党的温暖	-6481
关部门注	-6482
具现代园	-6483
出来一下	-6484
出音乐节	-6485
分析与阶	-6486
分步实施	-6487
刘华清尉	-6488
创作队伍	-6489
别是工商	-6490
到一位数	-6491
到了冬季	-6492
前已将今	-6493
劈成了两	-6494
动人的画	-6495
化和一体	-6496
十万人处	-6497
华大使带	-6498
南京市科	-6499
▁镶	-6500
▁闭	-6501
▁闸	-6502
▁阖	-6503
▁陀	-6504
▁陪	-6505
▁陷	-6506
▁隐	-6507
▁隔	-6508
▁障	-6509
中调	-6510
了助	-6511
加达	-6512
发放	-6513
名字	-6514
在题	-6515
将再	-6516
工资	-6517
已引	-6518
文崔	-6519
文赋	-6520
村级	-6521
枪声	-6522
江大	-6523
瑞尔	-6524
的压	-6525
被毁	-6526
西城	-6527
观火	-6528
通亿	-6529
鼠和	-6530
”、5	-6531
▁二百	-6532
▁印象	-6533
▁史籍	-6534
▁挤得	-6535
▁比如	-6536
▁现场	-6537
▁理解	-6538
▁离我	-6539
▁篇章	-6540
▁训练	-6541
▁配图	-6542
▁镶嵌	-6543
▁闭路	-6544
▁闸门	-6545
▁防警	-6546
▁陪同	-6547
▁陷入	-6548
▁隔岸	-6549
▁面积	-6550
中调剂	-6551
加达宣	-6552
工资界	-6553
松鼠和	-6554
桥的压	-6555
次将再	-6556
西西城	-6557
通亿载	-6558
▁当时的	-6559
▁投产后	-6560
▁挤得水	-6561
▁比如敞	-6562
▁毫不含	-6563
▁珍贵的	-6564
▁离我家	-6565
▁营镇结	-6566
▁配图时	-6567
▁镇村级	-6568
▁防警卫	-6569
▁陀瑞尔	-6570
▁陵江大	-6571
▁陷入恶	-6572
▁障道路	-6573
▁雅文崔	-6574
人次将再	-6575
光的名字	-6576
出了新的	-6577
占全市查	-6578
厉的时候	-6579
原本是两	-6580
取开放结	-6581
变为一般	-6582
只提前几	-6583
同其他各	-6584
名的国家	-6585
后果不堪	-6586
和无党派	-6587
和自我剖	-6588
和自来水	-6589
和领土完	-6590
四周的卫	-6591
园区分类	-6592
国家的赞	-6593
国防部证	-6594
在各地确	-6595
在国外才	-6596
在的深层	-6597
在自民党	-6598
在这里隆	-6599
▁郭	-6600
▁酒	-6601
▁释	-6602
▁鉴	-6603
▁钓	-6604
▁钦	-6605
▁钩	-6606
▁钻	-6607
▁锻	-6608
一溜	-6609
万平	-6610
上周	-6611
人才	-6612
人流	-6613
几群	-6614
到肉	-6615
大水	-6616
布赫	-6617
有效	-6618
被拘	-6619
说要	-6620
那惬	-6621
量随	-6622
锋芒	-6623
青史	-6624
鼓喧	-6625
.8%	-6626
▁》,	-6627
▁健身	-6628
▁医马	-6629
▁宝岛	-6630
▁曲调	-6631
▁耳朵	-6632
▁还不	-6633
▁郭伟	-6634
▁释放	-6635
▁钓鱼	-6636
▁钦佩	-6637
▁锋芒	-6638
▁锻炼	-6639
了几群	-6640
到肉猪	-6641
大水漫	-6642
学院教	-6643
就自身	-6644
是这次	-6645
的心扉	-6646
锣鼓喧	-6647
0.8%	-6648
▁医马论	-6649
▁堂收拾	-6650
▁排近地	-6651
▁散文以	-6652
▁等出席	-6653
▁还不到	-6654
▁都说要	-6655
▁鉴青史	-6656
▁锣鼓喧	-6657
上周被拘	-6658
了几群欢	-6659
人流量随	-6660
关心国防	-6661
地加以运	-6662
地文化的	-6663
坪上村原	-6664
基进行曲	-6665
备期志愿	-6666
多不同名	-6667
多的笑声	-6668
大业将稳	-6669
大家祝愿	-6670
大水漫灌	-6671
大高等级	-6672
好的势头	-6673
好的成就	-6674
安理会轮	-6675
害的严峻	-6676
对使用了	-6677
对这些谋	-6678
小到一件	-6679
小到中雨	-6680
尽是那绿	-6681
展示自己	-6682
山来到大	-6683
工资界限	-6684
巨额外汇	-6685
市一年内	-6686
常地平静	-6687
平稳地降	-6688
年新年茶	-6689
年无事故	-6690
年时间就	-6691
庙里祈祷	-6692
度自然增	-6693
开来的盛	-6694
强的一次	-6695
得到保护	-6696
循环使用	-6697
性的所谓	-6698
总统金泳	-6699
▁吧	-6700
▁皆	-6701
▁蹈	-6702
▁轮	-6703
▁辖	-6704
▁迁	-6705
▁迄	-6706
▁返	-6707
▁迭	-6708
▁邀	-6709
不容	-6710
与读	-6711
中宣	-6712
了她	-6713
今为	-6714
代各	-6715
几亩	-6716
务逐	-6717
取的	-6718
和那	-6719
地利	-6720
地域	-6721
大客	-6722
大更	-6723
大箴	-6724
大阻	-6725
家华	-6726
年不	-6727
德浩	-6728
总局	-6729
报告	-6730
收复	-6731
日来	-6732
更不	-6733
有力	-6734
深藏	-6735
生命	-6736
的命	-6737
的笔	-6738
通航	-6739
遒劲	-6740
遵循	-6741
面值	-6742
▁23	-6743
▁众多	-6744
▁佳作	-6745
▁奋进	-6746
▁形而	-6747
▁悟出	-6748
▁沉与	-6749
▁注目	-6750
▁潜能	-6751
▁的美	-6752
▁皆灵	-6753
▁范双	-6754
▁蹈覆	-6755
▁迭起	-6756
▁遒劲	-6757
▁遵循	-6758
▁邀参	-6759
不容忽	-6760
些大客	-6761
今为止	-6762
代各类	-6763
加中宣	-6764
大更坚	-6765
年不景	-6766
日本去	-6767
更不拔	-6768
的笔触	-6769
辄几亩	-6770
迪和那	-6771
邵大箴	-6772
面值升	-6773
▁236	-6774
▁奋进的	-6775
▁奥地利	-6776
▁形而上	-6777
▁悟出些	-6778
▁沉与厚	-6779
▁注目礼	-6780
▁范双民	-6781
▁警方对	-6782
▁蹈覆辙	-6783
▁载了她	-6784
▁辄几亩	-6785
▁连日来	-6786
▁迪和那	-6787
▁选取的	-6788
▁邵大箴	-6789
▁邹家华	-6790
▁邹德浩	-6791
作者与读	-6792
已被四周	-6793
情的心扉	-6794
成了一段	-6795
成功一例	-6796
我以为也	-6797
我好像置	-6798
或新建户	-6799
”(	-6800
▁昼	-6801
▁谷	-6802
▁豁	-6803
▁贤	-6804
▁贴	-6805
▁赐	-6806
▁赡	-6807
▁赫	-6808
一床	-6809
个百	-6810
交叉	-6811
众参	-6812
前跑	-6813
受专	-6814
告以	-6815
堪忧	-6816
宪章	-6817
开朗	-6818
是旧	-6819
林嵩	-6820
永黄	-6821
没落	-6822
满窗	-6823
给湖	-6824
要财	-6825
贩的	-6826
赵新	-6827
趣南	-6828
踞有	-6829
转嫁	-6830
逾百	-6831
长远	-6832
风貌	-6833
▁心情	-6834
▁性的	-6835
▁昼夜	-6836
▁留地	-6837
▁谷利	-6838
▁豁达	-6839
▁贤跑	-6840
▁贩的	-6841
▁赫然	-6842
▁赵新	-6843
▁趣南	-6844
▁踞有	-6845
▁随后	-6846
于没落	-6847
人堪忧	-6848
从长远	-6849
们的气	-6850
务转嫁	-6851
告以她	-6852
大众参	-6853
宽逾百	-6854
极受专	-6855
永黄秋	-6856
的商谈	-6857
赖林嵩	-6858
▁北大部	-6859
▁医院和	-6860
▁性的力	-6861
▁留地改	-6862
▁装装样	-6863
▁谷利源	-6864
▁象是旧	-6865
▁贩的聚	-6866
▁贴满窗	-6867
▁赖林嵩	-6868
▁赫然醒	-6869
▁赵新兵	-6870
▁趣南疆	-6871
于没落和	-6872
令人堪忧	-6873
宽逾百米	-6874
戴鹏报道	-6875
所在的星	-6876
技法也切	-6877
把以大办	-6878
把房前屋	-6879
拟定了有	-6880
支民间表	-6881
收取水费	-6882
政策下运	-6883
文化的眼	-6884
族文化遗	-6885
日报资深	-6886
旧的厂房	-6887
明这一论	-6888
是一个喜	-6889
是一个山	-6890
是一位杰	-6891
是作为东	-6892
是安全飞	-6893
是这个结	-6894
更大更坚	-6895
月大事录	-6896
有了一种	-6897
机长张启	-6898
村里的在	-6899
▁译	-6900
▁误	-6901
一秒	-6902
上级	-6903
书界	-6904
军功	-6905
和引	-6906
在鹏	-6907
坐到	-6908
堂皇	-6909
多困	-6910
大关	-6911
年货	-6912
度不	-6913
度评	-6914
弄它	-6915
想挤	-6916
政变	-6917
整套	-6918
新变	-6919
方式	-6920
更浪	-6921
的帐	-6922
的规	-6923
着潮	-6924
纷大	-6925
范硕	-6926
要定	-6927
詹建	-6928
邱少	-6929
面向	-6930
首长	-6931
▁名流	-6932
▁詹建	-6933
▁误差	-6934
▁邱少	-6935
▁部分	-6936
书界有	-6937
们想挤	-6938
军功章	-6939
在自营	-6940
坐到车	-6941
处大关	-6942
多困难	-6943
度不拘	-6944
度评价	-6945
汤更浪	-6946
的方式	-6947
的规范	-6948
策的帐	-6949
纷大巡	-6950
蒙和引	-6951
要定期	-6952
面向未	-6953
首长康	-6954
▁丽堂皇	-6955
▁执行桂	-6956
▁摆弄它	-6957
▁汤更浪	-6958
▁确保升	-6959
▁翻读由	-6960
▁角村人	-6961
▁詹建俊	-6962
书界有良	-6963
坐到车顶	-6964
来了小客	-6965
样的效应	-6966
步入人口	-6967
每一个中	-6968
水平一流	-6969
活动的序	-6970
演员共唱	-6971
然地进入	-6972
爱县的焦	-6973
爱好者冒	-6974
玩的好去	-6975
生产粮豆	-6976
生产风险	-6977
生活在异	-6978
生部长雷	-6979
用多少付	-6980
用水谁付	-6981
用笔精微	-6982
的一些篇	-6983
的一支笔	-6984
的中华儿	-6985
的中学女	-6986
的主人不	-6987
的主人翁	-6988
的人来说	-6989
的厂子终	-6990
的商品房	-6991
的商品流	-6992
的国家级	-6993
的好风气	-6994
的学术清	-6995
的学者却	-6996
的工程谁	-6997
的时间使	-6998
的最光辉	-6999
▁瑰	-7000
▁茵	-7001
▁虚	-7002
▁袋	-7003
▁袖	-7004
▁裂	-7005
▁裕	-7006
三个	-7007
个做	-7008
中融	-7009
主流	-7010
从拉	-7011
会山	-7012
别占	-7013
只破	-7014
史哲	-7015
和建	-7016
大压	-7017
家务	-7018
并的	-7019
忙起	-7020
无际	-7021
此物	-7022
清香	-7023
然成	-7024
的床	-7025
的斗	-7026
的模	-7027
蒸蒸	-7028
蜜罐	-7029
衔接	-7030
见你	-7031
角村	-7032
较短	-7033
道理	-7034
里插	-7035
领略	-7036
风骚	-7037
高声	-7038
▁全村	-7039
▁地处	-7040
▁彻底	-7041
▁拖欠	-7042
▁茵茵	-7043
▁蒸蒸	-7044
▁虚掩	-7045
▁蜜罐	-7046
▁衔接	-7047
▁袖手	-7048
▁铁丝	-7049
三个版	-7050
个个做	-7051
从拉萨	-7052
分别占	-7053
到此物	-7054
升的床	-7055
只破船	-7056
合并的	-7057
和建议	-7058
和日本	-7059
国会山	-7060
成为名	-7061
持家务	-7062
清香俏	-7063
然成风	-7064
的斗争	-7065
的道理	-7066
蓝无际	-7067
逊风骚	-7068
高声倡	-7069
▁地处杭	-7070
▁彻底改	-7071
▁租金和	-7072
▁茵茵的	-7073
▁蓝无际	-7074
▁袋里插	-7075
▁袖手旁	-7076
▁见见你	-7077
▁象角村	-7078
▁铁丝笼	-7079
合并的四	-7080
和日本相	-7081
成为名副	-7082
操持家务	-7083
是只破船	-7084
的最新数	-7085
的设施无	-7086
的说法却	-7087
的重庆带	-7088
省区的客	-7089
着种种曲	-7090
确的文献	-7091
稍逊风骚	-7092
紧进行机	-7093
织制衣厂	-7094
织系统头	-7095
统一发放	-7096
统一战线	-7097
统一的决	-7098
缴国家税	-7099
▁撼	-7100
▁煤	-7101
▁芍	-7102
▁芝	-7103
▁苹	-7104
▁茅	-7105
▁茫	-7106
▁莎	-7107
▁葫	-7108
为隆	-7109
也多	-7110
再累	-7111
厂逐	-7112
和老	-7113
大促	-7114
天翼	-7115
对百	-7116
对联	-7117
尔夫	-7118
张振	-7119
掏腰	-7120
瓜专	-7121
生形	-7122
的音	-7123
种田	-7124
给机	-7125
绪的	-7126
芭蕾	-7127
花生	-7128
花鸟	-7129
荆轲	-7130
诺说	-7131
边陲	-7132
58%	-7133
▁何引	-7134
▁尊重	-7135
▁掏腰	-7136
▁撰写	-7137
▁撼诗	-7138
▁潘跃	-7139
▁绪的	-7140
▁臣英	-7141
▁芍药	-7142
▁芝姐	-7143
▁芭蕾	-7144
▁苹果	-7145
▁茅盾	-7146
▁茫茫	-7147
▁荆轲	-7148
▁莎白	-7149
▁葫芦	-7150
▁街为	-7151
▁街道	-7152
也多起	-7153
切尔夫	-7154
大大促	-7155
对联手	-7156
张天翼	-7157
海的音	-7158
素厂逐	-7159
给机组	-7160
花生倒	-7161
萌生形	-7162
西瓜专	-7163
还和老	-7164
▁何引导	-7165
▁尊重史	-7166
▁撰写这	-7167
▁撼诗坛	-7168
▁概是我	-7169
▁止他从	-7170
▁潘跃王	-7171
▁绪的感	-7172
▁臣英雄	-7173
▁苦再累	-7174
▁苹果送	-7175
▁茫茫草	-7176
▁莎白港	-7177
▁萌生形	-7178
▁萨诺说	-7179
撒切尔夫	-7180
美好的东	-7181
而人们总	-7182
而动人的	-7183
自发到自	-7184
自发地聚	-7185
自治区即	-7186
自治区狠	-7187
臾不可淡	-7188
节日管弦	-7189
著书立传	-7190
蕾清香俏	-7191
行到全市	-7192
见其用笔	-7193
解体前夕	-7194
认为给她	-7195
记者林皎	-7196
请了部分	-7197
资产委托	-7198
资金和面	-7199
▁偷	-7200
▁肥	-7201
▁脆	-7202
▁腊	-7203
▁腾	-7204
▁臂	-7205
▁遮	-7206
上升	-7207
下森	-7208
乱差	-7209
人哲	-7210
今后	-7211
倡廉	-7212
兵学	-7213
刘磊	-7214
垫支	-7215
宏图	-7216
将军	-7217
山沟	-7218
或手	-7219
水浜	-7220
着冒	-7221
花竞	-7222
长达	-7223
集散	-7224
▁偷盗	-7225
▁商办	-7226
▁坐椅	-7227
▁差距	-7228
▁强者	-7229
▁的心	-7230
▁禽鸟	-7231
▁篇大	-7232
▁腊梅	-7233
▁腾空	-7234
▁遮掩	-7235
今后更	-7236
兵学之	-7237
喝着冒	-7238
展宏图	-7239
挂山沟	-7240
晚在此	-7241
的情感	-7242
系统及	-7243
脏乱差	-7244
臭水浜	-7245
诗人哲	-7246
▁卫生保	-7247
▁告长达	-7248
▁商办起	-7249
▁喝着冒	-7250
▁的心意	-7251
▁篇大文	-7252
▁脏乱差	-7253
▁脚下森	-7254
▁腊梅飘	-7255
▁腐倡廉	-7256
▁腾空而	-7257
▁臂或手	-7258
▁臭水浜	-7259
▁良将军	-7260
▁菜集散	-7261
▁鲜半岛	-7262
中的情感	-7263
之一的步	-7264
人的心灵	-7265
今晚在此	-7266
布挂山沟	-7267
系统及法	-7268
起了激越	-7269
起的作用	-7270
起的旗杆	-7271
路人相遇	-7272
车从拉萨	-7273
近年来每	-7274
还带着泥	-7275
这一方案	-7276
这个时期	-7277
这样的效	-7278
这种缺憾	-7279
进了两部	-7280
进程日益	-7281
远的西欧	-7282
述了这个	-7283
都没有穿	-7284
里来到华	-7285
重地接过	-7286
重新部署	-7287
量地接纳	-7288
针织制衣	-7289
门力量整	-7290
难以相信	-7291
难历程所	-7292
馨和审美	-7293
高丽生从	-7294
高度评价	-7295
高的荣誉	-7296
12023	-7297
;4626	-7298
▁.495	-7299
▁扣	-7300
▁绸	-7301
▁缤	-7302
▁罢	-7303
▁翠	-7304
▁翰	-7305
▁肖	-7306
▁肤	-7307
不禁	-7308
个屋	-7309
乐声	-7310
位专	-7311
前深	-7312
史书	-7313
围住	-7314
在临	-7315
堂庆	-7316
崛起	-7317
情泄	-7318
斯堡	-7319
明智	-7320
氤氲	-7321
海峡	-7322
白轻	-7323
结经	-7324
编撰	-7325
罕见	-7326
聚焦	-7327
良的	-7328
行速	-7329
路不	-7330
近千	-7331
难临	-7332
▁崛起	-7333
▁扣不	-7334
▁氤氲	-7335
▁绸纺	-7336
▁罕见	-7337
▁罢全	-7338
▁翰内	-7339
▁街以	-7340
与史书	-7341
严重挑	-7342
为主体	-7343
为建筑	-7344
乐声悠	-7345
在临时	-7346
堂庆佳	-7347
安全的	-7348
整个屋	-7349
来的巨	-7350
染聚焦	-7351
灾难临	-7352
白轻柔	-7353
百位专	-7354
结经验	-7355
良的普	-7356
路不见	-7357
▁扣不舍	-7358
▁招一式	-7359
▁杜天清	-7360
▁每年可	-7361
▁灾难临	-7362
▁罕见的	-7363
▁罢全书	-7364
▁翠而不	-7365
▁肤色的	-7366
▁街以街	-7367
不安全的	-7368
在临时搭	-7369
是为建筑	-7370
来的巨型	-7371
近百位专	-7372
▁.55‰	-7373
▁1976	-7374
▁3000	-7375
▁4734	-7376
▁7000	-7377
▁一个人丧	-7378
▁一些分析	-7379
▁万亿日元	-7380
▁三十部已	-7381
▁三和当选	-7382
▁三次以上	-7383
▁专以文物	-7384
▁专题会议	-7385
▁东方明珠	-7386
▁东部和长	-7387
▁东部还是	-7388
▁临时区域	-7389
▁举成为当	-7390
▁乃至地域	-7391
▁乌鲁木齐	-7392
▁乎情贵乎	-7393
▁乎降低为	-7394
▁乏成功之	-7395
▁买回来两	-7396
▁二亿人口	-7397
▁二月回到	-7398
▁互致问候	-7399
▁粒	-7400
▁糊	-7401
▁索	-7402
▁绑	-7403
▁诺	-7404
一冬	-7405
三千	-7406
中青	-7407
为七	-7408
任何	-7409
作物	-7410
充足	-7411
其它	-7412
凶杀	-7413
厂部	-7414
吹箫	-7415
垃圾	-7416
大风	-7417
守上	-7418
定总	-7419
展沼	-7420
心劲	-7421
思考	-7422
成交	-7423
成土	-7424
提法	-7425
樊如	-7426
欢呼	-7427
由河	-7428
竣工	-7429
笋岗	-7430
答应	-7431
纠纷	-7432
纬线	-7433
绚丽	-7434
统农	-7435
菠菜	-7436
蓝蓝	-7437
行的	-7438
谱先	-7439
这项	-7440
镇后	-7441
韵味	-7442
▁修梯	-7443
▁处理	-7444
▁守上	-7445
▁樊如	-7446
▁淡红	-7447
▁竣工	-7448
▁笋岗	-7449
▁答应	-7450
▁纠纷	-7451
▁纬线	-7452
▁绑架	-7453
▁绚丽	-7454
▁菠菜	-7455
▁诺贝	-7456
了三千	-7457
传统农	-7458
同其它	-7459
定总承	-7460
市镇后	-7461
年成交	-7462
性的剖	-7463
欢呼声	-7464
源充足	-7465
等作物	-7466
紫蓝蓝	-7467
舒心劲	-7468
行的坚	-7469
谱先河	-7470
这项欢	-7471
▁守上甘	-7472
▁樊如钧	-7473
▁淡红的	-7474
▁牵挂着	-7475
▁竣工后	-7476
▁简厂部	-7477
▁籍中青	-7478
▁紫蓝蓝	-7479
▁级大风	-7480
▁织在时	-7481
▁舒心劲	-7482
▁馆将为	-7483
中心的专	-7484
传统农业	-7485
先后为七	-7486
定总承包	-7487
年成交额	-7488
淌了三千	-7489
理性的剖	-7490
而一些冷	-7491
读者对客	-7492
▁五年被评	-7493
▁些老年人	-7494
▁亩均收入	-7495
▁享誉当代	-7496
▁亭全部撤	-7497
▁亮的国歌	-7498
▁亿人同赏	-7499
2.	-7500
▁移	-7501
▁稻	-7502
▁窥	-7503
上越	-7504
下面	-7505
丽洒	-7506
了演	-7507
人请	-7508
以沉	-7509
则干	-7510
卢萨	-7511
发包	-7512
后属	-7513
和真	-7514
场赢	-7515
多么	-7516
寻隐	-7517
小心	-7518
平方	-7519
廉的	-7520
待而	-7521
思变	-7522
所编	-7523
权法	-7524
村边	-7525
格便	-7526
然壮	-7527
的私	-7528
石油	-7529
秧歌	-7530
92.	-7531
▁亮了	-7532
▁大田	-7533
▁寒气	-7534
▁廉的	-7535
▁秧歌	-7536
▁衣厂	-7537
下面竟	-7538
于不很	-7539
人请无	-7540
价格便	-7541
则干脆	-7542
则思变	-7543
和真诚	-7544
在卢萨	-7545
天上越	-7546
寻隐秘	-7547
小心把	-7548
平方公	-7549
待而欲	-7550
权法案	-7551
浩然壮	-7552
石油筑	-7553
青年因	-7554
▁大田庄	-7555
▁寒气袭	-7556
▁廉的票	-7557
▁注的热	-7558
▁秀丽洒	-7559
▁租的私	-7560
▁立场赢	-7561
下面竟沾	-7562
于不很需	-7563
人请无家	-7564
价格便宜	-7565
小心把握	-7566
稚和真诚	-7567
▁仅在国外	-7568
▁仍处于警	-7569
▁从当时的	-7570
▁令观者赞	-7571
▁价和边演	-7572
▁众益处良	-7573
▁估计的严	-7574
▁但一大早	-7575
▁但也有所	-7576
▁但原有的	-7577
▁但同上年	-7578
▁但要对布	-7579
▁位于武陟	-7580
▁位青年都	-7581
▁体现那个	-7582
▁何来了个	-7583
▁余件和影	-7584
▁余项义诊	-7585
▁佩特火山	-7586
▁侨是一个	-7587
▁便趋向合	-7588
▁俊出席了	-7589
▁保定一棉	-7590
▁修水利同	-7591
▁倡议全镇	-7592
▁值不会像	-7593
▁值得纪念	-7594
▁假日献真	-7595
▁偏于所谓	-7596
▁做起来次	-7597
▁偿巨额外	-7598
▁偿还布厂	-7599
▁嘘	-7600
▁睹	-7601
▁码	-7602
▁硝	-7603
▁磋	-7604
▁磨	-7605
一段	-7606
一脸	-7607
三十	-7608
三峡	-7609
不易	-7610
乐极	-7611
了五	-7612
发式	-7613
国维	-7614
大专	-7615
对原	-7616
展翼	-7617
悲愤	-7618
意于	-7619
方山	-7620
正义	-7621
洗厂	-7622
生平	-7623
生意	-7624
石膏	-7625
砚田	-7626
耕墨	-7627
进取	-7628
追寻	-7629
▁串成	-7630
▁仅四	-7631
▁嘘寒	-7632
▁小家	-7633
▁率达	-7634
▁砚田	-7635
▁硝烟	-7636
▁磋商	-7637
▁磨合	-7638
▁称的	-7639
▁胜于	-7640
▁陈雁	-7641
为下乡	-7642
之不易	-7643
乐极生	-7644
了五年	-7645
出一段	-7646
大专毕	-7647
王国维	-7648
生意回	-7649
的悲愤	-7650
砂洗厂	-7651
笔耕墨	-7652
翅展翼	-7653
部门配	-7654
▁串成人	-7655
▁仅四岁	-7656
▁凝聚力	-7657
▁和平与	-7658
▁孔里窥	-7659
▁小家伙	-7660
▁月三十	-7661
▁树立起	-7662
▁率达百	-7663
▁着意于	-7664
▁砂洗厂	-7665
▁称的桥	-7666
▁翅展翼	-7667
▁讯据中	-7668
乐极生悲	-7669
勇敢坚韧	-7670
地区通胀	-7671
笔耕墨耘	-7672
▁串成人龙	-7673
▁买回去全	-7674
▁令他自豪	-7675
▁傍着三晋	-7676
▁元一市斤	-7677
▁先不敢贸	-7678
▁先进水平	-7679
▁克服国家	-7680
▁兑成新币	-7681
▁全国各地	-7682
▁全面进步	-7683
▁共发生了	-7684
▁兴修水利	-7685
▁兴的喜事	-7686
▁兵书可为	-7687
▁典籍选编	-7688
▁内一片欢	-7689
▁内全部签	-7690
▁写成了一	-7691
▁净的庭院	-7692
▁减灾中心	-7693
▁几手本领	-7694
▁刊登新年	-7695
▁划分都有	-7696
▁则不可以	-7697
▁则多达八	-7698
▁则是他们	-7699
,6	-7700
▁嘎	-7701
▁敌	-7702
▁曼	-7703
▁甲	-7704
▁略	-7705
▁盎	-7706
▁粪	-7707
▁鬼	-7708
上所	-7709
下大	-7710
了美	-7711
了鲜	-7712
人感	-7713
况不	-7714
南两	-7715
印证	-7716
去砍	-7717
在哪	-7718
地穿	-7719
增添	-7720
字启	-7721
家禽	-7722
尔目	-7723
工业	-7724
张恨	-7725
是费	-7726
民伤	-7727
瑙河	-7728
甜蜜	-7729
电线	-7730
症结	-7731
看做	-7732
社论	-7733
老幼	-7734
自力	-7735
▁债包	-7736
▁刘心	-7737
▁嘎班	-7738
▁敌对	-7739
▁曼哈	-7740
▁每过	-7741
▁瑙河	-7742
▁甜蜜	-7743
▁甲车	-7744
▁症结	-7745
▁盎然	-7746
▁粪便	-7747
▁素养	-7748
▁足比	-7749
上所概	-7750
下大量	-7751
人感慨	-7752
体地穿	-7753
农村灾	-7754
况不瞒	-7755
女自力	-7756
对于那	-7757
尔目录	-7758
工业品	-7759
满了鲜	-7760
电线被	-7761
相印证	-7762
▁债包袱	-7763
▁刘心武	-7764
▁剧了美	-7765
▁嘎班迪	-7766
▁急速波	-7767
▁敌对状	-7768
▁曼哈顿	-7769
▁素养和	-7770
▁贾建舟	-7771
▁足比率	-7772
下大量速	-7773
体地穿插	-7774
女自力更	-7775
家国的命	-7776
工业品都	-7777
底上所概	-7778
情况不瞒	-7779
珠尔目录	-7780
电线被割	-7781
老人感慨	-7782
▁互相印证	-7783
▁创作历时	-7784
▁初中版隔	-7785
▁利亚开馆	-7786
▁副委员长	-7787
▁办了一场	-7788
▁助总金额	-7789
▁北国大地	-7790
▁北部和东	-7791
▁医马论典	-7792
▁千名男女	-7793
▁半年发了	-7794
▁半部论语	-7795
▁协商会议	-7796
▁单终于被	-7797
▁占了全球	-7798
▁卢西亚就	-7799
▁熟	-7800
▁燕	-7801
▁爷	-7802
▁牛	-7803
▁牺	-7804
▁猛	-7805
▁琴	-7806
为支	-7807
之急	-7808
书形	-7809
今之	-7810
其软	-7811
发动	-7812
受治	-7813
各主	-7814
大有	-7815
季难	-7816
定居	-7817
并将	-7818
度比	-7819
杭州	-7820
比克	-7821
渥太	-7822
然像	-7823
熔一	-7824
独奏	-7825
珊瑚	-7826
琅的	-7827
的味	-7828
苗再	-7829
要街	-7830
锡铭	-7831
院他	-7832
▁丝厂	-7833
▁他是	-7834
▁伍向	-7835
▁威武	-7836
▁杭州	-7837
▁渥太	-7838
▁熔一	-7839
▁熟悉	-7840
▁燕赵	-7841
▁爷爷	-7842
▁版面	-7843
▁牺牲	-7844
▁珊瑚	-7845
▁琅的	-7846
▁苗再	-7847
为支柱	-7848
今之争	-7849
俨然像	-7850
发动村	-7851
受治疗	-7852
和书形	-7853
品大有	-7854
基本功	-7855
季难得	-7856
李锡铭	-7857
狱并将	-7858
眉之急	-7859
种的味	-7860
美术展	-7861
美院他	-7862
▁他是巴	-7863
▁伍向太	-7864
▁太多的	-7865
▁威武之	-7866
▁杭州西	-7867
▁熔一炉	-7868
▁版面彼	-7869
▁狱并将	-7870
▁琅的关	-7871
▁琴独奏	-7872
▁精度比	-7873
▁苗再新	-7874
却俨然像	-7875
古今之争	-7876
各主要街	-7877
品大有学	-7878
季难得的	-7879
式和书形	-7880
接受治疗	-7881
美术展览	-7882
美院他讲	-7883
部门在内	-7884
▁卫国旗升	-7885
▁卫生保健	-7886
▁印尼国营	-7887
▁却仍然住	-7888
▁厉的时候	-7889
▁厚的生活	-7890
▁厦而不懈	-7891
▁县全部达	-7892
▁县县行动	-7893
▁又一举措	-7894
▁又有对当	-7895
▁反复论证	-7896
▁反对分裂	-7897
▁反对强权	-7898
▁取消了已	-7899
▁滥	-7900
▁滨	-7901
▁炸	-7902
▁炼	-7903
不尽	-7904
共度	-7905
创利	-7906
县柘	-7907
及它	-7908
台挺	-7909
山灰	-7910
有港	-7911
有陈	-7912
深受	-7913
白虎	-7914
的池	-7915
祝你	-7916
移默	-7917
舞节	-7918
蒸汽	-7919
西戎	-7920
论述	-7921
请专	-7922
轨迹	-7923
▁人员	-7924
▁保留	-7925
▁址殷	-7926
▁如按	-7927
▁挥的	-7928
▁最为	-7929
▁极端	-7930
▁滥觞	-7931
▁炸伤	-7932
▁炼老	-7933
▁环保	-7934
▁街沿	-7935
他们曾	-7936
共度佳	-7937
创利润	-7938
及它在	-7939
有港九	-7940
歌舞节	-7941
水县柘	-7942
澈的池	-7943
烧不尽	-7944
▁址殷墟	-7945
▁挥的难	-7946
▁最为激	-7947
▁极端的	-7948
▁潜移默	-7949
▁澈的池	-7950
▁火山灰	-7951
▁灵轨迹	-7952
▁炼老辣	-7953
▁烧不尽	-7954
▁街沿线	-7955
及它在朝	-7956
并创利润	-7957
有港九抗	-7958
溧水县柘	-7959
生活的启	-7960
▁叙的内容	-7961
▁叙自己的	-7962
▁另一个崭	-7963
▁另一股冷	-7964
▁台有关推	-7965
▁台用不甚	-7966
▁号示范街	-7967
▁名流不约	-7968
▁向人们诉	-7969
▁吨以上货	-7970
▁启蒙和引	-7971
▁吴刚报道	-7972
▁呈下降趋	-7973
▁呈不同角	-7974
▁周六和周	-7975
▁哈马和圣	-7976
▁唱出了动	-7977
▁善大农场	-7978
▁善良的普	-7979
▁嘘寒问暖	-7980
▁因此他们	-7981
▁图文并茂	-7982
▁圣约翰窥	-7983
▁场为中心	-7984
▁均因种种	-7985
▁坐在一旁	-7986
▁域性主导	-7987
▁塘里游鱼	-7988
▁士进行曲	-7989
▁处的回音	-7990
▁备的品格	-7991
▁太行山深	-7992
▁头有所遏	-7993
▁奋的神态	-7994
▁奋进的早	-7995
▁套特制深	-7996
▁她那无处	-7997
▁如按产业	-7998
▁如果一字	-7999
▁吟	-8000
▁懂	-8001
▁披	-8002
▁浦	-8003
▁涂	-8004
▁涣	-8005
▁涪	-8006
▁涵	-8007
▁渐	-8008
▁湾	-8009
万缕	-8010
个角	-8011
为旺	-8012
住址	-8013
力已	-8014
动照	-8015
又席	-8016
变清	-8017
商厦	-8018
团最	-8019
夜晚	-8020
好干	-8021
容市	-8022
屋的	-8023
干起	-8024
快速	-8025
攥满	-8026
无远	-8027
汇大	-8028
江湖	-8029
江畔	-8030
江省	-8031
洒遍	-8032
洼地	-8033
混称	-8034
的狂	-8035
矿车	-8036
究竟	-8037
荡荡	-8038
质朴	-8039
踢足	-8040
重苦	-8041
镇洋	-8042
马恩	-8043
▁准线	-8044
▁吟到	-8045
▁屋的	-8046
▁披红	-8047
▁攥满	-8048
▁洒遍	-8049
▁洼地	-8050
▁涣散	-8051
▁涪陵	-8052
▁混称	-8053
▁渐渐	-8054
▁踢足	-8055
▁雪纷	-8056
于人为	-8057
动照相	-8058
厂矿车	-8059
厚质朴	-8060
又席卷	-8061
变清了	-8062
哪个角	-8063
团最近	-8064
失夜晚	-8065
好好干	-8066
容市貌	-8067
是一大	-8068
汇大江	-8069
江商厦	-8070
江湖侠	-8071
洲镇洋	-8072
而不弥	-8073
能力已	-8074
较为旺	-8075
▁丝万缕	-8076
▁吟到恩	-8077
▁哪个角	-8078
▁屋的窗	-8079
▁幅地图	-8080
▁披红挂	-8081
▁故事八	-8082
▁映成辉	-8083
▁洼地种	-8084
▁浦江畔	-8085
▁涂无远	-8086
▁深重苦	-8087
▁渐渐淡	-8088
▁走出困	-8089
▁踢足球	-8090
▁闹非凡	-8091
▁雪纷飞	-8092
▁龙江省	-8093
于人为的	-8094
务书记周	-8095
动照相仪	-8096
是一大发	-8097
暴又席卷	-8098
流较为旺	-8099
▁汝	-8100
▁污	-8101
▁泥	-8102
▁泳	-8103
▁甘	-8104
▁舟	-8105
两位	-8106
人权	-8107
养鱼	-8108
区评	-8109
可稳	-8110
大跳	-8111
定援	-8112
定汇	-8113
容易	-8114
意味	-8115
更反	-8116
来自	-8117
林徽	-8118
民安	-8119
汾阳	-8120
泪如	-8121
紧挨	-8122
街道	-8123
路使	-8124
选定	-8125
难险	-8126
▁些平	-8127
▁余部	-8128
▁宽进	-8129
▁水费	-8130
▁汝岱	-8131
▁污染	-8132
▁汾阳	-8133
▁泪如	-8134
▁赞比	-8135
军区评	-8136
十分需	-8137
敲定援	-8138
来自西	-8139
艰难险	-8140
街道整	-8141
辆紧挨	-8142
选定正	-8143
▁些平时	-8144
▁余部珍	-8145
▁宽进口	-8146
▁敲定援	-8147
▁水费收	-8148
▁泥路使	-8149
▁泪如泉	-8150
▁泰民安	-8151
▁给人们	-8152
▁老区办	-8153
▁这意味	-8154
上了自谋	-8155
不是容易	-8156
可稳定汇	-8157
向艰难险	-8158
浜变清了	-8159
淳厚质朴	-8160
滨江商厦	-8161
街道整洁	-8162
▁些平时不	-8163
▁兼国务院	-8164
▁写意本领	-8165
▁劳动者心	-8166
▁吟到恩仇	-8167
▁妥协方案	-8168
▁妥善地处	-8169
▁妹三人曾	-8170
▁妹再也没	-8171
▁威武之师	-8172
▁婚育观念	-8173
▁字与图像	-8174
▁它的个性	-8175
▁它的建成	-8176
▁它的自身	-8177
▁定会好转	-8178
▁审与地缘	-8179
▁宣告以她	-8180
▁容同样丰	-8181
▁容地兑换	-8182
▁宽进口限	-8183
▁密而得当	-8184
▁察那各种	-8185
▁尊重史实	-8186
▁小到中雪	-8187
▁尤其是以	-8188
▁尽快送到	-8189
▁尽的情思	-8190
▁局部进展	-8191
▁居民利益	-8192
▁居民最低	-8193
▁居第三位	-8194
▁崇高的敬	-8195
▁州等地空	-8196
▁巨大成绩	-8197
▁带回的还	-8198
▁常任理事	-8199
▁挣	-8200
▁椒	-8201
▁殊	-8202
▁残	-8203
▁殖	-8204
▁氏	-8205
▁氢	-8206
▁锁	-8207
一切	-8208
为慰	-8209
为着	-8210
也无	-8211
交之	-8212
分钟	-8213
在青	-8214
天有	-8215
太郎	-8216
对美	-8217
山伯	-8218
异不	-8219
当妨	-8220
拱棚	-8221
时此	-8222
有奔	-8223
机呈	-8224
气红	-8225
汪锋	-8226
犯罪	-8227
用率	-8228
疾人	-8229
百毫	-8230
的操	-8231
给每	-8232
给鱼	-8233
荒赢	-8234
营销	-8235
薄雾	-8236
虬曲	-8237
贬值	-8238
过渡	-8239
郭沫	-8240
面额	-8241
首旧	-8242
鼓楼	-8243
▁带数	-8244
▁挣扎	-8245
▁梦魁	-8246
▁殊的	-8247
▁父亲	-8248
▁犯罪	-8249
▁薄雾	-8250
▁被省	-8251
▁贬值	-8252
▁锁定	-8253
▁额表	-8254
一百毫	-8255
为慰藉	-8256
事一切	-8257
击机呈	-8258
和鼓楼	-8259
回首旧	-8260
在青岛	-8261
天荒赢	-8262
它对美	-8263
应当妨	-8264
建交之	-8265
时此刻	-8266
有奔腾	-8267
架拱棚	-8268
梁山伯	-8269
气红灯	-8270
水给鱼	-8271
疾人郭	-8272
虬曲挺	-8273
象的操	-8274
还给每	-8275
龙太郎	-8276
▁带数户	-8277
▁托营销	-8278
▁梁山伯	-8279
▁歧异不	-8280
▁每天有	-8281
▁没收了	-8282
▁键是从	-8283
团同样饮	-8284
抽象的操	-8285
最大面额	-8286
歼击机呈	-8287
气红灯笼	-8288
钢架拱棚	-8289
▁干道设标	-8290
▁广大会员	-8291
▁广大海外	-8292
▁序性安排	-8293
▁底色和务	-8294
▁庙里祈祷	-8295
▁座都市的	-8296
▁庭进行重	-8297
▁式的说法	-8298
▁引述一二	-8299
90	-8300
”?	-8301
▁句	-8302
▁析	-8303
▁枪	-8304
▁染	-8305
▁栓	-8306
▁桃	-8307
▁桌	-8308
▁肿	-8309
万名	-8310
两色	-8311
也触	-8312
书法	-8313
其父	-8314
分册	-8315
加拿	-8316
及湖	-8317
号召	-8318
地操	-8319
大渡	-8320
它所	-8321
家协	-8322
导思	-8323
底所	-8324
强渡	-8325
支撑	-8326
改造	-8327
是党	-8328
是商	-8329
曲径	-8330
油马	-8331
类可	-8332
语言	-8333
赔钱	-8334
边添	-8335
面积	-8336
990	-8337
▁34	-8338
▁具初	-8339
▁县长	-8340
▁妹妹	-8341
▁山一	-8342
▁桃溪	-8343
▁肿了	-8344
▁赔钱	-8345
▁面值	-8346
两色辉	-8347
个分册	-8348
之类可	-8349
和其父	-8350
多年叫	-8351
小面积	-8352
底所抒	-8353
指导思	-8354
柏油马	-8355
水是商	-8356
的人均	-8357
的心脏	-8358
眼地操	-8359
语言性	-8360
路曲径	-8361
边添餐	-8362
题书法	-8363
▁340	-8364
▁县长韩	-8365
▁在改造	-8366
▁山一水	-8367
▁果也触	-8368
▁柏油马	-8369
▁键环节	-8370
一眼地操	-8371
之类可替	-8372
它所支撑	-8373
小面积起	-8374
强渡大渡	-8375
有利于促	-8376
白两色辉	-8377
腕底所抒	-8378
语言性虚	-8379
边添餐椅	-8380
▁危机中吸	-8381
▁山一水一	-8382
▁张有着相	-8383
▁弱的形象	-8384
▁当地报纸	-8385
▁录了行政	-8386
▁役军人发	-8387
▁役期间享	-8388
▁彻底改变	-8389
▁往日的宁	-8390
▁往来和交	-8391
▁征青年因	-8392
▁径的火炮	-8393
▁待遇得到	-8394
▁德想不想	-8395
▁德的到来	-8396
▁徽高高挂	-8397
▁必学精学	-8398
▁必由之路	-8399
▁旦	-8400
▁暗	-8401
▁盗	-8402
万里	-8403
不怕	-8404
会感	-8405
可辨	-8406
后我	-8407
和哲	-8408
士龙	-8409
大爷	-8410
就恍	-8411
岛遥	-8412
已然	-8413
明星	-8414
是逛	-8415
晴空	-8416
束鲜	-8417
理性	-8418
的本	-8419
硬币	-8420
神妙	-8421
神闯	-8422
能品	-8423
要求	-8424
这边	-8425
铁映	-8426
▁储量	-8427
▁几千	-8428
▁引了	-8429
▁晴空	-8430
▁松等	-8431
▁破此	-8432
▁随下	-8433
也不怕	-8434
也会感	-8435
以后我	-8436
各地及	-8437
地方曲	-8438
形神妙	-8439
明星青	-8440
的本身	-8441
级地震	-8442
色已然	-8443
▁便是逛	-8444
▁几千元	-8445
▁徐先生	-8446
▁息报道	-8447
▁景这边	-8448
▁李铁映	-8449
▁束束鲜	-8450
▁条理性	-8451
▁杨士龙	-8452
▁浩然正	-8453
▁火树银	-8454
▁破此一	-8455
▁种硬币	-8456
以后我就	-8457
基本要求	-8458
曙色已然	-8459
活动别具	-8460
的人能品	-8461
▁富表现力	-8462
▁徐先生还	-8463
▁必要担心	-8464
▁忘了过去	-8465
▁怀疑的目	-8466
▁怎么抓也	-8467
▁思路是相	-8468
▁性的力作	-8469
▁悟出些许	-8470
▁惊天地泣	-8471
▁或者专业	-8472
▁战斗故事	-8473
▁戴鹏报道	-8474
▁户为主体	-8475
▁手张爱兰	-8476
▁扎实实地	-8477
▁扩大对外	-8478
▁扫除了青	-8479
▁扬光大的	-8480
▁扮演过毛	-8481
▁批成员年	-8482
▁承和转让	-8483
▁把两者很	-8484
▁投产后年	-8485
▁护了大批	-8486
▁抽象的操	-8487
▁拉克与联	-8488
▁拓展之作	-8489
▁拟定了有	-8490
▁拿大银行	-8491
▁拿起笔来	-8492
▁挤在门口	-8493
▁挤得水泄	-8494
▁挥着日益	-8495
▁授权法案	-8496
▁接踵而至	-8497
▁推向前进	-8498
▁推广普及	-8499
▁斡	-8500
▁旺	-8501
不远	-8502
与个	-8503
之风	-8504
书笔	-8505
人性	-8506
人认	-8507
人车	-8508
优良	-8509
发点	-8510
就提	-8511
年轮	-8512
意浓	-8513
战法	-8514
时起	-8515
晤对	-8516
普遍	-8517
法与	-8518
游客	-8519
的临	-8520
立艺	-8521
高架	-8522
▁冲者	-8523
▁刘工	-8524
▁却由	-8525
▁厅举	-8526
▁太阳	-8527
▁委副	-8528
▁彭家	-8529
▁户户	-8530
▁斡旋	-8531
▁旺盛	-8532
▁易近	-8533
▁显现	-8534
▁晤对	-8535
▁杨村	-8536
▁照四	-8537
▁畅得	-8538
▁社评	-8539
▁绿化	-8540
人性格	-8541
优良粮	-8542
出发点	-8543
发表通	-8544
将来临	-8545
时起便	-8546
树年轮	-8547
步的临	-8548
法与之	-8549
爱意浓	-8550
的一条	-8551
的新币	-8552
红辣椒	-8553
读书笔	-8554
部长马	-8555
▁三十六	-8556
▁冲者便	-8557
▁刘工践	-8558
▁厅举行	-8559
▁参与的	-8560
▁复一年	-8561
▁太阳能	-8562
▁委副主	-8563
▁娃小金	-8564
▁察将对	-8565
▁彭家煌	-8566
▁户户有	-8567
▁早就提	-8568
▁易近人	-8569
▁显现雏	-8570
▁景与个	-8571
▁有人认	-8572
▁照四十	-8573
▁由全国	-8574
▁绿化及	-8575
▁触类旁	-8576
▁道上来	-8577
▁郑振铎	-8578
▁黎巴嫩	-8579
从这里销	-8580
到了人车	-8581
在国立艺	-8582
现实表象	-8583
▁化为对于	-8584
▁参与的格	-8585
▁委副主任	-8586
▁娃小金刚	-8587
▁寒爱意浓	-8588
▁察将对卡	-8589
▁户户有了	-8590
▁揭开馆牌	-8591
▁搞好施工	-8592
▁撒切尔夫	-8593
▁撤军方案	-8594
▁撰写这篇	-8595
▁操持家务	-8596
▁放在各项	-8597
▁故土与家	-8598
▁敌对状态	-8599
▁挫	-8600
▁摇	-8601
▁摩	-8602
▁摸	-8603
▁涝	-8604
▁漫	-8605
▁腹	-8606
不妨	-8607
中最	-8608
事宜	-8609
儒庭	-8610
加深	-8611
和培	-8612
地写	-8613
山雕	-8614
引下	-8615
引菲	-8616
情操	-8617
推出	-8618
推广	-8619
撷拾	-8620
来写	-8621
的故	-8622
的饲	-8623
称赞	-8624
等曲	-8625
老舍	-8626
者想	-8627
致词	-8628
要突	-8629
讨择	-8630
证据	-8631
诞生	-8632
足伊	-8633
车流	-8634
这套	-8635
这部	-8636
阳坡	-8637
院去	-8638
黄灌	-8639
▁儒庭	-8640
▁合法	-8641
▁局面	-8642
▁挫伤	-8643
▁摸底	-8644
▁撷拾	-8645
▁板上	-8646
▁涝灾	-8647
▁漫步	-8648
▁细致	-8649
▁讨论	-8650
▁诞生	-8651
中最令	-8652
和情操	-8653
将称赞	-8654
座山雕	-8655
推广适	-8656
满足伊	-8657
猪的饲	-8658
率地写	-8659
的这部	-8660
经院去	-8661
这次被	-8662
重证据	-8663
▁危机爆	-8664
▁合法权	-8665
▁引黄灌	-8666
▁指引下	-8667
▁探讨择	-8668
▁援引菲	-8669
▁撰者想	-8670
▁正是由	-8671
▁重推出	-8672
坦率地写	-8673
少年军校	-8674
捉座山雕	-8675
经院去翻	-8676
记者陈陆	-8677
▁二重证据	-8678
▁危机爆发	-8679
▁合法权益	-8680
▁坦率地写	-8681
▁悟和情操	-8682
▁按满足伊	-8683
▁挑选和培	-8684
▁捉座山雕	-8685
▁推出这套	-8686
▁援韩事宜	-8687
▁敞豪华的	-8688
▁散文集虽	-8689
▁数字表明	-8690
▁整体平衡	-8691
▁整理出失	-8692
▁整的美术	-8693
▁新年将至	-8694
▁新的起点	-8695
▁旋律久久	-8696
▁无家可归	-8697
▁无法与之	-8698
▁无线通信	-8699
▁咱	-8700
▁抠	-8701
▁拢	-8702
▁括	-8703
▁拼	-8704
▁涯	-8705
▁辅	-8706
乾坤	-8707
们双	-8708
况屡	-8709
力度	-8710
包含	-8711
参观	-8712
国引	-8713
地委	-8714
均具	-8715
大光	-8716
并非	-8717
开那	-8718
户抓	-8719
手捧	-8720
扭转	-8721
抛弃	-8722
拆状	-8723
收割	-8724
棚和	-8725
注销	-8726
的洪	-8727
能融	-8728
腮壳	-8729
范围	-8730
限撤	-8731
▁先民	-8732
▁切实	-8733
▁咱们	-8734
▁块贫	-8735
▁头脑	-8736
▁宋健	-8737
▁扭转	-8738
▁抛弃	-8739
▁拆状	-8740
▁拢嘴	-8741
▁拼搏	-8742
▁棚和	-8743
▁走上	-8744
▁辅币	-8745
他们庄	-8746
况屡屡	-8747
北大光	-8748
后参观	-8749
堤的洪	-8750
并非轻	-8751
我们双	-8752
村户抓	-8753
法力度	-8754
法多样	-8755
▁先民的	-8756
▁咱们实	-8757
▁嘉奖四	-8758
▁块贫瘠	-8759
▁堤的洪	-8760
▁彬手捧	-8761
▁抠开那	-8762
▁括的那	-8763
▁觉和印	-8764
▁辅币戈	-8765
作者的十	-8766
北大光荣	-8767
第一条快	-8768
经营范围	-8769
这个村修	-8770
▁先民的意	-8771
▁切实安排	-8772
▁咱们实事	-8773
▁堤的洪水	-8774
▁戈却万夫	-8775
▁执法力度	-8776
▁扭转乾坤	-8777
▁技法多样	-8778
▁斤优良粮	-8779
▁既有对终	-8780
▁早期多画	-8781
▁早期有些	-8782
▁旱之年仅	-8783
▁旱的气候	-8784
▁昆明南过	-8785
▁易就能融	-8786
▁春的气息	-8787
▁春秋战国	-8788
▁昨天披露	-8789
▁显示出来	-8790
▁晴空万里	-8791
▁暴又席卷	-8792
▁曙色已然	-8793
▁曲的本身	-8794
▁更在于其	-8795
▁更是三位	-8796
▁更是对百	-8797
▁曾遇到过	-8798
▁服装系列	-8799
,《	-8800
▁恒	-8801
▁悬	-8802
▁惶	-8803
▁憨	-8804
▁憬	-8805
▁扇	-8806
▁扑	-8807
一愿	-8808
一页	-8809
书回	-8810
他今	-8811
以效	-8812
刘少	-8813
加坡	-8814
区运	-8815
和民	-8816
场征	-8817
子你	-8818
态可	-8819
悠久	-8820
我见	-8821
抓典	-8822
接带	-8823
文另	-8824
文革	-8825
无悔	-8826
是给	-8827
现综	-8828
白血	-8829
的木	-8830
的眷	-8831
读硕	-8832
选士	-8833
雅俗	-8834
雨夹	-8835
▁划拨	-8836
▁单独	-8837
▁怀抱	-8838
▁恒性	-8839
▁悠久	-8840
▁悬浮	-8841
▁惶惶	-8842
▁憬悟	-8843
▁扑面	-8844
▁政协	-8845
▁温家	-8846
一场征	-8847
全文另	-8848
刘少奇	-8849
和民宅	-8850
实现综	-8851
态可掬	-8852
怨无悔	-8853
惨一页	-8854
白血病	-8855
的心声	-8856
证书回	-8857
间接带	-8858
▁单独套	-8859
▁怨无悔	-8860
▁恒性崇	-8861
▁惨一页	-8862
▁或雨夹	-8863
▁担子你	-8864
▁控中心	-8865
▁攻读硕	-8866
▁温家宝	-8867
▁端的凯	-8868
▁那农民	-8869
全文另发	-8870
迟迟不敢	-8871
▁催还的逾	-8872
▁充分地参	-8873
▁孩子一样	-8874
▁憨态可掬	-8875
▁房和民宅	-8876
▁望无法充	-8877
▁朝代的更	-8878
▁未能如愿	-8879
▁术界众多	-8880
▁机长张启	-8881
▁材不必贪	-8882
▁村成为外	-8883
▁杨村机场	-8884
▁杭州西湖	-8885
▁松欢快的	-8886
▁极端的话	-8887
▁构保持某	-8888
▁果业为主	-8889
▁枝鲜花竞	-8890
▁某一题材	-8891
▁柳林县前	-8892
▁标题书法	-8893
▁样是财富	-8894
▁样来讲述	-8895
▁样的年轻	-8896
▁核心内容	-8897
▁根本不懂	-8898
▁格外高兴	-8899
)、	-8900
▁彦	-8901
▁彼	-8902
▁忍	-8903
▁怕	-8904
▁怜	-8905
▁申	-8906
▁肃	-8907
▁裹	-8908
▁遥	-8909
不小	-8910
为帝	-8911
光迎	-8912
划拨	-8913
动辄	-8914
又具	-8915
口中	-8916
在嘹	-8917
场面	-8918
家当	-8919
将使	-8920
已销	-8921
帘的	-8922
忽然	-8923
慷慨	-8924
把志	-8925
故乡	-8926
日起	-8927
更为	-8928
气氛	-8929
突击	-8930
职业	-8931
莅渝	-8932
贪全	-8933
道德	-8934
雨也	-8935
▁列化	-8936
▁善了	-8937
▁在筹	-8938
▁堵车	-8939
▁寄寓	-8940
▁帘的	-8941
▁忍痛	-8942
▁忽然	-8943
▁怕孤	-8944
▁怜恤	-8945
▁慷慨	-8946
▁握手	-8947
▁数千	-8948
▁桥梁	-8949
▁率目	-8950
▁畜饮	-8951
▁笔画	-8952
▁莅渝	-8953
▁裹尸	-8954
与创作	-8955
中小型	-8956
中的小	-8957
在全区	-8958
均已销	-8959
对动辄	-8960
将为每	-8961
更为读	-8962
▁入其中	-8963
▁却都是	-8964
▁善了产	-8965
▁堵车路	-8966
▁季多雨	-8967
▁小雨也	-8968
▁征突击	-8969
▁必贪全	-8970
▁忘故乡	-8971
▁性场面	-8972
▁数千名	-8973
▁盘山路	-8974
▁花鸟画	-8975
与创作真	-8976
中小型扬	-8977
中的小弟	-8978
了一大批	-8979
反对动辄	-8980
口中不断	-8981
均已销毁	-8982
每年划拨	-8983
职业道德	-8984
▁九七年对	-8985
▁却都是满	-8986
▁善了产供	-8987
▁堵车路段	-8988
▁学和浸会	-8989
▁带来力量	-8990
▁框架的束	-8991
▁榭大街狂	-8992
▁次大地震	-8993
▁此时此刻	-8994
▁武装力量	-8995
▁歼击机呈	-8996
▁残疾人郭	-8997
▁毅仁出席	-8998
▁每个地方	-8999
38	-9000
▁幽	-9001
▁床	-9002
▁弗	-9003
▁弹	-9004
书画	-9005
人注	-9006
出台	-9007
分配	-9008
只能	-9009
后的	-9010
喜悦	-9011
坎坷	-9012
如克	-9013
如车	-9014
子劲	-9015
帙浩	-9016
帧设	-9017
幅幅	-9018
干净	-9019
强劲	-9020
排上	-9021
明通	-9022
有那	-9023
治山	-9024
洁净	-9025
点帮	-9026
然更	-9027
用控	-9028
美人	-9029
脉络	-9030
航向	-9031
要踏	-9032
计陈	-9033
384	-9034
▁人士	-9035
▁以纪	-9036
▁喜爱	-9037
▁坎坷	-9038
▁女户	-9039
▁帙浩	-9040
▁帧设	-9041
▁弗纶	-9042
▁弹击	-9043
▁得好	-9044
▁戈比	-9045
▁扶持	-9046
▁样的	-9047
▁脉络	-9048
下治山	-9049
乡的焦	-9050
了所谓	-9051
人注目	-9052
只能买	-9053
后的跑	-9054
如克劳	-9055
排上几	-9056
明通史	-9057
显然更	-9058
次被评	-9059
美人蕉	-9060
被分配	-9061
这个目	-9062
▁值得忧	-9063
▁帙浩繁	-9064
▁样的会	-9065
▁莫斯科	-9066
▁评认为	-9067
图文并茂	-9068
地被分配	-9069
多次被评	-9070
敬乡的焦	-9071
显然更需	-9072
的一幅幅	-9073
织了所谓	-9074
计陈子劲	-9075
长后的跑	-9076
▁传媒人士	-9077
▁值得忧虑	-9078
▁具有继往	-9079
▁呼声再度	-9080
▁奏华夏浩	-9081
▁带来强劲	-9082
▁底只能买	-9083
▁引人注目	-9084
▁每亩水费	-9085
▁每年入冬	-9086
▁每年可产	-9087
▁每年还送	-9088
▁比在阔别	-9089
▁毫不含糊	-9090
▁气温记录	-9091
▁水利设施	-9092
▁沙特比赛	-9093
▁治国平天	-9094
▁注的热点	-9095
▁泪如泉涌	-9096
▁泾乡一起	-9097
▁洋洲镇洋	-9098
▁洗车点和	-9099
▁尖	-9100
▁尘	-9101
▁尚	-9102
▁尾	-9103
▁屈	-9104
▁岚	-9105
▁峻	-9106
▁崖	-9107
▁幕	-9108
▁晓	-9109
▁柱	-9110
一洗	-9111
一说	-9112
一露	-9113
不染	-9114
个县	-9115
乡冯	-9116
以具	-9117
分田	-9118
削减	-9119
困窘	-9120
妙地	-9121
家骅	-9122
射下	-9123
小姐	-9124
就走	-9125
展望	-9126
岂是	-9127
巾帕	-9128
建功	-9129
彩墨	-9130
是村	-9131
李润	-9132
的春	-9133
第三	-9134
结冰	-9135
而明	-9136
贫富	-9137
重逢	-9138
46%	-9139
▁二等	-9140
▁削减	-9141
▁宾请	-9142
▁射下	-9143
▁尚未	-9144
▁屈服	-9145
▁岂是	-9146
▁峻来	-9147
▁巾帕	-9148
▁彩而	-9149
▁晓颜	-9150
▁相信	-9151
▁蓄水	-9152
▁辆遥	-9153
▁雨滴	-9154
一露脸	-9155
人民连	-9156
刘乡冯	-9157
各以具	-9158
妙地糅	-9159
尹家骅	-9160
是村宅	-9161
的困窘	-9162
第三笔	-9163
而明清	-9164
长的春	-9165
▁事会上	-9166
▁二等功	-9167
▁半年之	-9168
▁宾请去	-9169
▁尘不染	-9170
▁尹家骅	-9171
▁尾重逢	-9172
▁屈服或	-9173
▁彩而言	-9174
▁晓颜赵	-9175
▁蓄水池	-9176
▁辆遥控	-9177
一直无微	-9178
以节日的	-9179
头一露脸	-9180
的是村宅	-9181
▁创新业绩	-9182
▁半年之久	-9183
▁宾请去合	-9184
▁尺长的春	-9185
▁岗刘乡冯	-9186
▁巧妙地糅	-9187
▁洼地种洼	-9188
▁派节日盛	-9189
▁浪费严重	-9190
▁海和黄海	-9191
▁消失夜晚	-9192
▁淌了三千	-9193
▁淡红的才	-9194
▁淡雅的装	-9195
▁淳厚质朴	-9196
▁游客出席	-9197
▁溧水县柘	-9198
▁演员和孩	-9199
▁孝	-9200
▁寂	-9201
▁寨	-9202
▁库	-9203
▁滩	-9204
九五	-9205
也深	-9206
于去	-9207
云岩	-9208
些钱	-9209
党刊	-9210
务的	-9211
可渡	-9212
合格	-9213
在颂	-9214
多个	-9215
孚凌	-9216
导致	-9217
少儿	-9218
影留	-9219
成群	-9220
控的	-9221
最早	-9222
李贵	-9223
条例	-9224
杰出	-9225
染着	-9226
法公	-9227
的善	-9228
的投	-9229
鱼儿	-9230
449	-9231
▁42	-9232
▁但是	-9233
▁动人	-9234
▁吃胡	-9235
▁孚凌	-9236
▁官员	-9237
▁寂寞	-9238
▁寨沟	-9239
▁有趣	-9240
▁条小	-9241
▁段加	-9242
▁门体	-9243
些钱补	-9244
务的官	-9245
司法公	-9246
多个院	-9247
成群连	-9248
报党刊	-9249
控的预	-9250
李贵鲜	-9251
杰出青	-9252
染着寂	-9253
残少儿	-9254
的善男	-9255
的投诉	-9256
▁89%	-9257
▁动人心	-9258
▁司法公	-9259
▁吃胡老	-9260
▁它最早	-9261
▁少导致	-9262
▁条小街	-9263
▁段加强	-9264
▁激光冷	-9265
▁罚条例	-9266
▁门体察	-9267
▁高水平	-9268
史籍之处	-9269
点染着寂	-9270
看望并采	-9271
调控的预	-9272
集村民开	-9273
▁临中期选	-9274
▁司法公证	-9275
▁吃胡老师	-9276
▁孤残少儿	-9277
▁寄些钱补	-9278
▁寺的善男	-9279
▁引导农户	-9280
▁殊的学习	-9281
▁段加强警	-9282
▁演歌舞节	-9283
▁演队向祖	-9284
▁潮有广泛	-9285
▁激动了一	-9286
▁火树银花	-9287
▁灾难临头	-9288
▁烈的象征	-9289
▁热气的粗	-9290
▁热的年份	-9291
▁烽火台挺	-9292
▁焦作就有	-9293
▁燃眉之急	-9294
▁爱乐乐团	-9295
▁牧为支柱	-9296
▁物种的味	-9297
▁独具风采	-9298
▁率先消灭	-9299
▁奴	-9300
▁姓	-9301
▁娇	-9302
▁娱	-9303
▁娶	-9304
两代	-9305
令汗	-9306
关单	-9307
兵圣	-9308
各机	-9309
告诉	-9310
和伴	-9311
奔赴	-9312
她那	-9313
妹妹	-9314
姻缘	-9315
娓娓	-9316
宝田	-9317
年身	-9318
挥洒	-9319
欲试	-9320
汪塘	-9321
理伊	-9322
罢掉	-9323
西晋	-9324
购买	-9325
越岭	-9326
这样	-9327
长官	-9328
际收	-9329
▁一夜	-9330
▁下去	-9331
▁中去	-9332
▁印上	-9333
▁后于	-9334
▁因而	-9335
▁奔赴	-9336
▁奥妙	-9337
▁奴役	-9338
▁姻缘	-9339
▁娓娓	-9340
▁娱乐	-9341
▁娶媳	-9342
▁辈甘	-9343
发现美	-9344
听罢掉	-9345
唱和伴	-9346
国家分	-9347
国际收	-9348
她那壮	-9349
山越岭	-9350
张挥洒	-9351
电视摄	-9352
金购买	-9353
▁印上他	-9354
▁后于日	-9355
▁因而此	-9356
▁如西晋	-9357
▁娇告诉	-9358
▁孙宝田	-9359
▁既不是	-9360
▁浇一遍	-9361
▁湖州市	-9362
▁透视学	-9363
为国家分	-9364
伴唱和伴	-9365
各机关单	-9366
夸张挥洒	-9367
用她那壮	-9368
电视摄像	-9369
翻山越岭	-9370
语十分醒	-9371
▁何识别和	-9372
▁印上他有	-9373
▁后于日前	-9374
▁因而此展	-9375
▁夸张挥洒	-9376
▁奖金购买	-9377
▁循环使用	-9378
▁既不是被	-9379
▁楼和鼓楼	-9380
▁率目前已	-9381
▁率达百分	-9382
▁王宫里有	-9383
▁王鸿举副	-9384
▁珠塔内奋	-9385
▁班安全返	-9386
▁球化经营	-9387
▁琅的关系	-9388
▁琼斯指数	-9389
▁用小说反	-9390
▁用的新币	-9391
▁由中国常	-9392
▁由全国妇	-9393
▁画出了心	-9394
▁画家之手	-9395
▁畅销一时	-9396
▁留地改成	-9397
▁疆安度晚	-9398
▁疑是增添	-9399
▁埃	-9400
▁埔	-9401
▁够	-9402
▁镜	-9403
一人	-9404
不亚	-9405
为祖	-9406
举棋	-9407
乡游	-9408
出边	-9409
却鸣	-9410
原因	-9411
同去	-9412
回荡	-9413
在指	-9414
地笃	-9415
墙上	-9416
大厅	-9417
大陆	-9418
幅增	-9419
惊心	-9420
斯基	-9421
日复	-9422
曲印	-9423
水围	-9424
澄澄	-9425
生亲	-9426
画名	-9427
社近	-9428
笑语	-9429
迎客	-9430
近二	-9431
遗憾	-9432
鱼前	-9433
5.8	-9434
▁举年	-9435
▁吸着	-9436
▁埃及	-9437
▁墙上	-9438
▁够纯	-9439
▁就职	-9440
▁旨的	-9441
▁汉书	-9442
▁竞价	-9443
▁细节	-9444
▁网络	-9445
乡游首	-9446
决不亚	-9447
却鸣戒	-9448
在指挥	-9449
型形象	-9450
外地分	-9451
天水围	-9452
孩曲印	-9453
康生亲	-9454
惊心动	-9455
洁地笃	-9456
画名馨	-9457
的一份	-9458
的韩国	-9459
红澄澄	-9460
▁侨一样	-9461
▁元月起	-9462
▁吸着新	-9463
▁墙上写	-9464
▁声笑语	-9465
▁够纯洁	-9466
▁大幅增	-9467
▁夫斯基	-9468
▁婚妇女	-9469
▁建社近	-9470
▁放近二	-9471
▁竞价出	-9472
▁见一人	-9473
▁走不开	-9474
▁赴大陆	-9475
乡游首迎	-9476
发表电视	-9477
外地分厂	-9478
惊心动魄	-9479
的韩国汉	-9480
鱼前举棋	-9481
▁人的独创	-9482
▁典型形象	-9483
▁吸着新鲜	-9484
▁圣洁地笃	-9485
▁塔在指挥	-9486
▁夜却鸣戒	-9487
▁珠电视塔	-9488
▁男孩曲印	-9489
▁症结在哪	-9490
▁白就欠佳	-9491
▁直接帮扶	-9492
▁省军区评	-9493
▁省加大开	-9494
▁看到一群	-9495
▁真实写照	-9496
▁真实地写	-9497
▁真情难觅	-9498
▁破此一难	-9499
,4	-9500
3%	-9501
▁喊	-9502
▁喻	-9503
▁嘱	-9504
▁坝	-9505
▁垄	-9506
▁赛	-9507
▁赭	-9508
两节	-9509
个景	-9510
为独	-9511
京途	-9512
假若	-9513
入股	-9514
共十	-9515
冷雪	-9516
县乡	-9517
受损	-9518
只有	-9519
可信	-9520
场路	-9521
多岁	-9522
大洪	-9523
好宣	-9524
少量	-9525
更好	-9526
期望	-9527
每挣	-9528
热土	-9529
的茄	-9530
看到	-9531
计就	-9532
金良	-9533
陵墓	-9534
雄劲	-9535
,48	-9536
60%	-9537
▁嘱托	-9538
▁垄断	-9539
▁履行	-9540
▁常驻	-9541
▁日本	-9542
▁材中	-9543
▁胜多	-9544
▁赛举	-9545
▁赭黄	-9546
▁采用	-9547
十多岁	-9548
和产品	-9549
少量炽	-9550
搞好宣	-9551
是县乡	-9552
特大洪	-9553
看到你	-9554
计就惊	-9555
▁件好事	-9556
▁回京途	-9557
▁园共十	-9558
▁围场路	-9559
▁块热土	-9560
▁常驻联	-9561
▁户入股	-9562
▁曹金良	-9563
▁虽名列	-9564
▁赛举枪	-9565
和产品质	-9566
大型温棚	-9567
▁四十多岁	-9568
▁四是县乡	-9569
▁圆润雄劲	-9570
▁场特大洪	-9571
▁寒风冷雪	-9572
▁层大花篮	-9573
▁抵达家门	-9574
▁春节来临	-9575
▁确实知之	-9576
▁磋商和审	-9577
▁示了两人	-9578
▁祥的悲愤	-9579
▁禽待而欲	-9580
▁科研成果	-9581
▁秘书长曹	-9582
▁秘书长朱	-9583
▁租金和楼	-9584
▁程序管制	-9585
▁程度地体	-9586
▁稍逊风骚	-9587
▁税区地位	-9588
▁稚和真诚	-9589
▁穷则思变	-9590
▁空前高涨	-9591
▁穿着军装	-9592
▁窥寻隐秘	-9593
▁立一年来	-9594
▁竖起鸣谢	-9595
▁站在村边	-9596
▁竞价出租	-9597
▁童声合唱	-9598
▁端区的雷	-9599
▁叫	-9600
▁右	-9601
▁	-9602
,	-9603
的	-9604
。	-9605
、	-9606
一	-9607
国	-9608
年	-9609
人	-9610
1	-9611
中	-9612
在	-9613
了	-9614
大	-9615
和	-9616
0	-9617
有	-9618
9	-9619
是	-9620
为	-9621
新	-9622
地	-9623
民	-9624
发	-9625
生	-9626
业	-9627
这	-9628
全	-9629
出	-9630
“	-9631
”	-9632
不	-9633
家	-9634
上	-9635
以	-9636
们	-9637
个	-9638
作	-9639
来	-9640
到	-9641
会	-9642
文	-9643
多	-9644
行	-9645
成	-9646
日	-9647
经	-9648
学	-9649
同	-9650
我	-9651
农	-9652
工	-9653
者	-9654
2	-9655
华	-9656
进	-9657
开	-9658
部	-9659
展	-9660
建	-9661
区	-9662
对	-9663
市	-9664
.	-9665
主	-9666
时	-9667
元	-9668
水	-9669
要	-9670
自	-9671
与	-9672
政	-9673
重	-9674
动	-9675
本	-9676
他	-9677
产	-9678
月	-9679
于	-9680
实	-9681
下	-9682
8	-9683
3	-9684
前	-9685
利	-9686
现	-9687
记	-9688
加	-9689
高	-9690
之	-9691
社	-9692
村	-9693
理	-9694
万	-9695
事	-9696
两	-9697
化	-9698
而	-9699
各	-9700
心	-9701
起	-9702
长	-9703
面	-9704
5	-9705
代	-9706
关	-9707
报	-9708
济	-9709
小	-9710
(	-9711
)	-9712
其	-9713
史	-9714
方	-9715
表	-9716
南	-9717
美	-9718
6	-9719
世	-9720
合	-9721
明	-9722
7	-9723
使	-9724
就	-9725
设	-9726
说	-9727
:	-9728
将	-9729
好	-9730
通	-9731
—	-9732
活	-9733
等	-9734
交	-9735
天	-9736
界	-9737
统	-9738
《	-9739
》	-9740
书	-9741
共	-9742
平	-9743
也	-9744
着	-9745
历	-9746
过	-9747
里	-9748
场	-9749
定	-9750
分	-9751
入	-9752
后	-9753
外	-9754
计	-9755
4	-9756
北	-9757
十	-9758
资	-9759
改	-9760
从	-9761
公	-9762
得	-9763
金	-9764
体	-9765
电	-9766
道	-9767
制	-9768
用	-9769
县	-9770
次	-9771
系	-9772
党	-9773
力	-9774
总	-9775
持	-9776
港	-9777
特	-9778
并	-9779
结	-9780
路	-9781
;	-9782
军	-9783
基	-9784
程	-9785
向	-9786
子	-9787
度	-9788
香	-9789
户	-9790
西	-9791
达	-9792
可	-9793
困	-9794
当	-9795
育	-9796
目	-9797
种	-9798
员	-9799
已	-9800
广	-9801
三	-9802
创	-9803
山	-9804
气	-9805
还	-9806
题	-9807
划	-9808
去	-9809
强	-9810
机	-9811
正	-9812
治	-9813
集	-9814
京	-9815
务	-9816
提	-9817
术	-9818
能	-9819
问	-9820
性	-9821
步	-9822
九	-9823
安	-9824
企	-9825
位	-9826
名	-9827
少	-9828
然	-9829
第	-9830
都	-9831
非	-9832
今	-9833
先	-9834
内	-9835
情	-9836
所	-9837
老	-9838
解	-9839
乡	-9840
导	-9841
版	-9842
立	-9843
精	-9844
联	-9845
及	-9846
品	-9847
府	-9848
收	-9849
江	-9850
门	-9851
间	-9852
委	-9853
意	-9854
无	-9855
法	-9856
乐	-9857
如	-9858
推	-9859
此	-9860
增	-9861
画	-9862
管	-9863
举	-9864
团	-9865
最	-9866
由	-9867
古	-9868
式	-9869
海	-9870
物	-9871
贫	-9872
战	-9873
图	-9874
更	-9875
难	-9876
些	-9877
保	-9878
放	-9879
样	-9880
论	-9881
革	-9882
传	-9883
形	-9884
把	-9885
相	-9886
近	-9887
城	-9888
布	-9889
组	-9890
车	-9891
领	-9892
群	-9893
际	-9894
首	-9895
义	-9896
五	-9897
点	-9898
节	-9899
协	-9900
岸	-9901
每	-9902
深	-9903
青	-9904
众	-9905
处	-9906
志	-9907
又	-9908
干	-9909
示	-9910
风	-9911
原	-9912
取	-9913
回	-9914
局	-9915
庆	-9916
张	-9917
投	-9918
祖	-9919
续	-9920
被	-9921
%	-9922
神	-9923
项	-9924
亿	-9925
决	-9926
厂	-9927
数	-9928
省	-9929
给	-9930
馆	-9931
优	-9932
台	-9933
应	-9934
引	-9935
想	-9936
据	-9937
服	-9938
条	-9939
田	-9940
纪	-9941
职	-9942
院	-9943
二	-9944
云	-9945
施	-9946
织	-9947
致	-9948
色	-9949
造	-9950
但	-9951
始	-9952
手	-9953
指	-9954
期	-9955
极	-9956
欢	-9957
比	-9958
流	-9959
演	-9960
队	-9961
坚	-9962
带	-9963
视	-9964
那	-9965
势	-9966
参	-9967
她	-9968
片	-9969
级	-9970
象	-9971
量	-9972
龙	-9973
东	-9974
思	-9975
支	-9976
族	-9977
环	-9978
益	-9979
盛	-9980
调	-9981
值	-9982
受	-9983
币	-9984
感	-9985
技	-9986
接	-9987
看	-9988
继	-9989
花	-9990
话	-9991
光	-9992
别	-9993
变	-9994
型	-9995
央	-9996
整	-9997
率	-9998
严	-9999
再	-10000
几	-10001
口	-10002
常	-10003
快	-10004
斯	-10005
望	-10006
祝	-10007
维	-10008
费	-10009
转	-10010
任	-10011
信	-10012
办	-10013
愿	-10014
效	-10015
认	-10016
音	-10017
头	-10018
格	-10019
艺	-10020
读	-10021
千	-10022
士	-10023
旦	-10024
果	-10025
百	-10026
直	-10027
真	-10028
积	-10029
选	-10030
亚	-10031
件	-10032
功	-10033
只	-10034
命	-10035
商	-10036
求	-10037
爱	-10038
空	-10039
良	-10040
英	-10041
议	-10042
写	-10043
卢	-10044
反	-10045
四	-10046
境	-10047
女	-10048
完	-10049
富	-10050
旗	-10051
林	-10052
知	-10053
至	-10054
藏	-10055
融	-10056
观	-10057
走	-10058
防	-10059
列	-10060
则	-10061
却	-10062
因	-10063
它	-10064
影	-10065
态	-10066
标	-10067
清	-10068
献	-10069
稳	-10070
考	-10071
规	-10072
身	-10073
迎	-10074
银	-10075
飞	-10076
专	-10077
兴	-10078
响	-10079
均	-10080
权	-10081
游	-10082
科	-10083
许	-10084
镇	-10085
降	-10086
马	-10087
做	-10088
八	-10089
助	-10090
双	-10091
己	-10092
德	-10093
李	-10094
温	-10095
类	-10096
讲	-10097
质	-10098
运	-10099
丛	-10100
争	-10101
切	-10102
归	-10103
往	-10104
拉	-10105
教	-10106
歌	-10107
没	-10108
源	-10109
王	-10110
见	-10111
边	-10112
连	-10113
兵	-10114
巴	-10115
彩	-10116
斗	-10117
确	-10118
航	-10119
评	-10120
钱	-10121
亩	-10122
况	-10123
副	-10124
域	-10125
夏	-10126
帮	-10127
必	-10128
扶	-10129
武	-10130
河	-10131
泽	-10132
满	-10133
略	-10134
础	-10135
笔	-10136
籍	-10137
编	-10138
货	-10139
?	-10140
俄	-10141
具	-10142
兼	-10143
友	-10144
告	-10145
园	-10146
存	-10147
才	-10148
景	-10149
研	-10150
究	-10151
红	-10152
线	-10153
装	-10154
识	-10155
额	-10156
供	-10157
努	-10158
升	-10159
半	-10160
川	-10161
很	-10162
护	-10163
故	-10164
款	-10165
照	-10166
脱	-10167
荣	-10168
街	-10169
该	-10170
责	-10171
七	-10172
价	-10173
减	-10174
周	-10175
善	-10176
复	-10177
尽	-10178
席	-10179
春	-10180
紧	-10181
罗	-10182
营	-10183
警	-10184
鲜	-10185
『	-10186
』	-10187
临	-10188
司	-10189
喜	-10190
夜	-10191
套	-10192
孙	-10193
庭	-10194
录	-10195
早	-10196
油	-10197
洲	-10198
球	-10199
米	-10200
繁	-10201
胞	-10202
范	-10203
谋	-10204
退	-10205
速	-10206
随	-10207
令	-10208
克	-10209
养	-10210
包	-10211
岁	-10212
扎	-10213
批	-10214
未	-10215
约	-10216
菜	-10217
著	-10218
谈	-10219
贺	-10220
较	-10221
远	-10222
雄	-10223
!	-10224
仅	-10225
何	-10226
依	-10227
刘	-10228
刻	-10229
占	-10230
印	-10231
声	-10232
孔	-10233
宁	-10234
密	-10235
尔	-10236
巨	-10237
念	-10238
慰	-10239
承	-10240
抓	-10241
摄	-10242
显	-10243
梁	-10244
注	-10245
火	-10246
热	-10247
落	-10248
证	-10249
采	-10250
驻	-10251
黄	-10252
午	-10253
土	-10254
奋	-10255
客	-10256
宣	-10257
尼	-10258
州	-10259
希	-10260
庄	-10261
底	-10262
或	-10263
曲	-10264
案	-10265
模	-10266
澳	-10267
激	-10268
称	-10269
终	-10270
贸	-10271
述	-10272
送	-10273
针	-10274
雨	-10275
震	-10276
鱼	-10277
份	-10278
伍	-10279
伟	-10280
健	-10281
儿	-10282
准	-10283
初	-10284
卡	-10285
召	-10286
容	-10287
曾	-10288
独	-10289
破	-10290
章	-10291
艰	-10292
访	-10293
负	-10294
阳	-10295
丽	-10296
乎	-10297
仪	-10298
低	-10299
便	-10300
卫	-10301
即	-10302
号	-10303
备	-10304
居	-10305
怀	-10306
按	-10307
挥	-10308
斤	-10309
断	-10310
晚	-10311
材	-10312
构	-10313
波	-10314
派	-10315
琛	-10316
禁	-10317
福	-10318
纷	-10319
购	-10320
贵	-10321
超	-10322
迹	-10323
雪	-10324
韩	-10325
么	-10326
亡	-10327
亲	-10328
仍	-10329
伤	-10330
促	-10331
典	-10332
冷	-10333
劳	-10334
围	-10335
塔	-10336
奇	-10337
座	-10338
康	-10339
排	-10340
探	-10341
控	-10342
烈	-10343
石	-10344
纳	-10345
聚	-10346
胡	-10347
让	-10348
讯	-10349
逐	-10350
销	-10351
·	-10352
住	-10353
侨	-10354
充	-10355
冬	-10356
夫	-10357
寒	-10358
察	-10359
息	-10360
散	-10361
映	-10362
智	-10363
查	-10364
汇	-10365
泾	-10366
状	-10367
珍	-10368
登	-10369
眼	-10370
素	-10371
署	-10372
背	-10373
舞	-10374
苦	-10375
茶	-10376
财	-10377
足	-10378
辉	-10379
验	-10380
’	-10381
刚	-10382
卖	-10383
危	-10384
吕	-10385
吸	-10386
字	-10387
徐	-10388
救	-10389
旧	-10390
根	-10391
死	-10392
段	-10393
消	-10394
湾	-10395
留	-10396
白	-10397
短	-10398
突	-10399
策	-10400
纸	-10401
胜	-10402
谁	-10403
邓	-10404
郑	-10405
阶	-10406
互	-10407
余	-10408
你	-10409
佳	-10410
兰	-10411
剧	-10412
勒	-10413
厚	-10414
唱	-10415
妇	-10416
幅	-10417
序	-10418
待	-10419
忘	-10420
恢	-10421
易	-10422
树	-10423
浩	-10424
瑞	-10425
粮	-10426
补	-10427
言	-10428
贷	-10429
轻	-10430
遗	-10431
陈	-10432
需	-10433
顿	-10434
齐	-10435
且	-10436
丰	-10437
修	-10438
停	-10439
像	-10440
勃	-10441
医	-10442
器	-10443
墨	-10444
太	-10445
层	-10446
担	-10447
拥	-10448
括	-10449
拿	-10450
振	-10451
措	-10452
敬	-10453
旅	-10454
暖	-10455
束	-10456
架	-10457
氛	-10458
焦	-10459
玉	-10460
索	-10461
荒	-10462
虽	-10463
觉	-10464
角	-10465
越	-10466
跨	-10467
追	-10468
阵	-10469
阿	-10470
限	-10471
食	-10472
丝	-10473
久	-10474
习	-10475
判	-10476
单	-10477
厅	-10478
叙	-10479
启	-10480
哈	-10481
失	-10482
官	-10483
审	-10484
律	-10485
怎	-10486
拍	-10487
捐	-10488
普	-10489
横	-10490
玲	-10491
班	-10492
甚	-10493
秀	-10494
筹	-10495
篇	-10496
置	-10497
股	-10498
蒙	-10499
誉	-10500
词	-10501
请	-10502
趋	-10503
辆	-10504
辞	-10505
适	-10506
遇	-10507
顺	-10508
须	-10509
鸣	-10510
丁	-10511
买	-10512
候	-10513
六	-10514
冲	-10515
博	-10516
另	-10517
呼	-10518
坦	-10519
奏	-10520
宾	-10521
属	-10522
峰	-10523
忧	-10524
房	-10525
托	-10526
扬	-10527
拓	-10528
挤	-10529
摆	-10530
料	-10531
既	-10532
星	-10533
朋	-10534
木	-10535
析	-10536
止	-10537
润	-10538
潮	-10539
爸	-10540
筑	-10541
纯	-10542
绍	-10543
绩	-10544
绿	-10545
耶	-10546
肉	-10547
舍	-10548
若	-10549
违	-10550
配	-10551
钟	-10552
闻	-10553
附	-10554
静	-10555
预	-10556
鼓	-10557
乌	-10558
什	-10559
介	-10560
伊	-10561
偏	-10562
击	-10563
右	-10564
坡	-10565
培	-10566
壮	-10567
夕	-10568
奶	-10569
岗	-10570
帜	-10571
征	-10572
恩	-10573
悲	-10574
惠	-10575
描	-10576
援	-10577
搞	-10578
朝	-10579
朱	-10580
松	-10581
殖	-10582
毛	-10583
泛	-10584
洁	-10585
浙	-10586
渐	-10587
湖	-10588
灵	-10589
煌	-10590
离	-10591
秦	-10592
税	-10593
竟	-10594
童	-10595
纽	-10596
综	-10597
脑	-10598
莫	-10599
萨	-10600
语	-10601
谓	-10602
谢	-10603
赞	-10604
跃	-10605
跑	-10606
载	-10607
透	-10608
雅	-10609
雷	-10610
休	-10611
伴	-10612
倡	-10613
凡	-10614
吨	-10615
听	-10616
圳	-10617
奖	-10618
妈	-10619
孤	-10620
尊	-10621
尤	-10622
届	-10623
左	-10624
差	-10625
师	-10626
扩	-10627
找	-10628
挑	-10629
换	-10630
授	-10631
摊	-10632
板	-10633
桑	-10634
欣	-10635
永	-10636
沙	-10637
渡	-10638
滨	-10639
灌	-10640
瓜	-10641
疆	-10642
病	-10643
监	-10644
盾	-10645
秩	-10646
穿	-10647
窗	-10648
签	-10649
简	-10650
耕	-10651
胀	-10652
脚	-10653
苏	-10654
获	-10655
蔬	-10656
血	-10657
衣	-10658
贡	-10659
赠	-10660
遍	-10661
键	-10662
阅	-10663
露	-10664
C	-10665
°	-10666
‘	-10667
亮	-10668
劲	-10669
勇	-10670
叶	-10671
吁	-10672
吴	-10673
哲	-10674
喷	-10675
坝	-10676
妹	-10677
妻	-10678
季	-10679
孩	-10680
延	-10681
异	-10682
役	-10683
彻	-10684
循	-10685
忆	-10686
忠	-10687
悟	-10688
抗	-10689
拱	-10690
挂	-10691
播	-10692
敢	-10693
核	-10694
桥	-10695
概	-10696
氏	-10697
沧	-10698
沼	-10699
泰	-10700
涨	-10701
淡	-10702
渠	-10703
烂	-10704
烟	-10705
狂	-10706
矛	-10707
秋	-10708
租	-10709
站	-10710
竞	-10711
细	-10712
缓	-10713
羊	-10714
翻	-10715
般	-10716
荡	-10717
董	-10718
衡	-10719
触	-10720
誓	-10721
豆	-10722
豪	-10723
貌	-10724
赏	-10725
赢	-10726
迈	-10727
迟	-10728
逾	-10729
邮	-10730
醒	-10731
陆	-10732
除	-10733
靠	-10734
骨	-10735
鲁	-10736
付	-10737
似	-10738
例	-10739
倒	-10740
兑	-10741
冉	-10742
净	-10743
刊	-10744
卷	-10745
压	-10746
呈	-10747
呢	-10748
味	-10749
哥	-10750
固	-10751
圣	-10752
坐	-10753
块	-10754
堵	-10755
塞	-10756
够	-10757
宗	-10758
岭	-10759
幼	-10760
惊	-10761
懈	-10762
执	-10763
招	-10764
旋	-10765
末	-10766
杨	-10767
梅	-10768
棚	-10769
森	-10770
楼	-10771
欠	-10772
毅	-10773
毫	-10774
沉	-10775
沟	-10776
津	-10777
洪	-10778
浓	-10779
涉	-10780
涵	-10781
溉	-10782
滚	-10783
漠	-10784
潜	-10785
灯	-10786
灾	-10787
疑	-10788
盘	-10789
竹	-10790
笑	-10791
算	-10792
粉	-10793
累	-10794
练	-10795
绘	-10796
绝	-10797
缘	-10798
缩	-10799
胆	-10800
脸	-10801
菲	-10802
蕊	-10803
览	-10804
订	-10805
训	-10806
贯	-10807
贴	-10808
贾	-10809
趣	-10810
踏	-10811
邻	-10812
险	-10813
隆	-10814
频	-10815
鹏	-10816
‰	-10817
丹	-10818
乱	-10819
享	-10820
仁	-10821
仰	-10822
佩	-10823
俊	-10824
偿	-10825
册	-10826
冒	-10827
冰	-10828
剖	-10829
匙	-10830
吃	-10831
吗	-10832
嘉	-10833
囊	-10834
垦	-10835
堂	-10836
姐	-10837
宪	-10838
屋	-10839
峡	-10840
崇	-10841
幕	-10842
库	-10843
微	-10844
急	-10845
恭	-10846
悦	-10847
打	-10848
抢	-10849
择	-10850
挺	-10851
掉	-10852
掘	-10853
揭	-10854
搜	-10855
撤	-10856
撰	-10857
攻	-10858
旨	-10859
昌	-10860
晨	-10861
曹	-10862
枪	-10863
染	-10864
校	-10865
植	-10866
毁	-10867
毕	-10868
汉	-10869
泳	-10870
洋	-10871
浪	-10872
淮	-10873
灭	-10874
灿	-10875
炼	-10876
煤	-10877
爆	-10878
猪	-10879
瓦	-10880
盖	-10881
硬	-10882
礼	-10883
祥	-10884
票	-10885
端	-10886
绵	-10887
缺	-10888
耀	-10889
肯	-10890
胸	-10891
芳	-10892
蓝	-10893
诗	-10894
诚	-10895
课	-10896
谱	-10897
跌	-10898
轨	-10899
输	-10900
钥	-10901
铁	-10902
阔	-10903
陀	-10904
隔	-10905
障	-10906
零	-10907
页	-10908
饲	-10909
鸡	-10910
鸿	-10911
黎	-10912
黑	-10913
默	-10914
龚	-10915
佐	-10916
债	-10917
假	-10918
凝	-10919
凯	-10920
剩	-10921
叫	-10922
吐	-10923
含	-10924
售	-10925
坏	-10926
塘	-10927
奔	-10928
奥	-10929
妙	-10930
妥	-10931
姑	-10932
姜	-10933
威	-10934
宅	-10935
宏	-10936
宜	-10937
宝	-10938
宽	-10939
寄	-10940
寡	-10941
寻	-10942
履	-10943
岛	-10944
巩	-10945
床	-10946
弟	-10947
径	-10948
忙	-10949
恰	-10950
恶	-10951
悉	-10952
截	-10953
拔	-10954
拘	-10955
拜	-10956
挖	-10957
掌	-10958
插	-10959
握	-10960
操	-10961
敏	-10962
敞	-10963
斑	-10964
旱	-10965
昭	-10966
某	-10967
栋	-10968
检	-10969
榭	-10970
欧	-10971
汪	-10972
泉	-10973
洗	-10974
测	-10975
涌	-10976
淀	-10977
添	-10978
滴	-10979
漫	-10980
濒	-10981
灶	-10982
炸	-10983
牌	-10984
牡	-10985
牵	-10986
猎	-10987
玩	-10988
珠	-10989
男	-10990
畅	-10991
畜	-10992
番	-10993
睦	-10994
矿	-10995
禽	-10996
秘	-10997
穷	-10998
窥	-10999
篆	-11000
篓	-11001
纲	-11002
缔	-11003
翁	-11004
肩	-11005
膨	-11006
艳	-11007
蓄	-11008
蓬	-11009
衷	-11010
袭	-11011
覆	-11012
试	-11013
详	-11014
谨	-11015
账	-11016
赛	-11017
赶	-11018
软	-11019
辈	-11020
辖	-11021
迁	-11022
迅	-11023
迪	-11024
途	-11025
遣	-11026
郁	-11027
郭	-11028
野	-11029
锋	-11030
锡	-11031
闭	-11032
阻	-11033
陵	-11034
顶	-11035
顾	-11036
颜	-11037
飘	-11038
驱	-11039
鸟	-11040
/	-11041
A	-11042
B	-11043
丧	-11044
串	-11045
乃	-11046
乏	-11047
乔	-11048
乳	-11049
予	-11050
仓	-11051
伙	-11052
佛	-11053
俗	-11054
倍	-11055
储	-11056
允	-11057
励	-11058
卉	-11059
厦	-11060
否	-11061
吹	-11062
咱	-11063
啊	-11064
喝	-11065
嘴	-11066
址	-11067
坛	-11068
坪	-11069
堡	-11070
夺	-11071
奉	-11072
婚	-11073
媒	-11074
宫	-11075
寺	-11076
封	-11077
射	-11078
尉	-11079
尝	-11080
尾	-11081
屏	-11082
岚	-11083
峻	-11084
帧	-11085
弃	-11086
弥	-11087
弦	-11088
彭	-11089
徊	-11090
徘	-11091
徽	-11092
恒	-11093
患	-11094
愉	-11095
慎	-11096
慧	-11097
憾	-11098
懂	-11099
戈	-11100
抵	-11101
损	-11102
摇	-11103
旁	-11104
昆	-11105
昨	-11106
晤	-11107
朗	-11108
朴	-11109
杰	-11110
柏	-11111
柱	-11112
柴	-11113
桂	-11114
梦	-11115
棉	-11116
椒	-11117
残	-11118
池	-11119
汽	-11120
沪	-11121
泄	-11122
泣	-11123
泥	-11124
泪	-11125
洒	-11126
浇	-11127
滋	-11128
潘	-11129
灰	-11130
炮	-11131
燃	-11132
父	-11133
爷	-11134
牖	-11135
牧	-11136
犹	-11137
狠	-11138
甘	-11139
眉	-11140
督	-11141
瞩	-11142
碌	-11143
祈	-11144
祷	-11145
竖	-11146
绕	-11147
络	-11148
网	-11149
翰	-11150
翼	-11151
耘	-11152
聪	-11153
腮	-11154
腹	-11155
船	-11156
艾	-11157
茭	-11158
药	-11159
蒸	-11160
蔓	-11161
蔚	-11162
虎	-11163
虑	-11164
虹	-11165
衰	-11166
讨	-11167
诉	-11168
诊	-11169
诸	-11170
诺	-11171
谊	-11172
贤	-11173
赖	-11174
赴	-11175
赵	-11176
轮	-11177
辙	-11178
辛	-11179
辣	-11180
逊	-11181
逛	-11182
遥	-11183
邦	-11184
酋	-11185
酒	-11186
钢	-11187
铺	-11188
镕	-11189
闪	-11190
闹	-11191
韵	-11192
颇	-11193
饮	-11194
馨	-11195
驶	-11196
驾	-11197
骤	-11198
鬼	-11199
魂	-11200
魄	-11201
鹰	-11202
麻	-11203
乾	-11204
井	-11205
亦	-11206
亭	-11207
仆	-11208
仿	-11209
伐	-11210
伦	-11211
侠	-11212
侧	-11213
倘	-11214
借	-11215
倦	-11216
倾	-11217
催	-11218
傲	-11219
兄	-11220
兆	-11221
免	-11222
凌	-11223
剑	-11224
割	-11225
劣	-11226
劫	-11227
勋	-11228
募	-11229
勤	-11230
匆	-11231
卜	-11232
句	-11233
叭	-11234
吉	-11235
哀	-11236
哪	-11237
喇	-11238
圆	-11239
垫	-11240
堆	-11241
堪	-11242
塑	-11243
墙	-11244
奠	-11245
妨	-11246
姨	-11247
姻	-11248
娃	-11249
娓	-11250
娱	-11251
孝	-11252
守	-11253
宋	-11254
室	-11255
害	-11256
宿	-11257
寂	-11258
寓	-11259
尖	-11260
尚	-11261
尺	-11262
屡	-11263
岩	-11264
崭	-11265
巧	-11266
巷	-11267
帷	-11268
幸	-11269
廉	-11270
弱	-11271
彦	-11272
彬	-11273
彼	-11274
忽	-11275
怕	-11276
悠	-11277
惜	-11278
惯	-11279
惶	-11280
慨	-11281
戎	-11282
戒	-11283
扫	-11284
扮	-11285
扰	-11286
披	-11287
抱	-11288
拒	-11289
拖	-11290
拨	-11291
拾	-11292
挚	-11293
挣	-11294
掩	-11295
揣	-11296
揽	-11297
搭	-11298
摘	-11299
摧	-11300
摩	-11301
摸	-11302
撼	-11303
敲	-11304
斌	-11305
斐	-11306
斓	-11307
旬	-11308
旺	-11309
昂	-11310
昼	-11311
晋	-11312
暗	-11313
杂	-11314
杜	-11315
杭	-11316
枝	-11317
柳	-11318
柿	-11319
框	-11320
桌	-11321
档	-11322
椅	-11323
欲	-11324
歧	-11325
殃	-11326
殊	-11327
沈	-11328
沿	-11329
洞	-11330
洼	-11331
浜	-11332
湿	-11333
溪	-11334
滞	-11335
漾	-11336
澄	-11337
烧	-11338
烽	-11339
熊	-11340
熟	-11341
牛	-11342
狭	-11343
猛	-11344
玛	-11345
珮	-11346
琴	-11347
琼	-11348
甜	-11349
申	-11350
畔	-11351
疏	-11352
疗	-11353
痕	-11354
痪	-11355
瘫	-11356
皇	-11357
皎	-11358
盆	-11359
盗	-11360
眠	-11361
眺	-11362
睹	-11363
码	-11364
砖	-11365
硕	-11366
硝	-11367
磨	-11368
私	-11369
秧	-11370
移	-11371
稀	-11372
笛	-11373
笼	-11374
答	-11375
箫	-11376
粗	-11377
粹	-11378
糊	-11379
纵	-11380
纺	-11381
绣	-11382
绳	-11383
绸	-11384
缅	-11385
缚	-11386
缤	-11387
罕	-11388
罚	-11389
罢	-11390
羽	-11391
耳	-11392
肖	-11393
脆	-11394
脉	-11395
脏	-11396
腐	-11397
腾	-11398
臣	-11399
舆	-11400
舟	-11401
苍	-11402
茂	-11403
茫	-11404
茵	-11405
草	-11406
莽	-11407
萝	-11408
萧	-11409
蒂	-11410
蕴	-11411
蕾	-11412
藉	-11413
虚	-11414
蛋	-11415
蜜	-11416
袋	-11417
袱	-11418
裁	-11419
裂	-11420
裕	-11421
译	-11422
诞	-11423
谦	-11424
谷	-11425
豫	-11426
贪	-11427
赤	-11428
赫	-11429
跋	-11430
跳	-11431
践	-11432
踞	-11433
轰	-11434
辄	-11435
辐	-11436
辑	-11437
辟	-11438
返	-11439
迭	-11440
逝	-11441
逢	-11442
邀	-11443
邹	-11444
钞	-11445
钦	-11446
钻	-11447
锐	-11448
锤	-11449
锦	-11450
闯	-11451
阐	-11452
阴	-11453
陪	-11454
陶	-11455
隐	-11456
雀	-11457
雕	-11458
韧	-11459
餐	-11460
饱	-11461
饺	-11462
骄	-11463
鸠	-11464
鼠	-11465
丈	-11466
乘	-11467
亏	-11468
仇	-11469
仔	-11470
伏	-11471
伯	-11472
估	-11473
伸	-11474
佯	-11475
俏	-11476
俘	-11477
俨	-11478
俯	-11479
俱	-11480
倔	-11481
倪	-11482
偷	-11483
傅	-11484
傍	-11485
僧	-11486
僵	-11487
儒	-11488
兹	-11489
冠	-11490
冯	-11491
冶	-11492
冻	-11493
凤	-11494
凭	-11495
凶	-11496
凸	-11497
刃	-11498
刷	-11499
券	-11500
剂	-11501
削	-11502
剥	-11503
剪	-11504
剿	-11505
劈	-11506
劼	-11507
勉	-11508
勘	-11509
勾	-11510
匠	-11511
卧	-11512
卯	-11513
卿	-11514
厉	-11515
厌	-11516
叉	-11517
叔	-11518
叩	-11519
叱	-11520
叹	-11521
吟	-11522
吧	-11523
呕	-11524
咏	-11525
咤	-11526
咨	-11527
哄	-11528
哇	-11529
哩	-11530
唐	-11531
喊	-11532
喧	-11533
喻	-11534
嘎	-11535
嘘	-11536
嘱	-11537
嘹	-11538
圈	-11539
圾	-11540
坎	-11541
坤	-11542
坷	-11543
垂	-11544
垃	-11545
垄	-11546
垠	-11547
埃	-11548
埔	-11549
堑	-11550
堤	-11551
墓	-11552
墟	-11553
壳	-11554
夸	-11555
夹	-11556
奴	-11557
姆	-11558
姓	-11559
娇	-11560
娶	-11561
媚	-11562
媳	-11563
嫁	-11564
嫩	-11565
孚	-11566
寞	-11567
寨	-11568
寸	-11569
尘	-11570
尸	-11571
尹	-11572
屈	-11573
屿	-11574
岂	-11575
岱	-11576
峭	-11577
崔	-11578
崖	-11579
崛	-11580
嵌	-11581
嵩	-11582
巡	-11583
巾	-11584
帅	-11585
帐	-11586
帕	-11587
帘	-11588
帙	-11589
帝	-11590
帽	-11591
幄	-11592
幽	-11593
庙	-11594
废	-11595
弄	-11596
弊	-11597
弗	-11598
弯	-11599
弹	-11600
忍	-11601
怒	-11602
怜	-11603
怠	-11604
怨	-11605
恋	-11606
恍	-11607
恐	-11608
恤	-11609
恨	-11610
恺	-11611
悄	-11612
悔	-11613
您	-11614
悬	-11615
悸	-11616
惨	-11617
惬	-11618
愁	-11619
愤	-11620
愫	-11621
慢	-11622
慷	-11623
憨	-11624
憬	-11625
戴	-11626
扇	-11627
扉	-11628
扑	-11629
扣	-11630
扭	-11631
抄	-11632
抒	-11633
折	-11634
抛	-11635
抠	-11636
抬	-11637
抽	-11638
拆	-11639
拗	-11640
拙	-11641
拟	-11642
拢	-11643
拦	-11644
拮	-11645
拼	-11646
挡	-11647
挨	-11648
挫	-11649
捉	-11650
捍	-11651
捧	-11652
捷	-11653
掏	-11654
掬	-11655
搁	-11656
搏	-11657
搬	-11658
撑	-11659
撒	-11660
撷	-11661
攀	-11662
攥	-11663
敌	-11664
斡	-11665
晓	-11666
晴	-11667
暇	-11668
暴	-11669
曙	-11670
曝	-11671
曼	-11672
替	-11673
朵	-11674
朽	-11675
杀	-11676
杆	-11677
杈	-11678
杞	-11679
杯	-11680
枚	-11681
枸	-11682
柔	-11683
柘	-11684
栏	-11685
栓	-11686
栖	-11687
桃	-11688
梓	-11689
梭	-11690
梯	-11691
械	-11692
棋	-11693
棒	-11694
楚	-11695
榫	-11696
槟	-11697
樊	-11698
歼	-11699
殷	-11700
母	-11701
氢	-11702
氤	-11703
氲	-11704
汀	-11705
汗	-11706
汛	-11707
汝	-11708
污	-11709
汤	-11710
汾	-11711
沂	-11712
沥	-11713
沫	-11714
沾	-11715
泸	-11716
泻	-11717
浅	-11718
浑	-11719
浦	-11720
浮	-11721
浸	-11722
涂	-11723
涅	-11724
涛	-11725
涝	-11726
涣	-11727
涪	-11728
涯	-11729
淌	-11730
淳	-11731
混	-11732
渊	-11733
渝	-11734
渤	-11735
渥	-11736
溜	-11737
溧	-11738
溯	-11739
滥	-11740
滩	-11741
漏	-11742
漓	-11743
澈	-11744
澎	-11745
瀑	-11746
瀚	-11747
炉	-11748
炎	-11749
炽	-11750
烁	-11751
熔	-11752
燕	-11753
爪	-11754
牙	-11755
牢	-11756
牲	-11757
牺	-11758
犯	-11759
狱	-11760
狼	-11761
珊	-11762
琅	-11763
琦	-11764
瑙	-11765
瑚	-11766
瑰	-11767
瑶	-11768
甫	-11769
甲	-11770
疫	-11771
疾	-11772
症	-11773
痛	-11774
瘠	-11775
皆	-11776
皮	-11777
盈	-11778
盎	-11779
盏	-11780
盲	-11781
眷	-11782
睛	-11783
瞒	-11784
砂	-11785
砍	-11786
砚	-11787
碍	-11788
碎	-11789
碑	-11790
碰	-11791
磊	-11792
磋	-11793
禺	-11794
秒	-11795
秤	-11796
稍	-11797
稚	-11798
稻	-11799
稿	-11800
穆	-11801
窄	-11802
窘	-11803
竣	-11804
笃	-11805
笋	-11806
筛	-11807
筝	-11808
箱	-11809
箴	-11810
篮	-11811
粒	-11812
粪	-11813
粲	-11814
糅	-11815
糖	-11816
紫	-11817
纂	-11818
纠	-11819
纬	-11820
纶	-11821
绎	-11822
绑	-11823
绒	-11824
绚	-11825
绪	-11826
缕	-11827
缝	-11828
缭	-11829
缴	-11830
罐	-11831
罪	-11832
翅	-11833
翔	-11834
翠	-11835
耻	-11836
聘	-11837
肃	-11838
肤	-11839
肥	-11840
肴	-11841
肿	-11842
胁	-11843
脂	-11844
腊	-11845
腕	-11846
腰	-11847
膀	-11848
膏	-11849
臂	-11850
臆	-11851
臭	-11852
臾	-11853
舒	-11854
舰	-11855
芍	-11856
芒	-11857
芙	-11858
芜	-11859
芝	-11860
芦	-11861
芭	-11862
芹	-11863
苋	-11864
苗	-11865
苹	-11866
茄	-11867
茅	-11868
茨	-11869
荆	-11870
莅	-11871
莎	-11872
菊	-11873
菌	-11874
菠	-11875
萌	-11876
萍	-11877
葡	-11878
葫	-11879
葱	-11880
蓉	-11881
蕉	-11882
蕻	-11883
薄	-11884
薛	-11885
虬	-11886
蜕	-11887
衍	-11888
衔	-11889
袖	-11890
裹	-11891
觅	-11892
觑	-11893
觞	-11894
詹	-11895
讴	-11896
询	-11897
误	-11898
谭	-11899
豁	-11900
豌	-11901
豹	-11902
贝	-11903
贞	-11904
败	-11905
贩	-11906
贬	-11907
贱	-11908
贻	-11909
赁	-11910
赋	-11911
赐	-11912
赔	-11913
赡	-11914
赭	-11915
距	-11916
跟	-11917
跷	-11918
踢	-11919
踵	-11920
蹈	-11921
躺	-11922
轲	-11923
辅	-11924
辨	-11925
迄	-11926
逃	-11927
遏	-11928
遒	-11929
遮	-11930
遵	-11931
邕	-11932
邱	-11933
邵	-11934
邸	-11935
郊	-11936
郎	-11937
释	-11938
鉴	-11939
钓	-11940
钧	-11941
钩	-11942
铎	-11943
铣	-11944
铭	-11945
链	-11946
锁	-11947
锅	-11948
错	-11949
锣	-11950
锲	-11951
锻	-11952
镜	-11953
镶	-11954
闸	-11955
阂	-11956
阑	-11957
阖	-11958
陟	-11959
陡	-11960
陲	-11961
陷	-11962
隶	-11963
雁	-11964
雏	-11965
雯	-11966
雾	-11967
霎	-11968
霜	-11969
霞	-11970
霸	-11971
鞋	-11972
鞭	-11973
韦	-11974
颂	-11975
颖	-11976
颗	-11977
饥	-11978
饰	-11979
饼	-11980
饿	-11981
驰	-11982
骅	-11983
骑	-11984
骚	-11985
魁	-11986
魅	-11987
鲍	-11988
鲤	-11989
鲫	-11990
鲶	-11991
鳜	-11992
鸢	-11993
麦	-11994
黔	-11995
鼐	-11996
龄	-11997
