<pad>	0
[UNK]	0
▁,	-0
▁的	-1
▁。	-2
▁、	-3
▁国	-4
▁年	-5
▁一	-6
▁1	-7
▁中	-8
▁人	-9
▁在	-10
▁9	-11
▁大	-12
▁0	-13
▁了	-14
▁和	-15
▁有	-16
▁是	-17
▁新	-18
▁为	-19
▁民	-20
▁这	-21
▁地	-22
▁发	-23
▁“	-24
▁全	-25
▁家	-26
▁生	-27
▁”	-28
▁们	-29
▁以	-30
▁出	-31
▁业	-32
▁个	-33
▁上	-34
▁不	-35
▁我	-36
▁会	-37
▁日	-38
▁来	-39
▁多	-40
▁作	-41
▁文	-42
▁到	-43
▁行	-44
▁工	-45
▁同	-46
▁成	-47
▁经	-48
▁学	-49
▁者	-50
▁华	-51
▁2	-52
▁开	-53
▁他	-54
▁市	-55
▁要	-56
▁农	-57
▁建	-58
▁月	-59
▁本	-60
▁主	-61
▁元	-62
▁区	-63
▁展	-64
▁部	-65
▁8	-66
▁进	-67
▁对	-68
▁记	-69
▁政	-70
▁自	-71
▁重	-72
▁水	-73
▁时	-74
▁现	-75
▁社	-76
▁化	-77
▁利	-78
▁实	-79
▁代	-80
▁(	-81
▁长	-82
▁3	-83
▁7	-84
▁于	-85
▁动	-86
▁高	-87
▁万	-88
▁产	-89
▁关	-90
▁前	-91
▁报	-92
▁6	-93
▁下	-94
▁加	-95
▁理	-96
▁而	-97
▁设	-98
..	-99
▁5	-100
▁事	-101
▁各	-102
▁村	-103
▁《	-104
▁表	-105
▁面	-106
▁与	-107
▁史	-108
▁世	-109
▁心	-110
▁之	-111
▁交	-112
▁历	-113
▁将	-114
▁两	-115
▁方	-116
▁使	-117
▁小	-118
▁里	-119
▁)	-120
▁通	-121
▁从	-122
▁共	-123
▁起	-124
▁南	-125
▁等	-126
▁济	-127
▁说	-128
▁—	-129
▁北	-130
▁合	-131
▁就	-132
▁明	-133
▁美	-134
▁》	-135
▁电	-136
▁公	-137
▁系	-138
▁其	-139
▁程	-140
▁十	-141
▁天	-142
▁界	-143
▁着	-144
▁统	-145
▁香	-146
▁:	-147
▁后	-148
▁外	-149
▁活	-150
▁结	-151
▁体	-152
▁党	-153
▁县	-154
▁户	-155
▁改	-156
▁计	-157
中国	-158
▁场	-159
▁过	-160
▁持	-161
▁定	-162
▁次	-163
▁特	-164
▁资	-165
▁书	-166
▁可	-167
▁西	-168
▁集	-169
▁向	-170
▁平	-171
▁当	-172
▁还	-173
▁也	-174
▁力	-175
▁已	-176
▁精	-177
▁入	-178
▁分	-179
▁制	-180
▁好	-181
▁得	-182
▁术	-183
▁划	-184
▁基	-185
▁安	-186
▁路	-187
▁非	-188
▁团	-189
▁如	-190
▁治	-191
▁种	-192
▁4	-193
▁三	-194
▁创	-195
▁子	-196
▁导	-197
▁并	-198
▁目	-199
▁道	-200
▁广	-201
▁步	-202
▁港	-203
▁物	-204
▁能	-205
▁举	-206
▁内	-207
▁度	-208
▁总	-209
▁提	-210
▁用	-211
▁达	-212
▁间	-213
发展	-214
经济	-215
▁今	-216
▁先	-217
▁员	-218
▁无	-219
▁最	-220
▁正	-221
▁气	-222
▁江	-223
▁版	-224
▁立	-225
▁第	-226
▁及	-227
▁名	-228
▁困	-229
▁府	-230
▁强	-231
▁画	-232
▁老	-233
▁金	-234
▁位	-235
▁军	-236
▁去	-237
▁委	-238
▁山	-239
▁都	-240
▁问	-241
▁企	-242
▁古	-243
▁此	-244
▁由	-245
▁九	-246
▁增	-247
▁性	-248
▁然	-249
▁管	-250
▁联	-251
▁领	-252
▁题	-253
▁;	-254
▁义	-255
▁五	-256
▁务	-257
▁少	-258
▁战	-259
▁机	-260
▁解	-261
▁贫	-262
▁传	-263
▁协	-264
▁所	-265
▁每	-266
▁海	-267
生育	-268
00	-269
▁京	-270
▁志	-271
▁据	-272
▁推	-273
▁法	-274
▁乐	-275
▁些	-276
▁保	-277
▁坚	-278
▁情	-279
▁把	-280
▁样	-281
▁馆	-282
▁划生育	-283
▁乡	-284
▁但	-285
▁品	-286
▁布	-287
▁形	-288
▁意	-289
▁放	-290
▁门	-291
▁青	-292
▁首	-293
▁城	-294
▁指	-295
▁育	-296
▁车	-297
▁近	-298
人民	-299
▁处	-300
▁央	-301
▁更	-302
▁演	-303
▁又	-304
▁数	-305
▁相	-306
▁论	-307
▁二	-308
▁亿	-309
▁优	-310
▁决	-311
▁取	-312
▁图	-313
▁岸	-314
▁应	-315
▁张	-316
▁想	-317
▁施	-318
▁条	-319
▁流	-320
▁省	-321
▁祖	-322
▁继	-323
▁职	-324
▁致	-325
▁队	-326
▁项	-327
▁香港	-328
▁参	-329
▁投	-330
▁欢	-331
▁田	-332
▁示	-333
▁组	-334
▁给	-335
▁群	-336
▁节	-337
▁被	-338
19	-339
▁.	-340
▁始	-341
▁族	-342
▁深	-343
▁盛	-344
▁级	-345
▁际	-346
▁革	-347
▁云	-348
▁几	-349
▁功	-350
▁型	-351
▁干	-352
▁式	-353
▁思	-354
▁点	-355
▁神	-356
▁积	-357
▁续	-358
▁维	-359
▁难	-360
一个	-361
▁厂	-362
▁原	-363
▁庆	-364
▁感	-365
▁收	-366
▁服	-367
▁率	-368
▁直	-369
▁调	-370
▁那	-371
▁音	-372
农业	-373
....	-374
▁严	-375
▁件	-376
▁写	-377
▁别	-378
▁受	-379
▁色	-380
▁英	-381
▁藏	-382
▁走	-383
▁造	-384
▁量	-385
新年	-386
▁值	-387
▁回	-388
▁带	-389
▁引	-390
▁手	-391
▁技	-392
▁比	-393
▁清	-394
▁环	-395
▁祝	-396
▁纪	-397
▁视	-398
▁连	-399
政府	-400
▁%	-401
▁势	-402
▁双	-403
▁她	-404
▁巴	-405
▁币	-406
▁德	-407
▁愿	-408
▁支	-409
▁整	-410
▁望	-411
▁知	-412
▁研	-413
▁空	-414
▁至	-415
▁艺	-416
▁读	-417
▁钱	-418
”,	-419
▁再	-420
▁办	-421
▁千	-422
▁卢	-423
▁命	-424
▁均	-425
▁完	-426
▁己	-427
▁常	-428
▁旦	-429
▁期	-430
▁李	-431
▁王	-432
▁益	-433
▁看	-434
▁考	-435
▁话	-436
▁象	-437
工作	-438
进行	-439
——	-440
▁兴	-441
▁友	-442
▁反	-443
▁头	-444
▁局	-445
▁快	-446
▁才	-447
▁教	-448
▁极	-449
▁果	-450
▁歌	-451
▁求	-452
▁真	-453
▁织	-454
▁规	-455
▁费	-456
▁飞	-457
国家	-458
生活	-459
计划	-460
▁东	-461
▁任	-462
▁众	-463
▁俄	-464
▁做	-465
▁光	-466
▁切	-467
▁变	-468
▁口	-469
▁只	-470
▁士	-471
▁它	-472
▁富	-473
▁帮	-474
▁态	-475
▁效	-476
▁景	-477
▁花	-478
▁观	-479
▁认	-480
▁身	-481
▁转	-482
▁运	-483
▁银	-484
▁防	-485
▁降	-486
▁院	-487
他们	-488
企业	-489
建设	-490
我们	-491
的一	-492
▁专	-493
▁亩	-494
▁列	-495
▁副	-496
▁努	-497
▁台	-498
▁因	-499
▁尽	-500
▁归	-501
▁拉	-502
▁春	-503
▁权	-504
▁武	-505
▁没	-506
▁温	-507
▁献	-508
▁百	-509
▁科	-510
▁稳	-511
▁紧	-512
▁良	-513
▁融	-514
▁许	-515
▁该	-516
▁质	-517
▁退	-518
世界	-519
两岸	-520
全国	-521
改革	-522
记者	-523
这一	-524
▁争	-525
▁亚	-526
▁兵	-527
▁养	-528
▁则	-529
▁午	-530
▁却	-531
▁四	-532
▁孔	-533
▁宁	-534
▁岁	-535
▁庭	-536
▁往	-537
▁扎	-538
▁接	-539
▁格	-540
▁球	-541
▁籍	-542
▁类	-543
▁见	-544
▁警	-545
▁议	-546
▁谋	-547
▁风	-548
▁马	-549
▁丛	-550
▁供	-551
▁兼	-552
▁减	-553
▁卡	-554
▁告	-555
▁周	-556
▁善	-557
▁套	-558
▁孙	-559
▁川	-560
▁录	-561
▁必	-562
▁标	-563
▁满	-564
▁爱	-565
▁繁	-566
▁编	-567
▁罗	-568
▁脱	-569
▁讲	-570
▁货	-571
▁边	-572
▁镇	-573
▁龙	-574
了一	-575
农民	-576
出版	-577
影响	-578
水利	-579
组织	-580
问题	-581
▁历史	-582
▁价	-583
▁八	-584
▁刘	-585
▁包	-586
▁商	-587
▁域	-588
▁希	-589
▁彩	-590
▁斯	-591
▁旗	-592
▁林	-593
▁源	-594
▁澳	-595
▁热	-596
▁确	-597
▁称	-598
▁笔	-599
▁胞	-600
▁航	-601
▁装	-602
▁谈	-603
▁责	-604
▁迎	-605
▁鲜	-606
国际	-607
199	-608
▁北京	-609
▁祖国	-610
10	-611
▁『	-612
▁令	-613
▁何	-614
▁依	-615
▁信	-616
▁初	-617
▁勒	-618
▁半	-619
▁园	-620
▁土	-621
▁境	-622
▁女	-623
▁寒	-624
▁座	-625
▁很	-626
▁扶	-627
▁承	-628
▁波	-629
▁片	-630
▁础	-631
▁米	-632
▁背	-633
▁艰	-634
▁采	-635
▁针	-636
▁黄	-637
世纪	-638
云龙	-639
其琛	-640
活动	-641
群众	-642
▁研究	-643
▁具	-644
▁劳	-645
▁占	-646
▁印	-647
▁号	-648
▁喜	-649
▁夜	-650
▁存	-651
▁徐	-652
▁抓	-653
▁按	-654
▁故	-655
▁早	-656
▁曾	-657
▁构	-658
▁模	-659
▁泽	-660
▁激	-661
▁禁	-662
▁红	-663
▁线	-664
▁终	-665
▁范	-666
▁荣	-667
▁菜	-668
▁营	-669
▁落	-670
▁街	-671
▁讯	-672
▁贸	-673
▁贺	-674
▁较	-675
▁选	-676
▁逐	-677
▁雄	-678
中华	-679
也纳	-680
产品	-681
加强	-682
北京	-683
困难	-684
图片	-685
文明	-686
理论	-687
生产	-688
统一	-689
▁精神	-690
▁盛云龙	-691
▁钱其琛	-692
......	-693
▁’	-694
▁七	-695
▁临	-696
▁健	-697
▁克	-698
▁况	-699
▁升	-700
▁叙	-701
▁召	-702
▁司	-703
▁察	-704
▁州	-705
▁席	-706
▁怀	-707
▁恢	-708
▁批	-709
▁护	-710
▁挥	-711
▁斤	-712
▁断	-713
▁显	-714
▁智	-715
▁未	-716
▁材	-717
▁根	-718
▁河	-719
▁油	-720
▁注	-721
▁游	-722
▁烈	-723
▁照	-724
▁约	-725
▁纸	-726
▁茶	-727
▁著	-728
▁让	-729
▁证	-730
▁评	-731
▁识	-732
▁负	-733
▁追	-734
▁郑	-735
▁随	-736
▁雨	-737
▁雪	-738
▁震	-739
▁驻	-740
为主	-741
关系	-742
好的	-743
实现	-744
开始	-745
报道	-746
文学	-747
▁世界	-748
▁九九	-749
▁帮助	-750
▁积极	-751
▁群众	-752
▁份	-753
▁伟	-754
▁促	-755
▁儿	-756
▁吕	-757
▁奇	-758
▁奋	-759
▁客	-760
▁容	-761
▁巨	-762
▁探	-763
▁摄	-764
▁案	-765
▁洲	-766
▁派	-767
▁石	-768
▁福	-769
▁粮	-770
▁署	-771
▁苦	-772
▁购	-773
▁贵	-774
▁贷	-775
▁述	-776
▁送	-777
▁阿	-778
▁韩	-779
▁验	-780
▁鱼	-781
人们	-782
会议	-783
作用	-784
共同	-785
农场	-786
南非	-787
发表	-788
地区	-789
基本	-790
市场	-791
文化	-792
日电	-793
民族	-794
社会	-795
第一	-796
美元	-797
重庆	-798
000	-799
▁卢布	-800
▁宁夏	-801
▁维也纳	-802
,“	-803
20	-804
▁丝	-805
▁丽	-806
▁乎	-807
▁介	-808
▁仍	-809
▁仪	-810
▁低	-811
▁侨	-812
▁充	-813
▁剧	-814
▁助	-815
▁医	-816
▁即	-817
▁响	-818
▁围	-819
▁塔	-820
▁复	-821
▁夏	-822
▁妇	-823
▁密	-824
▁尔	-825
▁庄	-826
▁拍	-827
▁排	-828
▁斗	-829
▁旅	-830
▁查	-831
▁汇	-832
▁火	-833
▁独	-834
▁玉	-835
▁瑞	-836
▁略	-837
▁登	-838
▁眼	-839
▁秦	-840
▁究	-841
▁章	-842
▁素	-843
▁荒	-844
▁超	-845
▁速	-846
▁遗	-847
▁陈	-848
▁鸣	-849
一些	-850
事业	-851
产业	-852
人士	-853
作为	-854
全部	-855
公司	-856
创作	-857
到了	-858
和平	-859
大使	-860
年来	-861
年的	-862
总统	-863
我国	-864
收入	-865
祖国	-866
结合	-867
自己	-868
资金	-869
这个	-870
部门	-871
金融	-872
▁介绍	-873
▁双泾	-874
▁图片	-875
▁影响	-876
▁紧密	-877
▁继续	-878
▁谋略	-879
12	-880
:“	-881
▁?	-882
▁·	-883
▁且	-884
▁习	-885
▁互	-886
▁亲	-887
▁仅	-888
▁伤	-889
▁住	-890
▁便	-891
▁判	-892
▁刻	-893
▁单	-894
▁危	-895
▁厅	-896
▁吸	-897
▁呼	-898
▁哈	-899
▁备	-900
▁夫	-901
▁层	-902
▁居	-903
▁底	-904
▁康	-905
▁待	-906
▁忘	-907
▁怎	-908
▁慰	-909
▁或	-910
▁括	-911
▁挤	-912
▁控	-913
▁晚	-914
▁架	-915
▁树	-916
▁梁	-917
▁潮	-918
▁爸	-919
▁状	-920
▁破	-921
▁秀	-922
▁秩	-923
▁策	-924
▁签	-925
▁胡	-926
▁莫	-927
▁虽	-928
▁访	-929
▁财	-930
▁辞	-931
▁远	-932
▁邓	-933
▁阶	-934
▁需	-935
▁额	-936
交通	-937
元旦	-938
农村	-939
出了	-940
同时	-941
大的	-942
小平	-943
建交	-944
成为	-945
新的	-946
方面	-947
有的	-948
生态	-949
的心	-950
表示	-951
过去	-952
...	-953
▁丛书	-954
▁吕梁	-955
▁旅游	-956
▁本报	-957
▁活动	-958
▁版社	-959
▁目前	-960
▁秩序	-961
▁第一	-962
▁经济	-963
▁茶话	-964
▁连续	-965
▁音乐	-966
▁邓小平	-967
14	-968
15	-969
▁么	-970
▁什	-971
▁伊	-972
▁伍	-973
▁停	-974
▁冬	-975
▁准	-976
▁叶	-977
▁唱	-978
▁器	-979
▁培	-980
▁墨	-981
▁声	-982
▁失	-983
▁宣	-984
▁宾	-985
▁尊	-986
▁尤	-987
▁左	-988
▁扬	-989
▁担	-990
▁振	-991
▁摆	-992
▁既	-993
▁易	-994
▁映	-995
▁曲	-996
▁木	-997
▁束	-998
▁横	-999
▁死	-1000
▁沙	-1001
▁灌	-1002
▁珍	-1003
▁留	-1004
▁矛	-1005
▁突	-1006
▁纷	-1007
▁若	-1008
▁蒙	-1009
▁觉	-1010
▁谁	-1011
▁跨	-1012
▁辆	-1013
▁辉	-1014
▁违	-1015
▁迹	-1016
▁适	-1017
▁阳	-1018
▁附	-1019
一步	-1020
中央	-1021
乡镇	-1022
人口	-1023
人员	-1024
人物	-1025
作品	-1026
全市	-1027
出的	-1028
华孙	-1029
卫生	-1030
历史	-1031
和国	-1032
基金	-1033
大旗	-1034
对于	-1035
工程	-1036
开放	-1037
开馆	-1038
政治	-1039
有关	-1040
正式	-1041
水平	-1042
环境	-1043
电视	-1044
的主	-1045
的好	-1046
的情	-1047
稳定	-1048
精神	-1049
经营	-1050
综合	-1051
美术	-1052
而不	-1053
这种	-1054
通过	-1055
香港	-1056
▁兼并	-1057
▁努力	-1058
▁呼吁	-1059
▁土地	-1060
▁基础	-1061
▁增加	-1062
▁完成	-1063
▁己的	-1064
▁恢复	-1065
▁投资	-1066
▁拍卖	-1067
▁改革	-1068
▁江泽	-1069
▁矛盾	-1070
▁粮食	-1071
▁虽然	-1072
▁贫困	-1073
▁银行	-1074
大旗帜	-1075
▁亿美元	-1076
▁共和国	-1077
▁秦华孙	-1078
▁附图片	-1079
基金组织	-1080
▁伟大旗帜	-1081
▁邓小平理论	-1082
▁......	-1083
24	-1084
30	-1085
”。	-1086
▁』	-1087
▁丁	-1088
▁久	-1089
▁乌	-1090
▁亡	-1091
▁亮	-1092
▁你	-1093
▁佳	-1094
▁典	-1095
▁博	-1096
▁另	-1097
▁吨	-1098
▁启	-1099
▁块	-1100
▁坡	-1101
▁堵	-1102
▁夕	-1103
▁奏	-1104
▁岗	-1105
▁差	-1106
▁师	-1107
▁征	-1108
▁律	-1109
▁惠	-1110
▁托	-1111
▁拥	-1112
▁拿	-1113
▁捐	-1114
▁措	-1115
▁料	-1116
▁止	-1117
▁氛	-1118
▁津	-1119
▁浩	-1120
▁渠	-1121
▁烂	-1122
▁焦	-1123
▁疆	-1124
▁白	-1125
▁监	-1126
▁童	-1127
▁纯	-1128
▁绿	-1129
▁肉	-1130
▁股	-1131
▁胜	-1132
▁舞	-1133
▁萨	-1134
▁蔬	-1135
▁补	-1136
▁角	-1137
▁言	-1138
▁贡	-1139
▁贯	-1140
▁足	-1141
▁载	-1142
▁销	-1143
▁限	-1144
▁雅	-1145
▁顺	-1146
▁预	-1147
▁鼓	-1148
一国	-1149
一大	-1150
一年	-1151
一日	-1152
上海	-1153
下降	-1154
中心	-1155
主席	-1156
举行	-1157
之一	-1158
书记	-1159
人的	-1160
今天	-1161
以来	-1162
使用	-1163
偏北	-1164
党委	-1165
全面	-1166
关心	-1167
其他	-1168
出现	-1169
创造	-1170
区域	-1171
原则	-1172
台湾	-1173
各界	-1174
国务	-1175
国防	-1176
在新	-1177
基础	-1178
大学	-1179
安全	-1180
实际	-1181
小型	-1182
总理	-1183
提供	-1184
提高	-1185
散文	-1186
斯坦	-1187
新华	-1188
时间	-1189
明确	-1190
服务	-1191
来到	-1192
林顿	-1193
民主	-1194
没有	-1195
现代	-1196
的人	-1197
的大	-1198
联合	-1199
自治	-1200
转变	-1201
重要	-1202
———	-1203
▁19	-1204
▁中国	-1205
▁举行	-1206
▁亿元	-1207
▁什么	-1208
▁他说	-1209
▁仪式	-1210
▁农业	-1211
▁劳动	-1212
▁去年	-1213
▁参与	-1214
▁参加	-1215
▁发展	-1216
▁我们	-1217
▁扎耶	-1218
▁探索	-1219
▁支持	-1220
▁服务	-1221
▁每年	-1222
▁没有	-1223
▁澳门	-1224
▁灌溉	-1225
▁环境	-1226
▁稳定	-1227
▁管理	-1228
▁繁荣	-1229
▁职工	-1230
▁货币	-1231
▁贷款	-1232
▁退伍	-1233
偏北风	-1234
和平统	-1235
在中国	-1236
▁...	-1237
▁跨世纪	-1238
26	-1239
3.	-1240
98	-1241
▁!	-1242
▁买	-1243
▁余	-1244
▁修	-1245
▁偿	-1246
▁像	-1247
▁冲	-1248
▁冷	-1249
▁刚	-1250
▁勃	-1251
▁卖	-1252
▁听	-1253
▁吴	-1254
▁奖	-1255
▁孤	-1256
▁孩	-1257
▁官	-1258
▁审	-1259
▁属	-1260
▁忠	-1261
▁忧	-1262
▁念	-1263
▁恩	-1264
▁恭	-1265
▁息	-1266
▁悟	-1267
▁房	-1268
▁执	-1269
▁找	-1270
▁抗	-1271
▁拓	-1272
▁换	-1273
▁授	-1274
▁援	-1275
▁摊	-1276
▁播	-1277
▁救	-1278
▁星	-1279
▁暖	-1280
▁朋	-1281
▁杨	-1282
▁桥	-1283
▁概	-1284
▁欣	-1285
▁款	-1286
▁段	-1287
▁永	-1288
▁沧	-1289
▁沼	-1290
▁泛	-1291
▁泰	-1292
▁消	-1293
▁潜	-1294
▁瓦	-1295
▁甚	-1296
▁短	-1297
▁离	-1298
▁租	-1299
▁站	-1300
▁竞	-1301
▁竟	-1302
▁简	-1303
▁纽	-1304
▁缩	-1305
▁羊	-1306
▁翻	-1307
▁耕	-1308
▁脑	-1309
▁苏	-1310
▁血	-1311
▁衣	-1312
▁誉	-1313
▁请	-1314
▁越	-1315
▁透	-1316
▁邮	-1317
▁配	-1318
▁钟	-1319
▁钥	-1320
▁雷	-1321
▁齐	-1322
》,	-1323
一九	-1324
一定	-1325
一起	-1326
万元	-1327
上的	-1328
不同	-1329
不断	-1330
了解	-1331
以及	-1332
任务	-1333
优势	-1334
保持	-1335
信息	-1336
先进	-1337
光辉	-1338
其峰	-1339
军委	-1340
农田	-1341
出台	-1342
分析	-1343
利税	-1344
到一	-1345
到来	-1346
制度	-1347
华文	-1348
去年	-1349
取得	-1350
同样	-1351
同胞	-1352
员会	-1353
喜庆	-1354
回归	-1355
地位	-1356
奋斗	-1357
女儿	-1358
存款	-1359
学者	-1360
尔滨	-1361
干部	-1362
年人	-1363
建成	-1364
建立	-1365
开发	-1366
开拓	-1367
得到	-1368
成功	-1369
战斗	-1370
战略	-1371
文古	-1372
方案	-1373
日本	-1374
日益	-1375
时刻	-1376
明天	-1377
是一	-1378
来自	-1379
标准	-1380
每年	-1381
气氛	-1382
温暖	-1383
爱幼	-1384
理解	-1385
的投	-1386
的是	-1387
的重	-1388
示范	-1389
美国	-1390
自然	-1391
致富	-1392
英雄	-1393
解放	-1394
设施	-1395
资源	-1396
进入	-1397
进程	-1398
部分	-1399
重点	-1400
集体	-1401
革命	-1402
音乐	-1403
198	-1404
▁”。	-1405
▁企业	-1406
▁促进	-1407
▁健康	-1408
▁反映	-1409
▁古学	-1410
▁召开	-1411
▁因此	-1412
▁坚持	-1413
▁孔玲	-1414
▁存款	-1415
▁尊老	-1416
▁左右	-1417
▁希望	-1418
▁投入	-1419
▁推进	-1420
▁教育	-1421
▁沼气	-1422
▁渠道	-1423
▁特别	-1424
▁纷纷	-1425
▁综合	-1426
▁蔬菜	-1427
▁负责	-1428
▁费县	-1429
▁走向	-1430
▁违章	-1431
▁追求	-1432
▁钥匙	-1433
▁问题	-1434
▁需要	-1435
▁韩国	-1436
一国两	-1437
中国家	-1438
中国的	-1439
国际货	-1440
总理兼	-1441
洲金融	-1442
的发展	-1443
进一步	-1444
▁九九七	-1445
▁九九八	-1446
▁勒斯坦	-1447
▁哈尔滨	-1448
▁孙其峰	-1449
▁庭农场	-1450
▁第一次	-1451
▁藏文古	-1452
▁副总理兼	-1453
▁尊老爱幼	-1454
▁展中国家	-1455
1.	-1456
11	-1457
23	-1458
25	-1459
31	-1460
5%	-1461
90	-1462
▁°	-1463
▁丰	-1464
▁享	-1465
▁付	-1466
▁仰	-1467
▁休	-1468
▁佩	-1469
▁候	-1470
▁六	-1471
▁净	-1472
▁勇	-1473
▁卫	-1474
▁卷	-1475
▁压	-1476
▁吃	-1477
▁呈	-1478
▁嘉	-1479
▁坐	-1480
▁垦	-1481
▁壮	-1482
▁太	-1483
▁奥	-1484
▁奶	-1485
▁妻	-1486
▁字	-1487
▁季	-1488
▁寄	-1489
▁尼	-1490
▁巩	-1491
▁幅	-1492
▁异	-1493
▁影	-1494
▁役	-1495
▁循	-1496
▁扩	-1497
▁招	-1498
▁拱	-1499
▁挑	-1500
▁挖	-1501
▁描	-1502
▁揭	-1503
▁搞	-1504
▁旧	-1505
▁普	-1506
▁朱	-1507
▁松	-1508
▁板	-1509
▁梅	-1510
▁检	-1511
▁毕	-1512
▁毛	-1513
▁毫	-1514
▁汉	-1515
▁泾	-1516
▁浓	-1517
▁淀	-1518
▁湾	-1519
▁灯	-1520
▁灵	-1521
▁牡	-1522
▁牵	-1523
▁班	-1524
▁琛	-1525
▁瓜	-1526
▁病	-1527
▁端	-1528
▁竹	-1529
▁篇	-1530
▁索	-1531
▁累	-1532
▁纲	-1533
▁绩	-1534
▁缺	-1535
▁置	-1536
▁聚	-1537
▁脚	-1538
▁膨	-1539
▁艳	-1540
▁获	-1541
▁菲	-1542
▁董	-1543
▁触	-1544
▁语	-1545
▁谓	-1546
▁谢	-1547
▁貌	-1548
▁贾	-1549
▁赞	-1550
▁趋	-1551
▁轻	-1552
▁野	-1553
▁铁	-1554
▁阵	-1555
▁陆	-1556
▁险	-1557
▁零	-1558
▁静	-1559
▁靠	-1560
▁须	-1561
▁顿	-1562
▁频	-1563
▁食	-1564
▁骨	-1565
▁鸡	-1566
▁鹏	-1567
▁黎	-1568
▁黑	-1569
、《	-1570
一样	-1571
三位	-1572
个人	-1573
之路	-1574
之际	-1575
九届	-1576
事丛	-1577
以上	-1578
以色	-1579
众多	-1580
会上	-1581
传统	-1582
伤亡	-1583
作出	-1584
保护	-1585
全区	-1586
全球	-1587
内外	-1588
农副	-1589
出席	-1590
出来	-1591
分别	-1592
利益	-1593
利院	-1594
制定	-1595
前进	-1596
动了	-1597
十五	-1598
华侨	-1599
华夏	-1600
南京	-1601
南省	-1602
南部	-1603
发出	-1604
各种	-1605
各类	-1606
各级	-1607
合作	-1608
同志	-1609
和完	-1610
在京	-1611
地方	-1612
地震	-1613
多少	-1614
大家	-1615
大批	-1616
大街	-1617
学术	-1618
学院	-1619
少年	-1620
就业	-1621
工业	-1622
工商	-1623
并购	-1624
度尼	-1625
强冷	-1626
强调	-1627
形式	-1628
形成	-1629
形象	-1630
志愿	-1631
技术	-1632
报告	-1633
推出	-1634
提前	-1635
敬老	-1636
文献	-1637
新币	-1638
新风	-1639
旧迎	-1640
时期	-1641
有所	-1642
村民	-1643
来说	-1644
正是	-1645
气温	-1646
水费	-1647
深圳	-1648
濒临	-1649
物质	-1650
特别	-1651
用水	-1652
的支	-1653
的最	-1654
的气	-1655
祝愿	-1656
米兰	-1657
系统	-1658
纪念	-1659
经验	-1660
职工	-1661
花蕊	-1662
行政	-1663
解决	-1664
认识	-1665
读者	-1666
贫困	-1667
这些	-1668
这样	-1669
这次	-1670
这里	-1671
部和	-1672
都是	-1673
里的	-1674
阶段	-1675
高效	-1676
100	-1677
▁60	-1678
▁三十	-1679
▁严重	-1680
▁事业	-1681
▁云龙	-1682
▁传统	-1683
▁元旦	-1684
▁先生	-1685
▁减少	-1686
▁勒陀	-1687
▁千名	-1688
▁午夜	-1689
▁单位	-1690
▁危机	-1691
▁取得	-1692
▁台湾	-1693
▁吸引	-1694
▁困难	-1695
▁城乡	-1696
▁城市	-1697
▁堵塞	-1698
▁奋斗	-1699
▁孤寡	-1700
▁安全	-1701
▁居民	-1702
▁工作	-1703
▁巩固	-1704
▁已经	-1705
▁归者	-1706
▁形成	-1707
▁必须	-1708
▁忘记	-1709
▁怎样	-1710
▁思想	-1711
▁恭城	-1712
▁愿者	-1713
▁慰问	-1714
▁指导	-1715
▁挖掘	-1716
▁振兴	-1717
▁捐赠	-1718
▁控制	-1719
▁措施	-1720
▁散文	-1721
▁整理	-1722
▁新年	-1723
▁智囊	-1724
▁根据	-1725
▁沙漠	-1726
▁油画	-1727
▁淀粉	-1728
▁演员	-1729
▁激动	-1730
▁焦作	-1731
▁爱国	-1732
▁状况	-1733
▁玉珍	-1734
▁空气	-1735
▁组织	-1736
▁维护	-1737
▁考古	-1738
▁脱贫	-1739
▁膨胀	-1740
▁艺术	-1741
▁苏联	-1742
▁英国	-1743
▁融入	-1744
▁讲话	-1745
▁贡献	-1746
▁贯彻	-1747
▁贵阳	-1748
▁路子	-1749
▁辉煌	-1750
▁达到	-1751
▁逐渐	-1752
▁采取	-1753
▁阶段	-1754
▁领导	-1755
▁首都	-1756
▁鼓舞	-1757
中国历	-1758
了农民	-1759
产业化	-1760
国务院	-1761
市政府	-1762
敬老院	-1763
新华社	-1764
的一年	-1765
的中国	-1766
的作用	-1767
第九届	-1768
美好的	-1769
自治区	-1770
这一活	-1771
进行了	-1772
问题的	-1773
驻南非	-1774
1998	-1775
▁副产品	-1776
▁印度尼	-1777
▁较强冷	-1778
▁辞旧迎	-1779
一国两制	-1780
中国大使	-1781
华文文学	-1782
台湾同胞	-1783
水利设施	-1784
洲金融危	-1785
▁改革开放	-1786
▁融入计划	-1787
▁亚洲金融危	-1788
▁第一次会议	-1789
▁共和国驻南非	-1790
▁货币基金组织	-1791
)(	-1792
),	-1793
.4	-1794
16	-1795
17	-1796
5.	-1797
50	-1798
7.	-1799
80	-1800
9%	-1801
:‘	-1802
▁A	-1803
▁‘	-1804
▁‰	-1805
▁乔	-1806
▁仓	-1807
▁伴	-1808
▁倡	-1809
▁假	-1810
▁兰	-1811
▁冒	-1812
▁凝	-1813
▁剖	-1814
▁剩	-1815
▁卉	-1816
▁吐	-1817
▁吗	-1818
▁哥	-1819
▁哲	-1820
▁喷	-1821
▁圣	-1822
▁圳	-1823
▁坦	-1824
▁够	-1825
▁奉	-1826
▁妈	-1827
▁妹	-1828
▁威	-1829
▁婚	-1830
▁宗	-1831
▁宝	-1832
▁寺	-1833
▁封	-1834
▁屏	-1835
▁峰	-1836
▁延	-1837
▁彭	-1838
▁徘	-1839
▁忆	-1840
▁忙	-1841
▁急	-1842
▁患	-1843
▁懈	-1844
▁截	-1845
▁抢	-1846
▁撰	-1847
▁攻	-1848
▁敏	-1849
▁旋	-1850
▁旱	-1851
▁朝	-1852
▁末	-1853
▁析	-1854
▁柴	-1855
▁核	-1856
▁梦	-1857
▁森	-1858
▁楼	-1859
▁殖	-1860
▁沪	-1861
▁洁	-1862
▁洋	-1863
▁测	-1864
▁浙	-1865
▁润	-1866
▁淡	-1867
▁渡	-1868
▁烟	-1869
▁煌	-1870
▁燃	-1871
▁犹	-1872
▁猎	-1873
▁畅	-1874
▁畜	-1875
▁盘	-1876
▁睦	-1877
▁禽	-1878
▁秋	-1879
▁穿	-1880
▁筑	-1881
▁筹	-1882
▁算	-1883
▁篆	-1884
▁练	-1885
▁细	-1886
▁绝	-1887
▁网	-1888
▁耀	-1889
▁耶	-1890
▁胆	-1891
▁脸	-1892
▁般	-1893
▁荡	-1894
▁蓄	-1895
▁蓬	-1896
▁衡	-1897
▁衷	-1898
▁誓	-1899
▁训	-1900
▁词	-1901
▁诗	-1902
▁诚	-1903
▁诸	-1904
▁课	-1905
▁谊	-1906
▁谱	-1907
▁豪	-1908
▁账	-1909
▁赠	-1910
▁跌	-1911
▁踏	-1912
▁辈	-1913
▁迁	-1914
▁迅	-1915
▁迈	-1916
▁迟	-1917
▁途	-1918
▁逾	-1919
▁遇	-1920
▁遍	-1921
▁邻	-1922
▁醒	-1923
▁键	-1924
▁闻	-1925
▁阅	-1926
▁阻	-1927
▁除	-1928
▁隔	-1929
▁障	-1930
▁页	-1931
▁骤	-1932
▁鲁	-1933
▁鹰	-1934
▁默	-1935
▁龚	-1936
、5	-1937
一下	-1938
一体	-1939
一番	-1940
一般	-1941
一跃	-1942
一飞	-1943
万人	-1944
上博	-1945
上年	-1946
上月	-1947
下乡	-1948
不开	-1949
不忘	-1950
丛书	-1951
两国	-1952
严重	-1953
个性	-1954
中东	-1955
中学	-1956
中小	-1957
中有	-1958
中版	-1959
为纽	-1960
主义	-1961
主张	-1962
主权	-1963
义务	-1964
之作	-1965
之所	-1966
之间	-1967
了很	-1968
五星	-1969
亚胡	-1970
交流	-1971
产值	-1972
产党	-1973
人与	-1974
人在	-1975
人治	-1976
亿元	-1977
今年	-1978
代的	-1979
代表	-1980
以说	-1981
仪式	-1982
作者	-1983
保证	-1984
倒闭	-1985
先生	-1986
党支	-1987
党派	-1988
党的	-1989
全县	-1990
全年	-1991
全镇	-1992
全长	-1993
公路	-1994
关注	-1995
其中	-1996
冉冉	-1997
军人	-1998
军装	-1999
农贸	-2000
决定	-2001
减少	-2002
出发	-2003
出口	-2004
分子	-2005
前夕	-2006
力量	-2007
加入	-2008
加工	-2009
十一	-2010
十分	-2011
十大	-2012
华南	-2013
原子	-2014
反映	-2015
发动	-2016
发生	-2017
发行	-2018
发达	-2019
各国	-2020
各地	-2021
各项	-2022
合国	-2023
商品	-2024
四川	-2025
困境	-2026
国政	-2027
国旗	-2028
图书	-2029
在国	-2030
在此	-2031
在的	-2032
城乡	-2033
外交	-2034
外地	-2035
多人	-2036
多的	-2037
多金	-2038
大部	-2039
大雨	-2040
如常	-2041
如此	-2042
学习	-2043
安排	-2044
实地	-2045
实的	-2046
家们	-2047
家庭	-2048
家的	-2049
导致	-2050
小厂	-2051
展示	-2052
履行	-2053
山区	-2054
希望	-2055
帮扶	-2056
平均	-2057
平衡	-2058
广大	-2059
广州	-2060
广泛	-2061
建起	-2062
开展	-2063
当代	-2064
形势	-2065
律宾	-2066
心的	-2067
必须	-2068
思想	-2069
性的	-2070
总书	-2071
总额	-2072
情况	-2073
成了	-2074
成的	-2075
战争	-2076
所谓	-2077
投资	-2078
提出	-2079
改值	-2080
改变	-2081
改善	-2082
政协	-2083
政策	-2084
效应	-2085
救援	-2086
文字	-2087
文物	-2088
文艺	-2089
文选	-2090
新建	-2091
方式	-2092
方法	-2093
日报	-2094
时候	-2095
是那	-2096
有利	-2097
有芳	-2098
期间	-2099
本书	-2100
机制	-2101
机场	-2102
村庄	-2103
条件	-2104
来了	-2105
来的	-2106
格局	-2107
欢晚	-2108
武器	-2109
毅仁	-2110
比赛	-2111
民的	-2112
水的	-2113
江泽	-2114
泽东	-2115
煤灶	-2116
照片	-2117
特困	-2118
特火	-2119
状况	-2120
现实	-2121
理的	-2122
用于	-2123
的命	-2124
的国	-2125
的带	-2126
的手	-2127
的效	-2128
的新	-2129
的特	-2130
的目	-2131
的第	-2132
的道	-2133
目的	-2134
直接	-2135
相信	-2136
相比	-2137
相聚	-2138
祈祷	-2139
祝贺	-2140
积极	-2141
程度	-2142
管制	-2143
系列	-2144
红旗	-2145
经费	-2146
经过	-2147
罗斯	-2148
而又	-2149
自主	-2150
自我	-2151
自豪	-2152
自身	-2153
色的	-2154
艺术	-2155
节日	-2156
节目	-2157
表现	-2158
西哥	-2159
要求	-2160
观念	-2161
规模	-2162
解困	-2163
认为	-2164
调整	-2165
象角	-2166
起了	-2167
起来	-2168
路人	-2169
达岭	-2170
达成	-2171
退伍	-2172
选编	-2173
通胀	-2174
道路	-2175
遣散	-2176
部队	-2177
重新	-2178
重视	-2179
长城	-2180
间接	-2181
除了	-2182
随笔	-2183
青少	-2184
青年	-2185
面值	-2186
项目	-2187
领域	-2188
马和	-2189
高度	-2190
高涨	-2191
高达	-2192
26.	-2193
30%	-2194
▁》,	-2195
▁万元	-2196
▁专门	-2197
▁两岸	-2198
▁为此	-2199
▁互补	-2200
▁今天	-2201
▁仓库	-2202
▁他们	-2203
▁价格	-2204
▁传记	-2205
▁但也	-2206
▁供了	-2207
▁值得	-2208
▁做好	-2209
▁元月	-2210
▁党和	-2211
▁关键	-2212
▁兵书	-2213
▁其中	-2214
▁具有	-2215
▁养殖	-2216
▁养量	-2217
▁再次	-2218
▁利亚	-2219
▁包括	-2220
▁医院	-2221
▁协商	-2222
▁南非	-2223
▁博览	-2224
▁县市	-2225
▁另一	-2226
▁号召	-2227
▁吸收	-2228
▁喜庆	-2229
▁回归	-2230
▁团结	-2231
▁均纯	-2232
▁塔尼	-2233
▁寒冬	-2234
▁干部	-2235
▁庆祝	-2236
▁应当	-2237
▁往事	-2238
▁很有	-2239
▁徘徊	-2240
▁德国	-2241
▁忙碌	-2242
▁态度	-2243
▁扎实	-2244
▁扶贫	-2245
▁投产	-2246
▁报道	-2247
▁拥有	-2248
▁拱坝	-2249
▁拿起	-2250
▁指出	-2251
▁按照	-2252
▁推广	-2253
▁摄氏	-2254
▁效益	-2255
▁晚会	-2256
▁朋友	-2257
▁架次	-2258
▁柴节	-2259
▁树立	-2260
▁根本	-2261
▁格外	-2262
▁死亡	-2263
▁毫不	-2264
▁没收	-2265
▁沧桑	-2266
▁波兰	-2267
▁流与	-2268
▁流通	-2269
▁濒临	-2270
▁牡丹	-2271
▁牵头	-2272
▁珍贵	-2273
▁球化	-2274
▁瑞环	-2275
▁田庄	-2276
▁监督	-2277
▁省委	-2278
▁知识	-2279
▁社会	-2280
▁突破	-2281
▁竞争	-2282
▁签署	-2283
▁签订	-2284
▁篆刻	-2285
▁纲领	-2286
▁纽约	-2287
▁经过	-2288
▁联系	-2289
▁节目	-2290
▁英雄	-2291
▁蒙古	-2292
▁蓬勃	-2293
▁西藏	-2294
▁计划	-2295
▁认为	-2296
▁许多	-2297
▁论和	-2298
▁读者	-2299
▁课题	-2300
▁财政	-2301
▁责任	-2302
▁走出	-2303
▁起来	-2304
▁趋势	-2305
▁这一	-2306
▁这个	-2307
▁遗存	-2308
▁邮电	-2309
▁重要	-2310
▁金融	-2311
▁销售	-2312
▁阳光	-2313
▁阵阵	-2314
▁零下	-2315
▁青年	-2316
▁顺利	-2317
▁预计	-2318
▁飞机	-2319
▁验收	-2320
▁黄河	-2321
▁黑龙	-2322
》、《	-2323
一大业	-2324
与发展	-2325
为中国	-2326
为主体	-2327
了这一	-2328
人华侨	-2329
人民共	-2330
人治港	-2331
克林顿	-2332
全国各	-2333
全面推	-2334
共产党	-2335
和发展	-2336
困难职	-2337
国际机	-2338
在一个	-2339
在重庆	-2340
均收入	-2341
大农场	-2342
委员会	-2343
对记者	-2344
建设和	-2345
得到了	-2346
政治局	-2347
文化的	-2348
是一个	-2349
的主要	-2350
的光辉	-2351
的历史	-2352
的心灵	-2353
的情况	-2354
的经济	-2355
社照片	-2356
福利院	-2357
等部门	-2358
经济林	-2359
联欢晚	-2360
迎新年	-2361
进行曲	-2362
高水平	-2363
▁东部和	-2364
▁二十一	-2365
▁佩特火	-2366
▁依多金	-2367
▁俄罗斯	-2368
▁偏北风	-2369
▁克林顿	-2370
▁历史性	-2371
▁可以说	-2372
▁墨西哥	-2373
▁央军委	-2374
▁岸关系	-2375
▁徐有芳	-2376
▁星红旗	-2377
▁每一个	-2378
▁每年可	-2379
▁毛泽东	-2380
▁渠道筹	-2381
▁源优势	-2382
▁球企业	-2383
▁相结合	-2384
▁纸上博	-2385
▁联合国	-2386
▁良好的	-2387
▁荣稳定	-2388
▁菲律宾	-2389
▁让我们	-2390
▁讯记者	-2391
▁贸市场	-2392
▁送温暖	-2393
▁难企业	-2394
▁青少年	-2395
▁音乐会	-2396
▁页文选	-2397
▁馆仪式	-2398
全国工商	-2399
农业生产	-2400
对记者说	-2401
有关部门	-2402
正式开馆	-2403
▁兼并总额	-2404
▁华人民共	-2405
▁塔尼亚胡	-2406
▁央政治局	-2407
▁据新华社	-2408
▁柴节煤灶	-2409
▁沼气为纽	-2410
▁港人治港	-2411
▁濒临倒闭	-2412
▁版社出版	-2413
▁级偏北风	-2414
▁统一大业	-2415
▁藏文古籍	-2416
▁谋略思想	-2417
▁二十一世纪	-2418
▁农业产业化	-2419
▁城乡敬老院	-2420
▁币基金组织	-2421
▁球企业并购	-2422
▁祖国和平统	-2423
▁世界华文文学	-2424
)、	-2425
,5	-2426
2.	-2427
55	-2428
82	-2429
93	-2430
”;	-2431
▁乳	-2432
▁伙	-2433
▁佐	-2434
▁倍	-2435
▁倘	-2436
▁债	-2437
▁催	-2438
▁允	-2439
▁兆	-2440
▁冰	-2441
▁募	-2442
▁呢	-2443
▁圆	-2444
▁址	-2445
▁坝	-2446
▁堂	-2447
▁堆	-2448
▁塘	-2449
▁夺	-2450
▁娃	-2451
▁媒	-2452
▁宋	-2453
▁宿	-2454
▁寻	-2455
▁尝	-2456
▁尺	-2457
▁届	-2458
▁岭	-2459
▁峡	-2460
▁崇	-2461
▁巧	-2462
▁巷	-2463
▁序	-2464
▁弱	-2465
▁彬	-2466
▁彻	-2467
▁徽	-2468
▁恰	-2469
▁悉	-2470
▁悦	-2471
▁惊	-2472
▁慧	-2473
▁戈	-2474
▁扮	-2475
▁拒	-2476
▁拜	-2477
▁择	-2478
▁挺	-2479
▁损	-2480
▁掉	-2481
▁插	-2482
▁揽	-2483
▁搜	-2484
▁摘	-2485
▁摧	-2486
▁撤	-2487
▁敞	-2488
▁敢	-2489
▁旨	-2490
▁旬	-2491
▁昌	-2492
▁昨	-2493
▁晨	-2494
▁曹	-2495
▁枝	-2496
▁某	-2497
▁染	-2498
▁柳	-2499
7%	-2500
8%	-2501
8.	-2502
▁乃	-2503
▁井	-2504
▁亦	-2505
▁侧	-2506
▁储	-2507
▁径	-2508
▁柿	-2509
▁栋	-2510
▁校	-2511
▁桂	-2512
▁框	-2513
▁桑	-2514
▁棉	-2515
▁欠	-2516
▁歧	-2517
▁残	-2518
▁汽	-2519
▁沈	-2520
▁沉	-2521
▁洗	-2522
▁洞	-2523
▁浪	-2524
▁涉	-2525
▁涌	-2526
▁渐	-2527
▁湖	-2528
▁滋	-2529
▁滚	-2530
▁漾	-2531
▁潘	-2532
▁灰	-2533
▁烽	-2534
▁父	-2535
▁牧	-2536
▁猪	-2537
▁玛	-2538
▁琼	-2539
▁男	-2540
▁疑	-2541
▁盆	-2542
▁盖	-2543
▁眉	-2544
▁税	-2545
▁穷	-2546
▁窗	-2547
▁竖	-2548
▁笑	-2549
▁笛	-2550
▁篓	-2551
▁粉	-2552
▁绵	-2553
▁缓	-2554
▁缔	-2555
▁缘	-2556
▁羽	-2557
▁翰	-2558
▁耳	-2559
▁肯	-2560
▁胸	-2561
▁腐	-2562
▁臣	-2563
▁舍	-2564
▁芳	-2565
▁苍	-2566
▁萝	-2567
▁萧	-2568
▁蔓	-2569
▁蔚	-2570
▁蕊	-2571
▁蕴	-2572
▁虑	-2573
▁蛋	-2574
▁衰	-2575
▁袭	-2576
▁谨	-2577
▁谷	-2578
▁贤	-2579
▁赴	-2580
▁赶	-2581
▁跃	-2582
▁跋	-2583
▁跑	-2584
▁软	-2585
▁逝	-2586
▁邦	-2587
▁邹	-2588
▁酋	-2589
▁钞	-2590
▁锡	-2591
▁锦	-2592
▁闪	-2593
▁闹	-2594
▁阔	-2595
▁陵	-2596
▁陶	-2597
▁露	-2598
▁顶	-2599
:『	-2600
▁予	-2601
▁喇	-2602
▁尉	-2603
▁弦	-2604
▁微	-2605
▁悲	-2606
▁扰	-2607
▁拘	-2608
▁斑	-2609
▁杜	-2610
▁汪	-2611
▁洪	-2612
▁痕	-2613
▁罚	-2614
▁覆	-2615
▁详	-2616
▁豆	-2617
▁豫	-2618
▁赢	-2619
▁赤	-2620
▁逛	-2621
▁钢	-2622
▁铺	-2623
▁颇	-2624
▁颜	-2625
▁驶	-2626
▁驾	-2627
▁骄	-2628
▁麻	-2629
、“	-2630
一举	-2631
一家	-2632
一度	-2633
一时	-2634
一期	-2635
一条	-2636
一派	-2637
一流	-2638
一片	-2639
一直	-2640
一种	-2641
万亩	-2642
万名	-2643
万多	-2644
万户	-2645
三年	-2646
上为	-2647
上了	-2648
上午	-2649
上市	-2650
上村	-2651
上演	-2652
上迈	-2653
上门	-2654
下去	-2655
下游	-2656
不上	-2657
不会	-2658
不可	-2659
不合	-2660
不懈	-2661
不敢	-2662
不是	-2663
不相	-2664
不见	-2665
不足	-2666
两个	-2667
两年	-2668
中的	-2669
中走	-2670
为推	-2671
为祖	-2672
为老	-2673
主干	-2674
义诊	-2675
之以	-2676
之外	-2677
之年	-2678
乐趣	-2679
九五	-2680
九年	-2681
书法	-2682
书画	-2683
书长	-2684
了两	-2685
了我	-2686
了新	-2687
争取	-2688
事务	-2689
事录	-2690
事故	-2691
事迹	-2692
于不	-2693
于今	-2694
于历	-2695
于用	-2696
五项	-2697
交响	-2698
交给	-2699
13	-2700
42	-2701
76	-2702
▁偏	-2703
▁刊	-2704
▁吉	-2705
▁否	-2706
▁味	-2707
▁啊	-2708
▁守	-2709
▁弥	-2710
▁打	-2711
▁斐	-2712
▁昭	-2713
▁榭	-2714
▁票	-2715
▁缅	-2716
▁茭	-2717
▁输	-2718
一项	-2719
上涨	-2720
为每	-2721
人为	-2722
人数	-2723
人生	-2724
人类	-2725
今后	-2726
代经	-2727
以前	-2728
以北	-2729
以往	-2730
们的	-2731
价格	-2732
仿佛	-2733
优惠	-2734
会员	-2735
会晤	-2736
会费	-2737
似乎	-2738
体不	-2739
体有	-2740
保卫	-2741
健行	-2742
兄弟	-2743
先河	-2744
先消	-2745
光冷	-2746
克服	-2747
入电	-2748
全体	-2749
全军	-2750
全局	-2751
全村	-2752
全民	-2753
公斤	-2754
兰堡	-2755
关键	-2756
具备	-2757
具有	-2758
养殖	-2759
兼并	-2760
内容	-2761
内涵	-2762
内蒙	-2763
军事	-2764
军八	-2765
军队	-2766
农户	-2767
准备	-2768
几乎	-2769
出租	-2770
分类	-2771
创业	-2772
到中	-2773
制宜	-2774
制衣	-2775
前屋	-2776
前景	-2777
前锋	-2778
力度	-2779
加元	-2780
加坡	-2781
加大	-2782
加快	-2783
加拉	-2784
动员	-2785
动摇	-2786
勇敢	-2787
化的	-2788
北部	-2789
区办	-2790
十二	-2791
协会	-2792
原因	-2793
参与	-2794
又有	-2795
发放	-2796
发现	-2797
取代	-2798
受益	-2799
▁串	-2800
▁兑	-2801
▁厦	-2802
▁宏	-2803
▁宪	-2804
▁宽	-2805
▁拔	-2806
▁掌	-2807
▁握	-2808
▁撼	-2809
▁棚	-2810
▁淮	-2811
▁爆	-2812
▁秘	-2813
▁纵	-2814
▁肩	-2815
▁辐	-2816
不管	-2817
两件	-2818
个月	-2819
主题	-2820
价值	-2821
但在	-2822
信念	-2823
公布	-2824
刚果	-2825
前就	-2826
变为	-2827
史籍	-2828
号码	-2829
各方	-2830
合唱	-2831
合并	-2832
合影	-2833
同学	-2834
同意	-2835
同期	-2836
名人	-2837
名列	-2838
名字	-2839
向全	-2840
向香	-2841
吸引	-2842
和俄	-2843
和审	-2844
和干	-2845
和引	-2846
和意	-2847
和支	-2848
和社	-2849
和科	-2850
品格	-2851
喜悦	-2852
四周	-2853
回到	-2854
回应	-2855
回忆	-2856
园区	-2857
国民	-2858
国营	-2859
在于	-2860
在南	-2861
在地	-2862
在完	-2863
在自	-2864
在茶	-2865
地图	-2866
地接	-2867
地的	-2868
地看	-2869
地缘	-2870
地说	-2871
场等	-2872
城区	-2873
基地	-2874
塑造	-2875
增加	-2876
增强	-2877
增长	-2878
外侨	-2879
多个	-2880
多元	-2881
多党	-2882
多年	-2883
多立	-2884
大业	-2885
大军	-2886
大地	-2887
大工	-2888
大幅	-2889
大量	-2890
大陆	-2891
天下	-2892
天内	-2893
天空	-2894
奶奶	-2895
好像	-2896
好评	-2897
好转	-2898
姑妈	-2899
34	-2900
44	-2901
▁乱	-2902
▁借	-2903
▁剑	-2904
▁坏	-2905
▁妥	-2906
▁姐	-2907
▁帷	-2908
▁泣	-2909
▁浇	-2910
▁莽	-2911
▁锤	-2912
一遍	-2913
与广	-2914
业绩	-2915
两豆	-2916
中南	-2917
为了	-2918
为止	-2919
了有	-2920
人静	-2921
他说	-2922
们在	-2923
使命	-2924
先后	-2925
八个	-2926
军属	-2927
军建	-2928
县的	-2929
参加	-2930
发乎	-2931
发挥	-2932
国志	-2933
多样	-2934
好事	-2935
孔玲	-2936
学和	-2937
完成	-2938
官兵	-2939
实施	-2940
实行	-2941
宣誓	-2942
家中	-2943
家和	-2944
家园	-2945
对历	-2946
对落	-2947
对象	-2948
导下	-2949
将对	-2950
就以	-2951
就可	-2952
就有	-2953
尼拉	-2954
尽快	-2955
局的	-2956
展开	-2957
岁末	-2958
巨大	-2959
巨额	-2960
已被	-2961
市财	-2962
布厂	-2963
带领	-2964
幅幅	-2965
平稳	-2966
平静	-2967
年代	-2968
年增	-2969
年报	-2970
年是	-2971
年轻	-2972
广场	-2973
广西	-2974
庄严	-2975
底子	-2976
建筑	-2977
建议	-2978
建谁	-2979
开创	-2980
开局	-2981
引下	-2982
张启	-2983
当时	-2984
彩玲	-2985
彩虹	-2986
得多	-2987
性循	-2988
总结	-2989
恢复	-2990
悲鸿	-2991
情民	-2992
意义	-2993
意味	-2994
意识	-2995
慰问	-2996
成员	-2997
成效	-2998
成果	-2999
▁抵	-3000
▁欧	-3001
▁添	-3002
▁珠	-3003
▁硬	-3004
▁绘	-3005
▁绸	-3006
▁腮	-3007
一路	-3008
上升	-3009
千余	-3010
双泾	-3011
坚信	-3012
多达	-3013
年会	-3014
当今	-3015
成绩	-3016
战役	-3017
战胜	-3018
户办	-3019
扶贫	-3020
找准	-3021
拥有	-3022
指挥	-3023
接受	-3024
推动	-3025
推广	-3026
搞好	-3027
摄氏	-3028
改组	-3029
改造	-3030
放烟	-3031
政局	-3032
救助	-3033
教育	-3034
敬爱	-3035
整治	-3036
文丛	-3037
斑鸠	-3038
斯科	-3039
新闻	-3040
日常	-3041
日晚	-3042
日讯	-3043
日起	-3044
旦河	-3045
时说	-3046
昆明	-3047
昌盛	-3048
明显	-3049
易辙	-3050
是两	-3051
是个	-3052
是为	-3053
是做	-3054
是因	-3055
是我	-3056
是欢	-3057
是由	-3058
显然	-3059
显著	-3060
更坚	-3061
更大	-3062
最大	-3063
有企	-3064
有权	-3065
有过	-3066
望未	-3067
未来	-3068
本报	-3069
本领	-3070
朱镕	-3071
机遇	-3072
李岚	-3073
李润	-3074
条例	-3075
来临	-3076
来源	-3077
标志	-3078
梁材	-3079
欣慰	-3080
正点	-3081
步入	-3082
步形	-3083
步飞	-3084
武装	-3085
民间	-3086
气象	-3087
江南	-3088
江淮	-3089
江省	-3090
沟通	-3091
济南	-3092
海峡	-3093
海横	-3094
深厚	-3095
深层	-3096
满了	-3097
演奏	-3098
点和	-3099
爱国	-3100
版卢	-3101
特大	-3102
特技	-3103
玉珍	-3104
现了	-3105
现出	-3106
现场	-3107
理会	-3108
生们	-3109
生动	-3110
生存	-3111
生意	-3112
用笔	-3113
瘫痪	-3114
百炼	-3115
的专	-3116
的严	-3117
的亲	-3118
的前	-3119
的卢	-3120
的厂	-3121
的古	-3122
的审	-3123
的局	-3124
的崇	-3125
的庆	-3126
的序	-3127
的强	-3128
的技	-3129
的故	-3130
的教	-3131
的早	-3132
的松	-3133
的汇	-3134
的沉	-3135
的活	-3136
的火	-3137
的版	-3138
的状	-3139
的画	-3140
的组	-3141
的结	-3142
的维	-3143
的老	-3144
的西	-3145
的评	-3146
的赞	-3147
的起	-3148
的车	-3149
的邓	-3150
的那	-3151
的银	-3152
的韩	-3153
目前	-3154
目标	-3155
相互	-3156
相对	-3157
看到	-3158
看护	-3159
着三	-3160
着许	-3161
知识	-3162
短短	-3163
石油	-3164
破船	-3165
社论	-3166
祥的	-3167
种植	-3168
种种	-3169
科技	-3170
空气	-3171
突破	-3172
窗牖	-3173
立了	-3174
立传	-3175
立派	-3176
等级	-3177
精彩	-3178
精粹	-3179
繁森	-3180
纪实	-3181
终于	-3182
经历	-3183
继承	-3184
继续	-3185
维平	-3186
维护	-3187
编撰	-3188
美好	-3189
美德	-3190
美洲	-3191
考古	-3192
而且	-3193
而努	-3194
联系	-3195
能力	-3196
能够	-3197
能源	-3198
脱贫	-3199
自发	-3200
自觉	-3201
航班	-3202
航空	-3203
艰辛	-3204
色彩	-3205
花爆	-3206
落实	-3207
行使	-3208
行列	-3209
行的	-3210
街道	-3211
表演	-3212
表达	-3213
被炸	-3214
西亚	-3215
西藏	-3216
规范	-3217
视台	-3218
认真	-3219
记录	-3220
记忆	-3221
讲述	-3222
论典	-3223
设计	-3224
访慰	-3225
访问	-3226
谈会	-3227
谈判	-3228
象预	-3229
负担	-3230
责任	-3231
贫富	-3232
贵乎	-3233
贷款	-3234
资产	-3235
资企	-3236
资料	-3237
赏课	-3238
起的	-3239
起降	-3240
跑道	-3241
路线	-3242
转让	-3243
辣椒	-3244
边防	-3245
过渡	-3246
近几	-3247
还带	-3248
还是	-3249
还有	-3250
还要	-3251
这套	-3252
这是	-3253
这项	-3254
进取	-3255
进口	-3256
进步	-3257
远远	-3258
退休	-3259
通信	-3260
通史	-3261
道涵	-3262
遗存	-3263
部长	-3264
里窥	-3265
金色	-3266
金额	-3267
长王	-3268
问候	-3269
问暖	-3270
队伍	-3271
防军	-3272
随着	-3273
难以	-3274
露脸	-3275
非常	-3276
面前	-3277
面向	-3278
风采	-3279
首先	-3280
首都	-3281
香榭	-3282
高挂	-3283
高的	-3284
高速	-3285
鲜花	-3286
,19	-3287
10°	-3288
14.	-3289
200	-3290
300	-3291
5.2	-3292
500	-3293
▁%,	-3294
▁七年	-3295
▁三是	-3296
▁专业	-3297
▁世纪	-3298
▁业绩	-3299
▁之一	-3300
▁乔石	-3301
▁九七	-3302
▁也纳	-3303
▁买回	-3304
▁二是	-3305
▁产业	-3306
▁享誉	-3307
▁代表	-3308
▁仿佛	-3309
▁伊始	-3310
▁伊斯	-3311
▁优先	-3312
▁优势	-3313
▁伙子	-3314
▁位于	-3315
▁作为	-3316
▁佳节	-3317
▁保持	-3318
▁信息	-3319
▁倡议	-3320
▁做起	-3321
▁允许	-3322
▁充分	-3323
▁光荣	-3324
▁克服	-3325
▁入达	-3326
▁八项	-3327
▁公斤	-3328
▁共同	-3329
▁兴建	-3330
▁兵学	-3331
▁典型	-3332
▁冉冉	-3333
▁冲击	-3334
▁决了	-3335
▁凝聚	-3336
▁几年	-3337
▁刚刚	-3338
▁初级	-3339
▁前进	-3340
▁剖析	-3341
▁勃勃	-3342
▁募捐	-3343
▁区有	-3344
▁十分	-3345
▁半年	-3346
▁协会	-3347
▁占地	-3348
▁卫生	-3349
▁印尼	-3350
▁压力	-3351
▁又有	-3352
▁友人	-3353
▁只有	-3354
▁只要	-3355
▁各国	-3356
▁同时	-3357
▁吐乌	-3358
▁启发	-3359
▁呈现	-3360
▁告说	-3361
▁周年	-3362
▁哲学	-3363
▁商业	-3364
▁善了	-3365
▁喇叭	-3366
▁喷发	-3367
▁因地	-3368
▁团体	-3369
▁园区	-3370
▁困县	-3371
▁国家	-3372
▁地区	-3373
▁坐在	-3374
▁垦区	-3375
▁培育	-3376
▁塑造	-3377
▁大家	-3378
▁女作	-3379
▁好的	-3380
▁如何	-3381
▁孩子	-3382
▁它们	-3383
▁它的	-3384
▁审慎	-3385
▁客人	-3386
▁宣誓	-3387
▁宾逊	-3388
▁宿舍	-3389
▁寒风	-3390
▁导的	-3391
▁将是	-3392
▁小平	-3393
▁尽快	-3394
▁尽早	-3395
▁尽管	-3396
▁局以	-3397
▁屏幕	-3398
▁山区	-3399
▁山沟	-3400
▁已有	-3401
▁巴以	-3402
▁布置	-3403
▁带来	-3404
▁席了	-3405
▁帮带	-3406
▁干警	-3407
▁平凡	-3408
▁应该	-3409
▁建设	-3410
▁引述	-3411
▁弥补	-3412
▁强调	-3413
▁归后	-3414
▁当前	-3415
▁当地	-3416
▁当家	-3417
▁录了	-3418
▁形式	-3419
▁形象	-3420
▁彭珮	-3421
▁彻底	-3422
▁往来	-3423
▁待遇	-3424
▁循环	-3425
▁志着	-3426
▁忧其	-3427
▁怀揣	-3428
▁性和	-3429
▁恩佐	-3430
▁悟和	-3431
▁意义	-3432
▁战斗	-3433
▁截至	-3434
▁所有	-3435
▁才能	-3436
▁执行	-3437
▁扩大	-3438
▁承包	-3439
▁承百	-3440
▁技术	-3441
▁抗日	-3442
▁护了	-3443
▁担任	-3444
▁担心	-3445
▁拓了	-3446
▁拿大	-3447
▁挑选	-3448
▁挤在	-3449
▁换届	-3450
▁授权	-3451
▁排好	-3452
▁推出	-3453
▁描绘	-3454
▁提出	-3455
▁提高	-3456
▁搜集	-3457
▁搞好	-3458
▁摊位	-3459
▁支部	-3460
▁放和	-3461
▁故乡	-3462
▁故事	-3463
▁数的	-3464
▁斑斓	-3465
▁斗故	-3466
▁旦前	-3467
▁旧币	-3468
▁春天	-3469
▁昨天	-3470
▁显示	-3471
▁普及	-3472
▁更多	-3473
▁更是	-3474
▁服从	-3475
▁望台	-3476
▁未能	-3477
▁术界	-3478
▁李学	-3479
▁村民	-3480
▁杨子	-3481
▁构和	-3482
▁柳林	-3483
▁样的	-3484
▁桥本	-3485
▁梅塔	-3486
▁检查	-3487
▁检阅	-3488
▁模式	-3489
▁欢乐	-3490
▁欢迎	-3491
▁欧洲	-3492
▁正合	-3493
▁正式	-3494
▁此次	-3495
▁武器	-3496
▁死于	-3497
▁永远	-3498
▁汇率	-3499
▁江中	-3500
▁江南	-3501
▁江省	-3502
▁治区	-3503
▁注重	-3504
▁泰国	-3505
▁泽民	-3506
▁活中	-3507
▁浓郁	-3508
▁浩田	-3509
▁润五	-3510
▁清醒	-3511
▁温宪	-3512
▁游业	-3513
▁滋润	-3514
▁演出	-3515
▁演队	-3516
▁潜力	-3517
▁潮有	-3518
▁火山	-3519
▁烂漫	-3520
▁烂的	-3521
▁烈斯	-3522
▁烈的	-3523
▁然而	-3524
▁爸爸	-3525
▁特区	-3526
▁特色	-3527
▁独特	-3528
▁瑞士	-3529
▁甚至	-3530
▁由于	-3531
▁画院	-3532
▁画面	-3533
▁痕迹	-3534
▁登山	-3535
▁登高	-3536
▁百家	-3537
▁监控	-3538
▁直接	-3539
▁相信	-3540
▁真情	-3541
▁真正	-3542
▁真的	-3543
▁知道	-3544
▁础上	-3545
▁确保	-3546
▁确实	-3547
▁祈祷	-3548
▁祝福	-3549
▁祝贺	-3550
▁禁区	-3551
▁科技	-3552
▁立了	-3553
▁站在	-3554
▁第二	-3555
▁筹资	-3556
▁类的	-3557
▁累计	-3558
▁结合	-3559
▁统计	-3560
▁继承	-3561
▁绵绵	-3562
▁缅怀	-3563
▁编著	-3564
▁编辑	-3565
▁编选	-3566
▁缩影	-3567
▁缺乏	-3568
▁罗斯	-3569
▁美元	-3570
▁羽毛	-3571
▁耕耘	-3572
▁耶德	-3573
▁背篓	-3574
▁胜利	-3575
▁胞的	-3576
▁至此	-3577
▁致富	-3578
▁致词	-3579
▁航班	-3580
▁航空	-3581
▁艰苦	-3582
▁色列	-3583
▁艳的	-3584
▁节日	-3585
▁花园	-3586
▁萝卜	-3587
▁萨诺	-3588
▁著作	-3589
▁著名	-3590
▁蔓延	-3591
▁藏历	-3592
▁血与	-3593
▁行动	-3594
▁衡到	-3595
▁补贴	-3596
▁衷地	-3597
▁覆盖	-3598
▁见到	-3599
▁观看	-3600
▁视台	-3601
▁觉得	-3602
▁角村	-3603
▁解困	-3604
▁解放	-3605
▁誓词	-3606
▁警察	-3607
▁议题	-3608
▁讲解	-3609
▁访问	-3610
▁评论	-3611
▁诚挚	-3612
▁详细	-3613
▁谢意	-3614
▁豫剧	-3615
▁质的	-3616
▁贯穿	-3617
▁贵州	-3618
▁贺电	-3619
▁资产	-3620
▁赠送	-3621
▁赢得	-3622
▁赤胆	-3623
▁走进	-3624
▁跋涉	-3625
▁转变	-3626
▁软禁	-3627
▁辐射	-3628
▁迅速	-3629
▁过后	-3630
▁这条	-3631
▁送去	-3632
▁适当	-3633
▁逐步	-3634
▁通过	-3635
▁遣散	-3636
▁都市	-3637
▁都是	-3638
▁配置	-3639
▁钞票	-3640
▁锦绣	-3641
▁门在	-3642
▁间的	-3643
▁防线	-3644
▁陆机	-3645
▁降到	-3646
▁限制	-3647
▁限的	-3648
▁雷达	-3649
▁震造	-3650
▁靠着	-3651
▁面对	-3652
▁额为	-3653
▁骄傲	-3654
▁鲜明	-3655
▁鸣枪	-3656
一九九	-3657
一系列	-3658
三下乡	-3659
上发表	-3660
业为主	-3661
中国与	-3662
中国在	-3663
中国常	-3664
中有升	-3665
为中心	-3666
主题性	-3667
之以恒	-3668
书记的	-3669
书记龚	-3670
了一个	-3671
了一条	-3672
了一面	-3673
了中国	-3674
了总统	-3675
了我国	-3676
人与事	-3677
人在新	-3678
人民布	-3679
他们的	-3680
代经典	-3681
以色列	-3682
企业集	-3683
先消灭	-3684
党委和	-3685
党的基	-3686
入电脑	-3687
全国总	-3688
共同努	-3689
内外游	-3690
军建军	-3691
农业产	-3692
农村小	-3693
农民收	-3694
出版社	-3695
创作中	-3696
加工厂	-3697
加拉瓜	-3698
华大使	-3699
南部海	-3700
原有的	-3701
发出倡	-3702
同世界	-3703
同志离	-3704
和保护	-3705
和完善	-3706
和完成	-3707
国旗仪	-3708
国经济	-3709
国防部	-3710
图书馆	-3711
在北京	-3712
在南非	-3713
在国外	-3714
在我们	-3715
在这里	-3716
坪上村	-3717
城乡游	-3718
外侨胞	-3719
大中小	-3720
大事录	-3721
大使馆	-3722
大学生	-3723
大工人	-3724
大的轰	-3725
大规模	-3726
安全飞	-3727
实现祖	-3728
对改革	-3729
将这一	-3730
小农场	-3731
就以军	-3732
工作的	-3733
巨额外	-3734
年产值	-3735
建交后	-3736
建成富	-3737
建谁有	-3738
当时的	-3739
总人数	-3740
情民意	-3741
成新币	-3742
房前屋	-3743
政府决	-3744
新世纪	-3745
新年好	-3746
新年音	-3747
无党派	-3748
明天更	-3749
是一种	-3750
是世界	-3751
有自己	-3752
有计划	-3753
村里的	-3754
正是靠	-3755
民总书	-3756
水的利	-3757
消除了	-3758
特别是	-3759
特困户	-3760
生产率	-3761
由中国	-3762
的一个	-3763
的一些	-3764
的一份	-3765
的主人	-3766
的主体	-3767
的关系	-3768
的到来	-3769
的各项	-3770
的同时	-3771
的和平	-3772
的商品	-3773
的国家	-3774
的地位	-3775
的基本	-3776
的大事	-3777
的天空	-3778
的存款	-3779
的工作	-3780
的形象	-3781
的文献	-3782
的时间	-3783
的经验	-3784
的结果	-3785
的赞誉	-3786
祖国统	-3787
第一天	-3788
第一条	-3789
织制衣	-3790
经济形	-3791
经济效	-3792
统一管	-3793
继续推	-3794
群众参	-3795
老区办	-3796
而又极	-3797
联合国	-3798
联合阵	-3799
胡花蕊	-3800
自然增	-3801
行政区	-3802
表示良	-3803
跑道延	-3804
路全长	-3805
达成妥	-3806
这个村	-3807
这本书	-3808
长大的	-3809
长张启	-3810
音乐会	-3811
香港回	-3812
高等级	-3813
,199	-3814
1000	-3815
1994	-3816
6000	-3817
7000	-3818
85.2	-3819
—10°	-3820
▁199	-3821
▁’98	-3822
▁丁玉珍	-3823
▁万加元	-3824
▁三十部	-3825
▁丛书的	-3826
▁东北部	-3827
▁义事业	-3828
▁也没有	-3829
▁云南省	-3830
▁亩基本	-3831
▁价上涨	-3832
▁伍军人	-3833
▁党全军	-3834
▁八达岭	-3835
▁再就业	-3836
▁冷空气	-3837
▁刘步飞	-3838
▁初中版	-3839
▁化农业	-3840
▁千名海	-3841
▁却原子	-3842
▁厅举行	-3843
▁去年的	-3844
▁参与了	-3845
▁参加了	-3846
▁反映了	-3847
▁商会议	-3848
▁均纯收	-3849
▁境卫生	-3850
▁增加了	-3851
▁处五项	-3852
▁套丛书	-3853
▁孔效应	-3854
▁存在的	-3855
▁尉健行	-3856
▁小到中	-3857
▁岗职工	-3858
▁岸直接	-3859
▁峡两岸	-3860
▁币改值	-3861
▁常重要	-3862
▁庄机场	-3863
▁座谈会	-3864
▁康发展	-3865
▁弦易辙	-3866
▁强民主	-3867
▁往事知	-3868
▁徐悲鸿	-3869
▁慰问金	-3870
▁我们胜	-3871
▁我国政	-3872
▁找上门	-3873
▁技卫生	-3874
▁把我国	-3875
▁抓落实	-3876
▁报记者	-3877
▁推动了	-3878
▁提出的	-3879
▁揽全局	-3880
▁故事丛	-3881
▁散文集	-3882
▁新年好	-3883
▁旅游局	-3884
▁旱之年	-3885
▁望未来	-3886
▁李维平	-3887
▁架公路	-3888
▁栋梁材	-3889
▁树新风	-3890
▁森女儿	-3891
▁欣赏课	-3892
▁气象预	-3893
▁汪道涵	-3894
▁沧海横	-3895
▁油画展	-3896
▁津美术	-3897
▁派爱国	-3898
▁烈军属	-3899
▁焦作市	-3900
▁燃放烟	-3901
▁特别是	-3902
▁田庄乡	-3903
▁电视台	-3904
▁画创作	-3905
▁登长城	-3906
▁相对落	-3907
▁省十大	-3908
▁着美好	-3909
▁科学院	-3910
▁秘书长	-3911
▁立自主	-3912
▁第一天	-3913
▁筑路人	-3914
▁籍学者	-3915
▁约旦河	-3916
▁罗马和	-3917
▁育工作	-3918
▁胡花蕊	-3919
▁脑会晤	-3920
▁艺术家	-3921
▁苦奋斗	-3922
▁茶话会	-3923
▁荣毅仁	-3924
▁营中走	-3925
▁警官兵	-3926
▁让人们	-3927
▁话会上	-3928
▁质农业	-3929
▁走访慰	-3930
▁超亿元	-3931
▁路上迈	-3932
▁边防军	-3933
▁达管制	-3934
▁近年来	-3935
▁这两件	-3936
▁进一步	-3937
▁逛农贸	-3938
▁重推出	-3939
▁锤百炼	-3940
▁镇小厂	-3941
▁防建设	-3942
▁集资金	-3943
▁青年人	-3944
▁项任务	-3945
▁额高达	-3946
中华文明	-3947
中华民族	-3948
中南建交	-3949
中国人民	-3950
交通事故	-3951
人民共同	-3952
全国政协	-3953
共产党领	-3954
军八一飞	-3955
分子和干	-3956
加强两岸	-3957
加强精神	-3958
取得了很	-3959
国际货币	-3960
在京上演	-3961
基本路线	-3962
外交关系	-3963
委员会审	-3964
小型农田	-3965
山区乡镇	-3966
年报国志	-3967
当代学术	-3968
成的伤亡	-3969
战争纪念	-3970
持之以恒	-3971
散文随笔	-3972
敬爱的邓	-3973
文化领域	-3974
族自治区	-3975
日本经济	-3976
水利工程	-3977
理的国际	-3978
生活如常	-3979
的中国共	-3980
的维也纳	-3981
社会主义	-3982
美好的未	-3983
行使主权	-3984
这一方案	-3985
里的村庄	-3986
▁1998	-3987
▁亩经济林	-3988
▁伊斯兰堡	-3989
▁传统农业	-3990
▁佳经济效	-3991
▁俄罗斯新	-3992
▁做好工作	-3993
▁党和人民	-3994
▁八项主张	-3995
▁初级阶段	-3996
▁副书记龚	-3997
▁区有大雨	-3998
▁升国旗仪	-3999
▁华人华侨	-4000
▁协商制度	-4001
▁占全国总	-4002
▁又有多少	-4003
▁因地制宜	-4004
▁夏城乡游	-4005
▁孔书记的	-4006
▁导的多党	-4007
▁尼加拉瓜	-4008
▁尽早回应	-4009
▁局以民族	-4010
▁巨大的轰	-4011
▁平与发展	-4012
▁广大工人	-4013
▁很有意义	-4014
▁扎实深厚	-4015
▁拿起武器	-4016
▁支持国防	-4017
▁支部的带	-4018
▁放和现代	-4019
▁斗故事丛	-4020
▁新的一年	-4021
▁本报重庆	-4022
▁毫不动摇	-4023
▁江中下游	-4024
▁治区党委	-4025
▁流与合作	-4026
▁海外侨胞	-4027
▁港大学生	-4028
▁爱国人士	-4029
▁特区政府	-4030
▁独特个性	-4031
▁球化经营	-4032
▁祖国统一	-4033
▁祝联欢晚	-4034
▁稳中有升	-4035
▁空气影响	-4036
▁童福利院	-4037
▁繁荣昌盛	-4038
▁级党委和	-4039
▁罗联合阵	-4040
▁联社照片	-4041
▁脱贫致富	-4042
▁艳的五星	-4043
▁节日气氛	-4044
▁藏图书馆	-4045
▁装加工厂	-4046
▁谁建谁有	-4047
▁趋势分析	-4048
▁间的了解	-4049
▁阳光彩虹	-4050
▁青年志愿	-4051
年人均收入	-4052
▁亩基本农田	-4053
▁冷空气前锋	-4054
▁劳动生产率	-4055
▁却原子的技	-4056
▁历史性时刻	-4057
▁召开第九届	-4058
▁坚持党的基	-4059
▁坚持和完善	-4060
▁型水利设施	-4061
▁处五项原则	-4062
▁完成祖国统	-4063
▁小平同志离	-4064
▁强民主文明	-4065
▁归后的情况	-4066
▁推进农业产	-4067
▁整理和保护	-4068
▁李维平报道	-4069
▁森女儿孔玲	-4070
▁江泽民总书	-4071
▁活中的大事	-4072
▁派爱国人士	-4073
▁燃放烟花爆	-4074
▁特别行政区	-4075
▁着美好明天	-4076
▁类美好的未	-4077
▁罗马和米兰	-4078
▁胞的共同努	-4079
▁通过这一活	-4080
▁项任务的第	-4081
▁馆正式开馆	-4082
▁首都国际机	-4083
▁东部和南部海	-4084
▁义事业继续推	-4085
▁伍军人发出倡	-4086
▁依多金企业集	-4087
▁党全军全国各	-4088
▁共和国大使馆	-4089
▁千名海内外游	-4090
▁午夜散文随笔	-4091
▁各国人民共同	-4092
▁商会议第九届	-4093
▁孔书记的女儿	-4094
▁居民生活如常	-4095
▁常重要而又极	-4096
▁平与发展的崇	-4097
▁庄机场跑道延	-4098
▁承百年报国志	-4099
▁技卫生三下乡	-4100
▁把我国建成富	-4101
▁抗日战争纪念	-4102
▁推动了农村小	-4103
▁提出的在一个	-4104
▁正合理的国际	-4105
▁死于交通事故	-4106
▁特色社会主义	-4107
▁知识分子和干	-4108
▁立自主的和平	-4109
▁级党委和政府	-4110
▁统一大业的道	-4111
▁藏文古代经典	-4112
▁论和基本路线	-4113
▁都市里的村庄	-4114
▁震造成的伤亡	-4115
▁香港行使主权	-4116
▁验收委员会审	-4117
18.	-4118
22.	-4119
393	-4120
443	-4121
8.1	-4122
92.	-4123
932	-4124
”、“	-4125
▁乳品	-4126
▁乳透	-4127
▁亦会	-4128
▁侧目	-4129
▁倘佯	-4130
▁借以	-4131
▁借助	-4132
▁债的	-4133
▁偏于	-4134
▁催人	-4135
▁兄弟	-4136
▁兆国	-4137
▁兆头	-4138
▁吉县	-4139
▁味着	-4140
▁圆润	-4141
▁坏和	-4142
▁坏性	-4143
▁坝内	-4144
▁堆死	-4145
▁堆群	-4146
▁塘里	-4147
▁姑妈	-4148
▁媒体	-4149
▁宋振	-4150
▁宏观	-4151
▁尺寸	-4152
▁崇高	-4153
▁巷的	-4154
▁巷队	-4155
▁序性	-4156
▁彬手	-4157
▁悦地	-4158
▁扮演	-4159
▁抵京	-4160
▁拘泥	-4161
▁择上	-4162
▁挺了	-4163
▁损害	-4164
▁摘掉	-4165
▁摘登	-4166
▁摧残	-4167
▁摧毁	-4168
▁撤军	-4169
▁撤换	-4170
▁撼诗	-4171
▁敞豪	-4172
▁旨在	-4173
▁旨的	-4174
▁昆明	-4175
▁曹禺	-4176
▁杜天	-4177
▁杜比	-4178
▁枝杈	-4179
▁某一	-4180
▁染聚	-4181
▁校等	-4182
▁桂林	-4183
▁榭丽	-4184
▁欠账	-4185
▁歧异	-4186
▁毅仁	-4187
▁汽车	-4188
▁沉思	-4189
▁洗国	-4190
▁洗车	-4191
▁浇地	-4192
▁浪潮	-4193
▁浪费	-4194
▁湖州	-4195
▁滚滚	-4196
▁潘驰	-4197
▁灰和	-4198
▁烽火	-4199
▁爆炸	-4200
▁牧村	-4201
▁盆内	-4202
▁盆景	-4203
▁眉清	-4204
▁硬件	-4205
▁硬碰	-4206
▁票面	-4207
▁税区	-4208
▁穷则	-4209
▁竖起	-4210
▁笛子	-4211
▁粉碎	-4212
▁绘制	-4213
▁绸纺	-4214
▁绸而	-4215
▁缓其	-4216
▁缓缓	-4217
▁缔造	-4218
▁缘到	-4219
▁耳闻	-4220
▁肩负	-4221
▁肯古	-4222
▁肯定	-4223
▁腮的	-4224
▁臣模	-4225
▁芳香	-4226
▁茭皮	-4227
▁萧乾	-4228
▁萧红	-4229
▁蕴涵	-4230
▁袭人	-4231
▁赶到	-4232
▁赶排	-4233
▁跃跃	-4234
▁跑进	-4235
▁输到	-4236
▁辣椒	-4237
▁逝世	-4238
▁邦邮	-4239
▁铺筑	-4240
▁锡生	-4241
▁闪耀	-4242
▁闹非	-4243
▁露出	-4244
▁顶着	-4245
▁颇有	-4246
▁麻袋	-4247
▁麻雀	-4248
一举中	-4249
一家证	-4250
一流专	-4251
一片灿	-4252
一直无	-4253
一种更	-4254
七扶贫	-4255
万公斤	-4256
万多户	-4257
上为何	-4258
上了归	-4259
上了自	-4260
上冉冉	-4261
上反映	-4262
上市的	-4263
上调整	-4264
下军装	-4265
下大量	-4266
下步入	-4267
不会像	-4268
不可淡	-4269
不合拍	-4270
不敢贸	-4271
不相识	-4272
不管遇	-4273
与以前	-4274
与军队	-4275
与家园	-4276
中小园	-4277
中的困	-4278
中美洲	-4279
中首先	-4280
为了使	-4281
为了城	-4282
为克服	-4283
为各国	-4284
为海峡	-4285
之外的	-4286
九年义	-4287
也一路	-4288
也在茶	-4289
了交流	-4290
了全县	-4291
了军装	-4292
了有益	-4293
了相互	-4294
事务的	-4295
于历朝	-4296
交响音	-4297
人为加	-4298
人之间	-4299
1、5	-4300
▁抢客	-4301
▁撰写	-4302
▁旋门	-4303
▁核心	-4304
▁殖业	-4305
▁沪两	-4306
▁洁的	-4307
▁洋葱	-4308
▁测定	-4309
▁测量	-4310
▁淡淡	-4311
▁淡雅	-4312
▁烟稀	-4313
▁犹太	-4314
▁犹戎	-4315
▁猎豹	-4316
▁畅销	-4317
▁盘山	-4318
▁睦了	-4319
▁睦邻	-4320
▁禽摊	-4321
▁秋两	-4322
▁穿梭	-4323
▁算者	-4324
▁练市	-4325
▁细细	-4326
▁耀目	-4327
▁荡在	-4328
▁谱写	-4329
▁赠订	-4330
▁跌大	-4331
▁踏着	-4332
▁踏花	-4333
▁迁组	-4334
▁迟在	-4335
▁逾古	-4336
▁遍与	-4337
▁遍山	-4338
▁键环	-4339
▁键的	-4340
▁阻挑	-4341
▁障金	-4342
▁骤地	-4343
▁龚自	-4344
一下子	-4345
一体化	-4346
万人奋	-4347
了中东	-4348
人在评	-4349
今为止	-4350
今年预	-4351
从上月	-4352
从象角	-4353
从长城	-4354
他自豪	-4355
以为每	-4356
以平均	-4357
以改善	-4358
以文物	-4359
以节日	-4360
价出租	-4361
价格便	-4362
会员接	-4363
但在党	-4364
位退伍	-4365
体不太	-4366
体不约	-4367
体前夕	-4368
体有近	-4369
作如常	-4370
作者将	-4371
作者的	-4372
佳方式	-4373
信念与	-4374
元之间	-4375
充文字	-4376
全年入	-4377
全村已	-4378
全民健	-4379
八个分	-4380
八达岭	-4381
六色的	-4382
其文字	-4383
其用笔	-4384
具风采	-4385
兼并涉	-4386
决定从	-4387
凸现出	-4388
到部队	-4389
前高涨	-4390
加工企	-4391
动各方	-4392
化不开	-4393
化程度	-4394
匠心的	-4395
十分醒	-4396
华的亲	-4397
协会命	-4398
原来的	-4399
280	-4400
750	-4401
87.	-4402
▁‰。	-4403
▁伴有	-4404
▁剖学	-4405
▁卉则	-4406
▁卉时	-4407
▁圣约	-4408
▁圳街	-4409
▁奉为	-4410
▁妈妈	-4411
▁妈谢	-4412
▁妹三	-4413
▁妹妹	-4414
▁婚妇	-4415
▁宗旨	-4416
▁宝贵	-4417
▁寺院	-4418
▁封致	-4419
▁封面	-4420
▁延伸	-4421
▁急剧	-4422
▁急速	-4423
▁患了	-4424
兴建起	-4425
县的帽	-4426
参与该	-4427
参加了	-4428
又有对	-4429
及通信	-4430
发和科	-4431
发生着	-4432
取代前	-4433
取代旧	-4434
可象角	-4435
史籍之	-4436
各地确	-4437
各地群	-4438
合并成	-4439
同上年	-4440
同意另	-4441
同意向	-4442
名人专	-4443
名人屋	-4444
员长王	-4445
和使命	-4446
和俄罗	-4447
和喜悦	-4448
和外交	-4449
和审美	-4450
和建议	-4451
和推动	-4452
和支持	-4453
和间接	-4454
四上午	-4455
四周的	-4456
因种种	-4457
团与广	-4458
园区焦	-4459
国大地	-4460
国旗升	-4461
国有企	-4462
图书奖	-4463
在全县	-4464
在地举	-4465
在地委	-4466
在此迎	-4467
在金色	-4468
地图板	-4469
地履行	-4470
地接纳	-4471
地是那	-4472
地的青	-4473
场等地	-4474
场等数	-4475
基地授	-4476
增强了	-4477
增长速	-4478
多元外	-4479
多年历	-4480
多的笑	-4481
多的谋	-4482
大业将	-4483
大军已	-4484
大出口	-4485
大建筑	-4486
大欣慰	-4487
天起降	-4488
好成绩	-4489
如此密	-4490
学习观	-4491
学和利	-4492
学生们	-4493
定必须	-4494
宫广场	-4495
家中做	-4496
家们确	-4497
家国营	-4498
对今后	-4499
▁牧为	-4500
▁迈出	-4501
与这些	-4502
为物质	-4503
了这次	-4504
了高效	-4505
产高效	-4506
亩水费	-4507
从这里	-4508
分阶段	-4509
县高效	-4510
取水费	-4511
对全村	-4512
将导致	-4513
将来临	-4514
将突破	-4515
尼拉能	-4516
尽快予	-4517
尽是那	-4518
展望未	-4519
履行同	-4520
山一直	-4521
巨大压	-4522
已拥有	-4523
带领下	-4524
带领新	-4525
年轻女	-4526
并与广	-4527
并为祖	-4528
广泛涉	-4529
广西又	-4530
底子厚	-4531
建起股	-4532
开创了	-4533
开来的	-4534
弃的松	-4535
引下胜	-4536
引起了	-4537
当今波	-4538
形势的	-4539
往反映	-4540
往里窥	-4541
情况不	-4542
惯于用	-4543
意本领	-4544
慰问金	-4545
成果也	-4546
户帮扶	-4547
所有权	-4548
扫除了	-4549
找准了	-4550
抓不懈	-4551
投资亿	-4552
投资环	-4553
持联系	-4554
挂起来	-4555
接受治	-4556
推广普	-4557
推广适	-4558
支民间	-4559
收喜悦	-4560
放不合	-4561
政策下	-4562
教育救	-4563
教育科	-4564
斯科夫	-4565
新加坡	-4566
新机制	-4567
新知识	-4568
方大部	-4569
旧的厂	-4570
时代的	-4571
明日报	-4572
是两代	-4573
是两千	-4574
是做得	-4575
是具有	-4576
是发达	-4577
是广西	-4578
是当今	-4579
更大贡	-4580
月回到	-4581
有过程	-4582
朽之作	-4583
来了办	-4584
来了小	-4585
来广州	-4586
来指挥	-4587
来而努	-4588
来西亚	-4589
极不相	-4590
构成了	-4591
栓瘫痪	-4592
样的效	-4593
正是这	-4594
正点率	-4595
步实施	-4596
武装共	-4597
比上年	-4598
民政局	-4599
▁迟迟	-4600
了各级	-4601
及大街	-4602
只提前	-4603
合作机	-4604
和学术	-4605
处是欢	-4606
多少付	-4607
大地震	-4608
大工业	-4609
大街狂	-4610
学院教	-4611
少年军	-4612
就业服	-4613
就业渠	-4614
就可渡	-4615
局地震	-4616
展在京	-4617
形成了	-4618
形成项	-4619
成新风	-4620
战时期	-4621
提前二	-4622
提前划	-4623
政报告	-4624
斯大街	-4625
新时期	-4626
新风采	-4627
有所反	-4628
有所扩	-4629
村村民	-4630
村民开	-4631
民的意	-4632
气温低	-4633
江省及	-4634
沟通与	-4635
油工业	-4636
法优惠	-4637
法力度	-4638
洲文艺	-4639
涯的起	-4640
温记录	-4641
满了鲜	-4642
激光冷	-4643
灾事迹	-4644
点和修	-4645
点和城	-4646
爱县的	-4647
特大洪	-4648
特比赛	-4649
状况良	-4650
独资企	-4651
现在南	-4652
现实表	-4653
现行的	-4654
理之所	-4655
理会常	-4656
理会轮	-4657
生不忘	-4658
生动读	-4659
生动鲜	-4660
生意接	-4661
用水放	-4662
电能力	-4663
界来说	-4664
疑的目	-4665
的不足	-4666
的中学	-4667
的信念	-4668
的内容	-4669
的准备	-4670
的前总	-4671
的厂子	-4672
的同学	-4673
的名字	-4674
的回忆	-4675
的园区	-4676
的国事	-4677
的地方	-4678
的姑妈	-4679
的审视	-4680
的审议	-4681
的对象	-4682
的局部	-4683
的局面	-4684
的并购	-4685
的庄严	-4686
的成效	-4687
的手脚	-4688
的支持	-4689
的政策	-4690
的文艺	-4691
的新卢	-4692
的时候	-4693
的最光	-4694
的最新	-4695
的气候	-4696
的沉稳	-4697
的火炮	-4698
的版面	-4699
▁予以	-4700
▁黎巴	-4701
▁黎明	-4702
一样取	-4703
一样坚	-4704
与个人	-4705
个人与	-4706
了全球	-4707
云南省	-4708
众多女	-4709
传统普	-4710
传统的	-4711
俊出席	-4712
全区农	-4713
写制定	-4714
分别占	-4715
利益受	-4716
利益是	-4717
制定了	-4718
十五快	-4719
华夏浩	-4720
南京市	-4721
南部山	-4722
各种应	-4723
国内外	-4724
在各类	-4725
在总结	-4726
巴农副	-4727
手本领	-4728
是以色	-4729
次以上	-4730
河南省	-4731
满全球	-4732
由之路	-4733
的物质	-4734
的特区	-4735
的特点	-4736
的特色	-4737
的目标	-4738
的编撰	-4739
的自觉	-4740
的行列	-4741
的行政	-4742
的西欧	-4743
的西部	-4744
的规范	-4745
的评论	-4746
的退伍	-4747
的青少	-4748
目前仍	-4749
目的不	-4750
目的之	-4751
相互支	-4752
看到你	-4753
石文字	-4754
立西藏	-4755
第三位	-4756
籍选编	-4757
约能源	-4758
线通信	-4759
终于被	-4760
经费投	-4761
经费由	-4762
者们的	-4763
者在茶	-4764
者相信	-4765
而农副	-4766
而努力	-4767
联户办	-4768
育观念	-4769
胁终于	-4770
脱贫环	-4771
自主地	-4772
自发到	-4773
自发地	-4774
自我剖	-4775
自我管	-4776
致问候	-4777
艺术创	-4778
节日盛	-4779
节来临	-4780
蜕变为	-4781
行政长	-4782
表现力	-4783
西亚就	-4784
西藏简	-4785
解决好	-4786
计的严	-4787
认为给	-4788
设立了	-4789
读者对	-4790
读者欢	-4791
谁看护	-4792
调整和	-4793
谈判的	-4794
谱先河	-4795
责任田	-4796
贫困山	-4797
资产委	-4798
起的旗	-4799
87%	-4800
▁嘉奖	-4801
▁壮而	-4802
▁奶奶	-4803
▁字与	-4804
▁季多	-4805
▁寄寓	-4806
▁异域	-4807
▁影留	-4808
▁扩展	-4809
▁招一	-4810
▁招待	-4811
▁招收	-4812
▁揭牌	-4813
▁揭示	-4814
▁搞的	-4815
▁朱光	-4816
▁朱镕	-4817
▁松欢	-4818
▁毕竟	-4819
▁毛同	-4820
▁泾村	-4821
▁浓厚	-4822
▁湾当	-4823
▁牵挂	-4824
▁琛通	-4825
▁琼斯	-4826
▁端区	-4827
▁端的	-4828
▁端越	-4829
▁累中	-4830
▁绩和	-4831
▁绩是	-4832
▁缺时	-4833
▁聚一	-4834
▁脚印	-4835
▁获得	-4836
▁董建	-4837
▁触类	-4838
▁贾建	-4839
▁赞同	-4840
▁险家	-4841
▁险金	-4842
▁须知	-4843
▁食油	-4844
▁骨恐	-4845
▁黎人	-4846
帧设计	-4847
无记忆	-4848
模战役	-4849
的鲜花	-4850
路不见	-4851
路人相	-4852
较上年	-4853
辆号码	-4854
近万亩	-4855
还是西	-4856
还有毛	-4857
这套丛	-4858
这是俄	-4859
这是卖	-4860
这更坚	-4861
这次喷	-4862
进口限	-4863
进步为	-4864
进的早	-4865
远远超	-4866
迟不敢	-4867
部的韩	-4868
部长雷	-4869
部队紧	-4870
都是比	-4871
重地接	-4872
重新露	-4873
间接带	-4874
阅岁末	-4875
阑人静	-4876
青年都	-4877
非常严	-4878
面前深	-4879
面向二	-4880
项目近	-4881
领域遇	-4882
马和圣	-4883
高中版	-4884
高的敬	-4885
高的荣	-4886
高高挂	-4887
12.4	-4888
226.	-4889
▁》、《	-4890
▁与以往	-4891
▁专业批	-4892
▁专门召	-4893
▁东城区	-4894
▁临之际	-4895
▁为平稳	-4896
▁为改变	-4897
▁乎不见	-4898
▁九七年	-4899
1.8	-4900
236	-4901
254	-4902
35%	-4903
90%	-4904
▁丰产	-4905
▁丰富	-4906
▁享她	-4907
▁休眠	-4908
▁六位	-4909
▁净化	-4910
▁勇争	-4911
▁吃过	-4912
▁疑是	-4913
了部分	-4914
先后整	-4915
出音乐	-4916
县象角	-4917
年一度	-4918
有部分	-4919
的部分	-4920
省重点	-4921
艺术品	-4922
重点帮	-4923
集体高	-4924
1.85	-4925
▁590	-4926
▁丰产丰	-4927
▁丰富多	-4928
▁买回去	-4929
▁二是凡	-4930
▁亦会较	-4931
▁享她劳	-4932
▁京航空	-4933
▁他们认	-4934
▁他们针	-4935
▁付能力	-4936
▁令两国	-4937
▁件的起	-4938
▁份又有	-4939
▁众表现	-4940
▁传发动	-4941
▁位于市	-4942
▁位于武	-4943
▁低通胀	-4944
▁何找准	-4945
▁作为卖	-4946
▁供了前	-4947
▁供多达	-4948
▁侧目远	-4949
▁促成了	-4950
▁俊出席	-4951
▁保持在	-4952
▁值得一	-4953
▁做了很	-4954
▁做好与	-4955
▁做起来	-4956
▁催人泪	-4957
▁允许外	-4958
▁充分地	-4959
▁先生教	-4960
▁六位女	-4961
▁兰社会	-4962
▁共发生	-4963
▁兵书可	-4964
▁兵书既	-4965
▁典节目	-4966
▁养量达	-4967
▁再次喷	-4968
▁再次表	-4969
▁军改组	-4970
▁冲击波	-4971
▁准军事	-4972
▁凸现出	-4973
▁列项目	-4974
▁则不可	-4975
▁则多达	-4976
▁办好事	-4977
▁勇争先	-4978
▁千名男	-4979
▁升起的	-4980
▁协会向	-4981
▁协会理	-4982
▁单位主	-4983
▁南非驻	-4984
▁卫生保	-4985
▁危机中	-4986
▁厂职工	-4987
▁又一片	-4988
▁及各种	-4989
▁友们的	-4990
▁反映藏	-4991
▁古学从	-4992
▁古学的	-4993
▁另一股	-4994
▁召开的	-4995
▁史学和	-4996
▁号集体	-4997
▁司的前	-4998
▁各国政	-4999
▁守上	-5000
▁桑中	-5001
▁遇到	-5002
主是一	-5003
乏成功	-5004
了美国	-5005
但发乎	-5006
住来自	-5007
和解放	-5008
国战略	-5009
学者接	-5010
将进入	-5011
开发与	-5012
成功一	-5013
战略眼	-5014
新标准	-5015
日本警	-5016
时刻牢	-5017
是一位	-5018
是成功	-5019
来自东	-5020
来自各	-5021
标准每	-5022
每年召	-5023
每年投	-5024
每年拿	-5025
田的投	-5026
的投资	-5027
的是山	-5028
的重大	-5029
示范园	-5030
示范点	-5031
籍学者	-5032
索存款	-5033
▁乏成功	-5034
▁到成功	-5035
▁县建立	-5036
▁号示范	-5037
▁同时联	-5038
▁吨以上	-5039
▁吸引人	-5040
▁呈下降	-5041
▁味着不	-5042
▁品内涵	-5043
▁哥第一	-5044
▁善了产	-5045
▁因如此	-5046
▁团体的	-5047
▁团化的	-5048
▁困县有	-5049
▁圆润雄	-5050
▁圣约翰	-5051
▁圳交通	-5052
▁坐在李	-5053
▁坦总统	-5054
▁城市与	-5055
▁堆群培	-5056
▁塘里游	-5057
▁壮而辉	-5058
▁声合唱	-5059
▁央总书	-5060
▁失记忆	-5061
▁头有所	-5062
▁套系统	-5063
▁奶奶身	-5064
▁妈谢谢	-5065
▁妹三人	-5066
▁始上市	-5067
▁子们在	-5068
▁孙先生	-5069
▁守上甘	-5070
▁安全飞	-5071
▁宏的气	-5072
▁客出席	-5073
▁宫广场	-5074
▁寒冬终	-5075
▁寺院高	-5076
▁导干部	-5077
▁封致钱	-5078
▁封面题	-5079
▁居民最	-5080
▁届全国	-5081
▁履行同	-5082
▁山沟内	-5083
▁川民间	-5084
▁差的是	-5085
▁已形成	-5086
▁已有十	-5087
▁巴以美	-5088
▁巷的高	-5089
▁带来可	-5090
▁庆整治	-5091
▁序管制	-5092
▁应该做	-5093
▁引述一	-5094
▁归者请	-5095
▁当家品	-5096
▁彬手捧	-5097
▁影留念	-5098
▁役义务	-5099
▁索以	-5100
一出台	-5101
一定会	-5102
一定能	-5103
一定规	-5104
一起迎	-5105
上的立	-5106
不同凡	-5107
不断切	-5108
不断推	-5109
与交流	-5110
于一九	-5111
以及口	-5112
作出贡	-5113
保持信	-5114
保持某	-5115
先进企	-5116
先进典	-5117
利回归	-5118
利地位	-5119
到一件	-5120
到一位	-5121
到一元	-5122
到一宗	-5123
取得广	-5124
史上的	-5125
同样丰	-5126
同样是	-5127
团同样	-5128
在一起	-5129
多万元	-5130
头存款	-5131
巴去年	-5132
年利税	-5133
性新闻	-5134
是去年	-5135
比去年	-5136
源优势	-5137
然保持	-5138
用机制	-5139
级分析	-5140
致不同	-5141
行任务	-5142
▁众喜庆	-5143
▁位中学	-5144
▁委员会	-5145
▁官以及	-5146
▁将到来	-5147
▁引了我	-5148
▁役期间	-5149
▁往来和	-5150
▁德国邮	-5151
▁必须走	-5152
▁忠实地	-5153
▁忧其一	-5154
▁态度搜	-5155
▁态的组	-5156
▁思想与	-5157
▁恭城瑶	-5158
▁悟和情	-5159
▁惯于用	-5160
▁愿提出	-5161
▁慰问组	-5162
▁战斗故	-5163
▁户特困	-5164
▁所有人	-5165
▁托传统	-5166
▁执行旨	-5167
▁扫除了	-5168
▁扮演过	-5169
▁批城区	-5170
▁承包耕	-5171
▁抢客人	-5172
▁护主权	-5173
▁抵京后	-5174
▁担心亚	-5175
▁担看护	-5176
▁拓进取	-5177
▁招收她	-5178
▁拜年会	-5179
▁拥有固	-5180
▁指引下	-5181
▁挤在门	-5182
▁挥山区	-5183
▁捐赠送	-5184
▁换新币	-5185
▁授权法	-5186
▁掌上的	-5187
▁控制点	-5188
▁推广到	-5189
▁揭开馆	-5190
▁揭示在	-5191
▁搜集收	-5192
▁搞好施	-5193
▁摄氏度	-5194
▁撤换一	-5195
▁撰写这	-5196
▁散文以	-5197
▁敬老院	-5198
▁新年将	-5199
)98	-5200
33.	-5201
63.	-5202
▁余悸	-5203
▁修正	-5204
▁修筑	-5205
▁冲突	-5206
▁刚果	-5207
▁吐鲁	-5208
▁听她	-5209
▁吴刚	-5210
▁吴宗	-5211
▁吴邦	-5212
▁奖励	-5213
▁官董	-5214
▁官邸	-5215
▁审与	-5216
▁审议	-5217
▁执拗	-5218
▁援助	-5219
▁救助	-5220
▁救济	-5221
▁救灾	-5222
▁棉矿	-5223
▁概和	-5224
▁概念	-5225
▁概括	-5226
▁泛接	-5227
▁瓦买	-5228
▁瓦希	-5229
▁瓦材	-5230
▁甚高	-5231
▁短短	-5232
▁离合	-5233
▁租私	-5234
▁租车	-5235
▁竞标	-5236
▁竟涨	-5237
▁竟然	-5238
▁简单	-5239
▁简直	-5240
▁羊油	-5241
▁翻译	-5242
▁翻读	-5243
▁请代	-5244
▁透视	-5245
▁邮政	-5246
▁配方	-5247
▁钟爱	-5248
▁齐全	-5249
不同角	-5250
体平衡	-5251
将为每	-5252
新技术	-5253
是一例	-5254
)982	-5255
153.	-5256
▁修筑本	-5257
▁吐鲁番	-5258
▁听她们	-5259
▁吴宗教	-5260
▁吴邦国	-5261
▁坏和伤	-5262
▁播电视	-5263
▁救出版	-5264
▁救济金	-5265
▁施发挥	-5266
▁旋的古	-5267
▁昆明南	-5268
▁昌大学	-5269
▁春天脚	-5270
▁昨天披	-5271
▁显示了	-5272
▁普及与	-5273
▁更在于	-5274
▁更多人	-5275
▁有大雨	-5276
▁朝代的	-5277
▁未能如	-5278
▁本出发	-5279
▁术品格	-5280
▁朽之作	-5281
▁李学仁	-5282
▁杜比宁	-5283
▁束访问	-5284
▁杨子才	-5285
▁松欢快	-5286
▁板上的	-5287
▁构成了	-5288
▁枝鲜花	-5289
▁某一题	-5290
▁染聚焦	-5291
▁柳林县	-5292
▁校等附	-5293
▁根本不	-5294
▁格外亲	-5295
▁格局的	-5296
▁桂林漓	-5297
▁检查等	-5298
▁模改造	-5299
▁拜酒	-5300
万没有	-5301
上重要	-5302
不明确	-5303
了条件	-5304
入现代	-5305
具现代	-5306
各民主	-5307
大学和	-5308
安全返	-5309
实际紧	-5310
山来到	-5311
总理川	-5312
成员年	-5313
提供的	-5314
数以上	-5315
明确指	-5316
明确规	-5317
是重要	-5318
服务与	-5319
服务二	-5320
水时间	-5321
没有偏	-5322
现代艺	-5323
用水谁	-5324
的人生	-5325
的人能	-5326
的大厅	-5327
的大型	-5328
的大门	-5329
的小型	-5330
跟不上	-5331
里来到	-5332
长实际	-5333
▁中国驻	-5334
▁劳动者	-5335
▁参加此	-5336
▁川联合	-5337
▁庆实际	-5338
▁志来到	-5339
▁我们为	-5340
▁族自治	-5341
▁普及上	-5342
▁服务所	-5343
▁欠账太	-5344
▁歌的人	-5345
▁歌表演	-5346
▁止帮扶	-5347
▁此次到	-5348
▁步形成	-5349
▁殖业和	-5350
▁段街道	-5351
▁每年入	-5352
▁每年有	-5353
▁毛同恺	-5354
▁永远和	-5355
▁江南及	-5356
▁没收的	-5357
▁没有必	-5358
▁没有忘	-5359
▁沪两地	-5360
▁沪举行	-5361
▁沪元旦	-5362
▁沼气和	-5363
▁泛影响	-5364
▁泛接触	-5365
▁泰国的	-5366
▁洁提出	-5367
▁洁的市	-5368
▁浓郁的	-5369
▁海内外	-5370
▁涌现出	-5371
▁润五只	-5372
▁淀粉降	-5373
▁淡淡的	-5374
▁淮地区	-5375
▁渡作出	-5376
▁湾方面	-5377
▁演队向	-5378
▁漾出了	-5379
▁潮有可	-5380
▁澳门的	-5381
▁澳门舆	-5382
▁激起了	-5383
▁灰和水	-5384
▁点在于	-5385
▁烈的视	-5386
▁烈的象	-5387
▁然而到	-5388
▁煌业绩	-5389
▁物立传	-5390
▁犹太人	-5391
▁玉珍和	-5392
▁环境中	-5393
▁理纪实	-5394
▁瑞士的	-5395
▁瑞士等	-5396
▁瓦买提	-5397
▁瓦希涅	-5398
▁瓦材料	-5399
▁渡邕	-5400
中创造	-5401
为目标	-5402
主席万	-5403
举行升	-5404
之一的	-5405
人的风	-5406
今天为	-5407
今天在	-5408
今天晚	-5409
今天纷	-5410
会出现	-5411
全面完	-5412
其他各	-5413
其他类	-5414
其他题	-5415
出现增	-5416
出现神	-5417
务书记	-5418
区域性	-5419
各界的	-5420
和全面	-5421
和区域	-5422
地关心	-5423
定基础	-5424
对使用	-5425
放以来	-5426
早举行	-5427
明之一	-5428
江主席	-5429
然下降	-5430
的原则	-5431
的战役	-5432
这项欢	-5433
▁仅下降	-5434
▁值创造	-5435
▁协主席	-5436
▁天大学	-5437
▁始使用	-5438
▁就之一	-5439
▁感人的	-5440
▁放以来	-5441
▁甚高频	-5442
▁用工业	-5443
▁由市财	-5444
▁画面和	-5445
▁疆航空	-5446
▁盆内盛	-5447
▁益意识	-5448
▁监控点	-5449
▁目都是	-5450
▁真实的	-5451
▁真履行	-5452
▁真正做	-5453
▁研成果	-5454
▁硬碰硬	-5455
▁确实罕	-5456
▁祝大家	-5457
▁福利院	-5458
▁离不开	-5459
▁秀科技	-5460
▁种用水	-5461
▁租私房	-5462
▁租车违	-5463
▁称不上	-5464
▁穷乐趣	-5465
▁空气将	-5466
▁竞争中	-5467
▁端越来	-5468
▁笛子竖	-5469
▁第二次	-5470
▁等行列	-5471
▁简单的	-5472
▁管机制	-5473
▁管理并	-5474
▁管理的	-5475
▁米的新	-5476
▁类的书	-5477
▁系来说	-5478
▁素相对	-5479
▁级干部	-5480
▁纪以来	-5481
▁细细究	-5482
▁终取得	-5483
▁结合时	-5484
▁给其他	-5485
▁绝不会	-5486
▁继承与	-5487
▁续下去	-5488
▁续发放	-5489
▁绸而闻	-5490
▁综合治	-5491
▁缓其运	-5492
▁缓缓行	-5493
▁编选者	-5494
▁罗斯三	-5495
▁羽毛洁	-5496
▁翻一番	-5497
▁老干部	-5498
▁耶德很	-5499
▁』。	-5500
▁久便	-5501
▁亡之	-5502
▁亮白	-5503
▁亮的	-5504
▁典还	-5505
▁另有	-5506
▁奏了	-5507
▁差异	-5508
▁师友	-5509
▁师长	-5510
▁征着	-5511
▁律和	-5512
▁惠女	-5513
▁料货	-5514
▁止他	-5515
▁氛浓	-5516
▁永毅	-5517
▁浩浩	-5518
▁浩然	-5519
▁浩荡	-5520
▁疆安	-5521
▁白了	-5522
▁白就	-5523
▁纯朴	-5524
▁纯真	-5525
▁绿影	-5526
▁胜枚	-5527
▁萨到	-5528
▁补助	-5529
▁补发	-5530
▁言等	-5531
▁阻的	-5532
▁限性	-5533
▁雅乐	-5534
▁预测	-5535
、24	-5536
一国占	-5537
一大发	-5538
一年时	-5539
一日起	-5540
上海旅	-5541
后过渡	-5542
多个院	-5543
部和东	-5544
青年履	-5545
▁久便着	-5546
▁亡之海	-5547
▁亮白昼	-5548
▁亮的灶	-5549
▁典还采	-5550
▁另有几	-5551
▁坪上村	-5552
▁息贷款	-5553
▁惠女士	-5554
▁拥有的	-5555
▁据了解	-5556
▁料货源	-5557
▁止他从	-5558
▁氛浓厚	-5559
▁浩浩荡	-5560
▁浩然正	-5561
▁烂文化	-5562
▁煌前景	-5563
▁疆安度	-5564
▁白了怎	-5565
▁白就欠	-5566
▁纯真的	-5567
▁终导致	-5568
▁绿影扶	-5569
▁耶德手	-5570
▁职工共	-5571
▁联系和	-5572
▁能出现	-5573
▁臣模范	-5574
▁臣英雄	-5575
▁至今后	-5576
▁致词中	-5577
▁良性循	-5578
▁节期间	-5579
▁芳香的	-5580
▁英国早	-5581
▁荡在冬	-5582
▁菲卫生	-5583
▁萨到阿	-5584
▁萨诺说	-5585
▁著名歌	-5586
▁董其中	-5587
▁董建华	-5588
▁蓄而不	-5589
▁蔓延和	-5590
▁藏发生	-5591
▁虽然眼	-5592
▁虽然脱	-5593
▁蜕变为	-5594
▁血与火	-5595
▁衡到失	-5596
▁补助费	-5597
▁补发拖	-5598
▁表现了	-5599
▁刊登	-5600
▁否则	-5601
▁诚说	-5602
为精神	-5603
于稳定	-5604
作精神	-5605
党的好	-5606
前通过	-5607
可稳定	-5608
地通过	-5609
层经营	-5610
村养殖	-5611
玩的好	-5612
环境整	-5613
的好奇	-5614
的好风	-5615
的情思	-5616
的情感	-5617
的电视	-5618
的美术	-5619
综合整	-5620
而不懈	-5621
节日管	-5622
这种特	-5623
这种缺	-5624
锲而不	-5625
音乐的	-5626
香港特	-5627
香港银	-5628
▁兼并额	-5629
▁势稳定	-5630
▁土地上	-5631
▁完成党	-5632
▁己的表	-5633
▁己的轻	-5634
▁根据加	-5635
▁演员和	-5636
▁类经营	-5637
▁给香港	-5638
▁被合并	-5639
▁被广大	-5640
▁西藏于	-5641
▁见到此	-5642
▁觉得该	-5643
▁角村还	-5644
▁言有利	-5645
▁誓词伴	-5646
▁让这些	-5647
▁论上为	-5648
▁设得到	-5649
▁访时说	-5650
▁访问后	-5651
▁识分子	-5652
▁读者办	-5653
▁调动了	-5654
▁调国民	-5655
▁谱写下	-5656
▁贡献份	-5657
▁责任感	-5658
▁质的人	-5659
▁贫困县	-5660
▁贯穿以	-5661
▁贵文献	-5662
▁贵阳市	-5663
▁费县在	-5664
▁贺电说	-5665
▁走向极	-5666
▁足读者	-5667
▁踏着晨	-5668
▁踏花被	-5669
▁载光辉	-5670
▁载进行	-5671
▁输到监	-5672
▁迅速把	-5673
▁这一兼	-5674
▁这一新	-5675
▁这个乐	-5676
▁这个县	-5677
▁这意味	-5678
▁违章车	-5679
▁迟迟不	-5680
▁追求短	-5681
▁适于用	-5682
▁逐年增	-5683
▁速发出	-5684
▁造生存	-5685
▁造自然	-5686
▁遇到强	-5687
▁遍与特	-5688
▁遍天下	-5689
▁遍山乡	-5690
▁邮电业	-5691
▁都是港	-5692
▁重要的	-5693
▁钱十分	-5694
▁银行和	-5695
▁银行处	-5696
▁银行是	-5697
▁银行还	-5698
▁锲而不	-5699
▁横下	-5700
▁灌区	-5701
▁珍本	-5702
▁男女	-5703
▁留曲	-5704
▁若要	-5705
▁觉和	-5706
▁谁管	-5707
▁辆车	-5708
为对于	-5709
乡镇企	-5710
人员达	-5711
人物创	-5712
亿人口	-5713
全市查	-5714
出人员	-5715
出的这	-5716
利首都	-5717
到全市	-5718
制人口	-5719
历史与	-5720
历史典	-5721
历史真	-5722
各乡镇	-5723
囊人物	-5724
家乡镇	-5725
导出的	-5726
干乡镇	-5727
开放结	-5728
开放近	-5729
持开馆	-5730
推出的	-5731
提前近	-5732
政治家	-5733
数基础	-5734
有关推	-5735
的人物	-5736
色的彩	-5737
▁助全市	-5738
▁启人的	-5739
▁囊人物	-5740
▁回归半	-5741
▁府要求	-5742
▁当家水	-5743
▁手工程	-5744
▁术人员	-5745
▁束两岸	-5746
▁率高达	-5747
▁男女老	-5748
▁留曲目	-5749
▁略人物	-5750
▁突出的	-5751
▁给全市	-5752
▁若要叫	-5753
▁觉和印	-5754
▁辆车上	-5755
▁这一消	-5756
▁门中学	-5757
▁队展示	-5758
▁队的火	-5759
▁陆机是	-5760
▁险家都	-5761
▁障道路	-5762
▁雅乐伴	-5763
▁雷达管	-5764
▁露出来	-5765
▁非两国	-5766
▁靠的是	-5767
▁顶着寒	-5768
▁项优惠	-5769
▁项目的	-5770
▁顺利收	-5771
▁领导班	-5772
▁首都千	-5773
▁黄河腹	-5774
▁黎人有	-5775
▁齐资金	-5776
▁龙江省	-5777
▁龚自珍	-5778
一个节目	-5779
一九九八	-5780
一家证券	-5781
一日发表	-5782
一日完成	-5783
七扶贫攻	-5784
万名群众	-5785
上了自谋	-5786
下情况不	-5787
下步入宽	-5788
与个人性	-5789
两个组织	-5790
两家乡镇	-5791
中了这一	-5792
中国书画	-5793
中国人的	-5794
中国国务	-5795
中国的军	-5796
中国的宏	-5797
中国美术	-5798
中央气象	-5799
115	-5800
914	-5801
▁伊朗	-5802
▁伍士	-5803
▁伍绍	-5804
▁停机	-5805
▁叶利	-5806
▁墨运	-5807
▁声中	-5808
▁失正	-5809
▁失良	-5810
▁宾朋	-5811
▁尊严	-5812
▁尤以	-5813
▁尤其	-5814
▁左图	-5815
▁援救	-5816
▁既有	-5817
▁映成	-5818
▁木刻	-5819
▁瓦西	-5820
▁脸丰	-5821
▁预言	-5822
们表示	-5823
原生态	-5824
地方是	-5825
拆状况	-5826
有的小	-5827
有的被	-5828
村干部	-5829
查报告	-5830
的自身	-5831
表示热	-5832
▁伍士兵	-5833
▁伍绍祖	-5834
▁供了大	-5835
▁停机坪	-5836
▁叶利钦	-5837
▁唱出了	-5838
▁墨运用	-5839
▁失正确	-5840
▁失良机	-5841
▁宾朋惊	-5842
▁尊严的	-5843
▁尤以画	-5844
▁尤其是	-5845
▁岸间接	-5846
▁左图右	-5847
▁广生态	-5848
▁所有的	-5849
▁拆状况	-5850
▁援救睦	-5851
▁旅游业	-5852
▁既有对	-5853
▁映成辉	-5854
▁春的心	-5855
▁歧异不	-5856
▁活动中	-5857
▁活方面	-5858
▁版社对	-5859
▁版社新	-5860
▁瓦西姆	-5861
▁目前费	-5862
▁第一路	-5863
▁织和引	-5864
▁经济和	-5865
▁阳光明	-5866
▁音乐的	-5867
为中国历	-5868
为各国提	-5869
为对于史	-5870
主席万国	-5871
主持开馆	-5872
之外的奇	-5873
九年十二	-5874
也一路下	-5875
了一面旗	-5876
了农民收	-5877
了总统就	-5878
了这一激	-5879
了香港特	-5880
争的准备	-5881
事务的官	-5882
于一九六	-5883
于以色列	-5884
于稳定状	-5885
于香港回	-5886
交给国防	-5887
人们来说	-5888
人们的最	-5889
人士的支	-5890
人民军队	-5891
人生窗牖	-5892
今天纷纷	-5893
从长城脚	-5894
他们的研	-5895
他们过去	-5896
以及两岸	-5897
以及口岸	-5898
以巴农副	-5899
118	-5900
156	-5901
▁峰每	-5902
▁或十	-5903
▁抵达	-5904
▁晚上	-5905
▁梁之	-5906
▁梁地	-5907
▁爆竹	-5908
▁爸的	-5909
▁破船	-5910
▁策富	-5911
▁策的	-5912
▁胡继	-5913
▁莫不	-5914
▁莫如	-5915
▁莫迪	-5916
▁财长	-5917
▁需感	-5918
之路打	-5919
元旦狂	-5920
出了巨	-5921
出了联	-5922
区交通	-5923
史方面	-5924
同时也	-5925
同时表	-5926
处交通	-5927
建交表	-5928
成为维	-5929
新的节	-5930
新的阵	-5931
方面则	-5932
的学者	-5933
▁仓库低	-5934
▁伟大的	-5935
▁全新的	-5936
▁堵塞缓	-5937
▁已成为	-5938
▁庆元旦	-5939
▁或十年	-5940
▁扶贫攻	-5941
▁抵达家	-5942
▁方就有	-5943
▁村成为	-5944
▁梁之材	-5945
▁梁人民	-5946
▁梁地委	-5947
▁爸的足	-5948
▁穷则思	-5949
▁策富起	-5950
▁胡继鸿	-5951
▁莫不为	-5952
▁莫迪凯	-5953
▁视农村	-5954
▁选出了	-5955
▁逐渐成	-5956
▁需感受	-5957
一个新的	-5958
以进一步	-5959
价格便宜	-5960
众理之所	-5961
会上演奏	-5962
估计的严	-5963
似路人相	-5964
但在一些	-5965
体有近似	-5966
作为生态	-5967
依法优惠	-5968
依然保持	-5969
保证航班	-5970
信念与倔	-5971
信息公司	-5972
光的名字	-5973
克服金融	-5974
党的好干	-5975
全市乡镇	-5976
全年入境	-5977
全新的阵	-5978
全民动员	-5979
全部建立	-5980
八个国家	-5981
公路项目	-5982
六色的风	-5983
关心国防	-5984
兴国战略	-5985
具现代园	-5986
军进行曲	-5987
农副产品	-5988
农村市场	-5989
出来一下	-5990
出版书画	-5991
分之一的	-5992
分步实施	-5993
创作队伍	-5994
利益是根	-5995
利首都维	-5996
到一位数	-5997
到后过渡	-5998
制为目标	-5999
112	-6000
▁且规	-6001
▁习惯	-6002
▁互贺	-6003
▁亲们	-6004
▁仅有	-6005
▁伤后	-6006
▁住热	-6007
▁住进	-6008
▁判并	-6009
▁刻哲	-6010
▁刻都	-6011
▁厅将	-6012
▁厅欣	-6013
▁厅里	-6014
▁哈蒂	-6015
▁备和	-6016
▁层互	-6017
▁层大	-6018
▁底子	-6019
▁底色	-6020
▁康的	-6021
▁忘了	-6022
▁怎么	-6023
▁懈怠	-6024
▁束俘	-6025
▁请求	-6026
三结合	-6027
不直接	-6028
到了图	-6029
到了离	-6030
售收入	-6031
大使之	-6032
对于青	-6033
就这个	-6034
年来对	-6035
年来每	-6036
年的年	-6037
心的党	-6038
怀祖国	-6039
总收入	-6040
总统府	-6041
总统扎	-6042
总统金	-6043
我国南	-6044
收入超	-6045
特总统	-6046
献资金	-6047
环境协	-6048
理的被	-6049
的形式	-6050
着祖国	-6051
祖国的	-6052
结合为	-6053
结合考	-6054
这个企	-6055
1127	-6056
▁一年来	-6057
▁亲们干	-6058
▁伤后不	-6059
▁住热泪	-6060
▁住进上	-6061
▁刻哲理	-6062
▁刻都在	-6063
▁厅将于	-6064
▁厅欣赏	-6065
▁叙自己	-6066
▁售收入	-6067
▁多年来	-6068
▁层互访	-6069
▁层大花	-6070
▁底开始	-6071
▁底色和	-6072
▁康建设	-6073
▁引资金	-6074
▁归祖国	-6075
▁影响的	-6076
▁怎么抓	-6077
▁性和创	-6078
▁旧币通	-6079
▁束俘获	-6080
▁真情难	-6081
▁请求上	-6082
共同奋斗	-6083
制建设和	-6084
剥弃的松	-6085
加强民主	-6086
加现行的	-6087
劲的发展	-6088
化和区域	-6089
化的进程	-6090
十大国际	-6091
华人华侨	-6092
华大使夫	-6093
华大使带	-6094
华的大厅	-6095
协会金色	-6096
南京市科	-6097
即将来临	-6098
厂总人数	-6099
▁夏的	-6100
▁密而	-6101
▁尔滨	-6102
▁排上	-6103
▁排近	-6104
▁查到	-6105
▁汇储	-6106
▁汇居	-6107
▁汇报	-6108
▁火烧	-6109
▁独立	-6110
▁玉明	-6111
▁玉茭	-6112
▁登东	-6113
▁眼界	-6114
▁究的	-6115
▁荒山	-6116
▁荒机	-6117
▁荒草	-6118
▁超额	-6119
▁速路	-6120
▁陈俊	-6121
▁陈国	-6122
▁陈维	-6123
一些动	-6124
事业处	-6125
产业的	-6126
作为东	-6127
作为夜	-6128
作为美	-6129
使一些	-6130
全部冲	-6131
全部撤	-6132
全部达	-6133
创作演	-6134
和利税	-6135
在一些	-6136
尽快送	-6137
用事业	-6138
而一些	-6139
重武器	-6140
▁受公司	-6141
▁吸收某	-6142
▁密而得	-6143
▁导产业	-6144
▁尔滨的	-6145
▁急剧恶	-6146
▁性创作	-6147
▁排近地	-6148
▁旦不同	-6149
▁汇储备	-6150
▁登东方	-6151
▁眼界顿	-6152
▁着现实	-6153
▁究的狭	-6154
▁竖起鸣	-6155
▁荒机械	-6156
▁设事业	-6157
▁超额完	-6158
▁陈俊生	-6159
▁陈国琦	-6160
▁陈维伟	-6161
一些动人	-6162
一些国家	-6163
了一个伟	-6164
产业的兴	-6165
亭全部撤	-6166
作为水利	-6167
使一些艺	-6168
全部冲毁	-6169
厉的时候	-6170
县进行了	-6171
又有对当	-6172
发动各界	-6173
发展和社	-6174
发展形势	-6175
发展战略	-6176
发展水平	-6177
发表社论	-6178
取得新的	-6179
只提前几	-6180
可稳定汇	-6181
各种实际	-6182
各类文物	-6183
合作的重	-6184
同其他各	-6185
同时也拉	-6186
名的国家	-6187
后年产值	-6188
员时刻牢	-6189
和完成艰	-6190
和平解放	-6191
和无党派	-6192
四周的卫	-6193
回到北京	-6194
国务院秘	-6195
国家主干	-6196
国民经济	-6197
国经济增	-6198
国防部宣	-6199
▁丝都	-6200
▁乎情	-6201
▁仍为	-6202
▁仍在	-6203
▁仍将	-6204
▁仍然	-6205
▁低了	-6206
▁剧院	-6207
▁助总	-6208
▁医典	-6209
▁即从	-6210
▁即响	-6211
▁响了	-6212
▁响的	-6213
▁筑路	-6214
▁角度	-6215
下短短	-6216
于市场	-6217
但气温	-6218
共同参	-6219
共同承	-6220
关心集	-6221
发市场	-6222
发表了	-6223
地区时	-6224
地区的	-6225
对美元	-6226
文化科	-6227
文化遗	-6228
正理解	-6229
的重庆	-6230
社会稳	-6231
第一笔	-6232
菜市场	-6233
起各界	-6234
近地区	-6235
销市场	-6236
3000	-6237
▁专家和	-6238
▁丝都湖	-6239
▁举行的	-6240
▁仍为阴	-6241
▁仍将以	-6242
▁仍然是	-6243
▁俄第一	-6244
▁助社会	-6245
▁北地区	-6246
▁卢布与	-6247
▁卢布数	-6248
▁卢布等	-6249
▁即从众	-6250
▁境重庆	-6251
▁处第一	-6252
▁悦地滴	-6253
▁正是由	-6254
▁灵世界	-6255
▁筑路奇	-6256
▁籍第一	-6257
▁范作用	-6258
▁角度不	-6259
今天上午	-6260
但气温较	-6261
发菜市场	-6262
台地区的	-6263
国防部证	-6264
图谱先河	-6265
在中国人	-6266
在中国美	-6267
在以色列	-6268
在南非广	-6269
在此迎接	-6270
在这里宣	-6271
地区时题	-6272
地文化的	-6273
城的天空	-6274
基地授牌	-6275
基进行曲	-6276
处交通违	-6277
多年来对	-6278
多的笑声	-6279
大业将稳	-6280
大军已经	-6281
大家祝愿	-6282
大的资源	-6283
大陆改革	-6284
大高等级	-6285
好的有利	-6286
学生们便	-6287
学的对象	-6288
它的自身	-6289
安全利益	-6290
安全起降	-6291
实的基础	-6292
家们的气	-6293
家庭代表	-6294
家庭利益	-6295
家没有偏	-6296
家的作品	-6297
家的风采	-6298
对中国历	-6299
▁份施	-6300
▁卷本	-6301
▁客户	-6302
▁容之	-6303
▁容地	-6304
▁容是	-6305
▁案头	-6306
▁潮难	-6307
▁粮县	-6308
▁购买	-6309
▁购进	-6310
▁贷承	-6311
▁述于	-6312
▁述人	-6313
▁阿布	-6314
▁阿里	-6315
▁鱼等	-6316
一开始	-6317
为广州	-6318
为文学	-6319
了人们	-6320
人们眼	-6321
伟报道	-6322
作为山	-6323
多一些	-6324
实文学	-6325
实现再	-6326
实现综	-6327
巨大给	-6328
开会议	-6329
开始将	-6330
文文学	-6331
科报道	-6332
足文学	-6333
鹏报道	-6334
▁健康的	-6335
▁卷本川	-6336
▁容之余	-6337
▁容地兑	-6338
▁导作用	-6339
▁布开始	-6340
▁希望用	-6341
▁循环轨	-6342
▁本实现	-6343
▁潮难平	-6344
▁率作用	-6345
▁看好的	-6346
▁真的能	-6347
▁积极性	-6348
▁积极而	-6349
▁简直能	-6350
▁群众过	-6351
▁而展开	-6352
▁购买户	-6353
▁贷承还	-6354
▁述人事	-6355
▁阿布扎	-6356
为文学献	-6357
了人们的	-6358
对使用了	-6359
将在重庆	-6360
小到一件	-6361
尔斯大街	-6362
就在我们	-6363
就是一例	-6364
尼拉能见	-6365
尽是那绿	-6366
展作者将	-6367
展在京举	-6368
山县象角	-6369
山来到大	-6370
山高等级	-6371
工作人员	-6372
工作的考	-6373
工作纪实	-6374
巨额外汇	-6375
已被四周	-6376
带领下治	-6377
带领新航	-6378
平均下降	-6379
平的原则	-6380
年的年平	-6381
年的经济	-6382
并不合拍	-6383
广大群众	-6384
建设和管	-6385
建设的重	-6386
开创了先	-6387
开始出现	-6388
开始将资	-6389
开放市场	-6390
开放结构	-6391
开放近二	-6392
开来的盛	-6393
式在这里	-6394
形式多样	-6395
形成了适	-6396
往往反映	-6397
得一片灿	-6398
得到了健	-6399
89%	-6400
▁份地	-6401
▁冲者	-6402
▁察那	-6403
▁州和	-6404
▁州市	-6405
▁州等	-6406
▁挥学	-6407
▁斤大	-6408
▁断了	-6409
▁断其	-6410
▁断深	-6411
▁未同	-6412
▁未接	-6413
▁未曾	-6414
▁材不	-6415
▁材于	-6416
▁材的	-6417
▁河水	-6418
▁河边	-6419
▁注的	-6420
▁游人	-6421
▁烈感	-6422
▁照四	-6423
▁网等	-6424
▁若到	-6425
▁著的	-6426
▁让人	-6427
▁评为	-6428
▁评分	-6429
▁评选	-6430
▁追溯	-6431
▁郑咏	-6432
▁郑振	-6433
▁随处	-6434
▁随度	-6435
▁雪域	-6436
▁震至	-6437
▁震题	-6438
与社会	-6439
个地方	-6440
为主业	-6441
为主导	-6442
人们诉	-6443
同志为	-6444
市各级	-6445
我建交	-6446
的严峻	-6447
的效果	-6448
▁兼并后	-6449
▁冲者便	-6450
▁坐在一	-6451
▁州等地	-6452
▁志关系	-6453
▁批全国	-6454
▁挥学人	-6455
▁斤大米	-6456
▁断其价	-6457
▁断深化	-6458
▁未曾详	-6459
▁材不必	-6460
▁材于吕	-6461
▁步改善	-6462
▁注的热	-6463
▁游人如	-6464
▁烈感人	-6465
▁照四十	-6466
▁舍大街	-6467
▁若到张	-6468
▁血之作	-6469
▁视为主	-6470
▁评选出	-6471
▁郑振铎	-6472
▁随处可	-6473
▁随度新	-6474
▁雪域高	-6475
▁震至少	-6476
▁震题写	-6477
为主业者	-6478
人民日报	-6479
发了各级	-6480
史籍之处	-6481
同志为核	-6482
向人们诉	-6483
大工业企	-6484
好的新年	-6485
害的严峻	-6486
得到解决	-6487
心地是那	-6488
心的力量	-6489
性的所谓	-6490
总统宣誓	-6491
总统金泳	-6492
恩华的亲	-6493
成为产业	-6494
成为群众	-6495
成功一例	-6496
成员年底	-6497
成果也触	-6498
成长实际	-6499
▁’9	-6500
▁七个	-6501
▁临县	-6502
▁伊兹	-6503
▁侧台	-6504
▁况下	-6505
▁叙述	-6506
▁司垄	-6507
▁察提	-6508
▁幅标	-6509
▁畜牧	-6510
▁蛋鸡	-6511
▁贺年	-6512
▁较快	-6513
▁选择	-6514
▁雄壮	-6515
▁雄强	-6516
个文明	-6517
中华儿	-6518
中华医	-6519
中华总	-6520
中华的	-6521
主席江	-6522
全统一	-6523
农产品	-6524
加强和	-6525
加强警	-6526
北京市	-6527
困难的	-6528
性的剖	-6529
我好像	-6530
文明和	-6531
文明小	-6532
方面的	-6533
生产布	-6534
生产风	-6535
类产品	-6536
▁’97	-6537
▁侧台柱	-6538
▁借以阐	-6539
▁况进行	-6540
▁又统一	-6541
▁变生产	-6542
▁叙述半	-6543
▁古文物	-6544
▁召全国	-6545
▁察提炼	-6546
▁导产品	-6547
▁幅标语	-6548
▁当地报	-6549
▁明通史	-6550
▁神文明	-6551
▁营生产	-6552
▁蛋鸡饲	-6553
▁讯中华	-6554
▁讲文明	-6555
▁贺年卡	-6556
▁雄壮歌	-6557
与生产布	-6558
中华总商	-6559
中华的跨	-6560
全国文明	-6561
加强和规	-6562
北京市第	-6563
和中华医	-6564
和农产品	-6565
困难的挑	-6566
我们对于	-6567
我好像置	-6568
把安全飞	-6569
把房前屋	-6570
把相互支	-6571
持一种更	-6572
持联系汇	-6573
挂起来一	-6574
接受治疗	-6575
接受遣散	-6576
控制人口	-6577
推出的是	-6578
提高会费	-6579
收取水费	-6580
改变过去	-6581
放水时间	-6582
政府保证	-6583
政府有权	-6584
政府武装	-6585
政的规范	-6586
政策下运	-6587
救灾事迹	-6588
散人员达	-6589
文明和丰	-6590
新世纪油	-6591
新华社澳	-6592
新社照片	-6593
方就以军	-6594
方面的消	-6595
族文化遗	-6596
日前通过	-6597
明显下降	-6598
是一大发	-6599
▁具一	-6600
▁印在	-6601
▁印的	-6602
▁印经	-6603
▁号称	-6604
▁夜深	-6605
▁夜马	-6606
▁女性	-6607
▁存之	-6608
▁存在	-6609
▁寒峭	-6610
▁座都	-6611
▁很小	-6612
▁扶桑	-6613
▁承前	-6614
▁抓大	-6615
▁按正	-6616
▁故中	-6617
▁早晨	-6618
▁早期	-6619
▁曾多	-6620
▁构的	-6621
▁模增	-6622
▁泽铣	-6623
▁禁在	-6624
▁禁要	-6625
▁红史	-6626
▁线以	-6627
▁背着	-6628
▁营期	-6629
▁营镇	-6630
▁落进	-6631
▁街头	-6632
▁讯导	-6633
▁讯据	-6634
▁贸易	-6635
▁轻的	-6636
▁采访	-6637
▁针和	-6638
▁针指	-6639
九世纪	-6640
今天的	-6641
体有类	-6642
军人发	-6643
在深圳	-6644
有农副	-6645
活动旨	-6646
活动期	-6647
活动的	-6648
电视塔	-6649
群众投	-6650
胡彩玲	-6651
▁乡群众	-6652
▁具一格	-6653
▁再次获	-6654
▁务活动	-6655
▁印在我	-6656
▁印经院	-6657
▁存之道	-6658
▁存在着	-6659
▁帮助治	-6660
▁座都市	-6661
▁扶桑时	-6662
▁承前启	-6663
▁按正常	-6664
▁故中丧	-6665
▁早期有	-6666
▁曾多次	-6667
▁模增大	-6668
▁由于越	-6669
▁研究所	-6670
▁禁在他	-6671
▁禁要问	-6672
▁线以下	-6673
▁背着妈	-6674
▁营期限	-6675
▁营镇结	-6676
▁落进大	-6677
▁街头经	-6678
▁讯导航	-6679
▁设的好	-6680
▁采访了	-6681
▁针和澳	-6682
了中国农	-6683
京九世纪	-6684
人民政协	-6685
今天的北	-6686
体有类似	-6687
军人发信	-6688
农民群众	-6689
姨胡彩玲	-6690
建有农副	-6691
政府部门	-6692
是一种特	-6693
是世界第	-6694
是个贫困	-6695
是作为东	-6696
是具有独	-6697
更大更坚	-6698
更是一个	-6699
10%	-6700
106	-6701
▁令观	-6702
▁何人	-6703
▁何引	-6704
▁何识	-6705
▁何鲁	-6706
▁依恋	-6707
▁依托	-6708
▁依赖	-6709
▁信业	-6710
▁信心	-6711
▁初现	-6712
▁勒比	-6713
▁半月	-6714
▁半身	-6715
▁园里	-6716
▁境外	-6717
▁奥迪	-6718
▁源财	-6719
▁热烈	-6720
▁热的	-6721
▁热门	-6722
▁称做	-6723
▁称谓	-6724
▁章停	-6725
▁笔讲	-6726
▁胞首	-6727
▁航人	-6728
▁装装	-6729
▁谈会	-6730
▁迎刃	-6731
▁鲜事	-6732
▁鲜半	-6733
▁鲜红	-6734
▁鲜花	-6735
、10	-6736
其重要	-6737
国际招	-6738
定了有	-6739
而主张	-6740
▁令观者	-6741
▁何人无	-6742
▁何引导	-6743
▁何识别	-6744
▁何鲁丽	-6745
▁信心源	-6746
▁勒比和	-6747
▁半身探	-6748
▁园里到	-6749
▁境外客	-6750
▁源财团	-6751
▁热烈的	-6752
▁热的年	-6753
▁热门话	-6754
▁祖国和	-6755
▁种新的	-6756
▁章停车	-6757
▁笔讲究	-6758
▁胞首次	-6759
▁航人人	-6760
▁装装样	-6761
▁迎新年	-6762
▁速稳定	-6763
▁鲜半岛	-6764
▁鲜红色	-6765
全市建立	-6766
定了有限	-6767
得到了第	-6768
整治工程	-6769
最高水平	-6770
月十五快	-6771
月回到祖	-6772
有人在评	-6773
有关改革	-6774
有如此密	-6775
服务与随	-6776
本国经济	-6777
本是两千	-6778
村村民为	-6779
来了小客	-6780
来到双泾	-6781
来是广西	-6782
植业为主	-6783
次出现增	-6784
步入人口	-6785
民情民意	-6786
民族英雄	-6787
民的家园	-6788
民的意念	-6789
江省及湖	-6790
活动的场	-6791
活动的序	-6792
涯的起始	-6793
物质遗存	-6794
特别是邓	-6795
献资金支	-6796
率先消灭	-6797
玩的好去	-6798
生不忘童	-6799
▁价和	-6800
▁价的	-6801
▁八年	-6802
▁刘志	-6803
▁刘振	-6804
▁刘明	-6805
▁包的	-6806
▁商会	-6807
▁域有	-6808
▁域概	-6809
▁捐衣	-6810
▁故土	-6811
▁昭示	-6812
▁添了	-6813
▁福在	-6814
▁阿联	-6815
了一份	-6816
农民仅	-6817
农民真	-6818
农民自	-6819
农民艺	-6820
出版了	-6821
年出版	-6822
意组织	-6823
水利化	-6824
水平低	-6825
的出版	-6826
近几年	-6827
这种愿	-6828
问题上	-6829
▁些问题	-6830
▁价和边	-6831
▁兵组织	-6832
▁刘志丹	-6833
▁刘振英	-6834
▁包的饺	-6835
▁卫生部	-6836
▁命家和	-6837
▁域概念	-6838
▁捐衣捐	-6839
▁流影响	-6840
▁福在天	-6841
▁立水利	-6842
▁键的安	-6843
▁阿联酋	-6844
▁零下数	-6845
农民自筹	-6846
出版了他	-6847
国家的好	-6848
新年期间	-6849
机的出版	-6850
村农民艺	-6851
注意组织	-6852
生产风险	-6853
生意接踵	-6854
生活困难	-6855
生活方式	-6856
生活着许	-6857
生活精神	-6858
生活问题	-6859
用多少付	-6860
用水谁付	-6861
由中国油	-6862
电能力已	-6863
百元之间	-6864
的一个场	-6865
的一些篇	-6866
的一幅幅	-6867
的中华儿	-6868
的中国画	-6869
的中学女	-6870
的主人不	-6871
的主要措	-6872
的到来和	-6873
的南部山	-6874
的历史书	-6875
的历史巨	-6876
的发展与	-6877
的发展态	-6878
的名人专	-6879
的和平统	-6880
的商品房	-6881
的商品流	-6882
的大地震	-6883
的存款额	-6884
的实际紧	-6885
的工作都	-6886
的形式保	-6887
的投资份	-6888
的文化科	-6889
的文献传	-6890
的时间使	-6891
的是山羊	-6892
的最新数	-6893
的第一条	-6894
的重庆带	-6895
目前两岸	-6896
相对平静	-6897
真正理解	-6898
着祖国灿	-6899
▁供机	-6900
▁供的	-6901
▁兼具	-6902
▁减灾	-6903
▁减轻	-6904
▁卡比	-6905
▁卡翁	-6906
▁告或	-6907
▁告重	-6908
▁周六	-6909
▁周锡	-6910
▁善于	-6911
▁套特	-6912
▁套输	-6913
▁孙子	-6914
▁岭攀	-6915
▁录美	-6916
▁必先	-6917
▁标中	-6918
▁残疾	-6919
▁洞箫	-6920
▁满怀	-6921
▁满水	-6922
▁瘫痪	-6923
▁编纂	-6924
▁编者	-6925
▁罗干	-6926
▁罗昌	-6927
▁罗织	-6928
▁脱了	-6929
▁警示	-6930
▁谋划	-6931
▁谋计	-6932
▁镇以	-6933
▁风东	-6934
▁马斯	-6935
▁马普	-6936
▁马那	-6937
▁龙不	-6938
▁龙舞	-6939
为自己	-6940
了一大	-6941
了一曲	-6942
了一种	-6943
和兄弟	-6944
猪提供	-6945
的国歌	-6946
进了两	-6947
▁供机会	-6948
▁供的数	-6949
▁兼具觉	-6950
▁写了一	-6951
▁办了一	-6952
▁卡比拉	-6953
▁告或讲	-6954
▁告重申	-6955
▁周六和	-6956
▁商的重	-6957
▁善于把	-6958
▁套特制	-6959
▁套输入	-6960
▁孙子兵	-6961
▁必先亡	-6962
▁村干部	-6963
▁残疾人	-6964
▁洞箫横	-6965
▁满怀信	-6966
▁编者广	-6967
▁罗干说	-6968
▁罗昌爱	-6969
▁罗织了	-6970
▁谋划策	-6971
▁谋计纷	-6972
▁陆机在	-6973
▁风东渐	-6974
▁马普托	-6975
▁马那瓜	-6976
了一大步	-6977
仔猪提供	-6978
出版社郑	-6979
子和兄弟	-6980
总人数逾	-6981
文化的眼	-6982
有了一种	-6983
的国歌声	-6984
社会政治	-6985
社情民意	-6986
祖国之际	-6987
祥的问候	-6988
等的地位	-6989
箱的鲜花	-6990
终于被他	-6991
经历讲述	-6992
经济区域	-6993
经济和社	-6994
经济情况	-6995
结合为特	-6996
给主题性	-6997
给新的节	-6998
统一发放	-6999
24.	-7000
▁兵盛	-7001
▁养的	-7002
▁午飞	-7003
▁却在	-7004
▁却很	-7005
▁却未	-7006
▁围内	-7007
▁岁钱	-7008
▁庭在	-7009
▁庭的	-7010
▁往对	-7011
▁接受	-7012
▁接过	-7013
▁格套	-7014
▁球把	-7015
▁略与	-7016
▁籍是	-7017
▁籍等	-7018
▁胡绳	-7019
▁获益	-7020
▁见就	-7021
▁警严	-7022
以改革	-7023
对文化	-7024
报记者	-7025
拦而不	-7026
明这一	-7027
记者林	-7028
记者果	-7029
记者潘	-7030
记者约	-7031
这一切	-7032
这一措	-7033
这一方	-7034
难以言	-7035
▁亚建设	-7036
▁他开始	-7037
▁午飞抵	-7038
▁却很少	-7039
▁却未止	-7040
▁垦区累	-7041
▁庭的响	-7042
▁庭进行	-7043
▁拦而不	-7044
▁球把各	-7045
▁球经济	-7046
▁获益颇	-7047
▁见就爱	-7048
▁警严格	-7049
▁过这一	-7050
同意向韩	-7051
国记者果	-7052
在这一方	-7053
报记者黄	-7054
明这一论	-7055
美国和意	-7056
美好的东	-7057
美好的明	-7058
美德的教	-7059
群众认识	-7060
老区办起	-7061
而一些冷	-7062
而努力奋	-7063
联合国宪	-7064
胁终于驱	-7065
能导出的	-7066
脱贫致富	-7067
自一日起	-7068
自发地聚	-7069
臾不可淡	-7070
色的人们	-7071
节日管弦	-7072
行到全市	-7073
行的先进	-7074
表示相信	-7075
要投资亿	-7076
要目的不	-7077
见其用笔	-7078
解决好可	-7079
认为给她	-7080
记者林皎	-7081
评为精神	-7082
请了部分	-7083
调整和科	-7084
资产委托	-7085
起的作用	-7086
践中创造	-7087
辟就业渠	-7088
迄今为止	-7089
过的最光	-7090
近年来每	-7091
这个时期	-7092
这样一路	-7093
这样的带	-7094
这种缺憾	-7095
进一步交	-7096
进程日益	-7097
进行了二	-7098
进行了讲	-7099
▁专致	-7100
▁专题	-7101
▁久的	-7102
▁亩地	-7103
▁亩耕	-7104
▁副委	-7105
▁台用	-7106
▁奇迹	-7107
▁尔目	-7108
▁拉克	-7109
▁春意	-7110
▁春来	-7111
▁春步	-7112
▁权利	-7113
▁权归	-7114
▁构严	-7115
▁武警	-7116
▁沈震	-7117
▁没开	-7118
▁满足	-7119
▁火的	-7120
▁献辞	-7121
▁百六	-7122
▁百分	-7123
▁百强	-7124
▁素质	-7125
▁罚尾	-7126
▁融对	-7127
▁融风	-7128
▁该刊	-7129
▁该局	-7130
▁该展	-7131
▁质量	-7132
世界上	-7133
世界奇	-7134
为两岸	-7135
了我们	-7136
制改革	-7137
大地银	-7138
对世界	-7139
我们带	-7140
的一大	-7141
的一次	-7142
的一股	-7143
的一面	-7144
▁专致精	-7145
▁亦在此	-7146
▁亩地诞	-7147
▁亩耕地	-7148
▁具有相	-7149
▁列农业	-7150
▁县改革	-7151
▁台用不	-7152
▁奇迹的	-7153
▁尔目录	-7154
▁拉克与	-7155
▁施改革	-7156
▁春来早	-7157
▁春步步	-7158
▁构严谨	-7159
▁永远从	-7160
▁沈震林	-7161
▁没开口	-7162
▁满足以	-7163
▁火的斗	-7164
▁百六十	-7165
▁百分点	-7166
▁素质中	-7167
▁融对策	-7168
▁融风波	-7169
▁观世界	-7170
▁该刊创	-7171
▁该局管	-7172
▁质量的	-7173
世界上也	-7174
中的一股	-7175
了我们对	-7176
体制改革	-7177
提前近半	-7178
机长张启	-7179
的一大特	-7180
的基本依	-7181
给我们带	-7182
进行改革	-7183
进行气温	-7184
进行谈判	-7185
远的西欧	-7186
通过群众	-7187
部决定从	-7188
部还是西	-7189
都是比较	-7190
里有自己	-7191
里来到华	-7192
重地接过	-7193
量地接纳	-7194
针织制衣	-7195
问题的形	-7196
问题的论	-7197
际的天空	-7198
随着严重	-7199
▁仍处	-7200
▁身影	-7201
▁身的	-7202
▁转化	-7203
▁转而	-7204
▁转轨	-7205
▁运行	-7206
▁银花	-7207
▁铺盖	-7208
▁键是	-7209
▁防汛	-7210
▁防风	-7211
为他们	-7212
他们于	-7213
他们代	-7214
他们各	-7215
他们多	-7216
他们安	-7217
他们造	-7218
他们面	-7219
企业兼	-7220
企业职	-7221
使他们	-7222
再建设	-7223
我们去	-7224
我们齐	-7225
的建设	-7226
着日益	-7227
社会上	-7228
集体兴	-7229
▁仍处于	-7230
▁办企业	-7231
▁匠心的	-7232
▁团结一	-7233
▁困企业	-7234
▁理企业	-7235
▁贫企业	-7236
▁身的英	-7237
▁转而积	-7238
▁银花不	-7239
▁铺盖卷	-7240
▁键是从	-7241
为他们率	-7242
了我国社	-7243
他们代客	-7244
他们多分	-7245
他们安居	-7246
使他们具	-7247
再建设滚	-7248
村集体兴	-7249
社会上许	-7250
说我们去	-7251
集体小型	-7252
集村民开	-7253
雕构成了	-7254
面上反映	-7255
音乐会由	-7256
音乐的伴	-7257
香各地群	-7258
香港回归	-7259
馨和审美	-7260
高产高效	-7261
龄青年履	-7262
(1998	-7263
—1998	-7264
▁1976	-7265
▁5000	-7266
▁58.1	-7267
▁5、10	-7268
▁7000	-7269
▁七个人物	-7270
▁七年世界	-7271
▁万加元的	-7272
▁三十部已	-7273
▁三次以上	-7274
▁专以文物	-7275
▁且每年投	-7276
▁丛书的隆	-7277
▁东部和长	-7278
▁严重得多	-7279
▁中国政府	-7280
▁临的一个	-7281
▁临的经济	-7282
▁举行活动	-7283
▁乎情贵乎	-7284
▁乏成功之	-7285
▁也正是靠	-7286
▁也纳社会	-7287
▁乡已拥有	-7288
▁予以救助	-7289
▁互致问候	-7290
▁互贺新年	-7291
▁亚建设银	-7292
▁些地方是	-7293
▁产业开发	-7294
▁亩均收入	-7295
▁亭全部撤	-7296
▁亿元人民	-7297
▁仍处于警	-7298
▁从他们各	-7299
▁任到	-7300
▁众听	-7301
▁众益	-7302
▁俄宣	-7303
▁光去	-7304
▁光大	-7305
▁切关	-7306
▁切配	-7307
▁口的	-7308
▁口要	-7309
▁因为	-7310
▁士学	-7311
▁它促	-7312
▁它原	-7313
▁富强	-7314
▁帮扶	-7315
▁态县	-7316
▁态村	-7317
▁景下	-7318
▁景文	-7319
▁景的	-7320
▁热气	-7321
▁胆的	-7322
▁花小	-7323
▁花江	-7324
▁花献	-7325
▁观感	-7326
▁观点	-7327
▁认识	-7328
▁载起	-7329
▁防治	-7330
一时生	-7331
同计划	-7332
在计划	-7333
把计划	-7334
有方法	-7335
生活在	-7336
生活安	-7337
生活的	-7338
的车辆	-7339
糊认识	-7340
统一战	-7341
行计划	-7342
▁任到人	-7343
▁众发展	-7344
▁众益处	-7345
▁俄宣布	-7346
▁俄经济	-7347
▁光农业	-7348
▁光去看	-7349
▁光大道	-7350
▁切关怀	-7351
▁切配合	-7352
▁口要下	-7353
▁士学位	-7354
▁效农业	-7355
▁景文送	-7356
▁景的细	-7357
▁热气的	-7358
▁糊认识	-7359
▁胆的尝	-7360
▁花小钱	-7361
▁花江上	-7362
▁花献给	-7363
▁观点看	-7364
▁认识的	-7365
▁载起飞	-7366
▁镇过去	-7367
▁马尼拉	-7368
一时生姜	-7369
个人问题	-7370
人民生活	-7371
件同计划	-7372
推行计划	-7373
正在计划	-7374
生活在异	-7375
生活的启	-7376
的国家级	-7377
经济困难	-7378
统一战线	-7379
计划生育	-7380
▁从当时的	-7381
▁从自发到	-7382
▁他们广泛	-7383
▁令观者赞	-7384
▁件的起因	-7385
▁价和边演	-7386
▁企业第一	-7387
▁伍士兵中	-7388
▁众益处良	-7389
▁优先保证	-7390
▁伙子认识	-7391
▁伤后不治	-7392
▁似路人相	-7393
▁但原有的	-7394
▁但同上年	-7395
▁位于武陟	-7396
▁位多元外	-7397
▁位青年都	-7398
▁住地的青	-7399
▁反应	-7400
▁备的	-7401
▁头人	-7402
▁头捐	-7403
▁头村	-7404
▁头请	-7405
▁存负	-7406
▁快上	-7407
▁才名	-7408
▁才学	-7409
▁才把	-7410
▁才知	-7411
▁教子	-7412
▁易就	-7413
▁极一	-7414
▁歌舞	-7415
▁求变	-7416
▁求得	-7417
▁真心	-7418
▁织在	-7419
▁织等	-7420
▁缺少	-7421
▁规划	-7422
▁规定	-7423
▁费已	-7424
▁钢架	-7425
▁频频	-7426
▁飞向	-7427
▁飞行	-7428
▁飞越	-7429
▁飞通	-7430
个国家	-7431
华南北	-7432
国家的	-7433
国家税	-7434
国家经	-7435
日通过	-7436
的设施	-7437
管事业	-7438
▁些国家	-7439
▁头捐款	-7440
▁头政府	-7441
▁头村由	-7442
▁存负责	-7443
▁快上马	-7444
▁才名将	-7445
▁才知道	-7446
▁教子的	-7447
▁数国家	-7448
▁易就能	-7449
▁有时候	-7450
▁歌舞升	-7451
▁求变求	-7452
▁求得答	-7453
▁真心实	-7454
▁织在时	-7455
▁缺少考	-7456
▁论国家	-7457
▁费已由	-7458
▁钢架砖	-7459
▁频频面	-7460
▁飞越高	-7461
中国通史	-7462
国家的改	-7463
已成为维	-7464
年的到来	-7465
建交后两	-7466
是一位杰	-7467
琅的关系	-7468
的设施无	-7469
管事业又	-7470
缴国家税	-7471
近日通过	-7472
▁专门力量	-7473
▁何人无权	-7474
▁何找准切	-7475
▁佩特火山	-7476
▁供了前所	-7477
▁侨是一个	-7478
▁促成了农	-7479
▁俄宣布停	-7480
▁俄第一次	-7481
▁俄经济走	-7482
▁俊出席了	-7483
▁信心源泉	-7484
▁信息公司	-7485
▁信教育救	-7486
▁修筑本镇	-7487
▁倍的新卢	-7488
▁倡议全镇	-7489
▁值不会像	-7490
▁值得纪念	-7491
▁做起来次	-7492
▁允许外国	-7493
▁允许继承	-7494
▁充分发挥	-7495
▁先不敢贸	-7496
▁先生教导	-7497
▁光明日报	-7498
▁党和国家	-7499
▁乌鲁	-7500
▁兴修	-7501
▁兴县	-7502
▁兴的	-7503
▁兴致	-7504
▁办了	-7505
▁千万	-7506
▁千个	-7507
▁千里	-7508
▁反对	-7509
▁命脉	-7510
▁命运	-7511
▁均数	-7512
▁复苏	-7513
▁完善	-7514
▁己放	-7515
▁常化	-7516
▁常常	-7517
▁才等	-7518
▁旦的	-7519
▁李长	-7520
▁梅花	-7521
▁王光	-7522
▁王学	-7523
▁王宫	-7524
▁王新	-7525
▁王长	-7526
▁看望	-7527
▁纵死	-7528
▁脑静	-7529
▁该项	-7530
创作了	-7531
工作不	-7532
译工作	-7533
这个悲	-7534
进行卢	-7535
进行部	-7536
▁乌鲁木	-7537
▁兴县等	-7538
▁兴的喜	-7539
▁兴致勃	-7540
▁力工作	-7541
▁千个摊	-7542
▁反对强	-7543
▁复苏轨	-7544
▁完善再	-7545
▁己放弃	-7546
▁常常要	-7547
▁控制在	-7548
▁旦的受	-7549
▁李长春	-7550
▁版工作	-7551
▁王光英	-7552
▁王学贤	-7553
▁王新庆	-7554
▁王长山	-7555
▁看望和	-7556
▁等工作	-7557
▁纵死终	-7558
▁脑静静	-7559
▁视台和	-7560
▁译工作	-7561
▁该项补	-7562
▁门工作	-7563
▁项工作	-7564
了美国的	-7565
了这个悲	-7566
作出自己	-7567
创作了许	-7568
在各地确	-7569
工作不松	-7570
▁供了新的	-7571
▁入活动期	-7572
▁公用事业	-7573
▁共发生了	-7574
▁共同前进	-7575
▁兴修水利	-7576
▁兴县等许	-7577
▁兴的喜事	-7578
▁兴致勃勃	-7579
▁兵书既是	-7580
▁典型代表	-7581
▁典型形象	-7582
▁养量分别	-7583
▁养量短短	-7584
▁再次表明	-7585
▁写了一本	-7586
▁军出版社	-7587
▁决了实际	-7588
▁况引起了	-7589
▁减少贫困	-7590
▁减灾中心	-7591
▁减轻农民	-7592
▁几年前就	-7593
▁几年时间	-7594
▁几手本领	-7595
▁刊登新年	-7596
▁列农业部	-7597
▁列音乐会	-7598
▁则多达八	-7599
▁%。	-7600
▁丁关	-7601
▁争与	-7602
▁势和	-7603
▁势头	-7604
▁势跃	-7605
▁回应	-7606
▁她忠	-7607
▁她那	-7608
▁巴黎	-7609
▁币将	-7610
▁币形	-7611
▁带回	-7612
▁德与	-7613
▁德想	-7614
▁德给	-7615
▁愿澳	-7616
▁愿这	-7617
▁手奠	-7618
▁手张	-7619
▁比克	-7620
▁比前	-7621
▁比在	-7622
▁清剿	-7623
▁清晨	-7624
▁祝愿	-7625
▁空中	-7626
▁纪元	-7627
▁腐败	-7628
▁连同	-7629
▁连接	-7630
与计划	-7631
先进的	-7632
到困难	-7633
县政府	-7634
年人真	-7635
把政府	-7636
政府去	-7637
着军装	-7638
离退休	-7639
2312	-7640
▁丁关根	-7641
▁入使用	-7642
▁别发表	-7643
▁势跃然	-7644
▁勃勃景	-7645
▁她忠于	-7646
▁她那无	-7647
▁币将在	-7648
▁币形态	-7649
▁带回的	-7650
▁德想不	-7651
▁愿澳门	-7652
▁愿这声	-7653
▁手张爱	-7654
▁比在阔	-7655
▁空中雷	-7656
先进的航	-7657
就与计划	-7658
把政府奖	-7659
老年人真	-7660
▁他开始盘	-7661
▁刚刚加入	-7662
▁刚到部队	-7663
▁初中版三	-7664
▁初中版隔	-7665
▁判并达成	-7666
▁判的庄严	-7667
▁利亚开馆	-7668
▁别较上年	-7669
▁到中国在	-7670
▁制了一面	-7671
▁办了一场	-7672
▁功的国事	-7673
▁加了这一	-7674
▁助总金额	-7675
▁努力奋斗	-7676
▁劲的发展	-7677
▁劳兴建起	-7678
▁势和作用	-7679
▁勃勃景象	-7680
▁勒斯坦被	-7681
▁北国大地	-7682
▁北地区东	-7683
▁升读者对	-7684
▁半月以来	-7685
▁华文文学	-7686
▁协主席李	-7687
▁协会理事	-7688
▁单位主办	-7689
▁南的部分	-7690
▁博爱县的	-7691
▁占了全球	-7692
▁卢巴去年	-7693
▁卢布数额	-7694
▁卢布等值	-7695
▁卢西亚就	-7696
▁卫生保健	-7697
▁印经院去	-7698
▁即响起了	-7699
▁件得	-7700
▁值则	-7701
▁写下	-7702
▁写到	-7703
▁写成	-7704
▁写生	-7705
▁别将	-7706
▁别看	-7707
▁别要	-7708
▁原因	-7709
▁原有	-7710
▁原由	-7711
▁培的	-7712
▁感谢	-7713
▁收入	-7714
▁收成	-7715
▁既是	-7716
▁服装	-7717
▁点评	-7718
▁王统	-7719
▁直无	-7720
▁直辖	-7721
▁积占	-7722
▁维红	-7723
▁色路	-7724
▁走村	-7725
▁走滚	-7726
▁那么	-7727
▁量引	-7728
▁难度	-7729
▁难村	-7730
一个夜	-7731
一个小	-7732
一个饱	-7733
农业省	-7734
农业要	-7735
农民没	-7736
基本法	-7737
情新年	-7738
接新年	-7739
新年期	-7740
新年茶	-7741
有一个	-7742
贫富互	-7743
近两年	-7744
▁事农业	-7745
▁但一个	-7746
▁值则提	-7747
▁别将一	-7748
▁原因是	-7749
▁培的壮	-7750
▁我们每	-7751
▁收入却	-7752
▁故事中	-7753
▁格外高	-7754
▁王统照	-7755
▁直无暇	-7756
▁统农业	-7757
▁负责人	-7758
▁走村串	-7759
▁走滚动	-7760
▁那么多	-7761
▁量引增	-7762
一个小小	-7763
农业要可	-7764
情新年树	-7765
新年茶话	-7766
每一个夜	-7767
▁作为一个	-7768
▁俄近两年	-7769
▁写成了一	-7770
▁别将一名	-7771
▁厂当时的	-7772
▁厉的时候	-7773
▁原因是多	-7774
▁原有的小	-7775
▁厦而不懈	-7776
▁去年全球	-7777
▁县市中有	-7778
▁县是一个	-7779
▁参与救援	-7780
▁参加了登	-7781
▁又一片新	-7782
▁及早举行	-7783
▁反对强权	-7784
▁反映了当	-7785
▁取得显著	-7786
▁变为了城	-7787
▁叙的内容	-7788
▁叙自己的	-7789
▁另一方面	-7790
▁另一股冷	-7791
▁只要国际	-7792
▁台提供的	-7793
▁台有关推	-7794
▁台用不甚	-7795
▁号上发表	-7796
▁号召人民	-7797
▁号示范街	-7798
▁名大中小	-7799
190	-7800
”、5	-7801
▁.4	-7802
▁.5	-7803
▁.8	-7804
▁二年	-7805
▁云南	-7806
▁互利	-7807
▁亿人	-7808
▁优良	-7809
▁余件	-7810
▁几个	-7811
▁几亿	-7812
▁功两	-7813
▁取向	-7814
▁取舍	-7815
▁图本	-7816
▁型的	-7817
▁壮丽	-7818
▁妇联	-7819
▁帷幄	-7820
▁干道	-7821
▁应小	-7822
▁应收	-7823
▁张悦	-7824
▁张有	-7825
▁思念	-7826
▁数十	-7827
▁数多	-7828
▁数将	-7829
▁施制	-7830
▁施是	-7831
▁框架	-7832
▁欢人	-7833
▁欢快	-7834
▁流和	-7835
▁深刻	-7836
▁深地	-7837
▁点乃	-7838
▁点扶	-7839
▁点是	-7840
▁盛会	-7841
▁省的	-7842
▁神话	-7843
▁组成	-7844
▁给我	-7845
▁给本	-7846
▁群团	-7847
▁职能	-7848
▁节前	-7849
▁队员	-7850
▁队荣	-7851
▁项目	-7852
年大幅	-7853
民族的	-7854
而是为	-7855
这些谋	-7856
1190	-7857
▁.49	-7858
▁亿人同	-7859
▁优良传	-7860
▁余件和	-7861
▁几个实	-7862
▁几亿资	-7863
▁功两次	-7864
▁取舍上	-7865
▁壮丽的	-7866
▁妇联副	-7867
▁干道设	-7868
▁应小觑	-7869
▁张悦摄	-7870
▁张有着	-7871
▁数多超	-7872
▁数将达	-7873
▁施制裁	-7874
▁施是必	-7875
▁框架的	-7876
▁欢乐愉	-7877
▁欢人群	-7878
▁深地打	-7879
▁点乃是	-7880
▁点扶持	-7881
▁点经济	-7882
▁组成若	-7883
▁给我看	-7884
▁给本来	-7885
▁绵绵思	-7886
▁群团团	-7887
▁艺节目	-7888
▁购金额	-7889
▁队荣立	-7890
▁香港顺	-7891
了一条龙	-7892
救助标准	-7893
民族的团	-7894
而是为即	-7895
▁.495	-7896
▁云南建成	-7897
▁亿人同赏	-7898
▁仔猪提供	-7899
▁做人	-7900
▁医务	-7901
▁又是	-7902
▁告后	-7903
▁城区	-7904
▁处在	-7905
▁处的	-7906
▁央统	-7907
▁林果	-7908
▁演练	-7909
▁演艺	-7910
▁近几	-7911
▁近日	-7912
▁郑州	-7913
▁门之	-7914
▁门分	-7915
▁门对	-7916
▁青联	-7917
▁首先	-7918
▁首尾	-7919
▁驻足	-7920
人民参	-7921
人民同	-7922
人民极	-7923
人民没	-7924
人民群	-7925
人民艺	-7926
农村节	-7927
北人民	-7928
员以及	-7929
国家重	-7930
积极反	-7931
▁体人民	-7932
▁修水利	-7933
▁务人民	-7934
▁医务室	-7935
▁午夜钟	-7936
▁告后人	-7937
▁处的回	-7938
▁央统战	-7939
▁引导下	-7940
▁拿起笔	-7941
▁林果等	-7942
▁演艺界	-7943
▁郑州最	-7944
▁门之上	-7945
▁门分社	-7946
▁首先发	-7947
▁驻足留	-7948
人民同心	-7949
会出现复	-7950
对于生活	-7951
建人民艺	-7952
▁;236	-7953
▁体人民为	-7954
▁余件和影	-7955
▁修水利同	-7956
▁午夜钟声	-7957
▁又是我们	-7958
▁吴刚报道	-7959
▁呈下降趋	-7960
▁呈不同角	-7961
▁周六和周	-7962
▁周年之际	-7963
▁品内涵厚	-7964
▁哈马和圣	-7965
▁响了新年	-7966
▁哥第一高	-7967
▁唱出了动	-7968
▁商的重新	-7969
▁善大农场	-7970
▁喜庆时刻	-7971
▁喜迎新年	-7972
▁四大出口	-7973
▁四家国营	-7974
▁因此他们	-7975
▁团结一致	-7976
▁土地的投	-7977
▁圣约翰窥	-7978
▁圳交通监	-7979
▁场为中心	-7980
▁场特大洪	-7981
▁均因种种	-7982
▁坐在李升	-7983
▁坡保持信	-7984
▁坦方面则	-7985
▁型项目近	-7986
▁城区道路	-7987
▁培育成为	-7988
▁塘里游鱼	-7989
▁增加了村	-7990
▁士政治家	-7991
▁士进行曲	-7992
▁处在发展	-7993
▁处的回音	-7994
▁备的品格	-7995
▁多了一个	-7996
▁夜深人静	-7997
▁大家在新	-7998
▁央统战部	-7999
600	-8000
▁乐业	-8001
▁乡干	-8002
▁京一	-8003
▁京把	-8004
▁传媒	-8005
▁传部	-8006
▁但以	-8007
▁但当	-8008
▁保安	-8009
▁保定	-8010
▁保的	-8011
▁刊订	-8012
▁协力	-8013
▁协在	-8014
▁品昂	-8015
▁品的	-8016
▁土造	-8017
▁布局	-8018
▁形势	-8019
▁情况	-8020
▁情节	-8021
▁意大	-8022
▁战者	-8023
▁把两	-8024
▁据宣	-8025
▁放在	-8026
▁机列	-8027
▁机对	-8028
▁样来	-8029
▁汉简	-8030
▁法治	-8031
▁海和	-8032
▁觉性	-8033
▁馆也	-8034
▁馆将	-8035
▁馆肩	-8036
女儿童	-8037
进水平	-8038
重点整	-8039
,198	-8040
▁100	-8041
▁300	-8042
▁京一月	-8043
▁京把再	-8044
▁他特别	-8045
▁传部确	-8046
▁但以女	-8047
▁但当她	-8048
▁保定一	-8049
▁具有继	-8050
▁刊订阅	-8051
▁品昂然	-8052
▁品的准	-8053
▁土造田	-8054
▁少经济	-8055
▁形势下	-8056
▁情节性	-8057
▁意大利	-8058
▁把两者	-8059
▁机列入	-8060
▁机对所	-8061
▁汉简引	-8062
▁海和黄	-8063
▁澳日报	-8064
▁限的绝	-8065
▁馆将为	-8066
▁馆肩负	-8067
转变观念	-8068
进水平迈	-8069
▁他特别谈	-8070
▁传媒人士	-8071
▁保定一棉	-8072
▁具有继往	-8073
▁化的作用	-8074
▁协在过去	-8075
▁品的准线	-8076
▁失艺术创	-8077
▁头政府增	-8078
▁头有所遏	-8079
▁头请我们	-8080
▁奋进的早	-8081
▁奏的主要	-8082
▁套特制深	-8083
▁她那无处	-8084
▁好的祝愿	-8085
▁妇女儿童	-8086
▁始使用的	-8087
▁始将这一	-8088
▁委员会向	-8089
▁姨胡彩玲	-8090
▁婚育观念	-8091
▁存款不足	-8092
▁学在中国	-8093
▁宁夏经济	-8094
▁它的建成	-8095
▁完成人口	-8096
▁宏的气势	-8097
▁定取得广	-8098
▁审与地缘	-8099
▁义演	-8100
▁五大	-8101
▁五百	-8102
▁军人	-8103
▁务于	-8104
▁势的	-8105
▁去玩	-8106
▁去的	-8107
▁及于	-8108
▁及其	-8109
▁古的	-8110
▁古籍	-8111
▁名村	-8112
▁名的	-8113
▁增产	-8114
▁委员	-8115
▁少也	-8116
▁币兑	-8117
▁府及	-8118
▁府对	-8119
▁强劲	-8120
▁强烈	-8121
▁很不	-8122
▁性地	-8123
▁果敢	-8124
▁此而	-8125
▁气势	-8126
▁江淮	-8127
▁江西	-8128
▁然村	-8129
▁然的	-8130
▁版了	-8131
▁版受	-8132
▁版每	-8133
▁由此	-8134
▁立品	-8135
▁第九	-8136
▁管次	-8137
▁老马	-8138
▁舞动	-8139
▁金大	-8140
▁金泳	-8141
▁问她	-8142
▁题上	-8143
▁题不	-8144
万多册	-8145
军革命	-8146
出艰辛	-8147
到了冬	-8148
在的星	-8149
6500	-8150
▁五百公	-8151
▁兼并案	-8152
▁及于国	-8153
▁名村子	-8154
▁名的富	-8155
▁很不简	-8156
▁性地加	-8157
▁拿大银	-8158
▁果敢地	-8159
▁气势力	-8160
▁江西泰	-8161
▁然村落	-8162
▁然的向	-8163
▁版每周	-8164
▁立品性	-8165
▁第九任	-8166
▁管次数	-8167
▁舞动着	-8168
▁虽然渐	-8169
▁金大中	-8170
▁题上产	-8171
▁题不仅	-8172
中的情感	-8173
到了冬季	-8174
所在的星	-8175
疑的目光	-8176
▁五大以来	-8177
▁付出艰辛	-8178
▁兼并案最	-8179
▁务于经济	-8180
▁及于国人	-8181
▁及其以北	-8182
▁古的结合	-8183
▁名的富裕	-8184
▁容的一面	-8185
▁密而得当	-8186
▁导产品基	-8187
▁将是中国	-8188
▁小到中雪	-8189
▁少的时间	-8190
▁尔滨的服	-8191
▁尤其是以	-8192
▁尽的情思	-8193
▁局近几年	-8194
▁层一样取	-8195
▁居民最低	-8196
▁居第三位	-8197
▁屏不断切	-8198
▁展上重要	-8199
▁举措	-8200
▁先说	-8201
▁内外	-8202
▁内容	-8203
▁员时	-8204
▁妹再	-8205
▁娃小	-8206
▁季花	-8207
▁容纳	-8208
▁度为	-8209
▁度增	-8210
▁总工	-8211
▁无不	-8212
▁无非	-8213
▁最后	-8214
▁物的	-8215
▁用小	-8216
▁能力	-8217
▁能够	-8218
▁能源	-8219
发展到	-8220
发展新	-8221
发展村	-8222
发展条	-8223
发展水	-8224
发展的	-8225
发展起	-8226
发展路	-8227
她非常	-8228
式发展	-8229
性经济	-8230
是保卫	-8231
用水相	-8232
的必须	-8233
的资金	-8234
经济专	-8235
经济交	-8236
经济性	-8237
而人们	-8238
▁举措是	-8239
▁内容是	-8240
▁妹再也	-8241
▁娃小金	-8242
▁季花点	-8243
▁容纳职	-8244
▁度增产	-8245
▁德国自	-8246
▁总工会	-8247
▁无不感	-8248
▁最后达	-8249
▁物的外	-8250
▁用小说	-8251
▁系发展	-8252
▁缘到南	-8253
▁能力的	-8254
中国经济	-8255
会经济性	-8256
发展新思	-8257
发展村办	-8258
发展的又	-8259
她非常真	-8260
工业生产	-8261
性经济贸	-8262
新发展水	-8263
经济交往	-8264
而人们总	-8265
问题上下	-8266
防用水相	-8267
▁内容是将	-8268
▁务是保卫	-8269
▁套丛书内	-8270
▁妹再也没	-8271
▁娃小金刚	-8272
▁季花点染	-8273
▁就发展到	-8274
▁岗职工专	-8275
▁崇高的敬	-8276
▁川籍学者	-8277
▁差的是村	-8278
▁己的精神	-8279
▁己的表妹	-8280
▁巴自治区	-8281
▁币改值势	-8282
▁布开始流	-8283
▁布置开馆	-8284
▁布置现场	-8285
▁希望用直	-8286
▁带来可观	-8287
▁帮助治病	-8288
▁帮助职工	-8289
▁常务书记	-8290
▁幅地图板	-8291
▁干道设标	-8292
▁干部搞好	-8293
▁庆整治城	-8294
▁序性安排	-8295
▁应当希望	-8296
▁应该做的	-8297
▁底色和务	-8298
▁府及社会	-8299
▁46	-8300
▁49	-8301
▁三年	-8302
▁严而	-8303
▁也许	-8304
▁也诚	-8305
▁入冬	-8306
▁划分	-8307
▁划的	-8308
▁创作	-8309
▁创新	-8310
▁制区	-8311
▁向传	-8312
▁基本	-8313
▁好运	-8314
▁如对	-8315
▁如有	-8316
▁如果	-8317
▁安在	-8318
▁安定	-8319
▁导下	-8320
▁导和	-8321
▁平川	-8322
▁并且	-8323
▁并向	-8324
▁并茂	-8325
▁并重	-8326
▁广到	-8327
▁广泛	-8328
▁度的	-8329
▁当时	-8330
▁得而	-8331
▁步伐	-8332
▁治国	-8333
▁治学	-8334
▁治市	-8335
▁盖得	-8336
▁还就	-8337
▁还给	-8338
▁道上	-8339
▁集会	-8340
▁非华	-8341
伐加大	-8342
农业建	-8343
农民乐	-8344
▁三年中	-8345
▁严而锐	-8346
▁伐加大	-8347
▁划分都	-8348
▁划的良	-8349
▁创作历	-8350
▁向传送	-8351
▁如对画	-8352
▁如有必	-8353
▁如果一	-8354
▁并且摆	-8355
▁得而知	-8356
▁治国平	-8357
▁盖得益	-8358
▁还就老	-8359
▁道上来	-8360
▁非华人	-8361
我们祝贺	-8362
放不合格	-8363
用于计划	-8364
的农民乐	-8365
贫困人口	-8366
▁4626	-8367
▁严而锐利	-8368
▁兵书可为	-8369
▁划分都有	-8370
▁划的良好	-8371
▁创作历时	-8372
▁创新业绩	-8373
▁基本建设	-8374
▁如果一字	-8375
▁并向大家	-8376
▁广到全区	-8377
▁府武装共	-8378
▁府的手脚	-8379
▁座都市的	-8380
▁庭农场施	-8381
▁庭责任田	-8382
▁康建设和	-8383
▁开放以来	-8384
▁式上发表	-8385
▁式建交后	-8386
▁张地通过	-8387
▁张有着相	-8388
▁弱的形象	-8389
▁强劲的支	-8390
▁归的各项	-8391
▁归者今年	-8392
▁当地报纸	-8393
▁影响的佳	-8394
▁役期间享	-8395
▁彻底改变	-8396
▁征中国的	-8397
▁待遇得到	-8398
▁很不简单	-8399
▁》(	-8400
▁临时	-8401
▁体制	-8402
▁体现	-8403
▁供低	-8404
▁公务	-8405
▁公里	-8406
▁其次	-8407
▁县将	-8408
▁可先	-8409
▁可能	-8410
▁听说	-8411
▁场主	-8412
▁外访	-8413
▁夜的	-8414
▁天一	-8415
▁夺泸	-8416
▁定的	-8417
▁持下	-8418
▁持续	-8419
▁星夺	-8420
▁次被	-8421
▁济和	-8422
▁济要	-8423
▁特产	-8424
▁特点	-8425
▁着这	-8426
▁程始	-8427
▁程竣	-8428
▁结束	-8429
▁统一	-8430
▁致意	-8431
▁艰巨	-8432
▁藏古	-8433
▁说法	-8434
▁责人	-8435
▁过好	-8436
▁过程	-8437
万人处	-8438
中国旅	-8439
中国青	-8440
中国革	-8441
伤亡却	-8442
在元旦	-8443
蒙和引	-8444
▁体现那	-8445
▁供低息	-8446
▁公务员	-8447
▁县将逐	-8448
▁可先由	-8449
▁听说后	-8450
▁场主体	-8451
▁外访活	-8452
▁天一响	-8453
▁星夺目	-8454
▁春的气	-8455
▁济要上	-8456
▁着这来	-8457
▁程始起	-8458
▁藏古迹	-8459
▁阑人静	-8460
▁面对广	-8461
伤亡却严	-8462
都是经过	-8463
▁临时区域	-8464
▁体现那个	-8465
▁北部和东	-8466
▁启蒙和引	-8467
▁在中国青	-8468
▁场主体发	-8469
▁城市与乡	-8470
▁律和两岸	-8471
▁循环使用	-8472
▁德想不想	-8473
▁德的到来	-8474
▁徽高高挂	-8475
▁必由之路	-8476
▁志着我们	-8477
▁态的组成	-8478
▁态难以言	-8479
▁怎么抓也	-8480
▁思想与其	-8481
▁总工会对	-8482
▁想和学术	-8483
▁意的结果	-8484
▁愿澳门居	-8485
▁慰问组驱	-8486
▁我们为中	-8487
▁我们坚信	-8488
▁户头存款	-8489
▁手在中国	-8490
▁手张爱兰	-8491
▁手的特区	-8492
▁才同意另	-8493
▁扎实实地	-8494
▁执法力度	-8495
▁扫除了青	-8496
▁扶贫力度	-8497
▁承和发展	-8498
▁技术服务	-8499
▁),	-8500
▁6%	-8501
▁80	-8502
▁84	-8503
▁万亿	-8504
▁于生	-8505
▁交国	-8506
▁代的	-8507
▁使用	-8508
▁依靠	-8509
▁偿还	-8510
▁农田	-8511
▁利在	-8512
▁加元	-8513
▁加到	-8514
▁加强	-8515
▁动和	-8516
▁卷台	-8517
▁厂化	-8518
▁各地	-8519
▁实事	-8520
▁实行	-8521
▁对外	-8522
▁小型	-8523
▁小康	-8524
▁建华	-8525
▁源发	-8526
▁然兴	-8527
▁物馆	-8528
▁现了	-8529
▁畅顺	-8530
▁而生	-8531
▁而解	-8532
▁而这	-8533
▁自从	-8534
▁要把	-8535
▁谷利	-8536
▁费者	-8537
▁起欢	-8538
▁起色	-8539
▁越那	-8540
▁通告	-8541
▁重任	-8542
▁长及	-8543
▁马泽	-8544
▁高的	-8545
企业搞	-8546
全部脱	-8547
发现典	-8548
在形象	-8549
实行公	-8550
正点首	-8551
社记者	-8552
里祈祷	-8553
▁万亿日	-8554
▁于生平	-8555
▁卷台澎	-8556
▁各地凡	-8557
▁响我国	-8558
▁地区计	-8559
▁实行雷	-8560
▁小康村	-8561
▁布面值	-8562
▁建华等	-8563
▁点用于	-8564
▁然兴起	-8565
▁而这批	-8566
▁自从瑞	-8567
▁要把青	-8568
▁谷利源	-8569
▁起欢度	-8570
▁越那里	-8571
▁长及官	-8572
▁马泽尔	-8573
、100	-8574
为主体的	-8575
庙里祈祷	-8576
本社记者	-8577
▁万亿日元	-8578
▁偿还布厂	-8579
▁农田水利	-8580
▁协商会议	-8581
▁型企业搞	-8582
▁将到来的	-8583
▁小型水利	-8584
▁庙里祈祷	-8585
▁户全部脱	-8586
▁投资报告	-8587
▁抗战时期	-8588
▁护了大批	-8589
▁担看护维	-8590
▁拉克与联	-8591
▁拿起笔来	-8592
▁持下开展	-8593
▁按出音乐	-8594
▁按新标准	-8595
▁挤在门口	-8596
▁挥山区优	-8597
▁捐赠特大	-8598
▁授权法案	-8599
下为	-8600
和面	-8601
声讴	-8602
数百	-8603
永泉	-8604
默眺	-8605
.4‰	-8606
▁10	-8607
▁”(	-8608
▁一半	-8609
▁一步	-8610
▁不住	-8611
▁不绝	-8612
▁中华	-8613
▁为什	-8614
▁人的	-8615
▁人群	-8616
▁他和	-8617
▁他早	-8618
▁以有	-8619
▁会上	-8620
▁全区	-8621
▁其间	-8622
▁决定	-8623
▁华会	-8624
▁取消	-8625
▁国务	-8626
▁国民	-8627
▁在其	-8628
▁在冰	-8629
▁在刚	-8630
▁在当	-8631
▁在河	-8632
▁在背	-8633
▁在隆	-8634
▁多万	-8635
▁大厅	-8636
▁大成	-8637
▁此举	-8638
▁民应	-8639
▁民族	-8640
▁民的	-8641
▁生活	-8642
▁跨入	-8643
▁这批	-8644
▁这是	-8645
▁这正	-8646
下为民	-8647
中交通	-8648
使深圳	-8649
同声讴	-8650
和面料	-8651
当地的	-8652
碍两岸	-8653
8.4‰	-8654
▁人的歌	-8655
▁他和普	-8656
▁决定从	-8657
▁取消了	-8658
▁国务委	-8659
▁国民经	-8660
▁在冰雪	-8661
▁在河南	-8662
▁在这种	-8663
▁多万方	-8664
▁形成他	-8665
▁指导和	-8666
▁此举赢	-8667
▁碍两岸	-8668
▁跨入了	-8669
▁过电视	-8670
▁默默眺	-8671
▁龚永泉	-8672
中交通管	-8673
中的作用	-8674
安理会轮	-8675
市政府筹	-8676
当地的群	-8677
起的旗杆	-8678
▁中华文明	-8679
▁取消了已	-8680
▁善和发展	-8681
▁在冰雪覆	-8682
▁在河南焦	-8683
▁指导和服	-8684
▁授权进行	-8685
▁推进经济	-8686
▁措施出台	-8687
▁描绘了一	-8688
▁援救睦邻	-8689
▁搞好施工	-8690
▁摆在中国	-8691
▁撤军方案	-8692
▁撤换一批	-8693
▁撰写这篇	-8694
▁支状况良	-8695
▁收入却由	-8696
▁放军建军	-8697
▁放在各项	-8698
▁效地履行	-8699
)’	-8700
1—	-8701
▁餐	-8702
▁饺	-8703
▁魄	-8704
▁魅	-8705
▁鲍	-8706
▁鲤	-8707
两翼	-8708
产千	-8709
会见	-8710
党魂	-8711
在原	-8712
在超	-8713
地注	-8714
多种	-8715
对照	-8716
展出	-8717
岸边	-8718
年无	-8719
有四	-8720
望并	-8721
木齐	-8722
欢聚	-8723
正朝	-8724
着泥	-8725
被圈	-8726
身闯	-8727
饥饿	-8728
饮酒	-8729
驱车	-8730
,1—	-8731
▁兴盛	-8732
▁十位	-8733
▁即使	-8734
▁幅趋	-8735
▁庄乡	-8736
▁籍的	-8737
▁脚踏	-8738
▁荡殃	-8739
▁餐桌	-8740
▁饥饿	-8741
▁饮酒	-8742
▁饺子	-8743
▁驱车	-8744
▁魄只	-8745
▁魅力	-8746
▁鲍洪	-8747
▁鲤鱼	-8748
一起划	-8749
之两翼	-8750
产千斤	-8751
会见董	-8752
地注视	-8753
应的活	-8754
望并采	-8755
▁充满了	-8756
▁兴盛局	-8757
▁哥首都	-8758
▁幅趋缓	-8759
▁籍的搜	-8760
▁违章录	-8761
▁饮酒歌	-8762
▁馆展出	-8763
▁驱车赶	-8764
▁鲁木齐	-8765
▁鲍洪俊	-8766
▁鸡被圈	-8767
中国作为	-8768
乡一起划	-8769
亩产千斤	-8770
地注视着	-8771
拥有多种	-8772
新建各类	-8773
日本警察	-8774
时会见董	-8775
看望并采	-8776
还带着泥	-8777
鸟之两翼	-8778
▁充满了欢	-8779
▁即使回忆	-8780
▁哥首都东	-8781
▁巴以美三	-8782
▁报记者郭	-8783
▁教育综合	-8784
▁散人员达	-8785
▁散文随笔	-8786
▁散文集虽	-8787
▁敬老院一	-8788
▁数支民间	-8789
▁整体平衡	-8790
▁整理保护	-8791
▁料货源充	-8792
▁断的局面	-8793
▁斯人在新	-8794
▁新年将至	-8795
▁族的历史	-8796
▁族自治县	-8797
▁无线通信	-8798
▁旦的受伤	-8799
9/	-8800
▁霸	-8801
▁韦	-8802
▁韧	-8803
▁顾	-8804
▁颖	-8805
▁飘	-8806
世呢	-8807
保深	-8808
农垦	-8809
办学	-8810
哄抬	-8811
地降	-8812
备期	-8813
果不	-8814
球飘	-8815
磨破	-8816
而有	-8817
调低	-8818
韵盈	-8819
颗都	-8820
▁刘云	-8821
▁士共	-8822
▁夫斯	-8823
▁尝试	-8824
▁府的	-8825
▁际上	-8826
▁霸水	-8827
▁韦耀	-8828
▁韧与	-8829
▁韵盈	-8830
▁颗都	-8831
与表现	-8832
人民应	-8833
办学起	-8834
后果不	-8835
多人受	-8836
是政府	-8837
江农垦	-8838
生志愿	-8839
磨破了	-8840
而有趣	-8841
▁写下去	-8842
▁刘云峰	-8843
▁夫斯基	-8844
▁托底子	-8845
▁画出了	-8846
▁益企业	-8847
▁际上对	-8848
▁韧与博	-8849
▁韩保深	-8850
▁预备期	-8851
▁颗都饱	-8852
与表现性	-8853
人民应该	-8854
仅是政府	-8855
后果不堪	-8856
平稳地降	-8857
戴鹏报道	-8858
指引下胜	-8859
鞋磨破了	-8860
▁已经建成	-8861
▁府的高度	-8862
▁戴鹏报道	-8863
▁旧币通用	-8864
▁旱之年仅	-8865
▁旱的气候	-8866
▁易就能融	-8867
▁春天脚步	-8868
▁春的气息	-8869
▁昨天披露	-8870
▁显的成效	-8871
▁更在于其	-8872
▁服装系列	-8873
▁未来而努	-8874
▁未能如愿	-8875
▁本出发点	-8876
▁本报南京	-8877
▁本报昆明	-8878
▁本报济南	-8879
▁术界众多	-8880
▁机长张启	-8881
▁权归国家	-8882
▁李学仁摄	-8883
▁村干部与	-8884
▁村成为外	-8885
▁束两岸敌	-8886
▁条式发展	-8887
▁松欢快的	-8888
▁构和活动	-8889
▁果业为主	-8890
▁枝鲜花竞	-8891
▁架次突破	-8892
▁某一题材	-8893
▁查阅岁末	-8894
▁样来讲述	-8895
▁样结合考	-8896
▁核心的党	-8897
▁根据资源	-8898
▁格外亲切	-8899
▁陪	-8900
▁陷	-8901
▁隆	-8902
▁雏	-8903
▁霎	-8904
▁霜	-8905
中调	-8906
作干	-8907
入恶	-8908
其实	-8909
加达	-8910
和职	-8911
在题	-8912
天气	-8913
对航	-8914
工资	-8915
并有	-8916
文崔	-8917
文赋	-8918
江大	-8919
片般	-8920
的压	-8921
落海	-8922
讲义	-8923
,10	-8924
▁‰,	-8925
▁佩饰	-8926
▁刘小	-8927
▁刘盛	-8928
▁力下	-8929
▁暖亮	-8930
▁比如	-8931
▁界级	-8932
▁训练	-8933
▁陪同	-8934
▁雏形	-8935
中调剂	-8936
作干净	-8937
加达宣	-8938
去年仅	-8939
发行已	-8940
向农贸	-8941
和环境	-8942
工资界	-8943
显然更	-8944
桥的压	-8945
滴落海	-8946
的讲义	-8947
▁刘小明	-8948
▁刘盛威	-8949
▁即得到	-8950
▁推广普	-8951
▁杨子荣	-8952
▁比如敞	-8953
▁毫不含	-8954
▁界级难	-8955
▁郑先生	-8956
▁陵江大	-8957
▁陷入恶	-8958
▁雅文崔	-8959
▁雨天气	-8960
▁雪片般	-8961
出了新的	-8962
动作干净	-8963
发行已连	-8964
和环境潜	-8965
工资界限	-8966
显然更需	-8967
滴落海声	-8968
解体前夕	-8969
走向农贸	-8970
▁准军事性	-8971
▁当地资源	-8972
▁框架的束	-8973
▁榭大街狂	-8974
▁模与以前	-8975
▁次活动旨	-8976
▁歌表演吸	-8977
▁此而基本	-8978
▁此高水平	-8979
▁段加强警	-8980
▁毅仁出席	-8981
▁每一个篇	-8982
▁每个人与	-8983
▁每个地方	-8984
▁每年入冬	-8985
▁每年可产	-8986
▁每年还要	-8987
▁比前两年	-8988
▁比在阔别	-8989
▁毛泽东在	-8990
▁毫不含糊	-8991
▁民应在新	-8992
▁民的面前	-8993
▁气势力将	-8994
▁气温记录	-8995
▁求时代的	-8996
▁汇率变为	-8997
▁汉简引入	-8998
▁沙特比赛	-8999
▁闭	-9000
▁阖	-9001
▁陀	-9002
下到	-9003
也都	-9004
公认	-9005
其任	-9006
在香	-9007
坚韧	-9008
家幸	-9009
将再	-9010
尽责	-9011
已引	-9012
枪声	-9013
的八	-9014
被毁	-9015
西城	-9016
通亿	-9017
闸门	-9018
防冻	-9019
▁学员	-9020
▁岁末	-9021
▁挤得	-9022
▁早年	-9023
▁篇章	-9024
▁股激	-9025
▁闭路	-9026
▁闸门	-9027
▁防警	-9028
▁陀瑞	-9029
▁革使	-9030
一日讯	-9031
下到所	-9032
人在叩	-9033
次将再	-9034
的资源	-9035
西西城	-9036
通亿载	-9037
防冻措	-9038
▁挤得水	-9039
▁新的投	-9040
▁烂的微	-9041
▁珍贵的	-9042
▁离合悲	-9043
▁组成的	-9044
▁股激情	-9045
▁门也都	-9046
▁间公认	-9047
▁阖家幸	-9048
▁防警卫	-9049
▁革使广	-9050
人在叩击	-9051
人次将再	-9052
势的资源	-9053
勇敢坚韧	-9054
提出工程	-9055
▁司的前身	-9056
▁影响我国	-9057
▁把两者很	-9058
▁拓进取的	-9059
▁挤得水泄	-9060
▁排好农村	-9061
▁早年在国	-9062
▁没有必要	-9063
▁沪元旦登	-9064
▁河北人民	-9065
▁泛影响的	-9066
▁泾村随着	-9067
▁洁的市容	-9068
▁派出人员	-9069
▁派节日盛	-9070
▁流与沟通	-9071
▁流通的卢	-9072
▁济要上去	-9073
▁浓郁的沧	-9074
▁浩浩荡荡	-9075
▁浩然正气	-9076
▁浪费严重	-9077
▁涉及通信	-9078
▁涯的起始	-9079
▁淀粉降解	-9080
▁添了喜庆	-9081
▁清了全县	-9082
▁清醒地看	-9083
▁游人如织	-9084
▁湾当局的	-9085
▁源财团最	-9086
▁演员和孩	-9087
▁演队向祖	-9088
▁漾出了灿	-9089
▁潮有可能	-9090
▁激动了一	-9091
▁点在于论	-9092
▁点经济头	-9093
▁烂的微笑	-9094
▁烈的视觉	-9095
▁烈的象征	-9096
▁热气的粗	-9097
▁焦作市已	-9098
▁然村落创	-9099
▁释	-9100
▁鉴	-9101
▁钓	-9102
▁钩	-9103
▁钻	-9104
▁锣	-9105
▁锻	-9106
万平	-9107
业也	-9108
人才	-9109
人流	-9110
位置	-9111
几群	-9112
到肉	-9113
可疑	-9114
周被	-9115
大水	-9116
实措	-9117
山煤	-9118
情花	-9119
放上	-9120
还送	-9121
那惬	-9122
青史	-9123
鼓喧	-9124
.8%	-9125
▁兴和	-9126
▁医马	-9127
▁印象	-9128
▁曲调	-9129
▁社罗	-9130
▁耳朵	-9131
▁蕴藉	-9132
▁钓鱼	-9133
▁锻炼	-9134
▁零三	-9135
▁鲜活	-9136
人流量	-9137
几群欢	-9138
切实措	-9139
到肉猪	-9140
周被拘	-9141
大水漫	-9142
就自身	-9143
山煤矿	-9144
心不断	-9145
情花鸟	-9146
是这次	-9147
的一样	-9148
祥的悲	-9149
0.8%	-9150
▁坝内水	-9151
▁研究西	-9152
▁社罗马	-9153
▁祥的悲	-9154
▁等出席	-9155
▁蕴藉沉	-9156
▁讲解的	-9157
▁评论界	-9158
▁释放上	-9159
▁鉴青史	-9160
▁锣鼓喧	-9161
▁零三幅	-9162
人流量随	-9163
信心不断	-9164
大水漫灌	-9165
每年还送	-9166
▁供了大踏	-9167
▁依多金集	-9168
▁兴和欣慰	-9169
▁医马论典	-9170
▁变了我国	-9171
▁坝内水满	-9172
▁性地加以	-9173
▁柳林县前	-9174
▁正在南非	-9175
▁爸的足迹	-9176
▁片的版面	-9177
▁版事业处	-9178
▁版社推出	-9179
▁特别是金	-9180
▁犹太人定	-9181
▁率先消灭	-9182
▁王长山摄	-9183
▁环发和科	-9184
▁现在我们	-9185
▁珍贵合影	-9186
▁球把各主	-9187
▁琅的关系	-9188
▁理企业化	-9189
▁瑞士的科	-9190
▁瓦村养殖	-9191
▁用小说反	-9192
▁用工业品	-9193
▁由中国常	-9194
▁由自主地	-9195
▁电视台与	-9196
▁画出了心	-9197
▁画创作的	-9198
▁画院的画	-9199
▁遥	-9200
▁遮	-9201
▁邀	-9202
不怕	-9203
不拔	-9204
为控	-9205
也带	-9206
云的	-9207
以谈	-9208
出流	-9209
大客	-9210
大箴	-9211
家华	-9212
对卢	-9213
德浩	-9214
总局	-9215
旅客	-9216
期效	-9217
生命	-9218
迭起	-9219
通航	-9220
遒劲	-9221
郁达	-9222
长篇	-9223
▁域公	-9224
▁川市	-9225
▁的美	-9226
▁范双	-9227
▁读本	-9228
▁迭起	-9229
▁遒劲	-9230
▁遮掩	-9231
▁郁达	-9232
为群众	-9233
也不怕	-9234
些大客	-9235
人为的	-9236
少云的	-9237
扶贫贷	-9238
更不拔	-9239
读长篇	-9240
邵大箴	-9241
▁孔繁森	-9242
▁怎样判	-9243
▁程通过	-9244
▁范双民	-9245
▁退出流	-9246
▁送旅客	-9247
▁遒劲的	-9248
▁邀参加	-9249
▁邵大箴	-9250
▁邹家华	-9251
▁邹德浩	-9252
▁郁达夫	-9253
人为的限	-9254
作精神再	-9255
农业基础	-9256
恢复对卢	-9257
的扶贫贷	-9258
转变为控	-9259
进了两部	-9260
邱少云的	-9261
▁属于市场	-9262
▁扮演过毛	-9263
▁根本不懂	-9264
▁点扶持的	-9265
▁畅销一时	-9266
▁界级难题	-9267
▁留下大量	-9268
▁留的前总	-9269
▁略史上的	-9270
▁疆安度晚	-9271
▁登高活动	-9272
▁白了怎样	-9273
▁百强企业	-9274
▁监控点实	-9275
▁盖得益于	-9276
▁目前提高	-9277
▁直把计划	-9278
▁相信四川	-9279
▁相结合的	-9280
▁省十大明	-9281
▁省十大杰	-9282
▁真心实意	-9283
▁真情难觅	-9284
▁眼于历朝	-9285
▁着这来之	-9286
▁石油工业	-9287
▁研究所的	-9288
▁础上正式	-9289
▁硬件环境	-9290
▁社联合国	-9291
▁社记者潘	-9292
▁祖国各地	-9293
▁祖国的心	-9294
▁祖国经济	-9295
▁祝福的心	-9296
▁祥的悲愤	-9297
▁禁在他在	-9298
▁福在天上	-9299
▁踢	-9300
▁蹈	-9301
▁辖	-9302
▁迪	-9303
不景	-9304
与读	-9305
之风	-9306
住影	-9307
好地	-9308
容忽	-9309
将从	-9310
就惊	-9311
币戈	-9312
年病	-9313
年被	-9314
控太	-9315
整顿	-9316
歌载	-9317
深藏	-9318
游泳	-9319
百名	-9320
盘鼓	-9321
西北	-9322
覆辙	-9323
观火	-9324
辄几	-9325
▁仅四	-9326
▁决心	-9327
▁凝成	-9328
▁必求	-9329
▁成就	-9330
▁敞开	-9331
▁权和	-9332
▁杨村	-9333
▁病而	-9334
▁看来	-9335
▁踢足	-9336
▁辄几	-9337
▁迪和	-9338
一大早	-9339
不容忽	-9340
中不断	-9341
和技术	-9342
将从今	-9343
岸观火	-9344
年不景	-9345
年病防	-9346
抓住影	-9347
日本去	-9348
计就惊	-9349
辅币戈	-9350
进入管	-9351
遥控太	-9352
那深藏	-9353
▁仅四岁	-9354
▁住两个	-9355
▁凝成传	-9356
▁利前进	-9357
▁必求精	-9358
▁敞开心	-9359
▁权和领	-9360
▁版社建	-9361
▁病而死	-9362
▁确程度	-9363
▁踢足球	-9364
▁蹈覆辙	-9365
▁载歌载	-9366
▁较好地	-9367
▁辄几亩	-9368
▁辅币戈	-9369
▁辆整顿	-9370
▁近百名	-9371
作者与读	-9372
十五年被	-9373
口中不断	-9374
有不容忽	-9375
的人能品	-9376
这个深层	-9377
▁但一大早	-9378
▁努力实现	-9379
▁吴宗教渊	-9380
▁履行同遣	-9381
▁敞开心灵	-9382
▁易和技术	-9383
▁权和领土	-9384
▁杨村机场	-9385
▁版社建社	-9386
▁离不开浩	-9387
▁秘书长曹	-9388
▁空气将影	-9389
▁穿着军装	-9390
▁竞争日益	-9391
▁竞价出租	-9392
▁笔者相信	-9393
▁第九任总	-9394
▁筑路人修	-9395
▁筑路奇迹	-9396
▁简单的兵	-9397
▁管今天为	-9398
▁管机制已	-9399
79	-9400
▁赏	-9401
▁赔	-9402
▁赛	-9403
▁赭	-9404
▁赵	-9405
▁趣	-9406
举枪	-9407
分摊	-9408
南疆	-9409
厂长	-9410
受专	-9411
新兵	-9412
是推	-9413
曾遇	-9414
林嵩	-9415
欲试	-9416
死回	-9417
比亚	-9418
比率	-9419
没落	-9420
然醒	-9421
的慰	-9422
的栋	-9423
转转	-9424
黄秋	-9425
579	-9426
▁催还	-9427
▁某些	-9428
▁留地	-9429
▁赔钱	-9430
▁赭黄	-9431
▁趋于	-9432
也曾遇	-9433
作战略	-9434
厂长办	-9435
和产品	-9436
学习与	-9437
极受专	-9438
永黄秋	-9439
没落和	-9440
法多样	-9441
的学术	-9442
的新格	-9443
赖林嵩	-9444
赫然醒	-9445
1997	-9446
4579	-9447
▁催还的	-9448
▁某些人	-9449
▁留地改	-9450
▁费分摊	-9451
▁赖林嵩	-9452
▁赛举枪	-9453
▁赞比亚	-9454
▁赫然醒	-9455
▁赵新兵	-9456
▁起死回	-9457
▁趣南疆	-9458
▁足比率	-9459
以全民健	-9460
作战略准	-9461
和产品质	-9462
学习与训	-9463
没落和灭	-9464
的学术清	-9465
的西部边	-9466
▁催还的逾	-9467
▁及各种娱	-9468
▁技法多样	-9469
▁拿大银行	-9470
▁某些人冷	-9471
▁留地改成	-9472
▁管理使用	-9473
▁管理并不	-9474
▁管理条例	-9475
▁管理的通	-9476
▁管用机制	-9477
▁箱的鲜花	-9478
▁籍学者的	-9479
▁类中小园	-9480
▁类图书奖	-9481
▁类服务二	-9482
▁类的书籍	-9483
▁系的发展	-9484
▁素不相识	-9485
▁素相对滞	-9486
▁素质中融	-9487
▁索以户办	-9488
▁紧密结合	-9489
▁累计发展	-9490
▁纪实文学	-9491
▁纷纷喜庆	-9492
▁组成若干	-9493
▁织化程度	-9494
▁织和引导	-9495
▁终取得满	-9496
▁经过一番	-9497
▁结和外交	-9498
▁绘制的一	-9499
▁豁	-9500
▁贩	-9501
▁贴	-9502
之忧	-9503
人堪	-9504
土豆	-9505
学技	-9506
宣传	-9507
干杯	-9508
平原	-9509
是东	-9510
是旧	-9511
满窗	-9512
的帐	-9513
要齐	-9514
谭进	-9515
豌豆	-9516
转嫁	-9517
额占	-9518
额最	-9519
风貌	-9520
▁他把	-9521
▁原子	-9522
▁汉子	-9523
▁温洁	-9524
▁积达	-9525
▁谭进	-9526
▁豁达	-9527
▁豌豆	-9528
▁贩的	-9529
▁阅读	-9530
▁随后	-9531
一下车	-9532
人堪忧	-9533
又好像	-9534
国家分	-9535
宣传再	-9536
明显缓	-9537
由平原	-9538
科学技	-9539
自我投	-9540
▁准的命	-9541
▁原子钟	-9542
▁很多人	-9543
▁执行桂	-9544
▁继续坚	-9545
▁网的组	-9546
▁谊干杯	-9547
▁谭进摄	-9548
▁豁达开	-9549
▁象是旧	-9550
▁贩的聚	-9551
▁购额最	-9552
▁贴满窗	-9553
▁阅读浩	-9554
为国家分	-9555
义务转嫁	-9556
令人堪忧	-9557
北京音乐	-9558
取代前苏	-9559
大学和浸	-9560
那样的效	-9561
▁准的命令	-9562
▁完全统一	-9563
▁很多人想	-9564
▁景点和城	-9565
▁版社新近	-9566
▁给大农场	-9567
▁给小农场	-9568
▁给我看病	-9569
▁给特困户	-9570
▁给这个村	-9571
▁统农业向	-9572
▁继承转让	-9573
▁继续坚持	-9574
▁绩和公司	-9575
▁维红报道	-9576
▁绵绵思念	-9577
▁综合商品	-9578
▁综合服务	-9579
▁绿影扶疏	-9580
▁缔造的最	-9581
▁编选者明	-9582
▁缘到南缘	-9583
▁缴国家税	-9584
▁网等基础	-9585
▁署每年召	-9586
▁署达成妥	-9587
▁群团团围	-9588
▁羽毛洁白	-9589
▁耶德很聪	-9590
▁职工共近	-9591
▁职工生活	-9592
▁联系和往	-9593
▁股激情泄	-9594
▁胆的尝试	-9595
▁背着妈妈	-9596
▁脚踏实地	-9597
▁脱了出来	-9598
▁臣英雄辈	-9599
▁误	-9600
▁诺	-9601
▁	-9602
,	-9603
的	-9604
。	-9605
、	-9606
一	-9607
国	-9608
年	-9609
人	-9610
1	-9611
中	-9612
在	-9613
了	-9614
大	-9615
和	-9616
0	-9617
有	-9618
9	-9619
是	-9620
为	-9621
新	-9622
地	-9623
民	-9624
发	-9625
生	-9626
业	-9627
这	-9628
全	-9629
出	-9630
“	-9631
”	-9632
不	-9633
家	-9634
上	-9635
以	-9636
们	-9637
个	-9638
作	-9639
来	-9640
到	-9641
会	-9642
文	-9643
多	-9644
行	-9645
成	-9646
日	-9647
经	-9648
学	-9649
同	-9650
我	-9651
农	-9652
工	-9653
者	-9654
2	-9655
华	-9656
进	-9657
开	-9658
部	-9659
展	-9660
建	-9661
区	-9662
对	-9663
市	-9664
.	-9665
主	-9666
时	-9667
元	-9668
水	-9669
要	-9670
自	-9671
与	-9672
政	-9673
重	-9674
动	-9675
本	-9676
他	-9677
产	-9678
月	-9679
于	-9680
实	-9681
下	-9682
8	-9683
3	-9684
前	-9685
利	-9686
现	-9687
记	-9688
加	-9689
高	-9690
之	-9691
社	-9692
村	-9693
理	-9694
万	-9695
事	-9696
两	-9697
化	-9698
而	-9699
各	-9700
心	-9701
起	-9702
长	-9703
面	-9704
5	-9705
代	-9706
关	-9707
报	-9708
济	-9709
小	-9710
(	-9711
)	-9712
其	-9713
史	-9714
方	-9715
表	-9716
南	-9717
美	-9718
6	-9719
世	-9720
合	-9721
明	-9722
7	-9723
使	-9724
就	-9725
设	-9726
说	-9727
:	-9728
将	-9729
好	-9730
通	-9731
—	-9732
活	-9733
等	-9734
交	-9735
天	-9736
界	-9737
统	-9738
《	-9739
》	-9740
书	-9741
共	-9742
平	-9743
也	-9744
着	-9745
历	-9746
过	-9747
里	-9748
场	-9749
定	-9750
分	-9751
入	-9752
后	-9753
外	-9754
计	-9755
4	-9756
北	-9757
十	-9758
资	-9759
改	-9760
从	-9761
公	-9762
得	-9763
金	-9764
体	-9765
电	-9766
道	-9767
制	-9768
用	-9769
县	-9770
次	-9771
系	-9772
党	-9773
力	-9774
总	-9775
持	-9776
港	-9777
特	-9778
并	-9779
结	-9780
路	-9781
;	-9782
军	-9783
基	-9784
程	-9785
向	-9786
子	-9787
度	-9788
香	-9789
户	-9790
西	-9791
达	-9792
可	-9793
困	-9794
当	-9795
育	-9796
目	-9797
种	-9798
员	-9799
已	-9800
广	-9801
三	-9802
创	-9803
山	-9804
气	-9805
还	-9806
题	-9807
划	-9808
去	-9809
强	-9810
机	-9811
正	-9812
治	-9813
集	-9814
京	-9815
务	-9816
提	-9817
术	-9818
能	-9819
问	-9820
性	-9821
步	-9822
九	-9823
安	-9824
企	-9825
位	-9826
名	-9827
少	-9828
然	-9829
第	-9830
都	-9831
非	-9832
今	-9833
先	-9834
内	-9835
情	-9836
所	-9837
老	-9838
解	-9839
乡	-9840
导	-9841
版	-9842
立	-9843
精	-9844
联	-9845
及	-9846
品	-9847
府	-9848
收	-9849
江	-9850
门	-9851
间	-9852
委	-9853
意	-9854
无	-9855
法	-9856
乐	-9857
如	-9858
推	-9859
此	-9860
增	-9861
画	-9862
管	-9863
举	-9864
团	-9865
最	-9866
由	-9867
古	-9868
式	-9869
海	-9870
物	-9871
贫	-9872
战	-9873
图	-9874
更	-9875
难	-9876
些	-9877
保	-9878
放	-9879
样	-9880
论	-9881
革	-9882
传	-9883
形	-9884
把	-9885
相	-9886
近	-9887
城	-9888
布	-9889
组	-9890
车	-9891
领	-9892
群	-9893
际	-9894
首	-9895
义	-9896
五	-9897
点	-9898
节	-9899
协	-9900
岸	-9901
每	-9902
深	-9903
青	-9904
众	-9905
处	-9906
志	-9907
又	-9908
干	-9909
示	-9910
风	-9911
原	-9912
取	-9913
回	-9914
局	-9915
庆	-9916
张	-9917
投	-9918
祖	-9919
续	-9920
被	-9921
%	-9922
神	-9923
项	-9924
亿	-9925
决	-9926
厂	-9927
数	-9928
省	-9929
给	-9930
馆	-9931
优	-9932
台	-9933
应	-9934
引	-9935
想	-9936
据	-9937
服	-9938
条	-9939
田	-9940
纪	-9941
职	-9942
院	-9943
二	-9944
云	-9945
施	-9946
织	-9947
致	-9948
色	-9949
造	-9950
但	-9951
始	-9952
手	-9953
指	-9954
期	-9955
极	-9956
欢	-9957
比	-9958
流	-9959
演	-9960
队	-9961
坚	-9962
带	-9963
视	-9964
那	-9965
势	-9966
参	-9967
她	-9968
片	-9969
级	-9970
象	-9971
量	-9972
龙	-9973
东	-9974
思	-9975
支	-9976
族	-9977
环	-9978
益	-9979
盛	-9980
调	-9981
值	-9982
受	-9983
币	-9984
感	-9985
技	-9986
接	-9987
看	-9988
继	-9989
花	-9990
话	-9991
光	-9992
别	-9993
变	-9994
型	-9995
央	-9996
整	-9997
率	-9998
严	-9999
再	-10000
几	-10001
口	-10002
常	-10003
快	-10004
斯	-10005
望	-10006
祝	-10007
维	-10008
费	-10009
转	-10010
任	-10011
信	-10012
办	-10013
愿	-10014
效	-10015
认	-10016
音	-10017
头	-10018
格	-10019
艺	-10020
读	-10021
千	-10022
士	-10023
旦	-10024
果	-10025
百	-10026
直	-10027
真	-10028
积	-10029
选	-10030
亚	-10031
件	-10032
功	-10033
只	-10034
命	-10035
商	-10036
求	-10037
爱	-10038
空	-10039
良	-10040
英	-10041
议	-10042
写	-10043
卢	-10044
反	-10045
四	-10046
境	-10047
女	-10048
完	-10049
富	-10050
旗	-10051
林	-10052
知	-10053
至	-10054
藏	-10055
融	-10056
观	-10057
走	-10058
防	-10059
列	-10060
则	-10061
却	-10062
因	-10063
它	-10064
影	-10065
态	-10066
标	-10067
清	-10068
献	-10069
稳	-10070
考	-10071
规	-10072
身	-10073
迎	-10074
银	-10075
飞	-10076
专	-10077
兴	-10078
响	-10079
均	-10080
权	-10081
游	-10082
科	-10083
许	-10084
镇	-10085
降	-10086
马	-10087
做	-10088
八	-10089
助	-10090
双	-10091
己	-10092
德	-10093
李	-10094
温	-10095
类	-10096
讲	-10097
质	-10098
运	-10099
丛	-10100
争	-10101
切	-10102
归	-10103
往	-10104
拉	-10105
教	-10106
歌	-10107
没	-10108
源	-10109
王	-10110
见	-10111
边	-10112
连	-10113
兵	-10114
巴	-10115
彩	-10116
斗	-10117
确	-10118
航	-10119
评	-10120
钱	-10121
亩	-10122
况	-10123
副	-10124
域	-10125
夏	-10126
帮	-10127
必	-10128
扶	-10129
武	-10130
河	-10131
泽	-10132
满	-10133
略	-10134
础	-10135
笔	-10136
籍	-10137
编	-10138
货	-10139
?	-10140
俄	-10141
具	-10142
兼	-10143
友	-10144
告	-10145
园	-10146
存	-10147
才	-10148
景	-10149
研	-10150
究	-10151
红	-10152
线	-10153
装	-10154
识	-10155
额	-10156
供	-10157
努	-10158
升	-10159
半	-10160
川	-10161
很	-10162
护	-10163
故	-10164
款	-10165
照	-10166
脱	-10167
荣	-10168
街	-10169
该	-10170
责	-10171
七	-10172
价	-10173
减	-10174
周	-10175
善	-10176
复	-10177
尽	-10178
席	-10179
春	-10180
紧	-10181
罗	-10182
营	-10183
警	-10184
鲜	-10185
『	-10186
』	-10187
临	-10188
司	-10189
喜	-10190
夜	-10191
套	-10192
孙	-10193
庭	-10194
录	-10195
早	-10196
油	-10197
洲	-10198
球	-10199
米	-10200
繁	-10201
胞	-10202
范	-10203
谋	-10204
退	-10205
速	-10206
随	-10207
令	-10208
克	-10209
养	-10210
包	-10211
岁	-10212
扎	-10213
批	-10214
未	-10215
约	-10216
菜	-10217
著	-10218
谈	-10219
贺	-10220
较	-10221
远	-10222
雄	-10223
!	-10224
仅	-10225
何	-10226
依	-10227
刘	-10228
刻	-10229
占	-10230
印	-10231
声	-10232
孔	-10233
宁	-10234
密	-10235
尔	-10236
巨	-10237
念	-10238
慰	-10239
承	-10240
抓	-10241
摄	-10242
显	-10243
梁	-10244
注	-10245
火	-10246
热	-10247
落	-10248
证	-10249
采	-10250
驻	-10251
黄	-10252
午	-10253
土	-10254
奋	-10255
客	-10256
宣	-10257
尼	-10258
州	-10259
希	-10260
庄	-10261
底	-10262
或	-10263
曲	-10264
案	-10265
模	-10266
澳	-10267
激	-10268
称	-10269
终	-10270
贸	-10271
述	-10272
送	-10273
针	-10274
雨	-10275
震	-10276
鱼	-10277
份	-10278
伍	-10279
伟	-10280
健	-10281
儿	-10282
准	-10283
初	-10284
卡	-10285
召	-10286
容	-10287
曾	-10288
独	-10289
破	-10290
章	-10291
艰	-10292
访	-10293
负	-10294
阳	-10295
丽	-10296
乎	-10297
仪	-10298
低	-10299
便	-10300
卫	-10301
即	-10302
号	-10303
备	-10304
居	-10305
怀	-10306
按	-10307
挥	-10308
斤	-10309
断	-10310
晚	-10311
材	-10312
构	-10313
波	-10314
派	-10315
琛	-10316
禁	-10317
福	-10318
纷	-10319
购	-10320
贵	-10321
超	-10322
迹	-10323
雪	-10324
韩	-10325
么	-10326
亡	-10327
亲	-10328
仍	-10329
伤	-10330
促	-10331
典	-10332
冷	-10333
劳	-10334
围	-10335
塔	-10336
奇	-10337
座	-10338
康	-10339
排	-10340
探	-10341
控	-10342
烈	-10343
石	-10344
纳	-10345
聚	-10346
胡	-10347
让	-10348
讯	-10349
逐	-10350
销	-10351
·	-10352
住	-10353
侨	-10354
充	-10355
冬	-10356
夫	-10357
寒	-10358
察	-10359
息	-10360
散	-10361
映	-10362
智	-10363
查	-10364
汇	-10365
泾	-10366
状	-10367
珍	-10368
登	-10369
眼	-10370
素	-10371
署	-10372
背	-10373
舞	-10374
苦	-10375
茶	-10376
财	-10377
足	-10378
辉	-10379
验	-10380
’	-10381
刚	-10382
卖	-10383
危	-10384
吕	-10385
吸	-10386
字	-10387
徐	-10388
救	-10389
旧	-10390
根	-10391
死	-10392
段	-10393
消	-10394
湾	-10395
留	-10396
白	-10397
短	-10398
突	-10399
策	-10400
纸	-10401
胜	-10402
谁	-10403
邓	-10404
郑	-10405
阶	-10406
互	-10407
余	-10408
你	-10409
佳	-10410
兰	-10411
剧	-10412
勒	-10413
厚	-10414
唱	-10415
妇	-10416
幅	-10417
序	-10418
待	-10419
忘	-10420
恢	-10421
易	-10422
树	-10423
浩	-10424
瑞	-10425
粮	-10426
补	-10427
言	-10428
贷	-10429
轻	-10430
遗	-10431
陈	-10432
需	-10433
顿	-10434
齐	-10435
且	-10436
丰	-10437
修	-10438
停	-10439
像	-10440
勃	-10441
医	-10442
器	-10443
墨	-10444
太	-10445
层	-10446
担	-10447
拥	-10448
括	-10449
拿	-10450
振	-10451
措	-10452
敬	-10453
旅	-10454
暖	-10455
束	-10456
架	-10457
氛	-10458
焦	-10459
玉	-10460
索	-10461
荒	-10462
虽	-10463
觉	-10464
角	-10465
越	-10466
跨	-10467
追	-10468
阵	-10469
阿	-10470
限	-10471
食	-10472
丝	-10473
久	-10474
习	-10475
判	-10476
单	-10477
厅	-10478
叙	-10479
启	-10480
哈	-10481
失	-10482
官	-10483
审	-10484
律	-10485
怎	-10486
拍	-10487
捐	-10488
普	-10489
横	-10490
玲	-10491
班	-10492
甚	-10493
秀	-10494
筹	-10495
篇	-10496
置	-10497
股	-10498
蒙	-10499
誉	-10500
词	-10501
请	-10502
趋	-10503
辆	-10504
辞	-10505
适	-10506
遇	-10507
顺	-10508
须	-10509
鸣	-10510
丁	-10511
买	-10512
候	-10513
六	-10514
冲	-10515
博	-10516
另	-10517
呼	-10518
坦	-10519
奏	-10520
宾	-10521
属	-10522
峰	-10523
忧	-10524
房	-10525
托	-10526
扬	-10527
拓	-10528
挤	-10529
摆	-10530
料	-10531
既	-10532
星	-10533
朋	-10534
木	-10535
析	-10536
止	-10537
润	-10538
潮	-10539
爸	-10540
筑	-10541
纯	-10542
绍	-10543
绩	-10544
绿	-10545
耶	-10546
肉	-10547
舍	-10548
若	-10549
违	-10550
配	-10551
钟	-10552
闻	-10553
附	-10554
静	-10555
预	-10556
鼓	-10557
乌	-10558
什	-10559
介	-10560
伊	-10561
偏	-10562
击	-10563
右	-10564
坡	-10565
培	-10566
壮	-10567
夕	-10568
奶	-10569
岗	-10570
帜	-10571
征	-10572
恩	-10573
悲	-10574
惠	-10575
描	-10576
援	-10577
搞	-10578
朝	-10579
朱	-10580
松	-10581
殖	-10582
毛	-10583
泛	-10584
洁	-10585
浙	-10586
渐	-10587
湖	-10588
灵	-10589
煌	-10590
离	-10591
秦	-10592
税	-10593
竟	-10594
童	-10595
纽	-10596
综	-10597
脑	-10598
莫	-10599
萨	-10600
语	-10601
谓	-10602
谢	-10603
赞	-10604
跃	-10605
跑	-10606
载	-10607
透	-10608
雅	-10609
雷	-10610
休	-10611
伴	-10612
倡	-10613
凡	-10614
吨	-10615
听	-10616
圳	-10617
奖	-10618
妈	-10619
孤	-10620
尊	-10621
尤	-10622
届	-10623
左	-10624
差	-10625
师	-10626
扩	-10627
找	-10628
挑	-10629
换	-10630
授	-10631
摊	-10632
板	-10633
桑	-10634
欣	-10635
永	-10636
沙	-10637
渡	-10638
滨	-10639
灌	-10640
瓜	-10641
疆	-10642
病	-10643
监	-10644
盾	-10645
秩	-10646
穿	-10647
窗	-10648
签	-10649
简	-10650
耕	-10651
胀	-10652
脚	-10653
苏	-10654
获	-10655
蔬	-10656
血	-10657
衣	-10658
贡	-10659
赠	-10660
遍	-10661
键	-10662
阅	-10663
露	-10664
C	-10665
°	-10666
‘	-10667
亮	-10668
劲	-10669
勇	-10670
叶	-10671
吁	-10672
吴	-10673
哲	-10674
喷	-10675
坝	-10676
妹	-10677
妻	-10678
季	-10679
孩	-10680
延	-10681
异	-10682
役	-10683
彻	-10684
循	-10685
忆	-10686
忠	-10687
悟	-10688
抗	-10689
拱	-10690
挂	-10691
播	-10692
敢	-10693
核	-10694
桥	-10695
概	-10696
氏	-10697
沧	-10698
沼	-10699
泰	-10700
涨	-10701
淡	-10702
渠	-10703
烂	-10704
烟	-10705
狂	-10706
矛	-10707
秋	-10708
租	-10709
站	-10710
竞	-10711
细	-10712
缓	-10713
羊	-10714
翻	-10715
般	-10716
荡	-10717
董	-10718
衡	-10719
触	-10720
誓	-10721
豆	-10722
豪	-10723
貌	-10724
赏	-10725
赢	-10726
迈	-10727
迟	-10728
逾	-10729
邮	-10730
醒	-10731
陆	-10732
除	-10733
靠	-10734
骨	-10735
鲁	-10736
付	-10737
似	-10738
例	-10739
倒	-10740
兑	-10741
冉	-10742
净	-10743
刊	-10744
卷	-10745
压	-10746
呈	-10747
呢	-10748
味	-10749
哥	-10750
固	-10751
圣	-10752
坐	-10753
块	-10754
堵	-10755
塞	-10756
够	-10757
宗	-10758
岭	-10759
幼	-10760
惊	-10761
懈	-10762
执	-10763
招	-10764
旋	-10765
末	-10766
杨	-10767
梅	-10768
棚	-10769
森	-10770
楼	-10771
欠	-10772
毅	-10773
毫	-10774
沉	-10775
沟	-10776
津	-10777
洪	-10778
浓	-10779
涉	-10780
涵	-10781
溉	-10782
滚	-10783
漠	-10784
潜	-10785
灯	-10786
灾	-10787
疑	-10788
盘	-10789
竹	-10790
笑	-10791
算	-10792
粉	-10793
累	-10794
练	-10795
绘	-10796
绝	-10797
缘	-10798
缩	-10799
胆	-10800
脸	-10801
菲	-10802
蕊	-10803
览	-10804
订	-10805
训	-10806
贯	-10807
贴	-10808
贾	-10809
趣	-10810
踏	-10811
邻	-10812
险	-10813
隆	-10814
频	-10815
鹏	-10816
‰	-10817
丹	-10818
乱	-10819
享	-10820
仁	-10821
仰	-10822
佩	-10823
俊	-10824
偿	-10825
册	-10826
冒	-10827
冰	-10828
剖	-10829
匙	-10830
吃	-10831
吗	-10832
嘉	-10833
囊	-10834
垦	-10835
堂	-10836
姐	-10837
宪	-10838
屋	-10839
峡	-10840
崇	-10841
幕	-10842
库	-10843
微	-10844
急	-10845
恭	-10846
悦	-10847
打	-10848
抢	-10849
择	-10850
挺	-10851
掉	-10852
掘	-10853
揭	-10854
搜	-10855
撤	-10856
撰	-10857
攻	-10858
旨	-10859
昌	-10860
晨	-10861
曹	-10862
枪	-10863
染	-10864
校	-10865
植	-10866
毁	-10867
毕	-10868
汉	-10869
泳	-10870
洋	-10871
浪	-10872
淮	-10873
灭	-10874
灿	-10875
炼	-10876
煤	-10877
爆	-10878
猪	-10879
瓦	-10880
盖	-10881
硬	-10882
礼	-10883
祥	-10884
票	-10885
端	-10886
绵	-10887
缺	-10888
耀	-10889
肯	-10890
胸	-10891
芳	-10892
蓝	-10893
诗	-10894
诚	-10895
课	-10896
谱	-10897
跌	-10898
轨	-10899
输	-10900
钥	-10901
铁	-10902
阔	-10903
陀	-10904
隔	-10905
障	-10906
零	-10907
页	-10908
饲	-10909
鸡	-10910
鸿	-10911
黎	-10912
黑	-10913
默	-10914
龚	-10915
佐	-10916
债	-10917
假	-10918
凝	-10919
凯	-10920
剩	-10921
叫	-10922
吐	-10923
含	-10924
售	-10925
坏	-10926
塘	-10927
奔	-10928
奥	-10929
妙	-10930
妥	-10931
姑	-10932
姜	-10933
威	-10934
宅	-10935
宏	-10936
宜	-10937
宝	-10938
宽	-10939
寄	-10940
寡	-10941
寻	-10942
履	-10943
岛	-10944
巩	-10945
床	-10946
弟	-10947
径	-10948
忙	-10949
恰	-10950
恶	-10951
悉	-10952
截	-10953
拔	-10954
拘	-10955
拜	-10956
挖	-10957
掌	-10958
插	-10959
握	-10960
操	-10961
敏	-10962
敞	-10963
斑	-10964
旱	-10965
昭	-10966
某	-10967
栋	-10968
检	-10969
榭	-10970
欧	-10971
汪	-10972
泉	-10973
洗	-10974
测	-10975
涌	-10976
淀	-10977
添	-10978
滴	-10979
漫	-10980
濒	-10981
灶	-10982
炸	-10983
牌	-10984
牡	-10985
牵	-10986
猎	-10987
玩	-10988
珠	-10989
男	-10990
畅	-10991
畜	-10992
番	-10993
睦	-10994
矿	-10995
禽	-10996
秘	-10997
穷	-10998
窥	-10999
篆	-11000
篓	-11001
纲	-11002
缔	-11003
翁	-11004
肩	-11005
膨	-11006
艳	-11007
蓄	-11008
蓬	-11009
衷	-11010
袭	-11011
覆	-11012
试	-11013
详	-11014
谨	-11015
账	-11016
赛	-11017
赶	-11018
软	-11019
辈	-11020
辖	-11021
迁	-11022
迅	-11023
迪	-11024
途	-11025
遣	-11026
郁	-11027
郭	-11028
野	-11029
锋	-11030
锡	-11031
闭	-11032
阻	-11033
陵	-11034
顶	-11035
顾	-11036
颜	-11037
飘	-11038
驱	-11039
鸟	-11040
/	-11041
A	-11042
B	-11043
丧	-11044
串	-11045
乃	-11046
乏	-11047
乔	-11048
乳	-11049
予	-11050
仓	-11051
伙	-11052
佛	-11053
俗	-11054
倍	-11055
储	-11056
允	-11057
励	-11058
卉	-11059
厦	-11060
否	-11061
吹	-11062
咱	-11063
啊	-11064
喝	-11065
嘴	-11066
址	-11067
坛	-11068
坪	-11069
堡	-11070
夺	-11071
奉	-11072
婚	-11073
媒	-11074
宫	-11075
寺	-11076
封	-11077
射	-11078
尉	-11079
尝	-11080
尾	-11081
屏	-11082
岚	-11083
峻	-11084
帧	-11085
弃	-11086
弥	-11087
弦	-11088
彭	-11089
徊	-11090
徘	-11091
徽	-11092
恒	-11093
患	-11094
愉	-11095
慎	-11096
慧	-11097
憾	-11098
懂	-11099
戈	-11100
抵	-11101
损	-11102
摇	-11103
旁	-11104
昆	-11105
昨	-11106
晤	-11107
朗	-11108
朴	-11109
杰	-11110
柏	-11111
柱	-11112
柴	-11113
桂	-11114
梦	-11115
棉	-11116
椒	-11117
残	-11118
池	-11119
汽	-11120
沪	-11121
泄	-11122
泣	-11123
泥	-11124
泪	-11125
洒	-11126
浇	-11127
滋	-11128
潘	-11129
灰	-11130
炮	-11131
燃	-11132
父	-11133
爷	-11134
牖	-11135
牧	-11136
犹	-11137
狠	-11138
甘	-11139
眉	-11140
督	-11141
瞩	-11142
碌	-11143
祈	-11144
祷	-11145
竖	-11146
绕	-11147
络	-11148
网	-11149
翰	-11150
翼	-11151
耘	-11152
聪	-11153
腮	-11154
腹	-11155
船	-11156
艾	-11157
茭	-11158
药	-11159
蒸	-11160
蔓	-11161
蔚	-11162
虎	-11163
虑	-11164
虹	-11165
衰	-11166
讨	-11167
诉	-11168
诊	-11169
诸	-11170
诺	-11171
谊	-11172
贤	-11173
赖	-11174
赴	-11175
赵	-11176
轮	-11177
辙	-11178
辛	-11179
辣	-11180
逊	-11181
逛	-11182
遥	-11183
邦	-11184
酋	-11185
酒	-11186
钢	-11187
铺	-11188
镕	-11189
闪	-11190
闹	-11191
韵	-11192
颇	-11193
饮	-11194
馨	-11195
驶	-11196
驾	-11197
骤	-11198
鬼	-11199
魂	-11200
魄	-11201
鹰	-11202
麻	-11203
乾	-11204
井	-11205
亦	-11206
亭	-11207
仆	-11208
仿	-11209
伐	-11210
伦	-11211
侠	-11212
侧	-11213
倘	-11214
借	-11215
倦	-11216
倾	-11217
催	-11218
傲	-11219
兄	-11220
兆	-11221
免	-11222
凌	-11223
剑	-11224
割	-11225
劣	-11226
劫	-11227
勋	-11228
募	-11229
勤	-11230
匆	-11231
卜	-11232
句	-11233
叭	-11234
吉	-11235
哀	-11236
哪	-11237
喇	-11238
圆	-11239
垫	-11240
堆	-11241
堪	-11242
塑	-11243
墙	-11244
奠	-11245
妨	-11246
姨	-11247
姻	-11248
娃	-11249
娓	-11250
娱	-11251
孝	-11252
守	-11253
宋	-11254
室	-11255
害	-11256
宿	-11257
寂	-11258
寓	-11259
尖	-11260
尚	-11261
尺	-11262
屡	-11263
岩	-11264
崭	-11265
巧	-11266
巷	-11267
帷	-11268
幸	-11269
廉	-11270
弱	-11271
彦	-11272
彬	-11273
彼	-11274
忽	-11275
怕	-11276
悠	-11277
惜	-11278
惯	-11279
惶	-11280
慨	-11281
戎	-11282
戒	-11283
扫	-11284
扮	-11285
扰	-11286
披	-11287
抱	-11288
拒	-11289
拖	-11290
拨	-11291
拾	-11292
挚	-11293
挣	-11294
掩	-11295
揣	-11296
揽	-11297
搭	-11298
摘	-11299
摧	-11300
摩	-11301
摸	-11302
撼	-11303
敲	-11304
斌	-11305
斐	-11306
斓	-11307
旬	-11308
旺	-11309
昂	-11310
昼	-11311
晋	-11312
暗	-11313
杂	-11314
杜	-11315
杭	-11316
枝	-11317
柳	-11318
柿	-11319
框	-11320
桌	-11321
档	-11322
椅	-11323
欲	-11324
歧	-11325
殃	-11326
殊	-11327
沈	-11328
沿	-11329
洞	-11330
洼	-11331
浜	-11332
湿	-11333
溪	-11334
滞	-11335
漾	-11336
澄	-11337
烧	-11338
烽	-11339
熊	-11340
熟	-11341
牛	-11342
狭	-11343
猛	-11344
玛	-11345
珮	-11346
琴	-11347
琼	-11348
甜	-11349
申	-11350
畔	-11351
疏	-11352
疗	-11353
痕	-11354
痪	-11355
瘫	-11356
皇	-11357
皎	-11358
盆	-11359
盗	-11360
眠	-11361
眺	-11362
睹	-11363
码	-11364
砖	-11365
硕	-11366
硝	-11367
磨	-11368
私	-11369
秧	-11370
移	-11371
稀	-11372
笛	-11373
笼	-11374
答	-11375
箫	-11376
粗	-11377
粹	-11378
糊	-11379
纵	-11380
纺	-11381
绣	-11382
绳	-11383
绸	-11384
缅	-11385
缚	-11386
缤	-11387
罕	-11388
罚	-11389
罢	-11390
羽	-11391
耳	-11392
肖	-11393
脆	-11394
脉	-11395
脏	-11396
腐	-11397
腾	-11398
臣	-11399
舆	-11400
舟	-11401
苍	-11402
茂	-11403
茫	-11404
茵	-11405
草	-11406
莽	-11407
萝	-11408
萧	-11409
蒂	-11410
蕴	-11411
蕾	-11412
藉	-11413
虚	-11414
蛋	-11415
蜜	-11416
袋	-11417
袱	-11418
裁	-11419
裂	-11420
裕	-11421
译	-11422
诞	-11423
谦	-11424
谷	-11425
豫	-11426
贪	-11427
赤	-11428
赫	-11429
跋	-11430
跳	-11431
践	-11432
踞	-11433
轰	-11434
辄	-11435
辐	-11436
辑	-11437
辟	-11438
返	-11439
迭	-11440
逝	-11441
逢	-11442
邀	-11443
邹	-11444
钞	-11445
钦	-11446
钻	-11447
锐	-11448
锤	-11449
锦	-11450
闯	-11451
阐	-11452
阴	-11453
陪	-11454
陶	-11455
隐	-11456
雀	-11457
雕	-11458
韧	-11459
餐	-11460
饱	-11461
饺	-11462
骄	-11463
鸠	-11464
鼠	-11465
丈	-11466
乘	-11467
亏	-11468
仇	-11469
仔	-11470
伏	-11471
伯	-11472
估	-11473
伸	-11474
佯	-11475
俏	-11476
俘	-11477
俨	-11478
俯	-11479
俱	-11480
倔	-11481
倪	-11482
偷	-11483
傅	-11484
傍	-11485
僧	-11486
僵	-11487
儒	-11488
兹	-11489
冠	-11490
冯	-11491
冶	-11492
冻	-11493
凤	-11494
凭	-11495
凶	-11496
凸	-11497
刃	-11498
刷	-11499
券	-11500
剂	-11501
削	-11502
剥	-11503
剪	-11504
剿	-11505
劈	-11506
劼	-11507
勉	-11508
勘	-11509
勾	-11510
匠	-11511
卧	-11512
卯	-11513
卿	-11514
厉	-11515
厌	-11516
叉	-11517
叔	-11518
叩	-11519
叱	-11520
叹	-11521
吟	-11522
吧	-11523
呕	-11524
咏	-11525
咤	-11526
咨	-11527
哄	-11528
哇	-11529
哩	-11530
唐	-11531
喊	-11532
喧	-11533
喻	-11534
嘎	-11535
嘘	-11536
嘱	-11537
嘹	-11538
圈	-11539
圾	-11540
坎	-11541
坤	-11542
坷	-11543
垂	-11544
垃	-11545
垄	-11546
垠	-11547
埃	-11548
埔	-11549
堑	-11550
堤	-11551
墓	-11552
墟	-11553
壳	-11554
夸	-11555
夹	-11556
奴	-11557
姆	-11558
姓	-11559
娇	-11560
娶	-11561
媚	-11562
媳	-11563
嫁	-11564
嫩	-11565
孚	-11566
寞	-11567
寨	-11568
寸	-11569
尘	-11570
尸	-11571
尹	-11572
屈	-11573
屿	-11574
岂	-11575
岱	-11576
峭	-11577
崔	-11578
崖	-11579
崛	-11580
嵌	-11581
嵩	-11582
巡	-11583
巾	-11584
帅	-11585
帐	-11586
帕	-11587
帘	-11588
帙	-11589
帝	-11590
帽	-11591
幄	-11592
幽	-11593
庙	-11594
废	-11595
弄	-11596
弊	-11597
弗	-11598
弯	-11599
弹	-11600
忍	-11601
怒	-11602
怜	-11603
怠	-11604
怨	-11605
恋	-11606
恍	-11607
恐	-11608
恤	-11609
恨	-11610
恺	-11611
悄	-11612
悔	-11613
您	-11614
悬	-11615
悸	-11616
惨	-11617
惬	-11618
愁	-11619
愤	-11620
愫	-11621
慢	-11622
慷	-11623
憨	-11624
憬	-11625
戴	-11626
扇	-11627
扉	-11628
扑	-11629
扣	-11630
扭	-11631
抄	-11632
抒	-11633
折	-11634
抛	-11635
抠	-11636
抬	-11637
抽	-11638
拆	-11639
拗	-11640
拙	-11641
拟	-11642
拢	-11643
拦	-11644
拮	-11645
拼	-11646
挡	-11647
挨	-11648
挫	-11649
捉	-11650
捍	-11651
捧	-11652
捷	-11653
掏	-11654
掬	-11655
搁	-11656
搏	-11657
搬	-11658
撑	-11659
撒	-11660
撷	-11661
攀	-11662
攥	-11663
敌	-11664
斡	-11665
晓	-11666
晴	-11667
暇	-11668
暴	-11669
曙	-11670
曝	-11671
曼	-11672
替	-11673
朵	-11674
朽	-11675
杀	-11676
杆	-11677
杈	-11678
杞	-11679
杯	-11680
枚	-11681
枸	-11682
柔	-11683
柘	-11684
栏	-11685
栓	-11686
栖	-11687
桃	-11688
梓	-11689
梭	-11690
梯	-11691
械	-11692
棋	-11693
棒	-11694
楚	-11695
榫	-11696
槟	-11697
樊	-11698
歼	-11699
殷	-11700
母	-11701
氢	-11702
氤	-11703
氲	-11704
汀	-11705
汗	-11706
汛	-11707
汝	-11708
污	-11709
汤	-11710
汾	-11711
沂	-11712
沥	-11713
沫	-11714
沾	-11715
泸	-11716
泻	-11717
浅	-11718
浑	-11719
浦	-11720
浮	-11721
浸	-11722
涂	-11723
涅	-11724
涛	-11725
涝	-11726
涣	-11727
涪	-11728
涯	-11729
淌	-11730
淳	-11731
混	-11732
渊	-11733
渝	-11734
渤	-11735
渥	-11736
溜	-11737
溧	-11738
溯	-11739
滥	-11740
滩	-11741
漏	-11742
漓	-11743
澈	-11744
澎	-11745
瀑	-11746
瀚	-11747
炉	-11748
炎	-11749
炽	-11750
烁	-11751
熔	-11752
燕	-11753
爪	-11754
牙	-11755
牢	-11756
牲	-11757
牺	-11758
犯	-11759
狱	-11760
狼	-11761
珊	-11762
琅	-11763
琦	-11764
瑙	-11765
瑚	-11766
瑰	-11767
瑶	-11768
甫	-11769
甲	-11770
疫	-11771
疾	-11772
症	-11773
痛	-11774
瘠	-11775
皆	-11776
皮	-11777
盈	-11778
盎	-11779
盏	-11780
盲	-11781
眷	-11782
睛	-11783
瞒	-11784
砂	-11785
砍	-11786
砚	-11787
碍	-11788
碎	-11789
碑	-11790
碰	-11791
磊	-11792
磋	-11793
禺	-11794
秒	-11795
秤	-11796
稍	-11797
稚	-11798
稻	-11799
稿	-11800
穆	-11801
窄	-11802
窘	-11803
竣	-11804
笃	-11805
笋	-11806
筛	-11807
筝	-11808
箱	-11809
箴	-11810
篮	-11811
粒	-11812
粪	-11813
粲	-11814
糅	-11815
糖	-11816
紫	-11817
纂	-11818
纠	-11819
纬	-11820
纶	-11821
绎	-11822
绑	-11823
绒	-11824
绚	-11825
绪	-11826
缕	-11827
缝	-11828
缭	-11829
缴	-11830
罐	-11831
罪	-11832
翅	-11833
翔	-11834
翠	-11835
耻	-11836
聘	-11837
肃	-11838
肤	-11839
肥	-11840
肴	-11841
肿	-11842
胁	-11843
脂	-11844
腊	-11845
腕	-11846
腰	-11847
膀	-11848
膏	-11849
臂	-11850
臆	-11851
臭	-11852
臾	-11853
舒	-11854
舰	-11855
芍	-11856
芒	-11857
芙	-11858
芜	-11859
芝	-11860
芦	-11861
芭	-11862
芹	-11863
苋	-11864
苗	-11865
苹	-11866
茄	-11867
茅	-11868
茨	-11869
荆	-11870
莅	-11871
莎	-11872
菊	-11873
菌	-11874
菠	-11875
萌	-11876
萍	-11877
葡	-11878
葫	-11879
葱	-11880
蓉	-11881
蕉	-11882
蕻	-11883
薄	-11884
薛	-11885
虬	-11886
蜕	-11887
衍	-11888
衔	-11889
袖	-11890
裹	-11891
觅	-11892
觑	-11893
觞	-11894
詹	-11895
讴	-11896
询	-11897
误	-11898
谭	-11899
豁	-11900
豌	-11901
豹	-11902
贝	-11903
贞	-11904
败	-11905
贩	-11906
贬	-11907
贱	-11908
贻	-11909
赁	-11910
赋	-11911
赐	-11912
赔	-11913
赡	-11914
赭	-11915
距	-11916
跟	-11917
跷	-11918
踢	-11919
踵	-11920
蹈	-11921
躺	-11922
轲	-11923
辅	-11924
辨	-11925
迄	-11926
逃	-11927
遏	-11928
遒	-11929
遮	-11930
遵	-11931
邕	-11932
邱	-11933
邵	-11934
邸	-11935
郊	-11936
郎	-11937
释	-11938
鉴	-11939
钓	-11940
钧	-11941
钩	-11942
铎	-11943
铣	-11944
铭	-11945
链	-11946
锁	-11947
锅	-11948
错	-11949
锣	-11950
锲	-11951
锻	-11952
镜	-11953
镶	-11954
闸	-11955
阂	-11956
阑	-11957
阖	-11958
陟	-11959
陡	-11960
陲	-11961
陷	-11962
隶	-11963
雁	-11964
雏	-11965
雯	-11966
雾	-11967
霎	-11968
霜	-11969
霞	-11970
霸	-11971
鞋	-11972
鞭	-11973
韦	-11974
颂	-11975
颖	-11976
颗	-11977
饥	-11978
饰	-11979
饼	-11980
饿	-11981
驰	-11982
骅	-11983
骑	-11984
骚	-11985
魁	-11986
魅	-11987
鲍	-11988
鲤	-11989
鲫	-11990
鲶	-11991
鳜	-11992
鸢	-11993
麦	-11994
黔	-11995
鼐	-11996
龄	-11997
