<pad>	0
[UNK]	0
▁,	-0
▁的	-1
▁。	-2
▁、	-3
▁1	-4
▁中	-5
▁人	-6
▁一	-7
▁和	-8
▁在	-9
▁了	-10
▁大	-11
▁新	-12
▁发	-13
▁国	-14
▁”	-15
▁是	-16
▁年	-17
▁全	-18
▁上	-19
▁地	-20
▁有	-21
▁这	-22
▁中国	-23
▁出	-24
▁农	-25
▁文	-26
▁经	-27
▁为	-28
▁生	-29
▁不	-30
▁开	-31
▁来	-32
▁建	-33
▁0	-34
▁日	-35
▁以	-36
▁成	-37
▁2	-38
▁我	-39
▁多	-40
▁19	-41
▁工	-42
▁政	-43
▁时	-44
▁到	-45
▁“	-46
▁自	-47
▁进	-48
▁市	-49
▁199	-50
▁同	-51
▁家	-52
▁发展	-53
▁与	-54
▁对	-55
▁水	-56
▁重	-57
▁下	-58
▁之	-59
▁经济	-60
▁学	-61
▁人民	-62
▁主	-63
▁各	-64
▁元	-65
▁实	-66
▁记	-67
▁两	-68
▁他	-69
▁(	-70
▁世	-71
▁9	-72
▁前	-73
▁会	-74
▁3	-75
▁高	-76
▁说	-77
▁共	-78
▁起	-79
▁作	-80
▁美	-81
▁历	-82
▁》	-83
▁部	-84
▁万	-85
▁改	-86
▁本	-87
▁关	-88
▁公	-89
▁村	-90
▁北	-91
▁方	-92
..	-93
▁小	-94
▁而	-95
▁事	-96
▁产	-97
▁香	-98
▁南	-99
▁等	-100
▁计	-101
▁新年	-102
▁总	-103
▁建设	-104
▁记者	-105
▁将	-106
▁历史	-107
▁化	-108
▁华	-109
▁6	-110
▁个	-111
▁基	-112
▁现	-113
▁党	-114
▁我们	-115
▁特	-116
▁一个	-117
▁5	-118
▁香港	-119
▁加	-120
▁好	-121
▁全国	-122
▁企	-123
▁十	-124
▁性	-125
▁社	-126
▁第	-127
▁要	-128
▁企业	-129
▁后	-130
▁农业	-131
▁;	-132
▁于	-133
▁代	-134
▁提	-135
▁民	-136
▁面	-137
▁00	-138
▁8	-139
▁着	-140
▁里	-141
▁从	-142
▁其	-143
▁军	-144
▁创	-145
▁就	-146
▁国家	-147
▁交	-148
▁广	-149
▁推	-150
▁世界	-151
▁政府	-152
▁:	-153
▁外	-154
▁利	-155
▁结	-156
▁资	-157
▁计划	-158
▁精	-159
▁4	-160
▁7	-161
▁《	-162
▁今	-163
▁10	-164
▁工作	-165
▁书	-166
▁分	-167
▁山	-168
▁户	-169
▁表	-170
▁集	-171
▁也	-172
▁增	-173
▁已	-174
▁当	-175
▁活	-176
▁过	-177
▁三	-178
▁去	-179
▁可	-180
▁报	-181
▁无	-182
▁举	-183
▁县	-184
▁形	-185
▁还	-186
▁心	-187
▁达	-188
▁使	-189
▁保	-190
▁战	-191
▁行	-192
▁—	-193
▁九	-194
▁最	-195
▁正	-196
▁管	-197
▁通	-198
▁金	-199
▁长	-200
▁如	-201
▁安	-202
▁明	-203
▁此	-204
▁由	-205
▁目	-206
▁组	-207
▁联	-208
▁首	-209
生育	-210
▁南非	-211
▁本报	-212
▁计划生育	-213
▁区	-214
▁次	-215
▁北京	-216
▁动	-217
▁合	-218
▁情	-219
▁所	-220
▁更	-221
▁祖	-222
▁近	-223
▁青	-224
▁出版	-225
▁社会	-226
▁传	-227
▁内	-228
▁问	-229
▁新的	-230
▁们	-231
▁体	-232
▁子	-233
▁平	-234
▁投	-235
▁祖国	-236
▁)	-237
▁力	-238
▁天	-239
▁得	-240
▁气	-241
▁都	-242
▁两岸	-243
▁先	-244
▁制	-245
▁收	-246
▁每	-247
▁用	-248
▁相	-249
▁老	-250
▁地区	-251
▁业	-252
▁机	-253
▁统	-254
▁群	-255
▁中华	-256
▁生活	-257
▁原	-258
▁回	-259
▁指	-260
▁江	-261
▁改革	-262
▁活动	-263
▁进行	-264
▁名	-265
▁图	-266
▁委	-267
▁意	-268
▁月	-269
▁职	-270
▁西	-271
▁解	-272
▁领	-273
▁工程	-274
▁文明	-275
▁亿	-276
▁参	-277
▁理	-278
▁画	-279
▁能	-280
▁节	-281
▁路	-282
▁及	-283
▁团	-284
▁困	-285
▁处	-286
▁带	-287
▁服	-288
▁深	-289
▁电	-290
▁关系	-291
▁新华	-292
▁1997	-293
▁优	-294
▁坚	-295
▁条	-296
▁继	-297
▁20	-298
▁农民	-299
▁职工	-300
▁新华社	-301
▁城	-302
▁强	-303
▁思	-304
▁盛	-305
▁给	-306
▁维	-307
▁者	-308
▁车	-309
▁风	-310
▁中央	-311
▁感	-312
▁法	-313
▁海	-314
▁被	-315
▁道	-316
▁实现	-317
▁水利	-318
▁第一	-319
▁精神	-320
▁群众	-321
▁位	-322
▁定	-323
▁引	-324
▁据	-325
▁看	-326
▁%	-327
▁又	-328
▁向	-329
▁把	-330
▁支	-331
▁认	-332
▁音	-333
▁他们	-334
▁统一	-335
▁.	-336
▁取	-337
▁台	-338
▁她	-339
▁展	-340
▁省	-341
▁级	-342
▁举行	-343
▁交通	-344
▁国际	-345
▁市场	-346
▁的一	-347
▁问题	-348
▁反	-349
▁史	-350
▁度	-351
▁手	-352
▁整	-353
▁转	-354
▁题	-355
▁”,	-356
▁创作	-357
▁开始	-358
▁文化	-359
▁生产	-360
▁组织	-361
....	-362
▁1998	-363
▁五	-364
▁协	-365
▁厂	-366
▁欢	-367
▁种	-368
▁设	-369
▁项	-370
▁代表	-371
▁元旦	-372
▁共同	-373
▁成为	-374
▁日电	-375
▁青年	-376
▁再	-377
▁千	-378
▁干	-379
▁张	-380
▁环	-381
▁知	-382
▁英	-383
▁读	-384
▁银	-385
▁了一	-386
▁领导	-387
▁乡	-388
▁卢	-389
▁四	-390
▁应	-391
▁比	-392
▁演	-393
▁然	-394
▁物	-395
▁——	-396
▁文学	-397
▁服务	-398
▁专	-399
▁严	-400
▁只	-401
▁影	-402
▁科	-403
▁稳	-404
▁致	-405
▁艺	-406
▁走	-407
▁那	-408
▁间	-409
▁一年	-410
▁世纪	-411
▁事业	-412
▁今天	-413
▁方面	-414
▁结合	-415
▁自己	-416
▁银行	-417
▁丛	-418
▁东	-419
▁二	-420
▁做	-421
▁完	-422
▁流	-423
▁率	-424
▁真	-425
▁积	-426
▁考	-427
▁贫	-428
云龙	-429
▁困难	-430
▁民族	-431
▁管理	-432
▁这一	-433
▁重要	-434
▁少	-435
▁局	-436
▁并	-437
▁数	-438
▁没	-439
▁点	-440
▁系	-441
▁至	-442
▁良	-443
▁讲	-444
▁许	-445
▁选	-446
▁馆	-447
▁丛书	-448
▁卢布	-449
▁基础	-450
▁村民	-451
▁音乐	-452
▁盛云龙	-453
▁乐	-454
▁入	-455
▁决	-456
▁几	-457
▁副	-458
▁双	-459
▁效	-460
▁教	-461
▁武	-462
▁清	-463
▁爱	-464
▁百	-465
▁立	-466
▁规	-467
▁费	-468
▁飞	-469
▁”。	-470
▁人的	-471
▁传统	-472
▁去年	-473
▁政治	-474
▁继续	-475
▁义	-476
▁兼	-477
▁努	-478
▁因	-479
▁巴	-480
▁帮	-481
▁很	-482
▁技	-483
▁期	-484
▁田	-485
▁航	-486
▁观	-487
▁连	-488
▁队	-489
▁万元	-490
▁主要	-491
▁产业	-492
▁发表	-493
▁和平	-494
▁积极	-495
▁俄	-496
▁光	-497
▁办	-498
▁受	-499
▁型	-500
▁往	-501
▁林	-502
▁界	-503
▁祝	-504
▁紧	-505
▁钱	-506
▁12	-507
▁80	-508
▁加强	-509
▁努力	-510
▁基本	-511
▁外交	-512
▁学者	-513
▁年来	-514
▁投资	-515
▁环境	-516
▁贫困	-517
▁资金	-518
▁金融	-519
▁信	-520
▁兵	-521
▁古	-522
▁员	-523
▁愿	-524
▁标	-525
▁研	-526
▁退	-527
一步	-528
▁产品	-529
▁人们	-530
▁增长	-531
▁大使	-532
▁表示	-533
▁进一步	-534
▁些	-535
▁减	-536
▁却	-537
▁女	-538
▁志	-539
▁快	-540
▁扶	-541
▁权	-542
▁直	-543
▁编	-544
▁话	-545
▁谋	-546
▁货	-547
▁身	-548
▁运	-549
▁作品	-550
▁取得	-551
▁开放	-552
▁总统	-553
▁我国	-554
▁报道	-555
▁研究	-556
▁稳定	-557
▁联合	-558
▁艺术	-559
▁出版社	-560
▁具	-561
▁写	-562
▁升	-563
▁尽	-564
▁岁	-565
▁才	-566
▁接	-567
▁步	-568
▁治	-569
▁见	-570
▁调	-571
▁较	-572
▁边	-573
▁迎	-574
▁难	-575
▁书记	-576
▁保持	-577
▁公司	-578
▁好的	-579
▁干部	-580
▁影响	-581
▁收入	-582
▁没有	-583
▁美国	-584
▁考古	-585
▁许多	-586
▁通过	-587
▁重庆	-588
▁自己的	-589
▁『	-590
▁亚	-591
▁价	-592
▁值	-593
▁半	-594
▁占	-595
▁场	-596
▁希	-597
▁彩	-598
▁想	-599
▁摄	-600
▁春	-601
▁未	-602
▁果	-603
▁歌	-604
▁满	-605
▁笔	-606
▁脱	-607
▁色	-608
▁论	-609
▁贸	-610
▁中的	-611
▁作为	-612
▁出了	-613
▁可以	-614
▁同志	-615
▁坚持	-616
▁大的	-617
▁建立	-618
▁技术	-619
▁投入	-620
▁提供	-621
▁支持	-622
▁特别	-623
▁自治	-624
▁集团	-625
▁亩	-626
▁任	-627
▁则	-628
▁变	-629
▁周	-630
▁商	-631
▁头	-632
▁奋	-633
▁宁	-634
▁态	-635
▁慰	-636
▁放	-637
▁早	-638
▁格	-639
▁称	-640
▁米	-641
▁艰	-642
▁藏	-643
▁谈	-644
▁门	-645
▁马	-646
▁驻	-647
▁鲜	-648
▁上海	-649
▁人士	-650
▁人物	-651
▁参加	-652
▁同胞	-653
▁增加	-654
▁安全	-655
▁家庭	-656
▁已经	-657
▁开发	-658
▁提高	-659
▁现代	-660
▁的人	-661
▁美术	-662
▁货币	-663
▁这个	-664
▁部门	-665
▁集体	-666
▁———	-667
▁』	-668
▁克	-669
▁包	-670
▁套	-671
▁宣	-672
▁导	-673
▁常	-674
▁故	-675
▁油	-676
▁激	-677
▁火	-678
▁热	-679
▁独	-680
▁王	-681
▁确	-682
▁示	-683
▁繁	-684
▁线	-685
▁花	-686
▁该	-687
▁象	-688
▁超	-689
▁造	-690
▁采	-691
▁黄	-692
他们	-693
泽民	-694
▁一些	-695
▁人员	-696
▁全面	-697
▁合作	-698
▁年的	-699
▁形成	-700
▁慰问	-701
▁成功	-702
▁教育	-703
▁日本	-704
▁有关	-705
▁的是	-706
▁自然	-707
▁设施	-708
▁江泽民	-709
▁七	-710
▁伟	-711
▁八	-712
▁兴	-713
▁品	-714
▁喜	-715
▁园	-716
▁客	-717
▁布	-718
▁底	-719
▁持	-720
▁曲	-721
▁河	-722
▁温	-723
▁澳	-724
▁照	-725
▁献	-726
▁纪	-727
▁负	-728
▁逐	-729
▁随	-730
▁韩	-731
仪式	-732
其琛	-733
▁15	-734
▁人口	-735
▁优势	-736
▁先生	-737
▁关心	-738
▁农村	-739
▁创造	-740
▁到了	-741
▁回归	-742
▁团结	-743
▁图片	-744
▁在一	-745
▁学生	-746
▁完成	-747
▁广大	-748
▁思想	-749
▁扶贫	-750
▁推动	-751
▁政协	-752
▁来的	-753
▁解决	-754
▁资源	-755
▁自治区	-756
▁钱其琛	-757
▁....	-758
▁......	-759
▁云	-760
▁仍	-761
▁令	-762
▁依	-763
▁便	-764
▁促	-765
▁养	-766
▁冷	-767
▁初	-768
▁印	-769
▁号	-770
▁土	-771
▁夜	-772
▁奇	-773
▁孔	-774
▁存	-775
▁它	-776
▁居	-777
▁巨	-778
▁座	-779
▁德	-780
▁抓	-781
▁控	-782
▁样	-783
▁港	-784
▁游	-785
▁状	-786
▁空	-787
▁红	-788
▁茶	-789
▁落	-790
▁评	-791
▁销	-792
▁院	-793
▁雨	-794
▁鱼	-795
▁下降	-796
▁两国	-797
▁主义	-798
▁全部	-799
▁决定	-800
▁减少	-801
▁各地	-802
▁各界	-803
▁国防	-804
▁委员	-805
▁山区	-806
▁希望	-807
▁帮助	-808
▁开展	-809
▁成就	-810
▁来自	-811
▁每年	-812
▁澳门	-813
▁英雄	-814
▁读者	-815
▁起了	-816
:“	-817
▁’	-818
▁亲	-819
▁仅	-820
▁健	-821
▁充	-822
▁刘	-823
▁危	-824
▁友	-825
▁吕	-826
▁吸	-827
▁扎	-828
▁拉	-829
▁探	-830
▁登	-831
▁背	-832
▁让	-833
▁邓	-834
▁郑	-835
▁阶	-836
▁非	-837
▁革	-838
也纳	-839
▁%。	-840
▁为主	-841
▁乡镇	-842
▁今年	-843
▁促进	-844
▁公路	-845
▁兼并	-846
▁出的	-847
▁化的	-848
▁参与	-849
▁宁夏	-850
▁所有	-851
▁推进	-852
▁时间	-853
▁条件	-854
▁的大	-855
▁脱贫	-856
▁节日	-857
▁西藏	-858
▁谋略	-859
▁进入	-860
▁维也纳	-861
▁1996	-862
▁?	-863
▁住	-864
▁儿	-865
▁劳	-866
▁卡	-867
▁即	-868
▁命	-869
▁声	-870
▁庆	-871
▁必	-872
▁恢	-873
▁承	-874
▁按	-875
▁曾	-876
▁望	-877
▁李	-878
▁极	-879
▁根	-880
▁求	-881
▁汇	-882
▁波	-883
▁粮	-884
▁约	-885
▁终	-886
▁罗	-887
▁著	-888
▁街	-889
▁财	-890
▁贵	-891
▁贺	-892
▁送	-893
、《	-894
小平	-895
▁不同	-896
▁严重	-897
▁人均	-898
▁以及	-899
▁会议	-900
▁具有	-901
▁危机	-902
▁台湾	-903
▁在这	-904
▁大部	-905
▁学术	-906
▁形式	-907
▁报告	-908
▁指导	-909
▁民主	-910
▁电视	-911
▁目前	-912
▁科技	-913
▁经营	-914
▁认为	-915
▁过去	-916
▁这样	-917
▁这种	-918
▁部分	-919
▁》、《	-920
▁考古学	-921
▁联合国	-922
▁邓小平	-923
▁音乐会	-924
31	-925
▁!	-926
▁份	-927
▁众	-928
▁但	-929
▁低	-930
▁典	-931
▁势	-932
▁医	-933
▁卫	-934
▁厚	-935
▁召	-936
▁孙	-937
▁富	-938
▁幅	-939
▁式	-940
▁批	-941
▁拥	-942
▁敬	-943
▁斯	-944
▁旅	-945
▁显	-946
▁晚	-947
▁消	-948
▁焦	-949
▁程	-950
▁素	-951
▁聚	-952
▁胡	-953
▁访	-954
▁证	-955
▁责	-956
▁跨	-957
▁追	-958
▁速	-959
▁11	-960
▁30	-961
▁:“	-962
▁》,	-963
▁使用	-964
▁元的	-965
▁先进	-966
▁全区	-967
▁全市	-968
▁全球	-969
▁其他	-970
▁分别	-971
▁华人	-972
▁双泾	-973
▁发生	-974
▁各种	-975
▁和国	-976
▁城乡	-977
▁实施	-978
▁带来	-979
▁广场	-980
▁开馆	-981
▁强调	-982
▁得到	-983
▁情况	-984
▁成了	-985
▁是一	-986
▁正式	-987
▁气温	-988
▁水平	-989
▁现在	-990
▁由于	-991
▁的新	-992
▁紧密	-993
▁行政	-994
▁负责	-995
▁费县	-996
▁连续	-997
▁重视	-998
▁革命	-999
▁韩国	-1000
▁项目	-1001
▁首都	-1002
▁且	-1003
▁京	-1004
▁伤	-1005
▁切	-1006
▁哈	-1007
▁塔	-1008
▁太	-1009
▁始	-1010
▁寒	-1011
▁庄	-1012
▁徐	-1013
▁怀	-1014
▁怎	-1015
▁或	-1016
▁振	-1017
▁散	-1018
▁旧	-1019
▁智	-1020
▁案	-1021
▁横	-1022
▁注	-1023
▁洲	-1024
▁浩	-1025
▁版	-1026
▁破	-1027
▁福	-1028
▁突	-1029
▁筹	-1030
▁荒	-1031
▁菜	-1032
▁装	-1033
▁警	-1034
▁议	-1035
▁质	-1036
▁贷	-1037
▁迹	-1038
▁量	-1039
▁阳	-1040
▁需	-1041
五大	-1042
我们	-1043
▁,“	-1044
▁1.	-1045
▁一定	-1046
▁上的	-1047
▁中心	-1048
▁主席	-1049
▁交流	-1050
▁公斤	-1051
▁利益	-1052
▁制度	-1053
▁十分	-1054
▁华侨	-1055
▁召开	-1056
▁城市	-1057
▁大家	-1058
▁奋斗	-1059
▁实行	-1060
▁对于	-1061
▁建交	-1062
▁恢复	-1063
▁探索	-1064
▁改值	-1065
▁政策	-1066
▁旅游	-1067
▁时代	-1068
▁明天	-1069
▁来到	-1070
▁系统	-1071
▁繁荣	-1072
▁维护	-1073
▁表演	-1074
▁解放	-1075
▁记录	-1076
▁贷款	-1077
▁达到	-1078
▁进程	-1079
▁重点	-1080
▁丰	-1081
▁丽	-1082
▁件	-1083
▁你	-1084
▁修	-1085
▁停	-1086
▁冬	-1087
▁冲	-1088
▁功	-1089
▁务	-1090
▁博	-1091
▁呼	-1092
▁墨	-1093
▁备	-1094
▁夫	-1095
▁失	-1096
▁妇	-1097
▁官	-1098
▁容	-1099
▁拍	-1100
▁救	-1101
▁旗	-1102
▁暖	-1103
▁树	-1104
▁死	-1105
▁瑞	-1106
▁留	-1107
▁短	-1108
▁石	-1109
▁胜	-1110
▁蒙	-1111
▁视	-1112
▁觉	-1113
▁请	-1114
▁趋	-1115
▁辉	-1116
▁违	-1117
▁适	-1118
▁遗	-1119
▁配	-1120
▁钟	-1121
▁镇	-1122
▁附	-1123
▁陈	-1124
▁雪	-1125
▁震	-1126
▁顺	-1127
▁齐	-1128
▁龙	-1129
色列	-1130
虽然	-1131
▁60	-1132
▁70	-1133
▁一起	-1134
▁万人	-1135
▁上午	-1136
▁不断	-1137
▁不是	-1138
▁专家	-1139
▁个人	-1140
▁了解	-1141
▁以来	-1142
▁健康	-1143
▁党的	-1144
▁关于	-1145
▁军事	-1146
▁出现	-1147
▁劳动	-1148
▁包括	-1149
▁原则	-1150
▁反映	-1151
▁发挥	-1152
▁各类	-1153
▁同时	-1154
▁后的	-1155
▁四川	-1156
▁国内	-1157
▁地方	-1158
▁多少	-1159
▁她们	-1160
▁存款	-1161
▁实的	-1162
▁当地	-1163
▁性的	-1164
▁总理	-1165
▁战斗	-1166
▁拍卖	-1167
▁改变	-1168
▁整理	-1169
▁方针	-1170
▁气氛	-1171
▁油画	-1172
▁状况	-1173
▁的心	-1174
▁示范	-1175
▁系列	-1176
▁老人	-1177
▁要求	-1178
▁讲话	-1179
▁谈判	-1180
▁责任	-1181
▁这些	-1182
▁违章	-1183
▁道路	-1184
▁都是	-1185
▁198	-1186
▁以色列	-1187
▁双泾村	-1188
▁委员会	-1189
▁重要的	-1190
▁·	-1191
▁丁	-1192
▁丝	-1193
▁临	-1194
▁什	-1195
▁介	-1196
▁划	-1197
▁刚	-1198
▁另	-1199
▁培	-1200
▁壮	-1201
▁审	-1202
▁尔	-1203
▁层	-1204
▁岗	-1205
▁忘	-1206
▁恩	-1207
▁拿	-1208
▁捐	-1209
▁排	-1210
▁措	-1211
▁描	-1212
▁搞	-1213
▁普	-1214
▁朋	-1215
▁材	-1216
▁浙	-1217
▁湖	-1218
▁甚	-1219
▁白	-1220
▁眼	-1221
▁禁	-1222
▁离	-1223
▁秦	-1224
▁纷	-1225
▁综	-1226
▁绿	-1227
▁若	-1228
▁补	-1229
▁讯	-1230
▁谁	-1231
▁购	-1232
▁足	-1233
▁跑	-1234
▁远	-1235
▁防	-1236
▁阵	-1237
▁际	-1238
▁雅	-1239
▁顿	-1240
▁额	-1241
▁鸣	-1242
务院	-1243
图片	-1244
少年	-1245
斯坦	-1246
理论	-1247
罗斯	-1248
耶德	-1249
▁)(	-1250
▁14	-1251
▁23	-1252
▁40	-1253
▁”、	-1254
▁一日	-1255
▁义务	-1256
▁介绍	-1257
▁任务	-1258
▁众多	-1259
▁伟大	-1260
▁作者	-1261
▁党派	-1262
▁出席	-1263
▁前进	-1264
▁古代	-1265
▁喜庆	-1266
▁园区	-1267
▁国旗	-1268
▁基金	-1269
▁大地	-1270
▁学习	-1271
▁平均	-1272
▁广泛	-1273
▁庆祝	-1274
▁怎样	-1275
▁战略	-1276
▁拥有	-1277
▁持续	-1278
▁推广	-1279
▁措施	-1280
▁提出	-1281
▁改善	-1282
▁故事	-1283
▁散文	-1284
▁旗帜	-1285
▁更加	-1286
▁机场	-1287
▁正是	-1288
▁武器	-1289
▁焦作	-1290
▁物质	-1291
▁特困	-1292
▁的主	-1293
▁看到	-1294
▁真正	-1295
▁知识	-1296
▁第二	-1297
▁粮食	-1298
▁结构	-1299
▁综合	-1300
▁联系	-1301
▁致富	-1302
▁还有	-1303
▁逐步	-1304
▁部长	-1305
▁重大	-1306
▁阶段	-1307
▁需要	-1308
▁俄罗斯	-1309
▁国务院	-1310
▁青少年	-1311
▁开馆仪式	-1312
▁邓小平理论	-1313
▁乌	-1314
▁买	-1315
▁争	-1316
▁互	-1317
▁伊	-1318
▁伍	-1319
▁伴	-1320
▁何	-1321
▁余	-1322
▁六	-1323
▁列	-1324
▁午	-1325
▁厅	-1326
▁善	-1327
▁复	-1328
▁字	-1329
▁尊	-1330
▁尼	-1331
▁差	-1332
▁归	-1333
▁待	-1334
▁扩	-1335
▁找	-1336
▁挑	-1337
▁挤	-1338
▁换	-1339
▁景	-1340
▁架	-1341
▁欣	-1342
▁灌	-1343
▁球	-1344
▁病	-1345
▁监	-1346
▁秩	-1347
▁签	-1348
▁纯	-1349
▁脚	-1350
▁舍	-1351
▁舞	-1352
▁荣	-1353
▁莫	-1354
▁蔬	-1355
▁血	-1356
▁言	-1357
▁贡	-1358
▁轻	-1359
▁透	-1360
▁遇	-1361
▁针	-1362
▁阿	-1363
▁降	-1364
▁雷	-1365
▁静	-1366
▁验	-1367
▁鼓	-1368
其中	-1369
大利	-1370
空气	-1371
▁.5	-1372
▁0%	-1373
▁13	-1374
▁25	-1375
▁50	-1376
▁一直	-1377
▁一种	-1378
▁个月	-1379
▁为了	-1380
▁之间	-1381
▁什么	-1382
▁以上	-1383
▁保护	-1384
▁信息	-1385
▁关注	-1386
▁养殖	-1387
▁内容	-1388
▁农场	-1389
▁利用	-1390
▁力量	-1391
▁北大	-1392
▁协商	-1393
▁南京	-1394
▁县的	-1395
▁发达	-1396
▁各国	-1397
▁吕梁	-1398
▁地震	-1399
▁大学	-1400
▁大街	-1401
▁如何	-1402
▁孔玲	-1403
▁定了	-1404
▁实际	-1405
▁应当	-1406
▁建成	-1407
▁形势	-1408
▁心的	-1409
▁意义	-1410
▁战争	-1411
▁推出	-1412
▁效益	-1413
▁文物	-1414
▁日报	-1415
▁日益	-1416
▁时刻	-1417
▁明显	-1418
▁明确	-1419
▁朋友	-1420
▁机制	-1421
▁标准	-1422
▁根据	-1423
▁欢迎	-1424
▁江南	-1425
▁浙江	-1426
▁然而	-1427
▁独立	-1428
▁理解	-1429
▁理论	-1430
▁用水	-1431
▁画家	-1432
▁的事	-1433
▁的好	-1434
▁目标	-1435
▁科学	-1436
▁秩序	-1437
▁程度	-1438
▁第三	-1439
▁老年	-1440
▁而不	-1441
▁艰苦	-1442
▁藏文	-1443
▁表现	-1444
▁规模	-1445
▁认识	-1446
▁贡献	-1447
▁财政	-1448
▁转变	-1449
▁辉煌	-1450
▁追求	-1451
▁部的	-1452
▁部署	-1453
▁重新	-1454
▁顺利	-1455
▁领域	-1456
▁题材	-1457
▁冷空气	-1458
▁参加了	-1459
▁意大利	-1460
▁°	-1461
▁佳	-1462
▁候	-1463
▁倡	-1464
▁偏	-1465
▁准	-1466
▁别	-1467
▁勃	-1468
▁单	-1469
▁口	-1470
▁听	-1471
▁启	-1472
▁喷	-1473
▁均	-1474
▁士	-1475
▁妻	-1476
▁孤	-1477
▁孩	-1478
▁届	-1479
▁川	-1480
▁币	-1481
▁录	-1482
▁念	-1483
▁扬	-1484
▁担	-1485
▁拱	-1486
▁摆	-1487
▁摊	-1488
▁断	-1489
▁既	-1490
▁易	-1491
▁朝	-1492
▁核	-1493
▁梁	-1494
▁概	-1495
▁模	-1496
▁毛	-1497
▁沙	-1498
▁沧	-1499
▁沼	-1500
▁泰	-1501
▁济	-1502
▁润	-1503
▁渠	-1504
▁狂	-1505
▁珍	-1506
▁益	-1507
▁矛	-1508
▁神	-1509
▁站	-1510
▁竞	-1511
▁竟	-1512
▁筑	-1513
▁简	-1514
▁籍	-1515
▁类	-1516
▁纽	-1517
▁缓	-1518
▁羊	-1519
▁耕	-1520
▁股	-1521
▁苦	-1522
▁获	-1523
▁营	-1524
▁董	-1525
▁赢	-1526
▁越	-1527
▁辞	-1528
▁逾	-1529
▁邮	-1530
▁醒	-1531
▁限	-1532
▁预	-1533
主户	-1534
九九	-1535
产党	-1536
华孙	-1537
古籍	-1538
同时	-1539
就业	-1540
玉珍	-1541
理会	-1542
▁24	-1543
▁26	-1544
▁—8	-1545
▁’9	-1546
▁东部	-1547
▁事故	-1548
▁人类	-1549
▁仪式	-1550
▁价格	-1551
▁优秀	-1552
▁会上	-1553
▁作出	-1554
▁保证	-1555
▁做好	-1556
▁党委	-1557
▁全体	-1558
▁全村	-1559
▁军人	-1560
▁农户	-1561
▁农田	-1562
▁分析	-1563
▁到中	-1564
▁区域	-1565
▁千万	-1566
▁协会	-1567
▁卫生	-1568
▁反对	-1569
▁发出	-1570
▁发行	-1571
▁可能	-1572
▁呼吁	-1573
▁国民	-1574
▁国的	-1575
▁图为	-1576
▁地位	-1577
▁地的	-1578
▁大中	-1579
▁安排	-1580
▁实地	-1581
▁居民	-1582
▁广州	-1583
▁形象	-1584
▁志愿	-1585
▁性和	-1586
▁总额	-1587
▁户办	-1588
▁振兴	-1589
▁接受	-1590
▁方案	-1591
▁旧币	-1592
▁时期	-1593
▁是在	-1594
▁更多	-1595
▁最后	-1596
▁有的	-1597
▁武装	-1598
▁汇率	-1599
▁沼气	-1600
▁渠道	-1601
▁演出	-1602
▁火山	-1603
▁照片	-1604
▁特点	-1605
▁特色	-1606
▁电子	-1607
▁的文	-1608
▁直接	-1609
▁矛盾	-1610
▁祝贺	-1611
▁突破	-1612
▁管制	-1613
▁经过	-1614
▁结束	-1615
▁继承	-1616
▁落实	-1617
▁蒙古	-1618
▁虽然	-1619
▁行动	-1620
▁评论	-1621
▁调查	-1622
▁走出	-1623
▁走向	-1624
▁车辆	-1625
▁退伍	-1626
▁采取	-1627
▁里的	-1628
▁面临	-1629
▁面积	-1630
▁飞机	-1631
▁飞行	-1632
主户头	-1633
▁一九九	-1634
▁丁玉珍	-1635
▁共产党	-1636
▁再就业	-1637
▁十五大	-1638
▁安理会	-1639
▁现代化	-1640
▁秦华孙	-1641
▁无主户头	-1642
▁藏文古籍	-1643
▁似	-1644
▁例	-1645
▁像	-1646
▁兑	-1647
▁冉	-1648
▁剧	-1649
▁劲	-1650
▁呈	-1651
▁告	-1652
▁呢	-1653
▁哲	-1654
▁围	-1655
▁坐	-1656
▁堵	-1657
▁境	-1658
▁宗	-1659
▁密	-1660
▁属	-1661
▁左	-1662
▁彻	-1663
▁忠	-1664
▁忧	-1665
▁悟	-1666
▁房	-1667
▁托	-1668
▁执	-1669
▁抗	-1670
▁招	-1671
▁援	-1672
▁斗	-1673
▁施	-1674
▁木	-1675
▁杨	-1676
▁查	-1677
▁洪	-1678
▁涨	-1679
▁潮	-1680
▁片	-1681
▁盘	-1682
▁穿	-1683
▁窗	-1684
▁算	-1685
▁篇	-1686
▁纸	-1687
▁缩	-1688
▁署	-1689
▁脑	-1690
▁苏	-1691
▁菲	-1692
▁融	-1693
▁语	-1694
▁贯	-1695
▁贾	-1696
▁跃	-1697
▁踏	-1698
▁迈	-1699
▁述	-1700
▁隆	-1701
▁露	-1702
各项	-1703
安惠	-1704
尔滨	-1705
庄乡	-1706
循环	-1707
日电	-1708
星红	-1709
美国	-1710
花蕊	-1711
西哥	-1712
警察	-1713
▁58	-1714
▁一位	-1715
▁一大	-1716
▁一条	-1717
▁一样	-1718
▁万多	-1719
▁上下	-1720
▁上年	-1721
▁不会	-1722
▁业的	-1723
▁主持	-1724
▁之一	-1725
▁亿元	-1726
▁令人	-1727
▁价值	-1728
▁传记	-1729
▁位于	-1730
▁体系	-1731
▁作用	-1732
▁元月	-1733
▁其中	-1734
▁再次	-1735
▁军委	-1736
▁军队	-1737
▁出口	-1738
▁出台	-1739
▁加工	-1740
▁北部	-1741
▁十多	-1742
▁华夏	-1743
▁各族	-1744
▁同样	-1745
▁回到	-1746
▁土地	-1747
▁在国	-1748
▁大会	-1749
▁妻子	-1750
▁小扎	-1751
▁展示	-1752
▁岁的	-1753
▁工业	-1754
▁巴勒	-1755
▁布厂	-1756
▁带领	-1757
▁年产	-1758
▁广西	-1759
▁应该	-1760
▁开拓	-1761
▁快速	-1762
▁感到	-1763
▁成的	-1764
▁报纸	-1765
▁拱坝	-1766
▁指挥	-1767
▁控制	-1768
▁推向	-1769
▁提前	-1770
▁摊位	-1771
▁敬老	-1772
▁整治	-1773
▁新币	-1774
▁期间	-1775
▁样的	-1776
▁格局	-1777
▁正在	-1778
▁死亡	-1779
▁沙漠	-1780
▁波兰	-1781
▁流通	-1782
▁灌溉	-1783
▁理想	-1784
▁生命	-1785
▁生态	-1786
▁的家	-1787
▁的情	-1788
▁的经	-1789
▁的高	-1790
▁目的	-1791
▁相信	-1792
▁祝愿	-1793
▁福利	-1794
▁精心	-1795
▁纷纷	-1796
▁组成	-1797
▁联欢	-1798
▁胜利	-1799
▁能源	-1800
▁自叙	-1801
▁自我	-1802
▁航班	-1803
▁航空	-1804
▁节目	-1805
▁英国	-1806
▁著名	-1807
▁西方	-1808
▁解困	-1809
▁认真	-1810
▁访问	-1811
▁贸易	-1812
▁起的	-1813
▁起降	-1814
▁超过	-1815
▁边防	-1816
▁进步	-1817
▁退休	-1818
▁遗存	-1819
▁部队	-1820
▁针织	-1821
▁长城	-1822
▁长的	-1823
▁阳光	-1824
▁非常	-1825
▁首先	-1826
▁高效	-1827
▁鲜花	-1828
星红旗	-1829
▁’98	-1830
▁”、“	-1831
▁取得了	-1832
▁哈尔滨	-1833
▁墨西哥	-1834
▁张安惠	-1835
▁志愿者	-1836
▁的各项	-1837
▁胡花蕊	-1838
▁1991	-1839
▁五星红旗	-1840
▁小扎耶德	-1841
▁巴勒斯坦	-1842
▁‰	-1843
▁乱	-1844
▁亡	-1845
▁供	-1846
▁偿	-1847
▁册	-1848
▁冰	-1849
▁净	-1850
▁凡	-1851
▁吃	-1852
▁吗	-1853
▁吨	-1854
▁响	-1855
▁囊	-1856
▁圣	-1857
▁坡	-1858
▁垦	-1859
▁夏	-1860
▁奖	-1861
▁奶	-1862
▁尤	-1863
▁峡	-1864
▁崇	-1865
▁师	-1866
▁序	-1867
▁异	-1868
▁恭	-1869
▁悲	-1870
▁惊	-1871
▁抢	-1872
▁挺	-1873
▁掉	-1874
▁搜	-1875
▁撤	-1876
▁攻	-1877
▁料	-1878
▁斤	-1879
▁昌	-1880
▁板	-1881
▁欠	-1882
▁毕	-1883
▁毫	-1884
▁氏	-1885
▁永	-1886
▁洁	-1887
▁洋	-1888
▁派	-1889
▁浓	-1890
▁浪	-1891
▁涉	-1892
▁淡	-1893
▁淮	-1894
▁渡	-1895
▁源	-1896
▁滚	-1897
▁潜	-1898
▁灿	-1899
▁烈	-1900
▁烟	-1901
▁爆	-1902
▁爸	-1903
▁猪	-1904
▁班	-1905
▁瓜	-1906
▁瓦	-1907
▁硬	-1908
▁礼	-1909
▁祥	-1910
▁秋	-1911
▁章	-1912
▁端	-1913
▁练	-1914
▁缺	-1915
▁翻	-1916
▁肯	-1917
▁育	-1918
▁范	-1919
▁角	-1920
▁誉	-1921
▁词	-1922
▁课	-1923
▁豆	-1924
▁貌	-1925
▁赞	-1926
▁趣	-1927
▁跌	-1928
▁轨	-1929
▁输	-1930
▁迟	-1931
▁除	-1932
▁险	-1933
▁靠	-1934
▁页	-1935
▁饲	-1936
▁鹏	-1937
两制	-1938
内外	-1939
制衣	-1940
匙孔	-1941
完善	-1942
尼西	-1943
必须	-1944
泽东	-1945
爱幼	-1946
繁森	-1947
角村	-1948
▁.4	-1949
▁0.	-1950
▁3.	-1951
▁90	-1952
▁一切	-1953
▁三个	-1954
▁三位	-1955
▁三十	-1956
▁下的	-1957
▁业绩	-1958
▁东方	-1959
▁严格	-1960
▁丰富	-1961
▁主干	-1962
▁主张	-1963
▁书画	-1964
▁了大	-1965
▁云南	-1966
▁亚洲	-1967
▁产生	-1968
▁人在	-1969
▁人大	-1970
▁人数	-1971
▁们的	-1972
▁优质	-1973
▁会员	-1974
▁伤亡	-1975
▁体制	-1976
▁便是	-1977
▁保障	-1978
▁信心	-1979
▁值得	-1980
▁儿童	-1981
▁充分	-1982
▁充满	-1983
▁克服	-1984
▁全县	-1985
▁公布	-1986
▁典型	-1987
▁出租	-1988
▁利税	-1989
▁前夕	-1990
▁千名	-1991
▁协调	-1992
▁印度	-1993
▁即将	-1994
▁历程	-1995
▁友好	-1996
▁号召	-1997
▁各级	-1998
▁合理	-1999
▁同意	-2000
▁吸引	-2001
▁周围	-2002
▁图文	-2003
▁在此	-2004
▁地域	-2005
▁城区	-2006
▁处于	-2007
▁大事	-2008
▁天津	-2009
▁奇迹	-2010
▁子的	-2011
▁宣誓	-2012
▁家乡	-2013
▁家的	-2014
▁对象	-2015
▁导致	-2016
▁将是	-2017
▁尊老	-2018
▁就是	-2019
▁尽管	-2020
▁山西	-2021
▁工商	-2022
▁左右	-2023
▁帮扶	-2024
▁平等	-2025
▁平衡	-2026
▁并购	-2027
▁庄严	-2028
▁开了	-2029
▁开创	-2030
▁引导	-2031
▁引起	-2032
▁彩旗	-2033
▁思路	-2034
▁恭城	-2035
▁想到	-2036
▁意识	-2037
▁成果	-2038
▁所在	-2039
▁拉萨	-2040
▁捐赠	-2041
▁搜集	-2042
▁改造	-2043
▁文献	-2044
▁文艺	-2045
▁斗争	-2046
▁新疆	-2047
▁方式	-2048
▁无法	-2049
▁日讯	-2050
▁日起	-2051
▁是有	-2052
▁最佳	-2053
▁有利	-2054
▁有着	-2055
▁来了	-2056
▁欢乐	-2057
▁气象	-2058
▁没收	-2059
▁沧桑	-2060
▁济南	-2061
▁海外	-2062
▁润五	-2063
▁深圳	-2064
▁港人	-2065
▁演员	-2066
▁激动	-2067
▁热烈	-2068
▁爱国	-2069
▁爸爸	-2070
▁特区	-2071
▁狂欢	-2072
▁现实	-2073
▁用笔	-2074
▁界的	-2075
▁的全	-2076
▁的外	-2077
▁的自	-2078
▁看望	-2079
▁社评	-2080
▁立了	-2081
▁站在	-2082
▁筹集	-2083
▁纽约	-2084
▁终于	-2085
▁经费	-2086
▁羊肉	-2087
▁自发	-2088
▁自豪	-2089
▁致以	-2090
▁苏联	-2091
▁蔬菜	-2092
▁行的	-2093
▁设计	-2094
▁调整	-2095
▁贵阳	-2096
▁起来	-2097
▁迎接	-2098
▁这项	-2099
▁逐渐	-2100
▁那样	-2101
▁那里	-2102
▁郑重	-2103
▁长江	-2104
▁隆重	-2105
▁难以	-2106
▁面对	-2107
▁高度	-2108
▁鼓舞	-2109
制衣厂	-2110
国两制	-2111
尼西亚	-2112
钥匙孔	-2113
▁和完善	-2114
▁孔繁森	-2115
▁敬老院	-2116
▁毛泽东	-2117
▁浙江省	-2118
▁海内外	-2119
▁焦作市	-2120
▁象角村	-2121
▁这样的	-2122
▁尊老爱幼	-2123
▁印度尼西亚	-2124
▁针织制衣厂	-2125
▁付	-2126
▁侨	-2127
▁俊	-2128
▁假	-2129
▁冒	-2130
▁凝	-2131
▁刊	-2132
▁刻	-2133
▁助	-2134
▁卖	-2135
▁压	-2136
▁叙	-2137
▁叫	-2138
▁叶	-2139
▁吐	-2140
▁含	-2141
▁唱	-2142
▁嘉	-2143
▁块	-2144
▁夕	-2145
▁奏	-2146
▁奔	-2147
▁奥	-2148
▁妙	-2149
▁妥	-2150
▁姐	-2151
▁姑	-2152
▁威	-2153
▁季	-2154
▁宪	-2155
▁宽	-2156
▁寡	-2157
▁屋	-2158
▁履	-2159
▁岛	-2160
▁峰	-2161
▁巩	-2162
▁庭	-2163
▁延	-2164
▁役	-2165
▁征	-2166
▁忆	-2167
▁忙	-2168
▁恰	-2169
▁截	-2170
▁拓	-2171
▁拜	-2172
▁挂	-2173
▁挖	-2174
▁插	-2175
▁揭	-2176
▁播	-2177
▁敞	-2178
▁敢	-2179
▁斑	-2180
▁旋	-2181
▁族	-2182
▁旱	-2183
▁星	-2184
▁映	-2185
▁晨	-2186
▁曹	-2187
▁束	-2188
▁某	-2189
▁染	-2190
▁栋	-2191
▁桥	-2192
▁梅	-2193
▁检	-2194
▁楼	-2195
▁欧	-2196
▁毁	-2197
▁汉	-2198
▁沉	-2199
▁沟	-2200
▁测	-2201
▁涌	-2202
▁淀	-2203
▁渐	-2204
▁濒	-2205
▁灭	-2206
▁灵	-2207
▁炼	-2208
▁牌	-2209
▁牡	-2210
▁牵	-2211
▁珠	-2212
▁男	-2213
▁畅	-2214
▁秀	-2215
▁秘	-2216
▁税	-2217
▁童	-2218
▁笑	-2219
▁篆	-2220
▁累	-2221
▁纲	-2222
▁细	-2223
▁织	-2224
▁绘	-2225
▁缔	-2226
▁置	-2227
▁肉	-2228
▁肩	-2229
▁胞	-2230
▁胸	-2231
▁般	-2232
▁艳	-2233
▁蓄	-2234
▁蓝	-2235
▁蓬	-2236
▁覆	-2237
▁览	-2238
▁触	-2239
▁训	-2240
▁诗	-2241
▁诚	-2242
▁详	-2243
▁谢	-2244
▁谨	-2245
▁谱	-2246
▁账	-2247
▁赶	-2248
▁载	-2249
▁辈	-2250
▁辖	-2251
▁迪	-2252
▁遣	-2253
▁邻	-2254
▁锋	-2255
▁锡	-2256
▁闻	-2257
▁阅	-2258
▁阻	-2259
▁陆	-2260
▁陵	-2261
▁雄	-2262
▁零	-2263
▁顶	-2264
▁频	-2265
▁驱	-2266
▁鲁	-2267
▁黑	-2268
▁默	-2269
▁龚	-2270
七年	-2271
二月	-2272
优先	-2273
作家	-2274
八年	-2275
关键	-2276
农场	-2277
利亚	-2278
加坡	-2279
勒陀	-2280
得了	-2281
美元	-2282
膨胀	-2283
规模	-2284
达岭	-2285
龙江	-2286
▁%,	-2287
▁),	-2288
▁29	-2289
▁:‘	-2290
▁》。	-2291
▁一次	-2292
▁万亩	-2293
▁三年	-2294
▁上了	-2295
▁不懈	-2296
▁不能	-2297
▁专门	-2298
▁两个	-2299
▁中东	-2300
▁中文	-2301
▁中有	-2302
▁中版	-2303
▁主权	-2304
▁之所	-2305
▁乐队	-2306
▁九八	-2307
▁也要	-2308
▁书法	-2309
▁书籍	-2310
▁书系	-2311
▁了我	-2312
▁事件	-2313
▁二十	-2314
▁亲切	-2315
▁仍然	-2316
▁代的	-2317
▁会的	-2318
▁伴随	-2319
▁佳节	-2320
▁使馆	-2321
▁依托	-2322
▁光辉	-2323
▁入了	-2324
▁全年	-2325
▁公安	-2326
▁兴建	-2327
▁冲击	-2328
▁决心	-2329
▁几乎	-2330
▁刚刚	-2331
▁初步	-2332
▁前两	-2333
▁前景	-2334
▁前的	-2335
▁加大	-2336
▁加快	-2337
▁动了	-2338
▁动员	-2339
▁勃勃	-2340
▁医院	-2341
▁十年	-2342
▁午夜	-2343
▁华的	-2344
▁协议	-2345
▁单位	-2346
▁历代	-2347
▁又一	-2348
▁发现	-2349
▁受到	-2350
▁只能	-2351
▁各个	-2352
▁吸收	-2353
▁国和	-2354
▁国有	-2355
▁垦区	-2356
▁基地	-2357
▁堵塞	-2358
▁处理	-2359
▁处的	-2360
▁多人	-2361
▁多次	-2362
▁多的	-2363
▁多种	-2364
▁大业	-2365
▁大成	-2366
▁大田	-2367
▁妇女	-2368
▁始终	-2369
▁孩子	-2370
▁完全	-2371
▁定的	-2372
▁客人	-2373
▁宣布	-2374
▁家们	-2375
▁密切	-2376
▁富强	-2377
▁对外	-2378
▁将有	-2379
▁小型	-2380
▁小康	-2381
▁尤其	-2382
▁就在	-2383
▁就职	-2384
▁尽快	-2385
▁履行	-2386
▁岁末	-2387
▁崇高	-2388
▁巩固	-2389
▁市区	-2390
▁市委	-2391
▁市民	-2392
▁带头	-2393
▁并不	-2394
▁引人	-2395
▁强烈	-2396
▁当时	-2397
▁心灵	-2398
▁必须	-2399
▁总结	-2400
▁感受	-2401
▁成人	-2402
▁成立	-2403
▁才能	-2404
▁扎实	-2405
▁扩大	-2406
▁技法	-2407
▁担心	-2408
▁按照	-2409
▁挑战	-2410
▁挖掘	-2411
▁搞好	-2412
▁摆脱	-2413
▁收回	-2414
▁整个	-2415
▁文字	-2416
▁新建	-2417
▁新闻	-2418
▁无疑	-2419
▁无论	-2420
▁日在	-2421
▁是将	-2422
▁普及	-2423
▁曲目	-2424
▁最大	-2425
▁最近	-2426
▁最高	-2427
▁有大	-2428
▁有所	-2429
▁机关	-2430
▁机构	-2431
▁标志	-2432
▁树立	-2433
▁根本	-2434
▁格外	-2435
▁欢庆	-2436
▁歌唱	-2437
▁正常	-2438
▁此次	-2439
▁每天	-2440
▁比赛	-2441
▁毫不	-2442
▁消息	-2443
▁淀粉	-2444
▁深刻	-2445
▁湖州	-2446
▁演奏	-2447
▁濒临	-2448
▁灿烂	-2449
▁牡丹	-2450
▁状态	-2451
▁率先	-2452
▁现象	-2453
▁珍贵	-2454
▁瑞士	-2455
▁生存	-2456
▁用于	-2457
▁百年	-2458
▁的不	-2459
▁的小	-2460
▁的意	-2461
▁的最	-2462
▁的有	-2463
▁的气	-2464
▁的深	-2465
▁的精	-2466
▁的群	-2467
▁的这	-2468
▁的重	-2469
▁相对	-2470
▁相比	-2471
▁真情	-2472
▁着这	-2473
▁短短	-2474
▁石油	-2475
▁确保	-2476
▁种种	-2477
▁竞争	-2478
▁筑路	-2479
▁筹资	-2480
▁篆刻	-2481
▁米兰	-2482
▁紧张	-2483
▁纪实	-2484
▁纪录	-2485
▁纪念	-2486
▁经典	-2487
▁经常	-2488
▁经理	-2489
▁美德	-2490
▁背景	-2491
▁能力	-2492
▁能够	-2493
▁自身	-2494
▁至少	-2495
▁艰难	-2496
▁色的	-2497
▁获得	-2498
▁行业	-2499
▁行使	-2500
▁街道	-2501
▁规划	-2502
▁规定	-2503
▁规范	-2504
▁象征	-2505
▁质量	-2506
▁贺年	-2507
▁资产	-2508
▁趋势	-2509
▁较为	-2510
▁达成	-2511
▁过程	-2512
▁还是	-2513
▁这是	-2514
▁这次	-2515
▁这部	-2516
▁适应	-2517
▁通货	-2518
▁速度	-2519
▁遇到	-2520
▁遣散	-2521
▁邮电	-2522
▁都有	-2523
▁采用	-2524
▁销售	-2525
▁长期	-2526
▁院的	-2527
▁集中	-2528
▁预计	-2529
▁风景	-2530
▁首批	-2531
▁验收	-2532
▁高兴	-2533
▁高峰	-2534
▁高等	-2535
▁鲜活	-2536
▁黄河	-2537
十五大	-2538
▁不同的	-2539
▁主干道	-2540
▁亿美元	-2541
▁八达岭	-2542
▁十二月	-2543
▁大农场	-2544
▁大规模	-2545
▁女作家	-2546
▁新加坡	-2547
▁更多的	-2548
▁比勒陀	-2549
▁的关键	-2550
▁的经验	-2551
▁福利院	-2552
▁赢得了	-2553
▁边防军	-2554
▁黑龙江	-2555
一国两制	-2556
▁大田庄乡	-2557
▁通货膨胀	-2558
▁一九九八年	-2559
▁党的十五大	-2560
▁比勒陀利亚	-2561
▁/	-2562
▁‘	-2563
▁丧	-2564
▁久	-2565
▁乔	-2566
▁亮	-2567
▁仓	-2568
▁债	-2569
▁储	-2570
▁允	-2571
▁凯	-2572
▁击	-2573
▁剖	-2574
▁剩	-2575
▁勇	-2576
▁勒	-2577
▁卷	-2578
▁右	-2579
▁吴	-2580
▁味	-2581
▁啊	-2582
▁喝	-2583
▁址	-2584
▁坪	-2585
▁堂	-2586
▁夺	-2587
▁奉	-2588
▁妈	-2589
▁妹	-2590
▁婚	-2591
▁媒	-2592
▁宏	-2593
▁宫	-2594
▁宾	-2595
▁寄	-2596
▁察	-2597
▁寻	-2598
▁封	-2599
▁尉	-2600
▁尝	-2601
▁尾	-2602
▁屏	-2603
▁幕	-2604
▁床	-2605
▁弃	-2606
▁弥	-2607
▁彭	-2608
▁徘	-2609
▁微	-2610
▁急	-2611
▁息	-2612
▁悉	-2613
▁患	-2614
▁愉	-2615
▁憾	-2616
▁懂	-2617
▁戈	-2618
▁打	-2619
▁护	-2620
▁拔	-2621
▁拘	-2622
▁授	-2623
▁掌	-2624
▁握	-2625
▁撰	-2626
▁操	-2627
▁旁	-2628
▁旦	-2629
▁旨	-2630
▁昆	-2631
▁昨	-2632
▁朗	-2633
▁朱	-2634
▁朴	-2635
▁松	-2636
▁构	-2637
▁柏	-2638
▁校	-2639
▁桂	-2640
▁梦	-2641
▁棉	-2642
▁棚	-2643
▁榭	-2644
▁款	-2645
▁止	-2646
▁池	-2647
▁汽	-2648
▁泉	-2649
▁泪	-2650
▁泽	-2651
▁泾	-2652
▁洗	-2653
▁浇	-2654
▁涵	-2655
▁滋	-2656
▁潘	-2657
▁灰	-2658
▁灾	-2659
▁烂	-2660
▁燃	-2661
▁父	-2662
▁爷	-2663
▁犹	-2664
▁狠	-2665
▁猎	-2666
▁玉	-2667
▁玩	-2668
▁甘	-2669
▁畜	-2670
▁眉	-2671
▁瞩	-2672
▁矿	-2673
▁祈	-2674
▁票	-2675
▁祷	-2676
▁穷	-2677
▁竖	-2678
▁策	-2679
▁络	-2680
▁绵	-2681
▁缘	-2682
▁网	-2683
▁耀	-2684
▁聪	-2685
▁胆	-2686
▁脸	-2687
▁腮	-2688
▁腹	-2689
▁芳	-2690
▁荡	-2691
▁蒸	-2692
▁蔓	-2693
▁袭	-2694
▁订	-2695
▁识	-2696
▁试	-2697
▁诸	-2698
▁谓	-2699
▁贴	-2700
▁赠	-2701
▁赴	-2702
▁轮	-2703
▁软	-2704
▁辙	-2705
▁辣	-2706
▁迅	-2707
▁途	-2708
▁逛	-2709
▁遍	-2710
▁遥	-2711
▁钢	-2712
▁铁	-2713
▁闪	-2714
▁韵	-2715
▁顾	-2716
▁颜	-2717
▁飘	-2718
▁骤	-2719
▁鬼	-2720
▁魂	-2721
▁魄	-2722
▁鸟	-2723
▁鸿	-2724
不衰	-2725
严禁	-2726
乎情	-2727
书长	-2728
以军	-2729
件事	-2730
佩特	-2731
倒闭	-2732
健行	-2733
养量	-2734
几乎	-2735
切实	-2736
加拉	-2737
卡特	-2738
和景	-2739
增强	-2740
学贤	-2741
广西	-2742
建华	-2743
律宾	-2744
快富	-2745
拉尔	-2746
按照	-2747
支部	-2748
旧迎	-2749
柴节	-2750
毅仁	-2751
深圳	-2752
煤灶	-2753
物馆	-2754
直门	-2755
翁达	-2756
联酋	-2757
胀率	-2758
花园	-2759
骨鸡	-2760
▁.6	-2761
▁16	-2762
▁17	-2763
▁1、	-2764
▁22	-2765
▁32	-2766
▁48	-2767
▁5%	-2768
▁63	-2769
▁82	-2770
▁84	-2771
▁85	-2772
▁一下	-2773
▁一套	-2774
▁一时	-2775
▁一番	-2776
▁一致	-2777
▁一项	-2778
▁七十	-2779
▁三是	-2780
▁三次	-2781
▁三通	-2782
▁上为	-2783
▁不仅	-2784
▁不再	-2785
▁不可	-2786
▁不忘	-2787
▁与其	-2788
▁专业	-2789
▁业和	-2790
▁两年	-2791
▁个县	-2792
▁中学	-2793
▁主任	-2794
▁举措	-2795
▁义诊	-2796
▁之路	-2797
▁之际	-2798
▁乔石	-2799
▁九年	-2800
▁了产	-2801
▁了以	-2802
▁了当	-2803
▁事务	-2804
▁二百	-2805
▁交给	-2806
▁交融	-2807
▁产量	-2808
▁亩的	-2809
▁人与	-2810
▁人生	-2811
▁人群	-2812
▁从事	-2813
▁仓库	-2814
▁以为	-2815
▁以往	-2816
▁们在	-2817
▁优先	-2818
▁优惠	-2819
▁会费	-2820
▁位置	-2821
▁你们	-2822
▁倡议	-2823
▁做了	-2824
▁停止	-2825
▁允许	-2826
▁光荣	-2827
▁党政	-2828
▁全民	-2829
▁八一	-2830
▁公园	-2831
▁公里	-2832
▁关怀	-2833
▁兵书	-2834
▁兵学	-2835
▁其它	-2836
▁内涵	-2837
▁军营	-2838
▁军装	-2839
▁准备	-2840
▁几年	-2841
▁分忧	-2842
▁切实	-2843
▁刚果	-2844
▁到一	-2845
▁到家	-2846
▁前已	-2847
▁办水	-2848
▁动摇	-2849
▁动迁	-2850
▁化和	-2851
▁十五	-2852
▁十大	-2853
▁千余	-2854
▁半数	-2855
▁华文	-2856
▁南部	-2857
▁占全	-2858
▁厂房	-2859
▁厂里	-2860
▁厂长	-2861
▁原因	-2862
▁原有	-2863
▁县县	-2864
▁又在	-2865
▁及其	-2866
▁友谊	-2867
▁双方	-2868
▁发扬	-2869
▁发菜	-2870
▁受伤	-2871
▁另一	-2872
▁只是	-2873
▁只有	-2874
▁只要	-2875
▁史籍	-2876
▁合并	-2877
▁名人	-2878
▁听说	-2879
▁启发	-2880
▁员工	-2881
▁命名	-2882
▁命运	-2883
▁商品	-2884
▁喜悦	-2885
▁回应	-2886
▁团体	-2887
▁困境	-2888
▁国歌	-2889
▁图书	-2890
▁在于	-2891
▁在京	-2892
▁场所	-2893
▁坚决	-2894
▁坚强	-2895
▁培养	-2896
▁外长	-2897
▁多个	-2898
▁多元	-2899
▁多名	-2900
▁多数	-2901
▁大厅	-2902
▁大型	-2903
▁大大	-2904
▁大批	-2905
▁大胆	-2906
▁大陆	-2907
▁女儿	-2908
▁女士	-2909
▁奶奶	-2910
▁好像	-2911
▁如今	-2912
▁如果	-2913
▁如此	-2914
▁妈妈	-2915
▁妥协	-2916
▁子和	-2917
▁存在	-2918
▁学院	-2919
▁宣传	-2920
▁家中	-2921
▁寒冬	-2922
▁对待	-2923
▁将以	-2924
▁将对	-2925
▁小说	-2926
▁少生	-2927
▁就有	-2928
▁局部	-2929
▁岁月	-2930
▁工人	-2931
▁工厂	-2932
▁巴以	-2933
▁巴基	-2934
▁市的	-2935
▁市长	-2936
▁布局	-2937
▁带着	-2938
▁干警	-2939
▁年前	-2940
▁年轻	-2941
▁广阔	-2942
▁建管	-2943
▁开局	-2944
▁强大	-2945
▁当今	-2946
▁当代	-2947
▁当家	-2948
▁彩虹	-2949
▁往来	-2950
▁徘徊	-2951
▁忘记	-2952
▁忙碌	-2953
▁忧其	-2954
▁态度	-2955
▁思考	-2956
▁恩佐	-2957
▁意味	-2958
▁感谢	-2959
▁懂得	-2960
▁成绩	-2961
▁战役	-2962
▁户户	-2963
▁承包	-2964
▁承担	-2965
▁抗日	-2966
▁抢救	-2967
▁拿出	-2968
▁指出	-2969
▁指数	-2970
▁挤在	-2971
▁推行	-2972
▁攻坚	-2973
▁政局	-2974
▁故乡	-2975
▁救助	-2976
▁救援	-2977
▁数十	-2978
▁文告	-2979
▁新航	-2980
▁新风	-2981
▁新鲜	-2982
▁方法	-2983
▁方的	-2984
▁日的	-2985
▁旨在	-2986
▁是他	-2987
▁显示	-2988
▁显著	-2989
▁普遍	-2990
▁更大	-2991
▁有一	-2992
▁有些	-2993
▁有效	-2994
▁服装	-2995
▁未能	-2996
▁本领	-2997
▁来一	-2998
▁栋梁	-2999
▁梅塔	-3000
▁模范	-3001
▁欢聚	-3002
▁欣赏	-3003
▁欧洲	-3004
▁此而	-3005
▁武警	-3006
▁每个	-3007
▁每次	-3008
▁民间	-3009
▁水是	-3010
▁水的	-3011
▁水费	-3012
▁永远	-3013
▁江西	-3014
▁河北	-3015
▁河南	-3016
▁治理	-3017
▁波波	-3018
▁注意	-3019
▁深入	-3020
▁温棚	-3021
▁滋润	-3022
▁满足	-3023
▁激光	-3024
▁爆竹	-3025
▁狠抓	-3026
▁率和	-3027
▁玉茭	-3028
▁现了	-3029
▁生动	-3030
▁生意	-3031
▁生机	-3032
▁电脑	-3033
▁界限	-3034
▁百分	-3035
▁的八	-3036
▁的兵	-3037
▁的多	-3038
▁的热	-3039
▁的特	-3040
▁的美	-3041
▁的良	-3042
▁的被	-3043
▁的西	-3044
▁的记	-3045
▁的话	-3046
▁的遗	-3047
▁的预	-3048
▁监督	-3049
▁相当	-3050
▁眼下	-3051
▁破坏	-3052
▁破船	-3053
▁确实	-3054
▁祝福	-3055
▁种植	-3056
▁科研	-3057
▁窗牖	-3058
▁等地	-3059
▁签订	-3060
▁简单	-3061
▁篇章	-3062
▁累计	-3063
▁红灯	-3064
▁约翰	-3065
▁纲领	-3066
▁纸上	-3067
▁练市	-3068
▁经久	-3069
▁经历	-3070
▁经验	-3071
▁绘画	-3072
▁维持	-3073
▁缓解	-3074
▁缔造	-3075
▁编写	-3076
▁罗干	-3077
▁罗马	-3078
▁者们	-3079
▁者的	-3080
▁而有	-3081
▁耕地	-3082
▁联和	-3083
▁聚集	-3084
▁艰巨	-3085
▁艰辛	-3086
▁若干	-3087
▁范围	-3088
▁著作	-3089
▁蔓延	-3090
▁补贴	-3091
▁西岸	-3092
▁覆盖	-3093
▁见到	-3094
▁观念	-3095
▁观点	-3096
▁规律	-3097
▁警察	-3098
▁讲述	-3099
▁设备	-3100
▁课题	-3101
▁走进	-3102
▁跑道	-3103
▁身边	-3104
▁轨道	-3105
▁转化	-3106
▁输入	-3107
▁迅速	-3108
▁过渡	-3109
▁运作	-3110
▁还不	-3111
▁这么	-3112
▁进口	-3113
▁进的	-3114
▁述了	-3115
▁适当	-3116
▁选定	-3117
▁选择	-3118
▁通信	-3119
▁通告	-3120
▁郑州	-3121
▁都在	-3122
▁都要	-3123
▁采访	-3124
▁长篇	-3125
▁门外	-3126
▁间接	-3127
▁间隔	-3128
▁队伍	-3129
▁阵线	-3130
▁阵阵	-3131
▁零下	-3132
▁面值	-3133
▁面向	-3134
▁题为	-3135
▁题的	-3136
▁风采	-3137
▁首次	-3138
▁驱车	-3139
▁高产	-3140
▁鸣枪	-3141
▁齐心	-3142
加拉瓜	-3143
和景仰	-3144
旧迎新	-3145
▁东直门	-3146
▁之间的	-3147
▁乌骨鸡	-3148
▁党支部	-3149
▁博物馆	-3150
▁卡翁达	-3151
▁发乎情	-3152
▁吸引了	-3153
▁在深圳	-3154
▁塔拉尔	-3155
▁尉健行	-3156
▁就以军	-3157
▁强烈的	-3158
▁性循环	-3159
▁所在的	-3160
▁扎耶德	-3161
▁有利于	-3162
▁标志着	-3163
▁王学贤	-3164
▁省柴节	-3165
▁秘书长	-3166
▁荣毅仁	-3167
▁菲律宾	-3168
▁董建华	-3169
▁这件事	-3170
▁通胀率	-3171
▁钥匙孔	-3172
▁饲养量	-3173
卡特佩特	-3174
读和景仰	-3175
▁少生快富	-3176
▁尼加拉瓜	-3177
▁巴基斯坦	-3178
▁彩虹花园	-3179
▁濒临倒闭	-3180
▁经久不衰	-3181
▁辞旧迎新	-3182
▁省柴节煤灶	-3183
▁波波卡特佩特	-3184
▁邓小平理论的	-3185
▁乃	-3186
▁乾	-3187
▁亦	-3188
▁仁	-3189
▁仆	-3190
▁休	-3191
▁伦	-3192
▁侧	-3193
▁倍	-3194
▁倒	-3195
▁倘	-3196
▁倾	-3197
▁催	-3198
▁兄	-3199
▁予	-3200
▁仿	-3201
▁借	-3202
▁兆	-3203
▁兰	-3204
▁凌	-3205
▁剑	-3206
▁劣	-3207
▁劫	-3208
▁募	-3209
▁勤	-3210
▁匆	-3211
▁厦	-3212
▁句	-3213
▁叭	-3214
▁司	-3215
▁吉	-3216
▁否	-3217
▁哀	-3218
▁喇	-3219
▁嘴	-3220
▁固	-3221
▁圆	-3222
▁坛	-3223
▁垫	-3224
▁堆	-3225
▁堡	-3226
▁堪	-3227
▁奠	-3228
▁娱	-3229
▁孝	-3230
▁宜	-3231
▁宝	-3232
▁室	-3233
▁宿	-3234
▁寂	-3235
▁寓	-3236
▁寺	-3237
▁射	-3238
▁尖	-3239
▁尚	-3240
▁尺	-3241
▁岚	-3242
▁岩	-3243
▁崭	-3244
▁州	-3245
▁巧	-3246
▁巷	-3247
▁席	-3248
▁库	-3249
▁康	-3250
▁廉	-3251
▁弦	-3252
▁彼	-3253
▁径	-3254
▁律	-3255
▁忽	-3256
▁怕	-3257
▁恶	-3258
▁悦	-3259
▁惶	-3260
▁戎	-3261
▁戒	-3262
▁扫	-3263
▁扮	-3264
▁披	-3265
▁抵	-3266
▁拖	-3267
▁择	-3268
▁拾	-3269
▁挣	-3270
▁损	-3271
▁掩	-3272
▁搭	-3273
▁摘	-3274
▁敏	-3275
▁敲	-3276
▁旬	-3277
▁旺	-3278
▁昂	-3279
▁昭	-3280
▁晋	-3281
▁杂	-3282
▁杜	-3283
▁杭	-3284
▁杰	-3285
▁枝	-3286
▁枪	-3287
▁柳	-3288
▁框	-3289
▁桌	-3290
▁植	-3291
▁椒	-3292
▁欲	-3293
▁歧	-3294
▁殃	-3295
▁殊	-3296
▁段	-3297
▁氛	-3298
▁汪	-3299
▁串	-3300
▁侠	-3301
▁勋	-3302
▁墙	-3303
▁妨	-3304
▁姜	-3305
▁娓	-3306
▁宅	-3307
▁岸	-3308
▁揽	-3309
▁斐	-3310
▁沈	-3311
▁沿	-3312
▁泄	-3313
▁泥	-3314
▁泳	-3315
▁洒	-3316
▁洞	-3317
▁洼	-3318
▁添	-3319
▁滞	-3320
▁滴	-3321
▁漾	-3322
▁澄	-3323
▁灯	-3324
▁烽	-3325
▁牛	-3326
▁牧	-3327
▁狭	-3328
▁猛	-3329
▁琼	-3330
▁甜	-3331
▁畔	-3332
▁略	-3333
▁疏	-3334
▁疑	-3335
▁瘫	-3336
▁皇	-3337
▁盗	-3338
▁睦	-3339
▁硕	-3340
▁硝	-3341
▁私	-3342
▁秧	-3343
▁移	-3344
▁稀	-3345
▁究	-3346
▁窥	-3347
▁笛	-3348
▁笼	-3349
▁答	-3350
▁箫	-3351
▁篓	-3352
▁粉	-3353
▁粗	-3354
▁糊	-3355
▁纵	-3356
▁纺	-3357
▁绝	-3358
▁绩	-3359
▁绳	-3360
▁缅	-3361
▁缤	-3362
▁罢	-3363
▁耳	-3364
▁肖	-3365
▁脉	-3366
▁舆	-3367
▁茫	-3368
▁茵	-3369
▁药	-3370
▁萝	-3371
▁萨	-3372
▁蒂	-3373
▁蕴	-3374
▁蕾	-3375
▁藉	-3376
▁虎	-3377
▁虑	-3378
▁虚	-3379
▁衣	-3380
▁衷	-3381
▁袋	-3382
▁裕	-3383
▁誓	-3384
▁讨	-3385
▁译	-3386
▁诞	-3387
▁谷	-3388
▁豪	-3389
▁豫	-3390
▁赏	-3391
▁赤	-3392
▁跳	-3393
▁踞	-3394
▁轰	-3395
▁辆	-3396
▁辟	-3397
▁返	-3398
▁逢	-3399
▁乎	-3400
▁井	-3401
▁享	-3402
▁免	-3403
▁咱	-3404
▁塘	-3405
▁塞	-3406
▁宋	-3407
▁屡	-3408
▁帷	-3409
▁府	-3410
▁弱	-3411
▁徽	-3412
▁悠	-3413
▁慨	-3414
▁拒	-3415
▁摧	-3416
▁暗	-3417
▁柿	-3418
▁档	-3419
▁椅	-3420
▁滨	-3421
▁漫	-3422
▁申	-3423
▁疆	-3424
▁痕	-3425
▁纳	-3426
▁脏	-3427
▁苍	-3428
▁草	-3429
▁莽	-3430
▁虽	-3431
▁赵	-3432
▁逝	-3433
▁邀	-3434
▁邦	-3435
▁酒	-3436
▁野	-3437
▁钞	-3438
▁钻	-3439
▁铺	-3440
▁锐	-3441
▁锦	-3442
▁键	-3443
▁镕	-3444
▁闯	-3445
▁阐	-3446
▁阔	-3447
▁阴	-3448
▁陪	-3449
▁隔	-3450
▁须	-3451
▁颇	-3452
▁食	-3453
▁餐	-3454
▁饮	-3455
▁饱	-3456
▁饺	-3457
▁驶	-3458
▁驾	-3459
▁骄	-3460
▁骨	-3461
▁鸠	-3462
▁黎	-3463
▁鼠	-3464
一堂	-3465
丽生	-3466
义昭	-3467
之以	-3468
九五	-3469
习惯	-3470
事本	-3471
亚胡	-3472
交管	-3473
享誉	-3474
伙子	-3475
传送	-3476
体化	-3477
偏北	-3478
先后	-3479
军属	-3480
决心	-3481
制宜	-3482
剖析	-3483
劳斯	-3484
卢巴	-3485
可归	-3486
可泣	-3487
同地	-3488
启彬	-3489
地利	-3490
塔尼	-3491
处是	-3492
多金	-3493
好者	-3494
宾逊	-3495
尼拉	-3496
局长	-3497
布置	-3498
建舟	-3499
▁塑	-3500
▁弟	-3501
▁懈	-3502
▁摩	-3503
▁摸	-3504
▁柱	-3505
▁炸	-3506
▁煤	-3507
▁磨	-3508
▁罕	-3509
▁羽	-3510
▁臣	-3511
▁诉	-3512
▁隐	-3513
克拉	-3514
党刊	-3515
女老	-3516
彩玲	-3517
必贪	-3518
悲鸿	-3519
所谓	-3520
把手	-3521
拿大	-3522
斯基	-3523
旋门	-3524
有芳	-3525
木齐	-3526
来越	-3527
林县	-3528
林顿	-3529
桑比	-3530
桥梁	-3531
步入	-3532
步飞	-3533
比拉	-3534
氏度	-3535
气流	-3536
浩田	-3537
深地	-3538
添了	-3539
玛干	-3540
瑞环	-3541
甚至	-3542
立派	-3543
系列	-3544
约而	-3545
纽带	-3546
致使	-3547
致词	-3548
荣誉	-3549
萨诺	-3550
衷地	-3551
角度	-3552
评家	-3553
话会	-3554
负着	-3555
贫富	-3556
赞誉	-3557
过难	-3558
运河	-3559
迟不	-3560
里木	-3561
长张	-3562
随着	-3563
雄鹰	-3564
露出	-3565
麻雀	-3566
▁)、	-3567
▁,2	-3568
▁.3	-3569
▁.8	-3570
▁/3	-3571
▁18	-3572
▁39	-3573
▁45	-3574
▁55	-3575
▁62	-3576
▁7.	-3577
▁88	-3578
▁:『	-3579
▁》(	-3580
▁』。	-3581
▁一件	-3582
▁一份	-3583
▁一元	-3584
▁一响	-3585
▁一块	-3586
▁一家	-3587
▁一批	-3588
▁一支	-3589
▁一流	-3590
▁一片	-3591
▁一百	-3592
▁一股	-3593
▁一般	-3594
▁一路	-3595
▁一辆	-3596
▁一遍	-3597
▁万吨	-3598
▁三人	-3599
▁上加	-3600
▁上升	-3601
▁上台	-3602
▁上空	-3603
▁上述	-3604
▁下乡	-3605
▁下了	-3606
▁不上	-3607
▁不为	-3608
▁不久	-3609
▁不到	-3610
▁不开	-3611
▁不相	-3612
▁不绝	-3613
▁不要	-3614
▁专程	-3615
▁专访	-3616
▁世间	-3617
▁东西	-3618
▁丝绸	-3619
▁两亩	-3620
▁两者	-3621
▁严寒	-3622
▁严峻	-3623
▁个多	-3624
▁个大	-3625
▁个村	-3626
▁中共	-3627
▁中南	-3628
▁中山	-3629
▁丰收	-3630
▁临川	-3631
▁临时	-3632
▁为之	-3633
▁为国	-3634
▁为民	-3635
▁主动	-3636
▁主题	-3637
▁举世	-3638
▁义演	-3639
▁之两	-3640
▁之争	-3641
▁之处	-3642
▁之师	-3643
▁之急	-3644
▁之道	-3645
▁乌鲁	-3646
▁也不	-3647
▁也将	-3648
▁也是	-3649
▁也曾	-3650
▁也都	-3651
▁习惯	-3652
▁书的	-3653
▁买回	-3654
▁了与	-3655
▁了两	-3656
▁了全	-3657
▁了相	-3658
▁予以	-3659
▁争取	-3660
▁事的	-3661
▁二是	-3662
▁于用	-3663
▁互相	-3664
▁互补	-3665
▁五十	-3666
▁五是	-3667
▁交响	-3668
▁亩地	-3669
▁享受	-3670
▁京城	-3671
▁京沪	-3672
▁亲人	-3673
▁亲手	-3674
▁人为	-3675
▁人和	-3676
▁人心	-3677
▁人才	-3678
▁人死	-3679
▁人静	-3680
▁仅是	-3681
▁今为	-3682
▁今后	-3683
▁他的	-3684
▁代中	-3685
▁以至	-3686
▁们都	-3687
▁份额	-3688
▁仿佛	-3689
▁休眠	-3690
▁优良	-3691
▁会晤	-3692
▁会见	-3693
▁会长	-3694
▁传授	-3695
▁伴唱	-3696
▁似乎	-3697
▁但是	-3698
▁低于	-3699
▁住在	-3700
▁何况	-3701
▁使其	-3702
▁使我	-3703
▁依然	-3704
▁依赖	-3705
▁侠骨	-3706
▁保卫	-3707
▁保留	-3708
▁修筑	-3709
▁儿女	-3710
▁兄弟	-3711
▁充足	-3712
▁先后	-3713
▁先河	-3714
▁光彩	-3715
▁党报	-3716
▁入冬	-3717
▁全乡	-3718
▁全军	-3719
▁全局	-3720
▁全镇	-3721
▁全长	-3722
▁公共	-3723
▁公报	-3724
▁公正	-3725
▁公益	-3726
▁共有	-3727
▁关键	-3728
▁兴县	-3729
▁兵器	-3730
▁典籍	-3731
▁养鱼	-3732
▁冒着	-3733
▁写着	-3734
▁冬泳	-3735
▁冰雪	-3736
▁冲突	-3737
▁净的	-3738
▁减轻	-3739
▁几个	-3740
▁几天	-3741
▁出一	-3742
▁分成	-3743
▁分社	-3744
▁分类	-3745
▁分量	-3746
▁切入	-3747
▁划拨	-3748
▁刘志	-3749
▁则几	-3750
▁则多	-3751
▁创建	-3752
▁创新	-3753
▁创汇	-3754
▁利于	-3755
▁利落	-3756
▁到自	-3757
▁前程	-3758
▁办了	-3759
▁办公	-3760
▁加元	-3761
▁务必	-3762
▁动辄	-3763
▁势头	-3764
▁勇敢	-3765
▁包袱	-3766
▁区的	-3767
▁十七	-3768
▁升旗	-3769
▁半年	-3770
▁华安	-3771
▁卖主	-3772
▁南宁	-3773
▁占地	-3774
▁印尼	-3775
▁即使	-3776
▁原子	-3777
▁原本	-3778
▁原来	-3779
▁县乡	-3780
▁县市	-3781
▁参股	-3782
▁又不	-3783
▁又有	-3784
▁双向	-3785
▁反党	-3786
▁反复	-3787
▁反腐	-3788
▁发动	-3789
▁发放	-3790
▁发电	-3791
▁取代	-3792
▁取消	-3793
▁取的	-3794
▁变为	-3795
▁变得	-3796
▁古史	-3797
▁古城	-3798
▁古籍	-3799
▁叫我	-3800
▁可从	-3801
▁可归	-3802
▁号码	-3803
▁各以	-3804
▁各行	-3805
▁各项	-3806
▁合唱	-3807
▁合影	-3808
▁合格	-3809
▁名著	-3810
▁和公	-3811
▁和审	-3812
▁和恶	-3813
▁和气	-3814
▁和水	-3815
▁和睦	-3816
▁和解	-3817
▁和那	-3818
▁咱们	-3819
▁品的	-3820
▁品种	-3821
▁哈马	-3822
▁响应	-3823
▁喷发	-3824
▁四是	-3825
▁回忆	-3826
▁回荡	-3827
▁因为	-3828
▁因地	-3829
▁因此	-3830
▁因素	-3831
▁困扰	-3832
▁围绕	-3833
▁国南	-3834
▁国春	-3835
▁图像	-3836
▁在各	-3837
▁在天	-3838
▁在异	-3839
▁在那	-3840
▁地同	-3841
▁地图	-3842
▁地接	-3843
▁地缘	-3844
▁地说	-3845
▁场的	-3846
▁坚守	-3847
▁坚韧	-3848
▁坪上	-3849
▁培育	-3850
▁培训	-3851
▁堵车	-3852
▁境界	-3853
▁增产	-3854
▁士学	-3855
▁处罚	-3856
▁备了	-3857
▁复苏	-3858
▁外出	-3859
▁外国	-3860
▁外地	-3861
▁外来	-3862
▁多么	-3863
▁多年	-3864
▁多样	-3865
▁夜晚	-3866
▁大众	-3867
▁大军	-3868
▁大国	-3869
▁大量	-3870
▁天下	-3871
▁天气	-3872
▁太行	-3873
▁太阳	-3874
▁夫妇	-3875
▁失传	-3876
▁失衡	-3877
▁奉献	-3878
▁她那	-3879
▁好评	-3880
▁好转	-3881
▁如常	-3882
▁妹妹	-3883
▁姑妈	-3884
▁娱乐	-3885
▁媒体	-3886
▁子女	-3887
▁学会	-3888
▁学和	-3889
▁学校	-3890
▁学的	-3891
▁宗旨	-3892
▁官员	-3893
▁定期	-3894
▁实况	-3895
▁审慎	-3896
▁审视	-3897
▁客观	-3898
▁家与	-3899
▁家人	-3900
▁家园	-3901
▁家禽	-3902
▁宿舍	-3903
▁对一	-3904
▁将为	-3905
▁将于	-3906
▁将在	-3907
▁少量	-3908
▁就业	-3909
▁就能	-3910
▁屏幕	-3911
▁展出	-3912
▁展开	-3913
▁展望	-3914
▁展览	-3915
▁山川	-3916
▁山沟	-3917
▁岗亭	-3918
▁工艺	-3919
▁巨大	-3920
▁已是	-3921
▁已有	-3922
▁已达	-3923
▁巴黎	-3924
▁席卷	-3925
▁常委	-3926
▁幅度	-3927
▁干脆	-3928
▁平凡	-3929
▁平原	-3930
▁平的	-3931
▁平稳	-3932
▁年仅	-3933
▁年代	-3934
▁年底	-3935
▁年无	-3936
▁广播	-3937
▁度的	-3938
▁庭院	-3939
▁延长	-3940
▁建议	-3941
▁建起	-3942
▁开那	-3943
▁引述	-3944
▁弥补	-3945
▁当选	-3946
▁彩色	-3947
▁影视	-3948
▁往事	-3949
▁往里	-3950
▁待遇	-3951
▁很大	-3952
▁很快	-3953
▁很有	-3954
▁得以	-3955
▁微笑	-3956
▁德国	-3957
▁德的	-3958
▁怀揣	-3959
▁怎么	-3960
▁思念	-3961
▁悟出	-3962
▁情与	-3963
▁情地	-3964
▁惊喜	-3965
▁想象	-3966
▁意见	-3967
▁戈比	-3968
▁成群	-3969
▁成长	-3970
▁我驻	-3971
▁战友	-3972
▁战胜	-3973
▁所以	-3974
▁所画	-3975
▁所谓	-3976
▁手中	-3977
▁执行	-3978
▁扶持	-3979
▁找准	-3980
▁承贷	-3981
▁抓不	-3982
▁报国	-3983
▁担任	-3984
▁拒绝	-3985
▁拜年	-3986
▁拥挤	-3987
▁挑选	-3988
▁授权	-3989
▁接着	-3990
▁描写	-3991
▁描绘	-3992
▁描述	-3993
▁援助	-3994
▁撤军	-3995
▁支付	-3996
▁收到	-3997
▁收取	-3998
▁收购	-3999
▁改组	-4000
▁放水	-4001
▁放飞	-4002
▁效应	-4003
▁救灾	-4004
▁教授	-4005
▁敞开	-4006
▁整体	-4007
▁整洁	-4008
▁整顿	-4009
▁斐然	-4010
▁斑斓	-4011
▁斯特	-4012
▁新型	-4013
▁新春	-4014
▁方向	-4015
▁施特	-4016
▁无家	-4017
▁无微	-4018
▁无数	-4019
▁日前	-4020
▁日常	-4021
▁日晚	-4022
▁早在	-4023
▁早已	-4024
▁早期	-4025
▁旺盛	-4026
▁昆明	-4027
▁明代	-4028
▁明智	-4029
▁春天	-4030
▁春的	-4031
▁春节	-4032
▁昨天	-4033
▁是两	-4034
▁是个	-4035
▁是应	-4036
▁景观	-4037
▁智慧	-4038
▁暖亮	-4039
▁暖湿	-4040
▁曲印	-4041
▁曲调	-4042
▁更新	-4043
▁更是	-4044
▁最为	-4045
▁最低	-4046
▁最初	-4047
▁最早	-4048
▁月份	-4049
▁有不	-4050
▁有了	-4051
▁有人	-4052
▁有几	-4053
▁有奖	-4054
▁有对	-4055
▁有类	-4056
▁望台	-4057
▁未曾	-4058
▁本地	-4059
▁杂志	-4060
▁李升	-4061
▁李学	-4062
▁材料	-4063
▁村宅	-4064
▁村村	-4065
▁条小	-4066
▁来临	-4067
▁来宾	-4068
▁杨子	-4069
▁极不	-4070
▁极大	-4071
▁林果	-4072
▁果不	-4073
▁某些	-4074
▁查处	-4075
▁标语	-4076
▁桂林	-4077
▁桌边	-4078
▁桥本	-4079
▁检查	-4080
▁检阅	-4081
▁概括	-4082
▁横吹	-4083
▁次为	-4084
▁次的	-4085
▁次被	-4086
▁欣慰	-4087
▁歌剧	-4088
▁歌舞	-4089
▁正义	-4090
▁正点	-4091
▁正规	-4092
▁此间	-4093
▁步伐	-4094
▁步步	-4095
▁殃及	-4096
▁每人	-4097
▁每周	-4098
▁每月	-4099
▁比额	-4100
▁毕竟	-4101
▁气质	-4102
▁水浜	-4103
▁水等	-4104
▁汽车	-4105
▁沟通	-4106
▁法制	-4107
▁法国	-4108
▁法律	-4109
▁注目	-4110
▁泰国	-4111
▁洁的	-4112
▁洋洲	-4113
▁流量	-4114
▁测量	-4115
▁浓郁	-4116
▁浩然	-4117
▁浩荡	-4118
▁浪潮	-4119
▁海南	-4120
▁海口	-4121
▁消防	-4122
▁消除	-4123
▁涉及	-4124
▁深化	-4125
▁温馨	-4126
▁港澳	-4127
▁游客	-4128
▁满载	-4129
▁火烧	-4130
▁点和	-4131
▁点评	-4132
▁烂漫	-4133
▁热闹	-4134
▁然可	-4135
▁照耀	-4136
▁爱的	-4137
▁物价	-4138
▁牵头	-4139
▁特大	-4140
▁特技	-4141
▁独具	-4142
▁献给	-4143
▁献身	-4144
▁献辞	-4145
▁现出	-4146
▁现有	-4147
▁珍惜	-4148
▁理事	-4149
▁理性	-4150
▁甚至	-4151
▁生前	-4152
▁生长	-4153
▁用不	-4154
▁田野	-4155
▁电力	-4156
▁画面	-4157
▁瘫痪	-4158
▁登山	-4159
▁的中	-4160
▁的优	-4161
▁的体	-4162
▁的依	-4163
▁的信	-4164
▁的分	-4165
▁的前	-4166
▁的北	-4167
▁的双	-4168
▁的古	-4169
▁的可	-4170
▁的名	-4171
▁的命	-4172
▁的图	-4173
▁的场	-4174
▁的孙	-4175
▁的巨	-4176
▁的总	-4177
▁的手	-4178
▁的提	-4179
▁的普	-4180
▁的本	-4181
▁的松	-4182
▁的沉	-4183
▁的版	-4184
▁的理	-4185
▁的生	-4186
▁的眼	-4187
▁的祝	-4188
▁的窗	-4189
▁的立	-4190
▁的纯	-4191
▁的老	-4192
▁的联	-4193
▁的花	-4194
▁的论	-4195
▁的起	-4196
▁的金	-4197
▁的风	-4198
▁省委	-4199
▁省市	-4200
▁省长	-4201
▁看护	-4202
▁真丝	-4203
▁真实	-4204
▁真的	-4205
▁着一	-4206
▁着三	-4207
▁着手	-4208
▁睦邻	-4209
▁短期	-4210
▁确的	-4211
▁社论	-4212
▁社长	-4213
▁祝辞	-4214
▁神话	-4215
▁离石	-4216
▁种田	-4217
▁科教	-4218
▁秧歌	-4219
▁积累	-4220
▁称谓	-4221
▁稳步	-4222
▁空域	-4223
▁突出	-4224
▁立即	-4225
▁立场	-4226
▁笔触	-4227
▁等的	-4228
▁精致	-4229
▁纺织	-4230
▁终极	-4231
▁结论	-4232
▁统计	-4233
▁维修	-4234
▁绵绵	-4235
▁绿化	-4236
▁缅怀	-4237
▁编撰	-4238
▁编者	-4239
▁编著	-4240
▁编选	-4241
▁缤纷	-4242
▁缩小	-4243
▁缺乏	-4244
▁美丽	-4245
▁美元	-4246
▁美好	-4247
▁美学	-4248
▁美的	-4249
▁羽毛	-4250
▁老板	-4251
▁者和	-4252
▁而上	-4253
▁而又	-4254
▁而无	-4255
▁耕耘	-4256
▁聪明	-4257
▁背土	-4258
▁背着	-4259
▁背篓	-4260
▁能从	-4261
▁脚下	-4262
▁脱了	-4263
▁舆论	-4264
▁航线	-4265
▁般的	-4266
▁良性	-4267
▁良知	-4268
▁色彩	-4269
▁花卉	-4270
▁萝卜	-4271
▁董事	-4272
▁藏族	-4273
▁街头	-4274
▁补助	-4275
▁表妹	-4276
▁表明	-4277
▁被炸	-4278
▁西亚	-4279
▁要比	-4280
▁观光	-4281
▁观察	-4282
▁观看	-4283
▁觉得	-4284
▁誓词	-4285
▁警方	-4286
▁计生	-4287
▁计的	-4288
▁记载	-4289
▁记述	-4290
▁讲究	-4291
▁讲解	-4292
▁评为	-4293
▁话剧	-4294
▁详细	-4295
▁语言	-4296
▁说是	-4297
▁诸多	-4298
▁读书	-4299
▁调动	-4300
▁谋士	-4301
▁谱写	-4302
▁象的	-4303
▁豫剧	-4304
▁负担	-4305
▁购买	-4306
▁贯穿	-4307
▁贵州	-4308
▁资助	-4309
▁资本	-4310
▁赠送	-4311
▁趋向	-4312
▁路段	-4313
▁身世	-4314
▁身体	-4315
▁车道	-4316
▁软禁	-4317
▁轻度	-4318
▁运动	-4319
▁运用	-4320
▁运行	-4321
▁近百	-4322
▁还会	-4323
▁还在	-4324
▁还要	-4325
▁这份	-4326
▁这位	-4327
▁这套	-4328
▁这篇	-4329
▁这里	-4330
▁远远	-4331
▁连年	-4332
▁送去	-4333
▁造出	-4334
▁造成	-4335
▁道理	-4336
▁那个	-4337
▁邻里	-4338
▁配置	-4339
▁重建	-4340
▁重的	-4341
▁金色	-4342
▁金额	-4343
▁针对	-4344
▁钞票	-4345
▁钟楼	-4346
▁钢架	-4347
▁银川	-4348
▁锦绣	-4349
▁长远	-4350
▁门口	-4351
▁阶级	-4352
▁阿姨	-4353
▁陆机	-4354
▁陈天	-4355
▁降低	-4356
▁除了	-4357
▁随意	-4358
▁随着	-4359
▁雅俗	-4360
▁雪域	-4361
▁雷达	-4362
▁震撼	-4363
▁露脸	-4364
▁青联	-4365
▁非法	-4366
▁面世	-4367
▁面貌	-4368
▁面额	-4369
▁领土	-4370
▁频频	-4371
▁风格	-4372
▁风气	-4373
▁饲料	-4374
▁首相	-4375
▁驻阿	-4376
▁驾车	-4377
▁骄傲	-4378
▁高奏	-4379
▁高挂	-4380
▁高潮	-4381
▁高的	-4382
▁鬼神	-4383
▁鲜明	-4384
▁鲜菜	-4385
之以恒	-4386
事本末	-4387
交管局	-4388
偏北风	-4389
可归者	-4390
桑比克	-4391
着布置	-4392
过难关	-4393
▁197	-4394
▁一体化	-4395
▁一把手	-4396
▁一系列	-4397
▁不必贪	-4398
▁不约而	-4399
▁为纽带	-4400
▁九七年	-4401
▁依多金	-4402
▁克林顿	-4403
▁内塔尼	-4404
▁凯旋门	-4405
▁刘步飞	-4406
▁到处是	-4407
▁加拿大	-4408
▁卡比拉	-4409
▁在致词	-4410
▁塔克拉	-4411
▁塔里木	-4412
▁增添了	-4413
▁大运河	-4414
▁夫斯基	-4415
▁奇卢巴	-4416
▁奥地利	-4417
▁孩子们	-4418
▁小伙子	-4419
▁局局长	-4420
▁山西省	-4421
▁希萨诺	-4422
▁年轻的	-4423
▁徐义昭	-4424
▁徐有芳	-4425
▁批评家	-4426
▁摄氏度	-4427
▁显露出	-4428
▁机长张	-4429
▁李瑞环	-4430
▁柳林县	-4431
▁河北省	-4432
▁深深地	-4433
▁湖州市	-4434
▁灿烂的	-4435
▁烈军属	-4436
▁爱好者	-4437
▁田庄乡	-4438
▁由衷地	-4439
▁男女老	-4440
▁画雄鹰	-4441
▁的决心	-4442
▁的剖析	-4443
▁的桥梁	-4444
▁的荣誉	-4445
▁的角度	-4446
▁的赞誉	-4447
▁罗宾逊	-4448
▁肩负着	-4449
▁胡彩玲	-4450
▁茶话会	-4451
▁贾建舟	-4452
▁越来越	-4453
▁转化为	-4454
▁迟浩田	-4455
▁迟迟不	-4456
▁邮电部	-4457
▁采访了	-4458
▁马尼拉	-4459
▁高丽生	-4460
▁乌鲁木齐	-4461
▁党报党刊	-4462
▁双向传送	-4463
▁因地制宜	-4464
▁女作家的	-4465
▁市交管局	-4466
▁持之以恒	-4467
▁施特劳斯	-4468
▁暖湿气流	-4469
▁欢聚一堂	-4470
▁渡过难关	-4471
▁级偏北风	-4472
▁良性循环	-4473
▁莫桑比克	-4474
▁董建华等	-4475
▁驻阿联酋	-4476
阅读和景仰	-4477
▁一九九七年	-4478
▁不约而同地	-4479
▁内塔尼亚胡	-4480
▁塔克拉玛干	-4481
▁忙碌着布置	-4482
▁无家可归者	-4483
▁机长张启彬	-4484
▁肤	-4485
▁肥	-4486
▁肿	-4487
▁腾	-4488
▁膀	-4489
▁膏	-4490
▁臂	-4491
▁臾	-4492
▁芝	-4493
▁芭	-4494
▁茂	-4495
▁莅	-4496
▁菊	-4497
▁菠	-4498
▁萧	-4499
▁盲	-4500
▁睹	-4501
▁砍	-4502
▁碑	-4503
▁碰	-4504
▁稻	-4505
▁稿	-4506
▁窄	-4507
▁窘	-4508
▁竹	-4509
▁箴	-4510
▁粒	-4511
▁糅	-4512
▁糖	-4513
▁索	-4514
▁紫	-4515
▁纬	-4516
▁纶	-4517
▁绍	-4518
▁绑	-4519
▁绕	-4520
▁续	-4521
▁缕	-4522
▁罐	-4523
▁翠	-4524
▁葱	-4525
▁蔚	-4526
▁薛	-4527
▁蛋	-4528
▁衍	-4529
▁袖	-4530
▁裂	-4531
▁裹	-4532
▁觑	-4533
▁询	-4534
▁谭	-4535
▁豁	-4536
▁贞	-4537
▁贬	-4538
▁贱	-4539
▁赋	-4540
▁赐	-4541
▁赖	-4542
▁赡	-4543
▁赫	-4544
▁赭	-4545
▁跋	-4546
▁跷	-4547
▁躺	-4548
▁轲	-4549
▁辅	-4550
▁辐	-4551
▁辑	-4552
▁迁	-4553
▁迄	-4554
▁迭	-4555
▁逃	-4556
▁遏	-4557
▁遒	-4558
▁遮	-4559
▁邱	-4560
▁邵	-4561
▁邸	-4562
▁邹	-4563
▁郊	-4564
▁鉴	-4565
▁钦	-4566
▁钧	-4567
▁钩	-4568
▁铭	-4569
▁链	-4570
▁锁	-4571
▁错	-4572
▁锤	-4573
▁锲	-4574
▁锻	-4575
▁镜	-4576
▁镶	-4577
▁闭	-4578
▁阂	-4579
▁阑	-4580
▁陡	-4581
▁雏	-4582
▁雯	-4583
▁雾	-4584
▁霜	-4585
▁颂	-4586
▁颖	-4587
▁饰	-4588
▁饿	-4589
▁馨	-4590
▁骑	-4591
▁骚	-4592
▁魁	-4593
▁鲍	-4594
▁鸡	-4595
▁鸢	-4596
▁麻	-4597
▁黔	-4598
▁鼐	-4599
▁杆	-4600
▁杈	-4601
▁杞	-4602
▁析	-4603
▁栏	-4604
▁桑	-4605
▁梓	-4606
▁梯	-4607
▁械	-4608
▁樊	-4609
▁残	-4610
▁殖	-4611
▁殷	-4612
▁氢	-4613
▁汝	-4614
▁汤	-4615
▁汾	-4616
▁沥	-4617
▁沪	-4618
▁沾	-4619
▁泻	-4620
▁浅	-4621
▁浮	-4622
▁浸	-4623
▁涂	-4624
▁涅	-4625
▁涣	-4626
▁涪	-4627
▁涯	-4628
▁淌	-4629
▁渊	-4630
▁溜	-4631
▁溧	-4632
▁滥	-4633
▁炉	-4634
▁炮	-4635
▁燕	-4636
▁牢	-4637
▁犯	-4638
▁玲	-4639
▁珮	-4640
▁琛	-4641
▁琴	-4642
▁甲	-4643
▁症	-4644
▁痛	-4645
▁瘠	-4646
▁闹	-4647
▁霸	-4648
▁龄	-4649
三交	-4650
上铺	-4651
不已	-4652
不胜	-4653
与祝	-4654
举止	-4655
义县	-4656
之势	-4657
乳透	-4658
于没	-4659
些年	-4660
人郭	-4661
令汗	-4662
伟成	-4663
倒飞	-4664
儿子	-4665
兼具	-4666
凶杀	-4667
劲王	-4668
区办	-4669
却俨	-4670
县柘	-4671
双民	-4672
可见	-4673
同恺	-4674
周美	-4675
国琦	-4676
地注	-4677
墨耘	-4678
大桥	-4679
大法	-4680
太人	-4681
姻缘	-4682
安街	-4683
定居	-4684
实可	-4685
尔物	-4686
局改	-4687
展翼	-4688
山雕	-4689
岁钱	-4690
岸观	-4691
布赫	-4692
建谁	-4693
张振	-4694
彩的	-4695
往开	-4696
念和	-4697
思远	-4698
愿干	-4699
▁戴	-4700
▁扑	-4701
▁扭	-4702
▁折	-4703
▁抛	-4704
▁抠	-4705
▁抽	-4706
▁拆	-4707
▁拗	-4708
▁拙	-4709
▁拟	-4710
▁拦	-4711
▁拮	-4712
▁拼	-4713
▁挚	-4714
▁挡	-4715
▁挥	-4716
▁挨	-4717
▁捷	-4718
▁搬	-4719
▁攀	-4720
▁斡	-4721
▁晤	-4722
▁曼	-4723
▁朵	-4724
▁朽	-4725
▁榫	-4726
▁涝	-4727
▁狱	-4728
▁粲	-4729
▁肃	-4730
▁魅	-4731
上门	-4732
不通	-4733
于场	-4734
你眼	-4735
入隶	-4736
具抱	-4737
到手	-4738
及它	-4739
在怀	-4740
在朝	-4741
地摆	-4742
家门	-4743
屋后	-4744
帘的	-4745
弄它	-4746
引下	-4747
待会	-4748
得水	-4749
态可	-4750
或鸣	-4751
战员	-4752
房剩	-4753
拘留	-4754
挂着	-4755
捉座	-4756
授过	-4757
掏腰	-4758
摆放	-4759
政总	-4760
敏之	-4761
斯科	-4762
新李	-4763
景的	-4764
曲径	-4765
林嵩	-4766
歼击	-4767
残疾	-4768
毁了	-4769
水哄	-4770
永毅	-4771
永黄	-4772
汉简	-4773
污染	-4774
油马	-4775
洗国	-4776
渤海	-4777
温暖	-4778
激情	-4779
炮乐	-4780
牺牲	-4781
王萍	-4782
理奖	-4783
的熊	-4784
的砖	-4785
的谢	-4786
皆灵	-4787
皎明	-4788
着寒	-4789
砚田	-4790
磋商	-4791
称为	-4792
窥视	-4793
米等	-4794
者赞	-4795
肉色	-4796
能齐	-4797
艾青	-4798
落和	-4799
▁害	-4800
▁寨	-4801
▁尘	-4802
▁尸	-4803
▁屈	-4804
▁岂	-4805
▁岱	-4806
▁峭	-4807
▁峻	-4808
▁嵌	-4809
▁巡	-4810
▁己	-4811
▁帅	-4812
▁帙	-4813
▁庙	-4814
▁弗	-4815
▁弹	-4816
▁彦	-4817
▁忍	-4818
▁怨	-4819
▁恐	-4820
▁恤	-4821
▁悄	-4822
▁悔	-4823
▁您	-4824
▁悬	-4825
▁悸	-4826
▁惬	-4827
▁慎	-4828
▁熔	-4829
▁粹	-4830
为乡	-4831
乡冯	-4832
亩产	-4833
冷的	-4834
出谋	-4835
启功	-4836
和葫	-4837
天地	-4838
宏图	-4839
家煌	-4840
层次	-4841
岚清	-4842
巴嫩	-4843
徐志	-4844
志福	-4845
把大	-4846
敏杰	-4847
数的	-4848
方米	-4849
果送	-4850
珮云	-4851
疆闻	-4852
白昼	-4853
的蛋	-4854
能传	-4855
行长	-4856
视学	-4857
觉世	-4858
触到	-4859
赞他	-4860
赵玉	-4861
趣南	-4862
跃的	-4863
达夫	-4864
造田	-4865
遵循	-4866
郭凯	-4867
销烟	-4868
问暖	-4869
闸门	-4870
院他	-4871
难觅	-4872
雨夹	-4873
雪片	-4874
面题	-4875
颇丰	-4876
鱼可	-4877
鸟画	-4878
▁.7	-4879
▁02	-4880
▁28	-4881
▁34	-4882
▁42	-4883
▁44	-4884
▁52	-4885
▁72	-4886
▁74	-4887
▁95	-4888
▁97	-4889
▁”!	-4890
▁”(	-4891
▁”;	-4892
▁‰,	-4893
▁、1	-4894
▁、5	-4895
▁』,	-4896
▁一串	-4897
▁一举	-4898
▁一二	-4899
▁卿	-4900
▁厉	-4901
▁厌	-4902
▁吟	-4903
▁呕	-4904
▁咏	-4905
▁咨	-4906
▁哪	-4907
▁唐	-4908
▁喻	-4909
▁嘎	-4910
▁嘱	-4911
▁嘹	-4912
▁坎	-4913
▁坝	-4914
▁坤	-4915
▁坷	-4916
▁垂	-4917
▁垄	-4918
▁垠	-4919
▁埃	-4920
▁埔	-4921
▁域	-4922
▁堑	-4923
▁堤	-4924
▁墓	-4925
▁壳	-4926
▁够	-4927
▁奴	-4928
▁姓	-4929
▁娃	-4930
▁娇	-4931
▁媚	-4932
▁媳	-4933
▁孚	-4934
▁恋	-4935
▁扇	-4936
▁浦	-4937
▁淳	-4938
▁溯	-4939
▁盎	-4940
▁误	-4941
▁鞋	-4942
举动	-4943
举棋	-4944
乌黑	-4945
停机	-4946
其峰	-4947
制品	-4948
南街	-4949
周的	-4950
和镇	-4951
宝田	-4952
德烈	-4953
抬水	-4954
摄取	-4955
束缚	-4956
死鱼	-4957
沙汀	-4958
神州	-4959
编队	-4960
虎团	-4961
长韩	-4962
▁,8	-4963
▁一度	-4964
▁一张	-4965
▁一提	-4966
▁一新	-4967
▁一是	-4968
▁一点	-4969
▁一群	-4970
▁一边	-4971
▁一部	-4972
▁一面	-4973
▁一首	-4974
▁万万	-4975
▁万千	-4976
▁万国	-4977
▁万平	-4978
▁万象	-4979
▁万里	-4980
▁三元	-4981
▁上任	-4982
▁上对	-4983
▁上投	-4984
▁下令	-4985
▁下到	-4986
▁下午	-4987
▁下大	-4988
▁下把	-4989
▁下而	-4990
▁不变	-4991
▁不合	-4992
▁不在	-4993
▁不就	-4994
▁不应	-4995
▁不得	-4996
▁不敢	-4997
▁与夸	-4998
▁专致	-4999
▁乳	-5000
▁亏	-5001
▁仇	-5002
▁仔	-5003
▁估	-5004
▁佐	-5005
▁佩	-5006
▁佯	-5007
▁俏	-5008
▁俗	-5009
▁俱	-5010
▁倔	-5011
▁僧	-5012
▁僵	-5013
▁儒	-5014
▁冠	-5015
▁凤	-5016
▁凸	-5017
▁刃	-5018
▁剥	-5019
▁剪	-5020
▁劈	-5021
▁励	-5022
▁勘	-5023
▁勾	-5024
▁卉	-5025
▁嘘	-5026
▁幽	-5027
▁弯	-5028
▁替	-5029
▁秒	-5030
▁芹	-5031
▁蹈	-5032
万机	-5033
不亚	-5034
中调	-5035
于叱	-5036
伊丽	-5037
俯贻	-5038
兰堡	-5039
削减	-5040
力抓	-5041
动车	-5042
勉励	-5043
去翻	-5044
垃圾	-5045
她幸	-5046
宣新	-5047
寒爱	-5048
工践	-5049
心武	-5050
快上	-5051
意浓	-5052
文另	-5053
朝瑞	-5054
永波	-5055
洁地	-5056
爪部	-5057
白港	-5058
目远	-5059
禁止	-5060
美满	-5061
落在	-5062
里长	-5063
锤百	-5064
阿里	-5065
▁万个	-5066
▁万名	-5067
▁业于	-5068
▁东京	-5069
▁丝毫	-5070
▁两只	-5071
▁两地	-5072
▁两次	-5073
▁中一	-5074
▁中又	-5075
▁中按	-5076
▁中期	-5077
▁临近	-5078
▁为何	-5079
▁为前	-5080
▁为名	-5081
▁为支	-5082
▁为止	-5083
▁为津	-5084
▁主体	-5085
▁主的	-5086
▁丽的	-5087
▁丽风	-5088
▁之作	-5089
▁之声	-5090
▁之外	-5091
▁之类	-5092
▁乐声	-5093
▁乐得	-5094
▁九六	-5095
▁九届	-5096
▁也可	-5097
▁也正	-5098
▁也没	-5099
▁丈	-5100
▁乘	-5101
▁恨	-5102
▁眺	-5103
▁苋	-5104
▁詹	-5105
▁诺	-5106
▁郎	-5107
三才	-5108
上到	-5109
乃正	-5110
些钱	-5111
信揭	-5112
关根	-5113
力地	-5114
半部	-5115
卫县	-5116
发运	-5117
合不	-5118
否则	-5119
喜说	-5120
图会	-5121
地操	-5122
增上	-5123
声音	-5124
复由	-5125
大铁	-5126
子眼	-5127
引水	-5128
必求	-5129
抗英	-5130
拢嘴	-5131
放上	-5132
时寄	-5133
曾庆	-5134
板一	-5135
泽铣	-5136
潜诗	-5137
瑙河	-5138
腊梅	-5139
茅盾	-5140
蓝色	-5141
衣捐	-5142
被子	-5143
论语	-5144
读后	-5145
贺卡	-5146
越岭	-5147
载起	-5148
辐射	-5149
运全	-5150
运地	-5151
郭沫	-5152
钱友	-5153
龚自	-5154
▁不见	-5155
▁中最	-5156
▁之后	-5157
▁乡的	-5158
▁书中	-5159
▁买一	-5160
▁买提	-5161
▁了上	-5162
▁了为	-5163
▁了各	-5164
▁了平	-5165
▁了行	-5166
▁了过	-5167
▁二等	-5168
▁二重	-5169
▁于一	-5170
▁于以	-5171
▁于历	-5172
▁于徐	-5173
▁于本	-5174
▁于来	-5175
▁云龙	-5176
▁些人	-5177
▁亡的	-5178
▁京西	-5179
▁人不	-5180
▁人人	-5181
▁人喜	-5182
▁人无	-5183
▁人请	-5184
▁人车	-5185
▁人还	-5186
▁仅为	-5187
▁今晚	-5188
▁仍为	-5189
▁从长	-5190
▁代奇	-5191
▁以不	-5192
▁以减	-5193
▁以有	-5194
▁以继	-5195
▁们不	-5196
▁们便	-5197
▁们向	-5198
▁们就	-5199
▁判	-5200
▁岭	-5201
▁帽	-5202
▁幼	-5203
▁废	-5204
▁怜	-5205
▁栓	-5206
▁泣	-5207
▁浑	-5208
▁盆	-5209
▁秤	-5210
▁郭	-5211
▁陶	-5212
▁韦	-5213
▁鲶	-5214
▁鳜	-5215
们干	-5216
信如	-5217
千斤	-5218
史哲	-5219
害的	-5220
家骅	-5221
小雪	-5222
层互	-5223
掬的	-5224
芦娃	-5225
苗再	-5226
评为	-5227
软禁	-5228
雪里	-5229
▁5、	-5230
▁上市	-5231
▁不想	-5232
▁两位	-5233
▁交往	-5234
▁交接	-5235
▁们是	-5236
▁件和	-5237
▁任何	-5238
▁伊斯	-5239
▁会有	-5240
▁传来	-5241
▁低了	-5242
▁体地	-5243
▁体的	-5244
▁体育	-5245
▁何鲁	-5246
▁作业	-5247
▁作了	-5248
▁使原	-5249
▁依法	-5250
▁保险	-5251
▁信念	-5252
▁俯贻	-5253
▁倒不	-5254
▁做出	-5255
▁催人	-5256
▁像黄	-5257
▁元帮	-5258
▁光明	-5259
▁全书	-5260
▁全力	-5261
▁全程	-5262
▁共唱	-5263
▁关的	-5264
▁兴国	-5265
▁兴致	-5266
▁兵法	-5267
▁其精	-5268
▁具体	-5269
▁养的	-5270
▁兼备	-5271
▁内将	-5272
▁再创	-5273
▁再现	-5274
▁冒雨	-5275
▁写上	-5276
▁写照	-5277
▁军区	-5278
▁农妇	-5279
▁冬的	-5280
▁冰雕	-5281
▁凝聚	-5282
▁几位	-5283
▁出乎	-5284
▁出发	-5285
▁出资	-5286
▁分裂	-5287
▁刊发	-5288
▁刘华	-5289
▁创办	-5290
▁到南	-5291
▁到新	-5292
▁到来	-5293
▁到的	-5294
▁制定	-5295
▁制裁	-5296
▁前一	-5297
▁前在	-5298
▁前夜	-5299
▁伙	-5300
▁偷	-5301
▁兹	-5302
▁冶	-5303
▁叔	-5304
▁坦	-5305
▁崛	-5306
▁愫	-5307
▁慧	-5308
▁抄	-5309
▁汛	-5310
▁滩	-5311
▁番	-5312
▁竣	-5313
▁舒	-5314
▁茨	-5315
▁萌	-5316
两次	-5317
乎圣	-5318
乐团	-5319
全长	-5320
功夫	-5321
常绿	-5322
畜牧	-5323
盆内	-5324
证据	-5325
边好	-5326
锣鼓	-5327
问候	-5328
音速	-5329
▁一国	-5330
▁下有	-5331
▁不尽	-5332
▁中标	-5333
▁为全	-5334
▁也有	-5335
▁付出	-5336
▁会副	-5337
▁位老	-5338
▁准确	-5339
▁分摊	-5340
▁制的	-5341
▁前就	-5342
▁前提	-5343
▁剧院	-5344
▁力度	-5345
▁力的	-5346
▁功夫	-5347
▁加上	-5348
▁加剧	-5349
▁加各	-5350
▁加重	-5351
▁务员	-5352
▁动地	-5353
▁劲的	-5354
▁勉励	-5355
▁勘探	-5356
▁化是	-5357
▁区在	-5358
▁十几	-5359
▁十部	-5360
▁华北	-5361
▁南的	-5362
▁卡拉	-5363
▁卡车	-5364
▁印刷	-5365
▁印经	-5366
▁历经	-5367
▁厚重	-5368
▁去了	-5369
▁去全	-5370
▁县有	-5371
▁参展	-5372
▁参考	-5373
▁参观	-5374
▁又是	-5375
▁又给	-5376
▁双边	-5377
▁发言	-5378
▁取有	-5379
▁受损	-5380
▁受益	-5381
▁口的	-5382
▁古人	-5383
▁只身	-5384
▁可先	-5385
▁可歌	-5386
▁可自	-5387
▁台和	-5388
▁史上	-5389
▁史书	-5390
▁史大	-5391
▁叶利	-5392
▁各大	-5393
▁各方	-5394
▁合同	-5395
▁合拍	-5396
▁同学	-5397
▁同心	-5398
▁同赏	-5399
▁哩	-5400
▁器	-5401
▁术	-5402
▁炽	-5403
▁珊	-5404
▁盖	-5405
▁稚	-5406
▁缴	-5407
▁耶	-5408
▁衔	-5409
▁豹	-5410
▁跟	-5411
▁鲤	-5412
与撒	-5413
以为	-5414
伤财	-5415
光辉	-5416
动憬	-5417
协与	-5418
塘镇	-5419
将相	-5420
左右	-5421
思的	-5422
抒发	-5423
海基	-5424
白了	-5425
西西	-5426
资助	-5427
里游	-5428
飘香	-5429
▁9.	-5430
▁、2	-5431
▁下来	-5432
▁下车	-5433
▁不过	-5434
▁业将	-5435
▁为建	-5436
▁九九	-5437
▁了区	-5438
▁事迹	-5439
▁以后	-5440
▁会对	-5441
▁体现	-5442
▁倾听	-5443
▁健身	-5444
▁剪纸	-5445
▁十余	-5446
▁南北	-5447
▁后人	-5448
▁向前	-5449
▁向各	-5450
▁吴忠	-5451
▁呈密	-5452
▁员罗	-5453
▁周一	-5454
▁周年	-5455
▁呼声	-5456
▁命令	-5457
▁和两	-5458
▁和优	-5459
▁和俄	-5460
▁和农	-5461
▁和县	-5462
▁和民	-5463
▁商业	-5464
▁喜欢	-5465
▁喜爱	-5466
▁喜讯	-5467
▁喝彩	-5468
▁四海	-5469
▁回首	-5470
▁国仍	-5471
▁国会	-5472
▁国学	-5473
▁国就	-5474
▁国应	-5475
▁国道	-5476
▁土豆	-5477
▁在不	-5478
▁在他	-5479
▁在其	-5480
▁在几	-5481
▁在原	-5482
▁在哪	-5483
▁在夏	-5484
▁在外	-5485
▁在大	-5486
▁在收	-5487
▁在自	-5488
▁在谈	-5489
▁在高	-5490
▁地加	-5491
▁地处	-5492
▁地对	-5493
▁地平	-5494
▁地打	-5495
▁地收	-5496
▁地降	-5497
▁场等	-5498
▁坐在	-5499
▁傍	-5500
▁券	-5501
▁嫁	-5502
▁惨	-5503
▁捍	-5504
▁掘	-5505
▁森	-5506
▁沂	-5507
▁泸	-5508
▁澎	-5509
▁瑰	-5510
▁瞒	-5511
▁穆	-5512
▁肴	-5513
▁裁	-5514
▁谦	-5515
▁踢	-5516
▁陲	-5517
公益	-5518
力于	-5519
山伯	-5520
庆林	-5521
惊心	-5522
死终	-5523
谈会	-5524
额外	-5525
黄子	-5526
▁一天	-5527
▁不时	-5528
▁中写	-5529
▁中每	-5530
▁人能	-5531
▁亿人	-5532
▁依据	-5533
▁别国	-5534
▁到十	-5535
▁到青	-5536
▁削减	-5537
▁半本	-5538
▁地写	-5539
▁地面	-5540
▁坚毅	-5541
▁型的	-5542
▁埃及	-5543
▁城关	-5544
▁基层	-5545
▁堪忧	-5546
▁塑造	-5547
▁塞夫	-5548
▁增大	-5549
▁增强	-5550
▁士兵	-5551
▁壮歌	-5552
▁处可	-5553
▁处在	-5554
▁夏季	-5555
▁外债	-5556
▁外客	-5557
▁外部	-5558
▁大力	-5559
▁大厦	-5560
▁大好	-5561
▁大小	-5562
▁大山	-5563
▁大明	-5564
▁大有	-5565
▁天翼	-5566
▁头崖	-5567
▁夺取	-5568
▁奇袭	-5569
▁奋力	-5570
▁奋勇	-5571
▁奠定	-5572
▁委会	-5573
▁威胁	-5574
▁子教	-5575
▁字的	-5576
▁孤独	-5577
▁完整	-5578
▁定会	-5579
▁定要	-5580
▁实意	-5581
▁实践	-5582
▁客商	-5583
▁家和	-5584
▁家都	-5585
▁容量	-5586
▁宾朋	-5587
▁宾馆	-5588
▁寄的	-5589
▁寒风	-5590
▁对联	-5591
▁对黎	-5592
▁将一	-5593
▁将其	-5594
▁将来	-5595
▁将这	-5596
▁尊重	-5597
▁小小	-5598
▁小时	-5599
:『	-5600
▁乏	-5601
▁仪	-5602
▁凭	-5603
▁劼	-5604
▁匠	-5605
▁吹	-5606
▁捧	-5607
▁漓	-5608
▁熊	-5609
▁皮	-5610
▁纂	-5611
▁绎	-5612
▁赁	-5613
▁陟	-5614
占全	-5615
家宝	-5616
小路	-5617
桃溪	-5618
淡淡	-5619
熟悉	-5620
留念	-5621
顺应	-5622
▁46	-5623
▁一道	-5624
▁不足	-5625
▁业等	-5626
▁中之	-5627
▁中还	-5628
▁了停	-5629
▁仍将	-5630
▁八个	-5631
▁共收	-5632
▁共计	-5633
▁其实	-5634
▁出自	-5635
▁刘云	-5636
▁利地	-5637
▁区大	-5638
▁千里	-5639
▁又从	-5640
▁坚实	-5641
▁外的	-5642
▁小麦	-5643
▁少的	-5644
▁尚未	-5645
▁就会	-5646
▁就要	-5647
▁尼国	-5648
▁局限	-5649
▁层次	-5650
▁屋内	-5651
▁属下	-5652
▁属于	-5653
▁属的	-5654
▁山间	-5655
▁岗刘	-5656
▁工资	-5657
▁差距	-5658
▁已初	-5659
▁已在	-5660
▁市农	-5661
▁市里	-5662
▁带动	-5663
▁常务	-5664
▁干净	-5665
▁干道	-5666
▁年一	-5667
▁年历	-5668
▁年后	-5669
▁年都	-5670
▁并将	-5671
▁并茂	-5672
▁并非	-5673
▁广生	-5674
▁庄乡	-5675
▁应由	-5676
▁底子	-5677
▁度上	-5678
▁康生	-5679
▁建新	-5680
▁建筑	-5681
▁建造	-5682
▁开的	-5683
▁开通	-5684
▁式在	-5685
▁引发	-5686
▁引进	-5687
▁张亮	-5688
▁张彦	-5689
▁张震	-5690
▁强的	-5691
▁当年	-5692
▁当然	-5693
▁彻底	-5694
▁往的	-5695
▁很不	-5696
▁很好	-5697
▁很小	-5698
▁得不	-5699
19	-5700
▁俘	-5701
▁娶	-5702
▁屿	-5703
▁晴	-5704
▁瀑	-5705
▁瀚	-5706
▁甫	-5707
▁疫	-5708
▁睛	-5709
▁砂	-5710
▁筛	-5711
▁聘	-5712
▁胀	-5713
▁腕	-5714
▁臆	-5715
▁荆	-5716
▁蕻	-5717
▁铎	-5718
▁霎	-5719
▁鲫	-5720
他拿	-5721
场道	-5722
增多	-5723
天空	-5724
幸福	-5725
树银	-5726
竹园	-5727
笔墨	-5728
芍药	-5729
菌奶	-5730
被割	-5731
豌豆	-5732
镕基	-5733
鞭炮	-5734
▁下去	-5735
▁不禁	-5736
▁不适	-5737
▁业转	-5738
▁乐曲	-5739
▁于不	-5740
▁五年	-5741
▁仍不	-5742
▁何近	-5743
▁余帧	-5744
▁元复	-5745
▁冬季	-5746
▁功力	-5747
▁和印	-5748
▁和转	-5749
▁嘴脸	-5750
▁国与	-5751
▁国已	-5752
▁在中	-5753
▁大江	-5754
▁实效	-5755
▁布的	-5756
▁希思	-5757
▁年大	-5758
▁幸福	-5759
▁形态	-5760
▁得几	-5761
▁得好	-5762
▁循环	-5763
▁心事	-5764
▁心地	-5765
▁心态	-5766
▁心眼	-5767
▁快乐	-5768
▁念与	-5769
▁态的	-5770
▁总工	-5771
▁总是	-5772
▁悟空	-5773
▁悠久	-5774
▁情却	-5775
▁想见	-5776
▁愉快	-5777
▁意和	-5778
▁感召	-5779
▁感和	-5780
▁感觉	-5781
▁愿和	-5782
▁愿望	-5783
▁懈怠	-5784
▁成效	-5785
▁成新	-5786
▁成熟	-5787
▁我一	-5788
▁我为	-5789
▁我军	-5790
▁我看	-5791
▁我还	-5792
▁或者	-5793
▁战线	-5794
▁战车	-5795
▁户帮	-5796
▁所属	-5797
▁所能	-5798
▁才是	-5799
▁卯	-5800
▁央	-5801
▁姻	-5802
▁寸	-5803
▁帕	-5804
▁帧	-5805
▁慢	-5806
▁暇	-5807
▁栖	-5808
▁氤	-5809
▁氲	-5810
▁涛	-5811
▁溪	-5812
▁牙	-5813
▁狼	-5814
▁禺	-5815
▁笋	-5816
▁绚	-5817
▁缭	-5818
▁翅	-5819
▁臭	-5820
▁葡	-5821
▁贩	-5822
▁郁	-5823
▁霞	-5824
乎理	-5825
劳达	-5826
湾村	-5827
秋生	-5828
翻山	-5829
自治	-5830
视着	-5831
饮酒	-5832
▁3%	-5833
▁96	-5834
▁不言	-5835
▁与史	-5836
▁与此	-5837
▁东南	-5838
▁中小	-5839
▁举办	-5840
▁之夜	-5841
▁之美	-5842
▁了半	-5843
▁了村	-5844
▁产后	-5845
▁今日	-5846
▁仍有	-5847
▁们想	-5848
▁使之	-5849
▁分享	-5850
▁力为	-5851
▁加入	-5852
▁劳民	-5853
▁北方	-5854
▁却在	-5855
▁四个	-5856
▁四十	-5857
▁它们	-5858
▁就建	-5859
▁年中	-5860
▁我从	-5861
▁才有	-5862
▁执法	-5863
▁把玩	-5864
▁抒发	-5865
▁抓住	-5866
▁抓好	-5867
▁投产	-5868
▁投诉	-5869
▁护卫	-5870
▁报以	-5871
▁报社	-5872
▁抵达	-5873
▁拉蒙	-5874
▁拖欠	-5875
▁拘泥	-5876
▁拼搏	-5877
▁拿起	-5878
▁持久	-5879
▁挥洒	-5880
▁捍卫	-5881
▁掌声	-5882
▁掌握	-5883
▁排上	-5884
▁探讨	-5885
▁接过	-5886
▁推开	-5887
▁提倡	-5888
▁握手	-5889
▁揭示	-5890
▁摧残	-5891
▁撰写	-5892
▁支柱	-5893
▁收割	-5894
▁收获	-5895
▁数以	-5896
▁数百	-5897
▁敲响	-5898
▁文丛	-5899
▁仰	-5900
▁冻	-5901
▁叉	-5902
▁哇	-5903
▁墟	-5904
▁姆	-5905
▁巾	-5906
▁愤	-5907
▁慷	-5908
▁抱	-5909
▁攥	-5910
▁枸	-5911
▁棒	-5912
▁母	-5913
▁渝	-5914
▁瑚	-5915
▁稍	-5916
▁箱	-5917
▁篮	-5918
▁缝	-5919
▁辨	-5920
▁逊	-5921
▁锅	-5922
▁陷	-5923
同下	-5924
大川	-5925
委会	-5926
安在	-5927
弦乐	-5928
晓颜	-5929
笔耕	-5930
▁2.	-5931
▁94	-5932
▁一派	-5933
▁上演	-5934
▁专题	-5935
▁业已	-5936
▁久久	-5937
▁乡一	-5938
▁光大	-5939
▁写成	-5940
▁前所	-5941
▁办学	-5942
▁务实	-5943
▁十个	-5944
▁卫队	-5945
▁发明	-5946
▁和我	-5947
▁和美	-5948
▁哲学	-5949
▁天上	-5950
▁完善	-5951
▁家族	-5952
▁寂寞	-5953
▁山一	-5954
▁并通	-5955
▁当前	-5956
▁很少	-5957
▁性格	-5958
▁悟和	-5959
▁文之	-5960
▁文的	-5961
▁文选	-5962
▁斯科	-5963
▁新兵	-5964
▁方米	-5965
▁施工	-5966
▁旋律	-5967
▁无党	-5968
▁既是	-5969
▁日上	-5970
▁日子	-5971
▁日抵	-5972
▁旧的	-5973
▁早年	-5974
▁时不	-5975
▁时就	-5976
▁昌盛	-5977
▁映入	-5978
▁春意	-5979
▁是为	-5980
▁是令	-5981
▁是以	-5982
▁是做	-5983
▁是因	-5984
▁是我	-5985
▁是村	-5986
▁是用	-5987
▁是相	-5988
▁是自	-5989
▁是被	-5990
▁是这	-5991
▁是非	-5992
▁是靠	-5993
▁是鲜	-5994
▁晚会	-5995
▁晚在	-5996
▁景区	-5997
▁更迭	-5998
▁更需	-5999
▁丹	-6000
▁倦	-6001
▁傅	-6002
▁卧	-6003
▁叩	-6004
▁坏	-6005
▁恍	-6006
▁憨	-6007
▁扉	-6008
▁撑	-6009
▁撷	-6010
▁敌	-6011
▁暴	-6012
▁杯	-6013
▁柔	-6014
▁槟	-6015
▁混	-6016
▁漏	-6017
▁盏	-6018
▁磊	-6019
▁纠	-6020
▁翁	-6021
▁舰	-6022
▁蜕	-6023
▁赔	-6024
▁阖	-6025
▁陀	-6026
▁雁	-6027
仰观	-6028
分流	-6029
切尔	-6030
卢嘉	-6031
史籍	-6032
市乳	-6033
徐俊	-6034
是她	-6035
月季	-6036
跋涉	-6037
达了	-6038
里夫	-6039
▁,6	-6040
▁一代	-6041
▁中宣	-6042
▁为本	-6043
▁为零	-6044
▁以前	-6045
▁兴起	-6046
▁减灾	-6047
▁动人	-6048
▁动着	-6049
▁却一	-6050
▁发和	-6051
▁国之	-6052
▁好干	-6053
▁安徽	-6054
▁宏伟	-6055
▁家里	-6056
▁少年	-6057
▁局的	-6058
▁巨幅	-6059
▁庆市	-6060
▁方可	-6061
▁是那	-6062
▁曹美	-6063
▁曹金	-6064
▁曾经	-6065
▁最终	-6066
▁月中	-6067
▁月二	-6068
▁月如	-6069
▁月的	-6070
▁有十	-6071
▁有名	-6072
▁有待	-6073
▁有感	-6074
▁有机	-6075
▁有权	-6076
▁有那	-6077
▁有限	-6078
▁服从	-6079
▁望着	-6080
▁期望	-6081
▁期的	-6082
▁未来	-6083
▁本书	-6084
▁本来	-6085
▁本质	-6086
▁本身	-6087
▁机会	-6088
▁机组	-6089
▁机遇	-6090
▁权和	-6091
▁权益	-6092
▁李长	-6093
▁李鹏	-6094
▁村办	-6095
▁村和	-6096
▁村已	-6097
▁村庄	-6098
▁村户	-6099
▁伸	-6100
▁吧	-6101
▁圈	-6102
▁帐	-6103
▁弊	-6104
▁愁	-6105
▁扣	-6106
▁搁	-6107
▁斌	-6108
▁昼	-6109
▁毅	-6110
▁灶	-6111
▁瑶	-6112
▁皎	-6113
▁盈	-6114
▁砖	-6115
▁笃	-6116
▁绪	-6117
▁颗	-6118
▁饥	-6119
原先	-6120
寺的	-6121
帝王	-6122
生悲	-6123
直线	-6124
窥寻	-6125
粪便	-6126
署了	-6127
▁21	-6128
▁37	-6129
▁49	-6130
▁上到	-6131
▁上学	-6132
▁下面	-6133
▁不够	-6134
▁与国	-6135
▁业也	-6136
▁业务	-6137
▁中求	-6138
▁主编	-6139
▁之以	-6140
▁了三	-6141
▁了有	-6142
▁二个	-6143
▁于情	-6144
▁人次	-6145
▁人登	-6146
▁医疗	-6147
▁呈现	-6148
▁和鼓	-6149
▁四家	-6150
▁大关	-6151
▁大雪	-6152
▁好地	-6153
▁就走	-6154
▁帝王	-6155
▁年文	-6156
▁愿这	-6157
▁我不	-6158
▁房前	-6159
▁挂起	-6160
▁昼夜	-6161
▁普通	-6162
▁有正	-6163
▁机的	-6164
▁束缚	-6165
▁条约	-6166
▁来之	-6167
▁来写	-6168
▁来华	-6169
▁来源	-6170
▁来说	-6171
▁杰出	-6172
▁松树	-6173
▁极其	-6174
▁架次	-6175
▁某种	-6176
▁校学	-6177
▁样在	-6178
▁格的	-6179
▁概念	-6180
▁模式	-6181
▁横滚	-6182
▁欠佳	-6183
▁次以	-6184
▁次要	-6185
▁正气	-6186
▁此一	-6187
▁步入	-6188
▁步的	-6189
▁每一	-6190
▁比较	-6191
▁毕业	-6192
▁毫米	-6193
▁民心	-6194
▁气之	-6195
▁气候	-6196
▁气和	-6197
▁气球	-6198
▁气的	-6199
▁佛	-6200
▁喊	-6201
▁崔	-6202
▁幄	-6203
▁曝	-6204
▁渥	-6205
▁琅	-6206
▁碍	-6207
▁碎	-6208
▁筝	-6209
▁绒	-6210
▁芜	-6211
▁茄	-6212
▁薄	-6213
▁虬	-6214
▁蜜	-6215
▁觞	-6216
▁讴	-6217
▁败	-6218
▁踵	-6219
▁邕	-6220
▁钓	-6221
▁饼	-6222
▁鹰	-6223
人蕉	-6224
发姐	-6225
围场	-6226
清澈	-6227
芙蓉	-6228
▁27	-6229
▁7%	-6230
▁不安	-6231
▁主办	-6232
▁之大	-6233
▁于生	-6234
▁亮的	-6235
▁人国	-6236
▁他乡	-6237
▁以下	-6238
▁做法	-6239
▁净化	-6240
▁几亩	-6241
▁势的	-6242
▁医学	-6243
▁名的	-6244
▁图谱	-6245
▁圆满	-6246
▁在全	-6247
▁在我	-6248
▁如一	-6249
▁对此	-6250
▁尝试	-6251
▁展之	-6252
▁展现	-6253
▁巨变	-6254
▁市建	-6255
▁年之	-6256
▁年被	-6257
▁心中	-6258
▁必要	-6259
▁成员	-6260
▁挣扎	-6261
▁挺拔	-6262
▁数万	-6263
▁斯的	-6264
▁歌曲	-6265
▁步前	-6266
▁氛围	-6267
▁水产	-6268
▁水面	-6269
▁永恒	-6270
▁汉斌	-6271
▁江上	-6272
▁池塘	-6273
▁污染	-6274
▁沉稳	-6275
▁河水	-6276
▁油田	-6277
▁治国	-6278
▁治学	-6279
▁治安	-6280
▁治疗	-6281
▁法所	-6282
▁法案	-6283
▁波及	-6284
▁注重	-6285
▁洁白	-6286
▁洪水	-6287
▁活力	-6288
▁浇地	-6289
▁济国	-6290
▁浓厚	-6291
▁浩歌	-6292
▁海域	-6293
▁海的	-6294
▁消失	-6295
▁淡忘	-6296
▁淮河	-6297
▁深处	-6298
▁深远	-6299
▁怒	-6300
▁曙	-6301
▁禽	-6302
▁翼	-6303
▁脂	-6304
泳三	-6305
盖卷	-6306
▁一改	-6307
▁上多	-6308
▁不住	-6309
▁不自	-6310
▁仅有	-6311
▁以节	-6312
▁依靠	-6313
▁十倍	-6314
▁华南	-6315
▁南省	-6316
▁向全	-6317
▁和老	-6318
▁山水	-6319
▁应征	-6320
▁次出	-6321
▁清了	-6322
▁清剿	-6323
▁清华	-6324
▁渤海	-6325
▁温宪	-6326
▁温洁	-6327
▁港的	-6328
▁源泉	-6329
▁溧水	-6330
▁滚动	-6331
▁满了	-6332
▁满意	-6333
▁滴落	-6334
▁潘跃	-6335
▁潘驰	-6336
▁潜力	-6337
▁潮有	-6338
▁激烈	-6339
▁激越	-6340
▁灾难	-6341
▁炸伤	-6342
▁热情	-6343
▁然成	-6344
▁然趋	-6345
▁煤矿	-6346
▁照相	-6347
▁照顾	-6348
▁熟悉	-6349
▁片新	-6350
▁物品	-6351
▁牺牲	-6352
▁犯罪	-6353
▁犹如	-6354
▁独创	-6355
▁猎猎	-6356
▁献资	-6357
▁率的	-6358
▁王国	-6359
▁王建	-6360
▁王楚	-6361
▁环节	-6362
▁现已	-6363
▁现的	-6364
▁班子	-6365
▁理和	-6366
▁甚少	-6367
▁甜蜜	-6368
▁生在	-6369
▁生育	-6370
▁用途	-6371
▁田庄	-6372
▁田的	-6373
▁电影	-6374
▁画坛	-6375
▁画展	-6376
▁画的	-6377
▁画集	-6378
▁界人	-6379
▁界对	-6380
▁留下	-6381
▁百万	-6382
▁的东	-6383
▁的丰	-6384
▁的书	-6385
▁的产	-6386
▁的亲	-6387
▁的以	-6388
▁的作	-6389
▁的健	-6390
▁的先	-6391
▁的共	-6392
▁的兴	-6393
▁的农	-6394
▁的准	-6395
▁的几	-6396
▁的单	-6397
▁的印	-6398
▁的厂	-6399
▁的同	-6400
▁的启	-6401
▁的喜	-6402
▁的四	-6403
▁的国	-6404
▁的地	-6405
▁的城	-6406
▁的女	-6407
▁的孤	-6408
▁的学	-6409
▁的居	-6410
▁的工	-6411
▁的年	-6412
▁的强	-6413
▁的形	-6414
▁的必	-6415
▁的悲	-6416
▁的想	-6417
▁的感	-6418
▁的成	-6419
▁的指	-6420
▁的收	-6421
▁的救	-6422
▁的数	-6423
▁的早	-6424
▁的时	-6425
▁的未	-6426
▁的权	-6427
▁的正	-6428
▁的步	-6429
▁的水	-6430
▁的激	-6431
▁的火	-6432
▁的直	-6433
▁的眷	-6434
▁的神	-6435
▁的程	-6436
▁的纸	-6437
▁的结	-6438
▁的编	-6439
▁的胸	-6440
▁的英	-6441
▁的装	-6442
▁的讲	-6443
▁的财	-6444
▁的身	-6445
▁的车	-6446
▁的近	-6447
▁的还	-6448
▁的进	-6449
▁的送	-6450
▁的道	-6451
▁的里	-6452
▁的队	-6453
▁的雨	-6454
▁的需	-6455
▁的青	-6456
▁的面	-6457
▁益处	-6458
▁盏灯	-6459
▁监控	-6460
▁盛世	-6461
▁目光	-6462
▁目睹	-6463
▁直播	-6464
▁直观	-6465
▁相互	-6466
▁相连	-6467
▁省的	-6468
▁看中	-6469
▁真诚	-6470
▁眼光	-6471
▁着不	-6472
▁着晨	-6473
▁着生	-6474
▁着许	-6475
▁瞩目	-6476
▁知了	-6477
▁知名	-6478
▁知道	-6479
▁矿工	-6480
▁研制	-6481
▁砚田	-6482
▁硝烟	-6483
▁确定	-6484
▁祝你	-6485
▁祝谦	-6486
▁票价	-6487
▁票面	-6488
▁禁止	-6489
▁福建	-6490
▁福的	-6491
▁秀丽	-6492
▁种的	-6493
▁空中	-6494
▁空前	-6495
▁空气	-6496
▁穿梭	-6497
▁窗户	-6498
▁立行	-6499
▁竖起	-6500
▁童话	-6501
▁端的	-6502
▁笑声	-6503
▁第四	-6504
▁等功	-6505
▁等国	-6506
▁等数	-6507
▁等新	-6508
▁等老	-6509
▁策的	-6510
▁简明	-6511
▁籍中	-6512
▁类图	-6513
▁精确	-6514
▁精粹	-6515
▁素质	-6516
▁红叶	-6517
▁红的	-6518
▁红色	-6519
▁纸币	-6520
▁线上	-6521
▁组建	-6522
▁细细	-6523
▁细节	-6524
▁绑架	-6525
▁结果	-6526
▁给予	-6527
▁给每	-6528
▁绝对	-6529
▁绿叶	-6530
▁编辑	-6531
▁罕见	-6532
▁置于	-6533
▁置在	-6534
▁美化	-6535
▁美食	-6536
▁群体	-6537
▁老师	-6538
▁考察	-6539
▁考虑	-6540
▁者为	-6541
▁者之	-6542
▁者胡	-6543
▁而且	-6544
▁而从	-6545
▁而言	-6546
▁联邦	-6547
▁肯定	-6548
▁腹地	-6549
▁腾的	-6550
▁自主	-6551
▁自动	-6552
▁自家	-6553
▁自民	-6554
▁自清	-6555
▁自由	-6556
▁至地	-6557
▁致词	-6558
▁舍的	-6559
▁舞台	-6560
▁舞的	-6561
▁良好	-6562
▁良田	-6563
▁艾青	-6564
▁花被	-6565
▁苗再	-6566
▁苦功	-6567
▁苦难	-6568
▁荡在	-6569
▁荣立	-6570
▁莫大	-6571
▁获益	-6572
▁蒙山	-6573
▁蓝的	-6574
▁蓬勃	-6575
▁藏历	-6576
▁虎门	-6577
▁血与	-6578
▁血压	-6579
▁行为	-6580
▁行列	-6581
▁行驶	-6582
▁表率	-6583
▁衷心	-6584
▁袭击	-6585
▁裁军	-6586
▁装帧	-6587
▁西北	-6588
▁西南	-6589
▁西安	-6590
▁西部	-6591
▁要去	-6592
▁要在	-6593
▁要素	-6594
▁要给	-6595
▁见和	-6596
▁见的	-6597
▁观的	-6598
▁角度	-6599
▁言谈	-6600
▁让人	-6601
▁训练	-6602
▁议员	-6603
▁记忆	-6604
▁论著	-6605
▁论述	-6606
▁证书	-6607
▁证明	-6608
▁诗人	-6609
▁诚挚	-6610
▁话说	-6611
▁话题	-6612
▁诞生	-6613
▁该人	-6614
▁该县	-6615
▁该市	-6616
▁说不	-6617
▁说我	-6618
▁说的	-6619
▁诺贝	-6620
▁谁有	-6621
▁谈到	-6622
▁谢谢	-6623
▁财富	-6624
▁贫穷	-6625
▁贯彻	-6626
▁贺电	-6627
▁贺词	-6628
▁贾励	-6629
▁赞赏	-6630
▁走上	-6631
▁赶到	-6632
▁起伏	-6633
▁起步	-6634
▁起火	-6635
▁足球	-6636
▁路不	-6637
▁路人	-6638
▁路口	-6639
▁路子	-6640
▁路线	-6641
▁身为	-6642
▁身于	-6643
▁车外	-6644
▁车点	-6645
▁转交	-6646
▁转向	-6647
▁转让	-6648
▁载而	-6649
▁较大	-6650
▁较快	-6651
▁辉映	-6652
▁辣椒	-6653
▁边的	-6654
▁过好	-6655
▁迈向	-6656
▁迎来	-6657
▁近日	-6658
▁还就	-6659
▁这两	-6660
▁这场	-6661
▁这就	-6662
▁这方	-6663
▁这条	-6664
▁这首	-6665
▁进上	-6666
▁进取	-6667
▁进展	-6668
▁连连	-6669
▁送到	-6670
▁送给	-6671
▁选举	-6672
▁选段	-6673
▁选购	-6674
▁透过	-6675
▁途径	-6676
▁通的	-6677
▁通讯	-6678
▁逝世	-6679
▁造型	-6680
▁造福	-6681
▁造良	-6682
▁遵循	-6683
▁那么	-6684
▁那些	-6685
▁那时	-6686
▁部及	-6687
▁部和	-6688
▁都已	-6689
▁配合	-6690
▁里人	-6691
▁重任	-6692
▁重而	-6693
▁重量	-6694
▁金和	-6695
▁钟声	-6696
▁钢琴	-6697
▁钦佩	-6698
▁铁路	-6699
▁锋芒	-6700
▁长在	-6701
▁长王	-6702
▁长达	-6703
▁门的	-6704
▁闪烁	-6705
▁问候	-6706
▁间的	-6707
▁闻力	-6708
▁阅读	-6709
▁阐述	-6710
▁队一	-6711
▁队员	-6712
▁队的	-6713
▁阳三	-6714
▁阿拉	-6715
▁阿里	-6716
▁陆续	-6717
▁陈子	-6718
▁降到	-6719
▁限于	-6720
▁限制	-6721
▁院内	-6722
▁除非	-6723
▁随之	-6724
▁随后	-6725
▁随处	-6726
▁难题	-6727
▁雨滴	-6728
▁静的	-6729
▁非凡	-6730
▁非同	-6731
▁非洲	-6732
▁靠着	-6733
▁面上	-6734
▁面前	-6735
▁面广	-6736
▁面料	-6737
▁面的	-6738
▁领略	-6739
▁颜色	-6740
▁额为	-6741
▁风中	-6742
▁风情	-6743
▁风雨	-6744
▁飞的	-6745
▁飞越	-6746
▁饮水	-6747
▁饺子	-6748
▁首席	-6749
▁首长	-6750
▁香榭	-6751
▁马里	-6752
▁验的	-6753
▁骨干	-6754
▁高于	-6755
▁高架	-6756
▁高涨	-6757
▁高达	-6758
▁鱼儿	-6759
▁鲁迅	-6760
▁鸣亮	-6761
▁鸣禽	-6762
▁鹏城	-6763
▁黄山	-6764
▁默默	-6765
▁鼓掌	-6766
丁关根	-6767
下三交	-6768
不胜枚	-6769
与祝英	-6770
中调剂	-6771
为乡亲	-6772
之势跃	-6773
于叱咤	-6774
人郭景	-6775
令汗竹	-6776
伊丽莎	-6777
余的砖	-6778
倒飞通	-6779
倪志福	-6780
前举棋	-6781
力抓树	-6782
功能齐	-6783
务必求	-6784
动憬悟	-6785
动车驾	-6786
劳达雷	-6787
南街以	-6788
压岁钱	-6789
去翻印	-6790
叹不已	-6791
周美林	-6792
在朝鲜	-6793
多瑙河	-6794
大法官	-6795
字启功	-6796
定居点	-6797
实可信	-6798
尹家骅	-6799
局改为	-6800
层互访	-6801
岸观火	-6802
床被子	-6803
建谁有	-6804
引入隶	-6805
张振明	-6806
往开来	-6807
得水泄	-6808
德烈斯	-6809
快上马	-6810
把大苹	-6811
抗英的	-6812
抬水价	-6813
拘留的	-6814
挂着炎	-6815
捐衣捐	-6816
掏腰包	-6817
摆放着	-6818
放上周	-6819
文另发	-6820
新李翔	-6821
方米的	-6822
曾庆红	-6823
朱乃正	-6824
板一眼	-6825
极生悲	-6826
树银花	-6827
桃溪镇	-6828
歼击机	-6829
毁了阿	-6830
油马路	-6831
洗国耻	-6832
海基会	-6833
清澈的	-6834
灭菌奶	-6835
玉米等	-6836
电子眼	-6837
疆闻花	-6838
白虎团	-6839
的蛋鸡	-6840
的谢意	-6841
目远眺	-6842
着寒风	-6843
禁止鸣	-6844
竹园等	-6845
编队腾	-6846
觉世与	-6847
讲授过	-6848
论语治	-6849
证据法	-6850
货运全	-6851
费力地	-6852
赵玉明	-6853
运地被	-6854
郁达夫	-6855
里长街	-6856
锣鼓喧	-6857
锤百炼	-6858
陶潜诗	-6859
雨夹雪	-6860
雪片般	-6861
饮酒歌	-6862
龚自珍	-6863
▁196	-6864
▁972	-6865
▁万国权	-6866
▁万平方	-6867
▁三元里	-6868
▁下令释	-6869
▁下功夫	-6870
▁不久前	-6871
▁不得不	-6872
▁不言倦	-6873
▁专致精	-6874
▁严泽铣	-6875
▁中卫县	-6876
▁为前提	-6877
▁丽风光	-6878
▁之一的	-6879
▁了所谓	-6880
▁二等功	-6881
▁于来叶	-6882
▁于永波	-6883
▁云宣新	-6884
▁从长远	-6885
▁何鲁丽	-6886
▁余万机	-6887
▁保险金	-6888
▁俯贻则	-6889
▁其爪部	-6890
▁内粪便	-6891
▁冬寒爱	-6892
▁决不亚	-6893
▁冷雪里	-6894
▁凝聚力	-6895
▁刘云峰	-6896
▁刘华清	-6897
▁刘工践	-6898
▁刘心武	-6899
▁初她幸	-6900
▁到阿里	-6901
▁印经院	-6902
▁历神州	-6903
▁县长韩	-6904
▁叶利钦	-6905
▁呈密集	-6906
▁周一期	-6907
▁四周的	-6908
▁在谈到	-6909
▁坪上村	-6910
▁城关镇	-6911
▁堆死鱼	-6912
▁孙其峰	-6913
▁孙宝田	-6914
▁宣和镇	-6915
▁寒冷的	-6916
▁寒趣南	-6917
▁寒问暖	-6918
▁封面题	-6919
▁小小的	-6920
▁尤其是	-6921
▁展宏图	-6922
▁巨额外	-6923
▁广播电	-6924
▁广阔的	-6925
▁座谈会	-6926
▁张敏杰	-6927
▁彭家煌	-6928
▁彭珮云	-6929
▁徐悲鸿	-6930
▁总工会	-6931
▁总数的	-6932
▁情难觅	-6933
▁惊天地	-6934
▁憨态可	-6935
▁我以为	-6936
▁找上门	-6937
▁把汉简	-6938
▁招待会	-6939
▁指引下	-6940
▁指战员	-6941
▁损及它	-6942
▁接触到	-6943
▁放炮乐	-6944
▁文史哲	-6945
▁族自治	-6946
▁时地摆	-6947
▁明白了	-6948
▁是因为	-6949
▁晚上到	-6950
▁曹金良	-6951
▁曾敏之	-6952
▁有场道	-6953
▁有小雪	-6954
▁有机地	-6955
▁朱镕基	-6956
▁李升的	-6957
▁李岚清	-6958
▁村委会	-6959
▁条直线	-6960
▁林皎明	-6961
▁果永毅	-6962
▁梁山伯	-6963
▁歌可泣	-6964
▁武义县	-6965
▁段美满	-6966
▁比原先	-6967
▁毛同恺	-6968
▁江大桥	-6969
▁沉思的	-6970
▁活捉座	-6971
▁活跃的	-6972
▁海协与	-6973
▁深层次	-6974
▁温家宝	-6975
▁灾害的	-6976
▁犹太人	-6977
▁王朝瑞	-6978
▁的举动	-6979
▁的体育	-6980
▁的儿子	-6981
▁的光辉	-6982
▁的公益	-6983
▁的史籍	-6984
▁的天空	-6985
▁的所谓	-6986
▁的束缚	-6987
▁的磋商	-6988
▁的立场	-6989
▁的笔墨	-6990
▁的良好	-6991
▁的贺卡	-6992
▁的跋涉	-6993
▁的问候	-6994
▁称赞他	-6995
▁程思远	-6996
▁签署了	-6997
▁管弦乐	-6998
▁精彩的	-6999
▁纵死终	-7000
▁线被割	-7001
▁给残疾	-7002
▁编撰者	-7003
▁美人蕉	-7004
▁美院他	-7005
▁翅展翼	-7006
▁老区办	-7007
▁者增多	-7008
▁股激情	-7009
▁背上铺	-7010
▁致力于	-7011
▁花鸟画	-7012
▁范双民	-7013
▁荣郭凯	-7014
▁莫斯科	-7015
▁行行长	-7016
▁表达了	-7017
▁被他拿	-7018
▁被称为	-7019
▁被评为	-7020
▁观念的	-7021
▁观者赞	-7022
▁语或鸣	-7023
▁谢里夫	-7024
▁贵乎理	-7025
▁贺信如	-7026
▁贾庆林	-7027
▁贾永黄	-7028
▁赖林嵩	-7029
▁超音速	-7030
▁路全长	-7031
▁路小路	-7032
▁转化成	-7033
▁近些年	-7034
▁还兼具	-7035
▁这边好	-7036
▁透视学	-7037
▁造房剩	-7038
▁那肉色	-7039
▁邮政总	-7040
▁郭伟成	-7041
▁都愿干	-7042
▁采访时	-7043
▁里窥视	-7044
▁金泳三	-7045
▁长安街	-7046
▁阿联酋	-7047
▁陈国琦	-7048
▁陈晓颜	-7049
▁陪同下	-7050
▁霸水哄	-7051
三才图会	-7052
与撒切尔	-7053
举止却俨	-7054
乎圣洁地	-7055
乡冯湾村	-7056
于场景的	-7057
于没落和	-7058
亩产千斤	-7059
你眼帘的	-7060
信揭发姐	-7061
具抱在怀	-7062
劲王大川	-7063
县柘塘镇	-7064
合不拢嘴	-7065
和葫芦娃	-7066
地注视着	-7067
增上寺的	-7068
声音能传	-7069
大铁盆内	-7070
将相出谋	-7071
尔物理奖	-7072
市乳制品	-7073
念和淡淡	-7074
捐衣捐被	-7075
时寄些钱	-7076
玉米等作	-7077
笔耕墨耘	-7078
纪事本末	-7079
翻山越岭	-7080
腊梅飘香	-7081
落在停机	-7082
里游鱼可	-7083
销烟的熊	-7084
▁一串鞭炮	-7085
▁一国两制	-7086
▁一板一眼	-7087
▁于徐悲鸿	-7088
▁交响乐团	-7089
▁人车分流	-7090
▁从伊丽莎	-7091
▁从快上马	-7092
▁令禁止鸣	-7093
▁伊斯兰堡	-7094
▁侧目远眺	-7095
▁全文另发	-7096
▁劳民伤财	-7097
▁十里长街	-7098
▁千锤百炼	-7099
▁半本是她	-7100
▁可歌可泣	-7101
▁合影留念	-7102
▁嘴脸乌黑	-7103
▁安德烈斯	-7104
▁对黎巴嫩	-7105
▁将其软禁	-7106
▁平方米的	-7107
▁忘把大苹	-7108
▁想为乡亲	-7109
▁感动憬悟	-7110
▁或雨夹雪	-7111
▁房前屋后	-7112
▁抵达家门	-7113
▁挤得水泄	-7114
▁摧毁了阿	-7115
▁柏油马路	-7116
▁潘跃王萍	-7117
▁火树银花	-7118
▁牵挂着炎	-7119
▁的送温暖	-7120
▁等功两次	-7121
▁纪事本末	-7122
▁继往开来	-7123
▁背土造田	-7124
▁自掏腰包	-7125
▁获益颇丰	-7126
▁被拘留的	-7127
▁详实可信	-7128
▁谁建谁有	-7129
▁里摆放着	-7130
▁随处可见	-7131
▁隔岸观火	-7132
▁雪洗国耻	-7133
▁顶着寒风	-7134
▁高层互访	-7135
▁鸣亮白昼	-7136
半部论语治	-7137
尹家骅钱友	-7138
床被子发运	-7139
蓝色多瑙河	-7140
货运全载起	-7141
费力地窥寻	-7142
陶潜诗喜说	-7143
▁二重证据法	-7144
▁冬寒爱意浓	-7145
▁憨态可掬的	-7146
▁时地摆弄它	-7147
▁段美满姻缘	-7148
▁活捉座山雕	-7149
▁背上铺盖卷	-7150
▁苗再新李翔	-7151
▁被他拿到手	-7152
▁诚挚的谢意	-7153
▁贾永黄秋生	-7154
▁阅读和景仰	-7155
▁首席大法官	-7156
▁一板一眼地操	-7157
▁三元里抗英的	-7158
▁下令释放上周	-7159
▁东京增上寺的	-7160
▁两只大铁盆内	-7161
▁中写信揭发姐	-7162
▁中按时寄些钱	-7163
▁乐得合不拢嘴	-7164
▁从伊丽莎白港	-7165
▁何近乎圣洁地	-7166
▁余万机动车驾	-7167
▁保险金中调剂	-7168
▁其爪部力抓树	-7169
▁决不亚于叱咤	-7170
▁初她幸运地被	-7171
▁印经院去翻印	-7172
▁吴忠市乳制品	-7173
▁呈密集编队腾	-7174
▁地降落在停机	-7175
▁城关镇南街以	-7176
▁堆死鱼前举棋	-7177
▁宣和镇的蛋鸡	-7178
▁寒趣南疆闻花	-7179
▁封面题字启功	-7180
▁小麦亩产千斤	-7181
▁岗刘乡冯湾村	-7182
▁希思与撒切尔	-7183
▁帝王将相出谋	-7184
▁忘把大苹果送	-7185
▁悟空和葫芦娃	-7186
▁想为乡亲们干	-7187
▁愿这声音能传	-7188
▁把汉简引入隶	-7189
▁把玩具抱在怀	-7190
▁拘泥于场景的	-7191
▁挤得水泄不通	-7192
▁损及它在朝鲜	-7193
▁摧毁了阿西西	-7194
▁放炮乐极生悲	-7195
▁映入你眼帘的	-7196
▁柏油马路曲径	-7197
▁柳林县下三交	-7198
▁梁山伯与祝英	-7199
▁武义县桃溪镇	-7200
▁池塘里游鱼可	-7201
▁海协与海基会	-7202
▁溧水县柘塘镇	-7203
▁然趋于没落和	-7204
▁牵挂着炎黄子	-7205
▁犹太人定居点	-7206
▁的举动不胜枚	-7207
▁的眷念和淡淡	-7208
▁砚田笔耕墨耘	-7209
▁纵死终令汗竹	-7210
▁给残疾人郭景	-7211
▁美院他讲授过	-7212
▁翅展翼之势跃	-7213
▁范双民张振明	-7214
▁虎门销烟的熊	-7215
▁观者赞叹不已	-7216
▁言谈举止却俨	-7217
▁诺贝尔物理奖	-7218
▁贺信如雪片般	-7219
▁赖林嵩周美林	-7220
▁超音速歼击机	-7221
▁还兼具觉世与	-7222
▁造房剩余的砖	-7223
▁邮政总局改为	-7224
▁里摆放着常绿	-7225
▁陈子劲王大川	-7226
▁陈晓颜赵玉明	-7227
▁霸水哄抬水价	-7228
▁默默地注视着	-7229
▁循	-7230
▁牺	-7231
上村	-7232
乐极	-7233
乡亲	-7234
冯湾	-7235
动不	-7236
化成	-7237
县下	-7238
县桃	-7239
国之	-7240
国仍	-7241
国会	-7242
国就	-7243
国应	-7244
图谱	-7245
圆满	-7246
土造	-7247
在中	-7248
在他	-7249
在停	-7250
在全	-7251
在其	-7252
在哪	-7253
在夏	-7254
在外	-7255
在收	-7256
在自	-7257
在谈	-7258
在高	-7259
地处	-7260
地打	-7261
地收	-7262
地降	-7263
场等	-7264
型的	-7265
城关	-7266
堆死	-7267
堪忧	-7268
塑造	-7269
增大	-7270
士兵	-7271
壮歌	-7272
处可	-7273
处在	-7274
外债	-7275
外客	-7276
外的	-7277
外部	-7278
大关	-7279
大军	-7280
大力	-7281
大厦	-7282
大好	-7283
大苹	-7284
大雪	-7285
天上	-7286
夺取	-7287
奇袭	-7288
奋勇	-7289
奠定	-7290
好地	-7291
如常	-7292
威胁	-7293
子劲	-7294
字的	-7295
孙其	-7296
它在	-7297
安徽	-7298
完整	-7299
加剧	-7300
务员	-7301
务实	-7302
动人	-7303
动着	-7304
劳民	-7305
势的	-7306
化是	-7307
北方	-7308
区大	-7309
医学	-7310
医疗	-7311
十倍	-7312
十几	-7313
千里	-7314
半本	-7315
华北	-7316
华南	-7317
南北	-7318
南的	-7319
印经	-7320
却一	-7321
却在	-7322
历神	-7323
历经	-7324
厚重	-7325
县有	-7326
县长	-7327
参考	-7328
参观	-7329
又是	-7330
双边	-7331
发明	-7332
取有	-7333
受损	-7334
受益	-7335
口的	-7336
古人	-7337
只身	-7338
可先	-7339
可歌	-7340
台和	-7341
史上	-7342
史书	-7343
史大	-7344
叶利	-7345
各方	-7346
合影	-7347
后人	-7348
向前	-7349
吴忠	-7350
呈密	-7351
员罗	-7352
周一	-7353
呼声	-7354
命令	-7355
和两	-7356
和俄	-7357
和农	-7358
和印	-7359
和县	-7360
和老	-7361
喜欢	-7362
喜爱	-7363
喜讯	-7364
喝彩	-7365
嘴脸	-7366
四个	-7367
四家	-7368
回首	-7369
因素	-7370
基层	-7371
宏伟	-7372
定会	-7373
实意	-7374
实践	-7375
客商	-7376
宣和	-7377
家族	-7378
家里	-7379
容量	-7380
宾馆	-7381
寂寞	-7382
寄的	-7383
寒风	-7384
对联	-7385
对黎	-7386
将一	-7387
将其	-7388
将来	-7389
小时	-7390
小麦	-7391
就会	-7392
局限	-7393
屋内	-7394
展之	-7395
展宏	-7396
展现	-7397
山一	-7398
山间	-7399
以下	-7400
以不	-7401
以有	-7402
以继	-7403
以节	-7404
们不	-7405
们向	-7406
们就	-7407
们是	-7408
任何	-7409
伊斯	-7410
会副	-7411
会对	-7412
会有	-7413
传来	-7414
低了	-7415
体地	-7416
体现	-7417
体育	-7418
何近	-7419
作业	-7420
作了	-7421
使原	-7422
依据	-7423
依法	-7424
侧目	-7425
保险	-7426
信念	-7427
做出	-7428
健身	-7429
催人	-7430
元复	-7431
光明	-7432
全力	-7433
共唱	-7434
关的	-7435
兴国	-7436
兵法	-7437
其精	-7438
具体	-7439
养的	-7440
内粪	-7441
再创	-7442
写上	-7443
军区	-7444
冬季	-7445
冬寒	-7446
冬的	-7447
冰雕	-7448
决不	-7449
冷雪	-7450
净化	-7451
准确	-7452
减灾	-7453
几亩	-7454
出乎	-7455
出资	-7456
分摊	-7457
分裂	-7458
刊发	-7459
利地	-7460
到十	-7461
到南	-7462
到的	-7463
到阿	-7464
制定	-7465
前在	-7466
前所	-7467
剧院	-7468
力为	-7469
力度	-7470
办学	-7471
功力	-7472
加入	-7473
加重	-7474
在原	-7475
埃及	-7476
它们	-7477
少的	-7478
属于	-7479
嵩周	-7480
工资	-7481
巨变	-7482
差距	-7483
已在	-7484
市建	-7485
市里	-7486
常务	-7487
干净	-7488
年中	-7489
年历	-7490
年后	-7491
年大	-7492
年文	-7493
年都	-7494
并将	-7495
并通	-7496
并非	-7497
幸运	-7498
广生	-7499
▁污	-7500
一的	-7501
严泽	-7502
中一	-7503
中写	-7504
中又	-7505
中宣	-7506
中按	-7507
中最	-7508
中期	-7509
为全	-7510
为支	-7511
为本	-7512
为止	-7513
为津	-7514
为零	-7515
主体	-7516
主的	-7517
丽的	-7518
久久	-7519
之作	-7520
之外	-7521
之夜	-7522
之大	-7523
之类	-7524
之美	-7525
乐声	-7526
乐得	-7527
乐曲	-7528
九六	-7529
九届	-7530
也正	-7531
也没	-7532
乡一	-7533
买一	-7534
买提	-7535
了为	-7536
了停	-7537
了区	-7538
了半	-7539
了各	-7540
了平	-7541
了村	-7542
了过	-7543
二个	-7544
二等	-7545
于一	-7546
于不	-7547
于以	-7548
于历	-7549
于徐	-7550
于情	-7551
于本	-7552
于来	-7553
亡的	-7554
交响	-7555
交往	-7556
产后	-7557
京西	-7558
人不	-7559
人无	-7560
人登	-7561
人能	-7562
人请	-7563
人还	-7564
仅为	-7565
今日	-7566
今晚	-7567
仍不	-7568
仍有	-7569
从快	-7570
令禁	-7571
以前	-7572
余万	-7573
写信	-7574
几位	-7575
出自	-7576
前提	-7577
庆市	-7578
应征	-7579
应由	-7580
座山	-7581
座谈	-7582
建造	-7583
式在	-7584
引发	-7585
引进	-7586
张亮	-7587
张彦	-7588
张敏	-7589
张震	-7590
当前	-7591
当年	-7592
当然	-7593
形态	-7594
彭家	-7595
彭珮	-7596
影留	-7597
彻底	-7598
往的	-7599
3%	-7600
37	-7601
42	-7602
44	-7603
52	-7604
7%	-7605
74	-7606
9.	-7607
94	-7608
95	-7609
”(	-7610
”;	-7611
‰,	-7612
、2	-7613
、5	-7614
』,	-7615
一串	-7616
一代	-7617
一天	-7618
一提	-7619
一新	-7620
一是	-7621
一板	-7622
一派	-7623
一群	-7624
一边	-7625
一道	-7626
一部	-7627
一面	-7628
一首	-7629
万万	-7630
万个	-7631
万国	-7632
万里	-7633
三元	-7634
上任	-7635
上学	-7636
上对	-7637
上演	-7638
下令	-7639
下到	-7640
下功	-7641
下午	-7642
下大	-7643
下来	-7644
下车	-7645
下面	-7646
不变	-7647
不合	-7648
不在	-7649
不够	-7650
不安	-7651
不就	-7652
不尽	-7653
不得	-7654
不想	-7655
不禁	-7656
不自	-7657
不言	-7658
不足	-7659
不适	-7660
与国	-7661
专致	-7662
专题	-7663
业也	-7664
业于	-7665
业已	-7666
业转	-7667
东南	-7668
丝毫	-7669
两位	-7670
串鞭	-7671
久前	-7672
令释	-7673
只大	-7674
国权	-7675
平方	-7676
很不	-7677
很少	-7678
徐悲	-7679
得不	-7680
得几	-7681
心中	-7682
心地	-7683
必要	-7684
念与	-7685
念的	-7686
态的	-7687
总工	-7688
总是	-7689
悟空	-7690
悠久	-7691
情难	-7692
惊天	-7693
想为	-7694
想见	-7695
意和	-7696
感动	-7697
感和	-7698
感觉	-7699
,6	-7700
,8	-7701
02	-7702
2.	-7703
21	-7704
5、	-7705
与此	-7706
书中	-7707
从伊	-7708
以减	-7709
共计	-7710
其是	-7711
冒雨	-7712
刘华	-7713
化为	-7714
和我	-7715
子发	-7716
尹家	-7717
总数	-7718
愿和	-7719
愿望	-7720
愿这	-7721
憨态	-7722
懈怠	-7723
成员	-7724
成效	-7725
成新	-7726
成熟	-7727
我为	-7728
我以	-7729
我看	-7730
或者	-7731
战线	-7732
战车	-7733
户帮	-7734
所能	-7735
才图	-7736
执法	-7737
找上	-7738
把汉	-7739
把玩	-7740
抓住	-7741
投产	-7742
报以	-7743
报社	-7744
抱在	-7745
拉蒙	-7746
拘泥	-7747
拼搏	-7748
拿起	-7749
挂起	-7750
指引	-7751
指战	-7752
按时	-7753
挤得	-7754
挥洒	-7755
挺拔	-7756
损及	-7757
掌握	-7758
排上	-7759
探讨	-7760
接着	-7761
接触	-7762
接过	-7763
摆弄	-7764
播电	-7765
撰写	-7766
撰者	-7767
支柱	-7768
收割	-7769
改为	-7770
放炮	-7771
放着	-7772
数以	-7773
数百	-7774
敲响	-7775
文之	-7776
文选	-7777
斯的	-7778
新兵	-7779
方可	-7780
施工	-7781
族自	-7782
既是	-7783
日上	-7784
日抵	-7785
旧的	-7786
时不	-7787
时就	-7788
昌盛	-7789
明白	-7790
映入	-7791
春意	-7792
是为	-7793
是我	-7794
是村	-7795
是用	-7796
是自	-7797
是这	-7798
是那	-7799
27	-7800
五年	-7801
交接	-7802
仍将	-7803
从事	-7804
全文	-7805
凝聚	-7806
前屋	-7807
原因	-7808
发行	-7809
另发	-7810
商业	-7811
国耻	-7812
实际	-7813
心眼	-7814
拖欠	-7815
推进	-7816
提倡	-7817
是靠	-7818
晚在	-7819
景区	-7820
更需	-7821
曹金	-7822
曾敏	-7823
月中	-7824
月二	-7825
月如	-7826
月的	-7827
有十	-7828
有名	-7829
有场	-7830
有小	-7831
有待	-7832
有感	-7833
有那	-7834
服从	-7835
期的	-7836
本末	-7837
本质	-7838
本身	-7839
朱乃	-7840
朱镕	-7841
机会	-7842
机的	-7843
机组	-7844
权和	-7845
李升	-7846
李岚	-7847
李长	-7848
李鹏	-7849
村办	-7850
村已	-7851
村庄	-7852
来之	-7853
来源	-7854
杰出	-7855
极其	-7856
架次	-7857
柏油	-7858
柘塘	-7859
样在	-7860
格的	-7861
梁山	-7862
梅飘	-7863
模式	-7864
横滚	-7865
欠佳	-7866
次以	-7867
次出	-7868
次要	-7869
歌可	-7870
歌曲	-7871
止却	-7872
此一	-7873
步伐	-7874
步前	-7875
武义	-7876
段美	-7877
比原	-7878
民心	-7879
气之	-7880
气候	-7881
气和	-7882
气球	-7883
氛围	-7884
水县	-7885
水泄	-7886
水面	-7887
永恒	-7888
汉斌	-7889
汗竹	-7890
江上	-7891
池塘	-7892
没落	-7893
油田	-7894
治学	-7895
治安	-7896
泄不	-7897
法官	-7898
法所	-7899
一二	-7900
上升	-7901
下有	-7902
世纪	-7903
之处	-7904
书籍	-7905
京增	-7906
以恒	-7907
伯与	-7908
依多	-7909
分类	-7910
加上	-7911
动员	-7912
动地	-7913
区在	-7914
地图	-7915
就能	-7916
州市	-7917
当时	-7918
快速	-7919
我驻	-7920
战友	-7921
战胜	-7922
所以	-7923
担心	-7924
拒绝	-7925
拜年	-7926
指出	-7927
挑选	-7928
授权	-7929
援助	-7930
收取	-7931
效应	-7932
效益	-7933
救助	-7934
新型	-7935
无家	-7936
无数	-7937
日前	-7938
日晚	-7939
早已	-7940
明代	-7941
春的	-7942
春节	-7943
昨天	-7944
是两	-7945
景观	-7946
曲印	-7947
更是	-7948
最初	-7949
月份	-7950
有人	-7951
有几	-7952
未曾	-7953
机遇	-7954
杂志	-7955
李瑞	-7956
条小	-7957
来临	-7958
来叶	-7959
来宾	-7960
果不	-7961
查处	-7962
桂林	-7963
桌边	-7964
横吹	-7965
次的	-7966
次被	-7967
欣慰	-7968
正义	-7969
正点	-7970
此间	-7971
殃及	-7972
每周	-7973
水浜	-7974
沟通	-7975
法国	-7976
法律	-7977
法案	-7978
波及	-7979
注目	-7980
注视	-7981
泰国	-7982
洁的	-7983
活捉	-7984
活跃	-7985
流量	-7986
浇地	-7987
济国	-7988
浓厚	-7989
浩然	-7990
海协	-7991
海域	-7992
涉及	-7993
淡忘	-7994
深处	-7995
深层	-7996
深深	-7997
深远	-7998
清了	-7999
46	-8000
49	-8001
主动	-8002
人定	-8003
仅有	-8004
体的	-8005
创造	-8006
南宁	-8007
又从	-8008
四周	-8009
图书	-8010
场景	-8011
塔克	-8012
塔里	-8013
增产	-8014
外地	-8015
多么	-8016
多年	-8017
大型	-8018
大量	-8019
太阳	-8020
夫妇	-8021
夫斯	-8022
失传	-8023
失衡	-8024
奥地	-8025
女作	-8026
她那	-8027
好转	-8028
妹妹	-8029
学会	-8030
学和	-8031
学校	-8032
学的	-8033
孩子	-8034
定期	-8035
宣布	-8036
家园	-8037
对一	-8038
将于	-8039
就走	-8040
屏幕	-8041
展出	-8042
展望	-8043
山川	-8044
已有	-8045
已达	-8046
幅度	-8047
平凡	-8048
年代	-8049
庭院	-8050
建议	-8051
建起	-8052
开通	-8053
引述	-8054
强的	-8055
当选	-8056
彩色	-8057
往里	-8058
很快	-8059
忙碌	-8060
怀揣	-8061
怎么	-8062
悟出	-8063
情地	-8064
惊喜	-8065
成长	-8066
拉玛	-8067
望着	-8068
期望	-8069
止鸣	-8070
清剿	-8071
渡过	-8072
温宪	-8073
港的	-8074
湿气	-8075
满姻	-8076
满意	-8077
满载	-8078
滴落	-8079
潘跃	-8080
火烧	-8081
灿烂	-8082
炸伤	-8083
点和	-8084
烈斯	-8085
烟的	-8086
热闹	-8087
然可	-8088
然成	-8089
照相	-8090
照耀	-8091
照顾	-8092
爱好	-8093
片新	-8094
物价	-8095
特技	-8096
犹如	-8097
独具	-8098
独创	-8099
’9	-8100
”!	-8101
万亩	-8102
上了	-8103
两地	-8104
个人	-8105
也是	-8106
人在	-8107
人才	-8108
保留	-8109
先河	-8110
克林	-8111
党报	-8112
公正	-8113
共有	-8114
典籍	-8115
养鱼	-8116
再新	-8117
冰雪	-8118
净的	-8119
几个	-8120
几天	-8121
凯旋	-8122
分成	-8123
分量	-8124
划拨	-8125
刘志	-8126
刘步	-8127
则多	-8128
创建	-8129
利落	-8130
到自	-8131
前景	-8132
办了	-8133
加拿	-8134
务必	-8135
动辄	-8136
势头	-8137
勇敢	-8138
区的	-8139
十七	-8140
升旗	-8141
半年	-8142
占地	-8143
卡比	-8144
县乡	-8145
县市	-8146
参股	-8147
取代	-8148
取消	-8149
变为	-8150
古城	-8151
可从	-8152
可自	-8153
号码	-8154
各界	-8155
各行	-8156
合唱	-8157
名著	-8158
向传	-8159
周围	-8160
和审	-8161
和水	-8162
和解	-8163
品的	-8164
哈尔	-8165
哈马	-8166
四是	-8167
困境	-8168
在各	-8169
在天	-8170
地制	-8171
场的	-8172
坚韧	-8173
堵车	-8174
将在	-8175
尼亚	-8176
巴黎	-8177
年仅	-8178
情况	-8179
想象	-8180
手中	-8181
撤军	-8182
政治	-8183
散文	-8184
旅游	-8185
有正	-8186
标语	-8187
桥本	-8188
气质	-8189
猎猎	-8190
率和	-8191
王国	-8192
王楚	-8193
环节	-8194
现已	-8195
现的	-8196
班子	-8197
理和	-8198
理性	-8199
》(	-8200
一份	-8201
一家	-8202
一批	-8203
一把	-8204
一片	-8205
一系	-8206
万吨	-8207
万平	-8208
上台	-8209
上空	-8210
下乡	-8211
下了	-8212
不为	-8213
不到	-8214
不开	-8215
不必	-8216
不相	-8217
专访	-8218
两亩	-8219
两者	-8220
严寒	-8221
严峻	-8222
丰收	-8223
临川	-8224
临时	-8225
临近	-8226
为之	-8227
为纽	-8228
之两	-8229
之师	-8230
九七	-8231
也可	-8232
也曾	-8233
书画	-8234
书的	-8235
买回	-8236
了全	-8237
了相	-8238
予以	-8239
争取	-8240
事的	-8241
二是	-8242
五是	-8243
亩地	-8244
享受	-8245
京沪	-8246
亲人	-8247
亲手	-8248
人和	-8249
人心	-8250
人死	-8251
今后	-8252
他讲	-8253
以至	-8254
仿佛	-8255
会见	-8256
会长	-8257
但是	-8258
住在	-8259
使其	-8260
依赖	-8261
侠骨	-8262
保卫	-8263
北风	-8264
华安	-8265
反腐	-8266
发放	-8267
各以	-8268
吸引	-8269
地说	-8270
大有	-8271
好干	-8272
如雪	-8273
实况	-8274
导致	-8275
巴基	-8276
帮助	-8277
找准	-8278
握手	-8279
无微	-8280
暖亮	-8281
曲调	-8282
梅塔	-8283
灾害	-8284
牡丹	-8285
玉米	-8286
甜蜜	-8287
生在	-8288
田野	-8289
由衷	-8290
电影	-8291
电部	-8292
画坛	-8293
画展	-8294
画集	-8295
画面	-8296
界人	-8297
界对	-8298
留下	-8299
,2	-8300
/3	-8301
39	-8302
45	-8303
55	-8304
▁钥	-8305
一体	-8306
一定	-8307
久不	-8308
二十	-8309
全年	-8310
分享	-8311
创办	-8312
创新	-8313
和恶	-8314
大成	-8315
天下	-8316
家庭	-8317
平理	-8318
度的	-8319
得以	-8320
德国	-8321
拥有	-8322
推动	-8323
有对	-8324
有类	-8325
歌舞	-8326
湖州	-8327
爆竹	-8328
狠抓	-8329
王学	-8330
现了	-8331
珍惜	-8332
生动	-8333
生机	-8334
疾人	-8335
的东	-8336
的丰	-8337
的举	-8338
的书	-8339
的产	-8340
的以	-8341
的作	-8342
的依	-8343
的信	-8344
的兴	-8345
的兵	-8346
的几	-8347
的分	-8348
的北	-8349
的单	-8350
的印	-8351
的厂	-8352
的双	-8353
的古	-8354
的可	-8355
的启	-8356
的命	-8357
的喜	-8358
的四	-8359
的国	-8360
的图	-8361
的地	-8362
的多	-8363
的女	-8364
的孙	-8365
的孤	-8366
的学	-8367
的居	-8368
的工	-8369
的巨	-8370
的强	-8371
的形	-8372
的必	-8373
的悲	-8374
的想	-8375
的感	-8376
的所	-8377
的指	-8378
的提	-8379
的收	-8380
的时	-8381
的普	-8382
的束	-8383
的松	-8384
的桥	-8385
的正	-8386
的步	-8387
的水	-8388
的沉	-8389
的生	-8390
的磋	-8391
的祝	-8392
的神	-8393
的程	-8394
的窗	-8395
的纯	-8396
的纸	-8397
的结	-8398
的编	-8399
)、	-8400
88	-8401
”、	-8402
下去	-8403
不上	-8404
丽莎	-8405
代奇	-8406
保护	-8407
党派	-8408
养殖	-8409
内塔	-8410
分社	-8411
利于	-8412
前举	-8413
包括	-8414
半数	-8415
反党	-8416
反映	-8417
同意	-8418
和那	-8419
四十	-8420
回荡	-8421
基斯	-8422
家中	-8423
对待	-8424
将对	-8425
少生	-8426
尤其	-8427
就以	-8428
就有	-8429
尼国	-8430
局局	-8431
局部	-8432
岁月	-8433
布局	-8434
年一	-8435
年前	-8436
延长	-8437
建管	-8438
当代	-8439
徘徊	-8440
忘记	-8441
忧其	-8442
态度	-8443
恩佐	-8444
感谢	-8445
懂得	-8446
户户	-8447
批评	-8448
承担	-8449
承贷	-8450
抢救	-8451
拉瓜	-8452
挤在	-8453
改组	-8454
救援	-8455
整洁	-8456
文告	-8457
新风	-8458
新鲜	-8459
方法	-8460
方的	-8461
日的	-8462
旨在	-8463
显示	-8464
显著	-8465
普遍	-8466
更大	-8467
有一	-8468
有些	-8469
服装	-8470
未能	-8471
本领	-8472
材料	-8473
标志	-8474
校学	-8475
江西	-8476
河南	-8477
治理	-8478
波卡	-8479
波波	-8480
洪水	-8481
浩歌	-8482
濒临	-8483
烈的	-8484
生快	-8485
画雄	-8486
的联	-8487
的胸	-8488
的良	-8489
的英	-8490
的西	-8491
的讲	-8492
的话	-8493
的贺	-8494
的跋	-8495
的车	-8496
的进	-8497
的送	-8498
的遗	-8499
48	-8500
与夸	-8501
业等	-8502
义务	-8503
书记	-8504
人群	-8505
今为	-8506
仓库	-8507
以往	-8508
们在	-8509
优惠	-8510
位置	-8511
你们	-8512
便是	-8513
做了	-8514
停止	-8515
允许	-8516
党支	-8517
八一	-8518
公园	-8519
公里	-8520
兵书	-8521
具觉	-8522
内涵	-8523
军营	-8524
军装	-8525
准备	-8526
几年	-8527
分忧	-8528
到家	-8529
前夕	-8530
前已	-8531
办水	-8532
十大	-8533
南部	-8534
博物	-8535
卡翁	-8536
厂房	-8537
厂里	-8538
原有	-8539
又在	-8540
友谊	-8541
双方	-8542
反复	-8543
发菜	-8544
只要	-8545
可信	-8546
各大	-8547
名人	-8548
员工	-8549
命名	-8550
商品	-8551
在深	-8552
坪上	-8553
塔拉	-8554
多个	-8555
多元	-8556
大大	-8557
大批	-8558
大胆	-8559
大陆	-8560
女儿	-8561
奶奶	-8562
她们	-8563
如今	-8564
如此	-8565
妥协	-8566
存在	-8567
实的	-8568
宣传	-8569
尉健	-8570
平稳	-8571
年无	-8572
强大	-8573
性的	-8574
承包	-8575
本来	-8576
歌剧	-8577
深化	-8578
激光	-8579
玩具	-8580
理解	-8581
的健	-8582
的理	-8583
的里	-8584
的问	-8585
的队	-8586
的预	-8587
益处	-8588
益颇	-8589
目光	-8590
目睹	-8591
直播	-8592
直观	-8593
相互	-8594
相当	-8595
相连	-8596
省市	-8597
省的	-8598
看中	-8599
16	-8600
17	-8601
22	-8602
23	-8603
32	-8604
7.	-8605
82	-8606
85	-8607
一下	-8608
一时	-8609
一番	-8610
一致	-8611
一项	-8612
七十	-8613
三是	-8614
三次	-8615
三通	-8616
不仅	-8617
不再	-8618
不可	-8619
与其	-8620
专业	-8621
业和	-8622
东直	-8623
两年	-8624
个县	-8625
主任	-8626
举措	-8627
之路	-8628
之际	-8629
九年	-8630
二百	-8631
交给	-8632
产业	-8633
代的	-8634
似乎	-8635
包袱	-8636
十二	-8637
去了	-8638
参展	-8639
国民	-8640
地窥	-8641
大国	-8642
大运	-8643
天翼	-8644
娱乐	-8645
学者	-8646
岁的	-8647
影视	-8648
往来	-8649
成功	-8650
所在	-8651
村宅	-8652
犯罪	-8653
白虎	-8654
的不	-8655
的准	-8656
的小	-8657
的意	-8658
的最	-8659
的有	-8660
的笔	-8661
的经	-8662
的角	-8663
真的	-8664
真诚	-8665
眼地	-8666
眼帘	-8667
着一	-8668
着布	-8669
着手	-8670
着晨	-8671
着炎	-8672
着生	-8673
着许	-8674
知了	-8675
知名	-8676
知道	-8677
短期	-8678
矿工	-8679
研制	-8680
破坏	-8681
硝烟	-8682
确保	-8683
确定	-8684
确实	-8685
确的	-8686
社长	-8687
祝你	-8688
祝英	-8689
祝谦	-8690
祝辞	-8691
神话	-8692
票面	-8693
福利	-8694
种植	-8695
种的	-8696
科研	-8697
秧歌	-8698
积累	-8699
.6	-8700
1、	-8701
不见	-8702
乡的	-8703
人类	-8704
使我	-8705
做法	-8706
光大	-8707
刘云	-8708
初步	-8709
协议	-8710
单位	-8711
卖主	-8712
南京	-8713
又一	-8714
受到	-8715
各个	-8716
同的	-8717
吸收	-8718
和睦	-8719
四海	-8720
困难	-8721
国有	-8722
垦区	-8723
境界	-8724
处的	-8725
多次	-8726
多的	-8727
多种	-8728
大农	-8729
大田	-8730
奉献	-8731
妇女	-8732
宗旨	-8733
定的	-8734
家们	-8735
密切	-8736
对外	-8737
小型	-8738
小康	-8739
履行	-8740
岁末	-8741
崇高	-8742
市区	-8743
带头	-8744
并不	-8745
德的	-8746
意见	-8747
感受	-8748
成人	-8749
扎实	-8750
挖掘	-8751
摆脱	-8752
收回	-8753
放飞	-8754
整顿	-8755
新建	-8756
新闻	-8757
无论	-8758
是将	-8759
是被	-8760
有所	-8761
有限	-8762
树立	-8763
格外	-8764
格局	-8765
欢庆	-8766
歌唱	-8767
此次	-8768
比勒	-8769
比赛	-8770
水产	-8771
消防	-8772
深刻	-8773
溧水	-8774
牵挂	-8775
率先	-8776
现象	-8777
珍贵	-8778
瑞士	-8779
生存	-8780
用于	-8781
百年	-8782
的天	-8783
的花	-8784
相对	-8785
称谓	-8786
稳步	-8787
空域	-8788
穿梭	-8789
窗户	-8790
立即	-8791
立场	-8792
立行	-8793
竖起	-8794
笑声	-8795
笔触	-8796
等作	-8797
等国	-8798
等地	-8799
29	-8800
:‘	-8801
▁勉	-8802
一次	-8803
三年	-8804
不懈	-8805
专门	-8806
两个	-8807
中有	-8808
为国	-8809
主干	-8810
主权	-8811
九八	-8812
也要	-8813
了我	-8814
了阿	-8815
事件	-8816
互补	-8817
互访	-8818
仍然	-8819
伴随	-8820
使馆	-8821
依托	-8822
儿童	-8823
刘乡	-8824
创汇	-8825
前两	-8826
前夜	-8827
前的	-8828
加快	-8829
华的	-8830
原来	-8831
去全	-8832
古代	-8833
响应	-8834
回应	-8835
国两	-8836
国家	-8837
图像	-8838
在一	-8839
在异	-8840
地写	-8841
地同	-8842
基会	-8843
大众	-8844
大明	-8845
就职	-8846
岗亭	-8847
意味	-8848
成立	-8849
所画	-8850
护卫	-8851
持之	-8852
整体	-8853
旋律	-8854
更多	-8855
每次	-8856
水等	-8857
淀粉	-8858
热烈	-8859
焦作	-8860
爱国	-8861
爸爸	-8862
特区	-8863
王建	-8864
用笔	-8865
电脑	-8866
界的	-8867
的中	-8868
的全	-8869
的外	-8870
省长	-8871
站在	-8872
等新	-8873
等的	-8874
筑路	-8875
策的	-8876
筹集	-8877
简单	-8878
简引	-8879
简明	-8880
篇章	-8881
籍中	-8882
米的	-8883
类图	-8884
精致	-8885
素质	-8886
累计	-8887
红叶	-8888
红灯	-8889
红的	-8890
约翰	-8891
级偏	-8892
纪事	-8893
纪实	-8894
纪念	-8895
纲领	-8896
纵死	-8897
纸币	-8898
纽约	-8899
一九	-8900
上为	-8901
上投	-8902
东西	-8903
中心	-8904
了行	-8905
云宣	-8906
伴唱	-8907
佳节	-8908
保障	-8909
信心	-8910
充分	-8911
充满	-8912
克服	-8913
典型	-8914
出租	-8915
利税	-8916
制裁	-8917
北部	-8918
即将	-8919
历程	-8920
受伤	-8921
号召	-8922
和完	-8923
和转	-8924
品种	-8925
国歌	-8926
国际	-8927
图文	-8928
在此	-8929
城区	-8930
堵塞	-8931
处于	-8932
大事	-8933
大小	-8934
天津	-8935
孔繁	-8936
宣誓	-8937
家乡	-8938
对象	-8939
将是	-8940
就是	-8941
市长	-8942
带着	-8943
席大	-8944
平等	-8945
并购	-8946
开了	-8947
引起	-8948
往事	-8949
志愿	-8950
总局	-8951
想到	-8952
意识	-8953
指数	-8954
捐赠	-8955
改造	-8956
敬老	-8957
文献	-8958
无法	-8959
日在	-8960
是有	-8961
更加	-8962
最佳	-8963
有着	-8964
来华	-8965
欢乐	-8966
步的	-8967
民间	-8968
气的	-8969
江省	-8970
济南	-8971
海内	-8972
润五	-8973
港人	-8974
满足	-8975
激动	-8976
献资	-8977
的农	-8978
的美	-8979
社评	-8980
线被	-8981
练市	-8982
织制	-8983
终于	-8984
终令	-8985
终极	-8986
经典	-8987
经历	-8988
经常	-8989
经济	-8990
经理	-8991
经费	-8992
经验	-8993
绑架	-8994
结果	-8995
结论	-8996
给予	-8997
给每	-8998
绝对	-8999
0.	-9000
3.	-9001
▁俯	-9002
三个	-9003
三位	-9004
三十	-9005
下的	-9006
严格	-9007
主席	-9008
主张	-9009
云南	-9010
亚洲	-9011
人大	-9012
们的	-9013
会员	-9014
会费	-9015
伤亡	-9016
体制	-9017
作用	-9018
依然	-9019
全民	-9020
公安	-9021
切入	-9022
努力	-9023
十年	-9024
原子	-9025
合作	-9026
国与	-9027
国已	-9028
始终	-9029
安德	-9030
实现	-9031
小小	-9032
庄严	-9033
建交	-9034
所属	-9035
支付	-9036
日益	-9037
有不	-9038
有权	-9039
村村	-9040
步步	-9041
每月	-9042
比额	-9043
游鱼	-9044
灌溉	-9045
生前	-9046
电子	-9047
的各	-9048
的气	-9049
的眷	-9050
的金	-9051
的雨	-9052
的高	-9053
目的	-9054
相信	-9055
祝愿	-9056
紧张	-9057
纷纷	-9058
组成	-9059
统计	-9060
维修	-9061
维持	-9062
绿叶	-9063
缓解	-9064
缔造	-9065
编撰	-9066
编著	-9067
编辑	-9068
缤纷	-9069
罕见	-9070
罗宾	-9071
罗干	-9072
羊肉	-9073
美人	-9074
美化	-9075
美好	-9076
美学	-9077
美林	-9078
美的	-9079
美院	-9080
群体	-9081
翻印	-9082
老板	-9083
老爱	-9084
老院	-9085
考察	-9086
考虑	-9087
者为	-9088
者之	-9089
者和	-9090
者胡	-9091
而上	-9092
而从	-9093
而又	-9094
而同	-9095
而无	-9096
而有	-9097
而言	-9098
耕墨	-9099
5%	-9100
58	-9101
一国	-9102
一大	-9103
一条	-9104
一样	-9105
万多	-9106
上下	-9107
上年	-9108
下把	-9109
不会	-9110
不时	-9111
专程	-9112
业的	-9113
为何	-9114
主持	-9115
书系	-9116
了两	-9117
事迹	-9118
五十	-9119
五星	-9120
亿元	-9121
位于	-9122
体系	-9123
元月	-9124
党政	-9125
党的	-9126
兵学	-9127
军队	-9128
出口	-9129
出台	-9130
办公	-9131
加工	-9132
勒斯	-9133
十多	-9134
华夏	-9135
印度	-9136
厂长	-9137
发言	-9138
各族	-9139
向全	-9140
向各	-9141
和民	-9142
回到	-9143
团结	-9144
在国	-9145
坚强	-9146
外出	-9147
多人	-9148
大会	-9149
家的	-9150
工业	-9151
工艺	-9152
布厂	-9153
年产	-9154
应该	-9155
开来	-9156
张安	-9157
扎耶	-9158
报纸	-9159
拱坝	-9160
推向	-9161
揭示	-9162
摊位	-9163
文古	-9164
方案	-9165
正在	-9166
波兰	-9167
澳门	-9168
灾难	-9169
爱的	-9170
留的	-9171
的自	-9172
的风	-9173
监督	-9174
第四	-9175
红旗	-9176
纪录	-9177
线上	-9178
经院	-9179
罗马	-9180
耕耘	-9181
联和	-9182
联欢	-9183
联邦	-9184
聚集	-9185
肯定	-9186
背上	-9187
背土	-9188
背篓	-9189
胜利	-9190
胜枚	-9191
胡彩	-9192
胡花	-9193
能力	-9194
能源	-9195
脚下	-9196
脱了	-9197
腰包	-9198
腹地	-9199
一期	-9200
丁玉	-9201
不住	-9202
世间	-9203
中共	-9204
事故	-9205
人喜	-9206
代化	-9207
价格	-9208
休眠	-9209
优秀	-9210
会上	-9211
何鲁	-9212
保证	-9213
做好	-9214
全体	-9215
共产	-9216
兵器	-9217
再就	-9218
军人	-9219
农户	-9220
力量	-9221
加强	-9222
动摇	-9223
十五	-9224
协会	-9225
南省	-9226
呼吁	-9227
国春	-9228
国的	-9229
图为	-9230
地位	-9231
地加	-9232
大中	-9233
如果	-9234
媒体	-9235
安理	-9236
小伙	-9237
居民	-9238
市农	-9239
带动	-9240
总额	-9241
户办	-9242
户头	-9243
房前	-9244
担任	-9245
振兴	-9246
推行	-9247
是在	-9248
机长	-9249
村户	-9250
杨子	-9251
极大	-9252
武装	-9253
比克	-9254
民伤	-9255
汇率	-9256
治国	-9257
洋洲	-9258
演员	-9259
烈军	-9260
热情	-9261
照片	-9262
特点	-9263
特色	-9264
王将	-9265
的文	-9266
的财	-9267
直接	-9268
省柴	-9269
矛盾	-9270
秘书	-9271
秦华	-9272
管制	-9273
经过	-9274
结束	-9275
绘画	-9276
继承	-9277
编写	-9278
自发	-9279
自叙	-9280
自家	-9281
自我	-9282
自掏	-9283
自民	-9284
自然	-9285
自珍	-9286
自豪	-9287
至少	-9288
致精	-9289
舆论	-9290
舍的	-9291
舞台	-9292
舞的	-9293
航班	-9294
航线	-9295
良好	-9296
良性	-9297
良知	-9298
艰巨	-9299
.4	-9300
0%	-9301
24	-9302
25	-9303
26	-9304
50	-9305
个大	-9306
中国	-9307
中小	-9308
为民	-9309
之争	-9310
了三	-9311
以上	-9312
以来	-9313
全军	-9314
关注	-9315
内容	-9316
利用	-9317
加了	-9318
加大	-9319
北大	-9320
华清	-9321
协商	-9322
卫队	-9323
县的	-9324
发达	-9325
各国	-9326
地的	-9327
地震	-9328
大街	-9329
如何	-9330
学习	-9331
属下	-9332
市委	-9333
常委	-9334
干脆	-9335
庆红	-9336
应当	-9337
开展	-9338
引人	-9339
引入	-9340
形势	-9341
很有	-9342
心的	-9343
意义	-9344
感召	-9345
才是	-9346
搜集	-9347
收到	-9348
教授	-9349
明显	-9350
显露	-9351
有奖	-9352
朋友	-9353
机制	-9354
来写	-9355
标准	-9356
根据	-9357
欢迎	-9358
武警	-9359
每个	-9360
江南	-9361
注意	-9362
玉茭	-9363
现有	-9364
用途	-9365
的事	-9366
的好	-9367
眼光	-9368
示范	-9369
社论	-9370
程度	-9371
空前	-9372
第三	-9373
纸上	-9374
绵绵	-9375
编选	-9376
老区	-9377
般的	-9378
艰苦	-9379
艰辛	-9380
艰难	-9381
色彩	-9382
节煤	-9383
节目	-9384
花卉	-9385
花被	-9386
花鸟	-9387
苏联	-9388
若干	-9389
苦功	-9390
苦难	-9391
英国	-9392
英的	-9393
苹果	-9394
范双	-9395
范围	-9396
荣立	-9397
莎白	-9398
莫大	-9399
40	-9400
主题	-9401
之一	-9402
之后	-9403
乌骨	-9404
乔石	-9405
于生	-9406
产千	-9407
他的	-9408
众多	-9409
伟大	-9410
作者	-9411
全乡	-9412
八达	-9413
出席	-9414
前进	-9415
卫生	-9416
印尼	-9417
台湾	-9418
和气	-9419
喜庆	-9420
园区	-9421
围绕	-9422
国内	-9423
地方	-9424
基金	-9425
多名	-9426
奇迹	-9427
子的	-9428
存款	-9429
孙宝	-9430
尊老	-9431
尽管	-9432
工作	-9433
平均	-9434
广泛	-9435
庆祝	-9436
床被	-9437
建筑	-9438
当地	-9439
彩虹	-9440
怎样	-9441
战斗	-9442
抓好	-9443
拍卖	-9444
推广	-9445
改变	-9446
方针	-9447
旗帜	-9448
是令	-9449
最近	-9450
有效	-9451
权益	-9452
检阅	-9453
概括	-9454
正是	-9455
武器	-9456
毕竟	-9457
气氛	-9458
油画	-9459
游客	-9460
特困	-9461
状况	-9462
甚少	-9463
田的	-9464
田笔	-9465
的心	-9466
的精	-9467
看到	-9468
着这	-9469
碌着	-9470
秩序	-9471
签订	-9472
粮食	-9473
红色	-9474
结合	-9475
绿化	-9476
耕地	-9477
联系	-9478
致富	-9479
萝卜	-9480
落实	-9481
著作	-9482
著名	-9483
董事	-9484
董建	-9485
葫芦	-9486
蒙古	-9487
蒙山	-9488
蓝的	-9489
蓬勃	-9490
蔓延	-9491
蔬菜	-9492
藏历	-9493
藏文	-9494
藏族	-9495
虹花	-9496
血与	-9497
血压	-9498
行业	-9499
,“	-9500
1.	-9501
11	-9502
30	-9503
60	-9504
一辆	-9505
万人	-9506
不敢	-9507
不是	-9508
专家	-9509
中标	-9510
了与	-9511
了解	-9512
余帧	-9513
健康	-9514
先进	-9515
光彩	-9516
全球	-9517
公斤	-9518
写照	-9519
军事	-9520
冲突	-9521
出一	-9522
利益	-9523
制度	-9524
前就	-9525
剩余	-9526
劳动	-9527
北省	-9528
历代	-9529
参加	-9530
双泾	-9531
发挥	-9532
古史	-9533
召开	-9534
各种	-9535
后的	-9536
和国	-9537
地域	-9538
多少	-9539
大家	-9540
大山	-9541
妻子	-9542
委员	-9543
实行	-9544
尊重	-9545
尝试	-9546
度尼	-9547
强调	-9548
忘把	-9549
情与	-9550
探索	-9551
收入	-9552
改值	-9553
政策	-9554
故乡	-9555
时地	-9556
此而	-9557
民张	-9558
水价	-9559
泾村	-9560
满了	-9561
演出	-9562
现实	-9563
画家	-9564
百分	-9565
的光	-9566
的八	-9567
管弦	-9568
系统	-9569
繁荣	-9570
细节	-9571
维也	-9572
维护	-9573
美丽	-9574
自动	-9575
行列	-9576
行行	-9577
行驶	-9578
街以	-9579
街头	-9580
衣厂	-9581
补贴	-9582
表妹	-9583
表明	-9584
表率	-9585
表现	-9586
衷心	-9587
被他	-9588
被拘	-9589
被炸	-9590
被称	-9591
被评	-9592
袭击	-9593
装帧	-9594
西亚	-9595
西北	-9596
西南	-9597
西安	-9598
西岸	-9599
%。	-9600
96	-9601
▁	-9602
,	-9603
的	-9604
。	-9605
、	-9606
一	-9607
国	-9608
年	-9609
人	-9610
1	-9611
中	-9612
在	-9613
了	-9614
大	-9615
和	-9616
0	-9617
有	-9618
9	-9619
是	-9620
为	-9621
新	-9622
地	-9623
民	-9624
发	-9625
生	-9626
业	-9627
这	-9628
全	-9629
出	-9630
“	-9631
”	-9632
不	-9633
家	-9634
上	-9635
以	-9636
们	-9637
个	-9638
作	-9639
来	-9640
到	-9641
会	-9642
文	-9643
多	-9644
行	-9645
成	-9646
日	-9647
经	-9648
学	-9649
同	-9650
我	-9651
农	-9652
工	-9653
者	-9654
2	-9655
华	-9656
进	-9657
开	-9658
部	-9659
展	-9660
建	-9661
区	-9662
对	-9663
市	-9664
.	-9665
主	-9666
时	-9667
元	-9668
水	-9669
要	-9670
自	-9671
与	-9672
政	-9673
重	-9674
动	-9675
本	-9676
他	-9677
产	-9678
月	-9679
于	-9680
实	-9681
下	-9682
8	-9683
3	-9684
前	-9685
利	-9686
现	-9687
记	-9688
加	-9689
高	-9690
之	-9691
社	-9692
村	-9693
理	-9694
万	-9695
事	-9696
两	-9697
化	-9698
而	-9699
各	-9700
心	-9701
起	-9702
长	-9703
面	-9704
5	-9705
代	-9706
关	-9707
报	-9708
济	-9709
小	-9710
(	-9711
)	-9712
其	-9713
史	-9714
方	-9715
表	-9716
南	-9717
美	-9718
6	-9719
世	-9720
合	-9721
明	-9722
7	-9723
使	-9724
就	-9725
设	-9726
说	-9727
:	-9728
将	-9729
好	-9730
通	-9731
—	-9732
活	-9733
等	-9734
交	-9735
天	-9736
界	-9737
统	-9738
《	-9739
》	-9740
书	-9741
共	-9742
平	-9743
也	-9744
着	-9745
历	-9746
过	-9747
里	-9748
场	-9749
定	-9750
分	-9751
入	-9752
后	-9753
外	-9754
计	-9755
4	-9756
北	-9757
十	-9758
资	-9759
改	-9760
从	-9761
公	-9762
得	-9763
金	-9764
体	-9765
电	-9766
道	-9767
制	-9768
用	-9769
县	-9770
次	-9771
系	-9772
党	-9773
力	-9774
总	-9775
持	-9776
港	-9777
特	-9778
并	-9779
结	-9780
路	-9781
;	-9782
军	-9783
基	-9784
程	-9785
向	-9786
子	-9787
度	-9788
香	-9789
户	-9790
西	-9791
达	-9792
可	-9793
困	-9794
当	-9795
育	-9796
目	-9797
种	-9798
员	-9799
已	-9800
广	-9801
三	-9802
创	-9803
山	-9804
气	-9805
还	-9806
题	-9807
划	-9808
去	-9809
强	-9810
机	-9811
正	-9812
治	-9813
集	-9814
京	-9815
务	-9816
提	-9817
术	-9818
能	-9819
问	-9820
性	-9821
步	-9822
九	-9823
安	-9824
企	-9825
位	-9826
名	-9827
少	-9828
然	-9829
第	-9830
都	-9831
非	-9832
今	-9833
先	-9834
内	-9835
情	-9836
所	-9837
老	-9838
解	-9839
乡	-9840
导	-9841
版	-9842
立	-9843
精	-9844
联	-9845
及	-9846
品	-9847
府	-9848
收	-9849
江	-9850
门	-9851
间	-9852
委	-9853
意	-9854
无	-9855
法	-9856
乐	-9857
如	-9858
推	-9859
此	-9860
增	-9861
画	-9862
管	-9863
举	-9864
团	-9865
最	-9866
由	-9867
古	-9868
式	-9869
海	-9870
物	-9871
贫	-9872
战	-9873
图	-9874
更	-9875
难	-9876
些	-9877
保	-9878
放	-9879
样	-9880
论	-9881
革	-9882
传	-9883
形	-9884
把	-9885
相	-9886
近	-9887
城	-9888
布	-9889
组	-9890
车	-9891
领	-9892
群	-9893
际	-9894
首	-9895
义	-9896
五	-9897
点	-9898
节	-9899
协	-9900
岸	-9901
每	-9902
深	-9903
青	-9904
众	-9905
处	-9906
志	-9907
又	-9908
干	-9909
示	-9910
风	-9911
原	-9912
取	-9913
回	-9914
局	-9915
庆	-9916
张	-9917
投	-9918
祖	-9919
续	-9920
被	-9921
%	-9922
神	-9923
项	-9924
亿	-9925
决	-9926
厂	-9927
数	-9928
省	-9929
给	-9930
馆	-9931
优	-9932
台	-9933
应	-9934
引	-9935
想	-9936
据	-9937
服	-9938
条	-9939
田	-9940
纪	-9941
职	-9942
院	-9943
二	-9944
云	-9945
施	-9946
织	-9947
致	-9948
色	-9949
造	-9950
但	-9951
始	-9952
手	-9953
指	-9954
期	-9955
极	-9956
欢	-9957
比	-9958
流	-9959
演	-9960
队	-9961
坚	-9962
带	-9963
视	-9964
那	-9965
势	-9966
参	-9967
她	-9968
片	-9969
级	-9970
象	-9971
量	-9972
龙	-9973
东	-9974
思	-9975
支	-9976
族	-9977
环	-9978
益	-9979
盛	-9980
调	-9981
值	-9982
受	-9983
币	-9984
感	-9985
技	-9986
接	-9987
看	-9988
继	-9989
花	-9990
话	-9991
光	-9992
别	-9993
变	-9994
型	-9995
央	-9996
整	-9997
率	-9998
严	-9999
再	-10000
几	-10001
口	-10002
常	-10003
快	-10004
斯	-10005
望	-10006
祝	-10007
维	-10008
费	-10009
转	-10010
任	-10011
信	-10012
办	-10013
愿	-10014
效	-10015
认	-10016
音	-10017
头	-10018
格	-10019
艺	-10020
读	-10021
千	-10022
士	-10023
旦	-10024
果	-10025
百	-10026
直	-10027
真	-10028
积	-10029
选	-10030
亚	-10031
件	-10032
功	-10033
只	-10034
命	-10035
商	-10036
求	-10037
爱	-10038
空	-10039
良	-10040
英	-10041
议	-10042
写	-10043
卢	-10044
反	-10045
四	-10046
境	-10047
女	-10048
完	-10049
富	-10050
旗	-10051
林	-10052
知	-10053
至	-10054
藏	-10055
融	-10056
观	-10057
走	-10058
防	-10059
列	-10060
则	-10061
却	-10062
因	-10063
它	-10064
影	-10065
态	-10066
标	-10067
清	-10068
献	-10069
稳	-10070
考	-10071
规	-10072
身	-10073
迎	-10074
银	-10075
飞	-10076
专	-10077
兴	-10078
响	-10079
均	-10080
权	-10081
游	-10082
科	-10083
许	-10084
镇	-10085
降	-10086
马	-10087
做	-10088
八	-10089
助	-10090
双	-10091
己	-10092
德	-10093
李	-10094
温	-10095
类	-10096
讲	-10097
质	-10098
运	-10099
丛	-10100
争	-10101
切	-10102
归	-10103
往	-10104
拉	-10105
教	-10106
歌	-10107
没	-10108
源	-10109
王	-10110
见	-10111
边	-10112
连	-10113
兵	-10114
巴	-10115
彩	-10116
斗	-10117
确	-10118
航	-10119
评	-10120
钱	-10121
亩	-10122
况	-10123
副	-10124
域	-10125
夏	-10126
帮	-10127
必	-10128
扶	-10129
武	-10130
河	-10131
泽	-10132
满	-10133
略	-10134
础	-10135
笔	-10136
籍	-10137
编	-10138
货	-10139
?	-10140
俄	-10141
具	-10142
兼	-10143
友	-10144
告	-10145
园	-10146
存	-10147
才	-10148
景	-10149
研	-10150
究	-10151
红	-10152
线	-10153
装	-10154
识	-10155
额	-10156
供	-10157
努	-10158
升	-10159
半	-10160
川	-10161
很	-10162
护	-10163
故	-10164
款	-10165
照	-10166
脱	-10167
荣	-10168
街	-10169
该	-10170
责	-10171
七	-10172
价	-10173
减	-10174
周	-10175
善	-10176
复	-10177
尽	-10178
席	-10179
春	-10180
紧	-10181
罗	-10182
营	-10183
警	-10184
鲜	-10185
『	-10186
』	-10187
临	-10188
司	-10189
喜	-10190
夜	-10191
套	-10192
孙	-10193
庭	-10194
录	-10195
早	-10196
油	-10197
洲	-10198
球	-10199
米	-10200
繁	-10201
胞	-10202
范	-10203
谋	-10204
退	-10205
速	-10206
随	-10207
令	-10208
克	-10209
养	-10210
包	-10211
岁	-10212
扎	-10213
批	-10214
未	-10215
约	-10216
菜	-10217
著	-10218
谈	-10219
贺	-10220
较	-10221
远	-10222
雄	-10223
!	-10224
仅	-10225
何	-10226
依	-10227
刘	-10228
刻	-10229
占	-10230
印	-10231
声	-10232
孔	-10233
宁	-10234
密	-10235
尔	-10236
巨	-10237
念	-10238
慰	-10239
承	-10240
抓	-10241
摄	-10242
显	-10243
梁	-10244
注	-10245
火	-10246
热	-10247
落	-10248
证	-10249
采	-10250
驻	-10251
黄	-10252
午	-10253
土	-10254
奋	-10255
客	-10256
宣	-10257
尼	-10258
州	-10259
希	-10260
庄	-10261
底	-10262
或	-10263
曲	-10264
案	-10265
模	-10266
澳	-10267
激	-10268
称	-10269
终	-10270
贸	-10271
述	-10272
送	-10273
针	-10274
雨	-10275
震	-10276
鱼	-10277
份	-10278
伍	-10279
伟	-10280
健	-10281
儿	-10282
准	-10283
初	-10284
卡	-10285
召	-10286
容	-10287
曾	-10288
独	-10289
破	-10290
章	-10291
艰	-10292
访	-10293
负	-10294
阳	-10295
丽	-10296
乎	-10297
仪	-10298
低	-10299
便	-10300
卫	-10301
即	-10302
号	-10303
备	-10304
居	-10305
怀	-10306
按	-10307
挥	-10308
斤	-10309
断	-10310
晚	-10311
材	-10312
构	-10313
波	-10314
派	-10315
琛	-10316
禁	-10317
福	-10318
纷	-10319
购	-10320
贵	-10321
超	-10322
迹	-10323
雪	-10324
韩	-10325
么	-10326
亡	-10327
亲	-10328
仍	-10329
伤	-10330
促	-10331
典	-10332
冷	-10333
劳	-10334
围	-10335
塔	-10336
奇	-10337
座	-10338
康	-10339
排	-10340
探	-10341
控	-10342
烈	-10343
石	-10344
纳	-10345
聚	-10346
胡	-10347
让	-10348
讯	-10349
逐	-10350
销	-10351
·	-10352
住	-10353
侨	-10354
充	-10355
冬	-10356
夫	-10357
寒	-10358
察	-10359
息	-10360
散	-10361
映	-10362
智	-10363
查	-10364
汇	-10365
泾	-10366
状	-10367
珍	-10368
登	-10369
眼	-10370
素	-10371
署	-10372
背	-10373
舞	-10374
苦	-10375
茶	-10376
财	-10377
足	-10378
辉	-10379
验	-10380
’	-10381
刚	-10382
卖	-10383
危	-10384
吕	-10385
吸	-10386
字	-10387
徐	-10388
救	-10389
旧	-10390
根	-10391
死	-10392
段	-10393
消	-10394
湾	-10395
留	-10396
白	-10397
短	-10398
突	-10399
策	-10400
纸	-10401
胜	-10402
谁	-10403
邓	-10404
郑	-10405
阶	-10406
互	-10407
余	-10408
你	-10409
佳	-10410
兰	-10411
剧	-10412
勒	-10413
厚	-10414
唱	-10415
妇	-10416
幅	-10417
序	-10418
待	-10419
忘	-10420
恢	-10421
易	-10422
树	-10423
浩	-10424
瑞	-10425
粮	-10426
补	-10427
言	-10428
贷	-10429
轻	-10430
遗	-10431
陈	-10432
需	-10433
顿	-10434
齐	-10435
且	-10436
丰	-10437
修	-10438
停	-10439
像	-10440
勃	-10441
医	-10442
器	-10443
墨	-10444
太	-10445
层	-10446
担	-10447
拥	-10448
括	-10449
拿	-10450
振	-10451
措	-10452
敬	-10453
旅	-10454
暖	-10455
束	-10456
架	-10457
氛	-10458
焦	-10459
玉	-10460
索	-10461
荒	-10462
虽	-10463
觉	-10464
角	-10465
越	-10466
跨	-10467
追	-10468
阵	-10469
阿	-10470
限	-10471
食	-10472
丝	-10473
久	-10474
习	-10475
判	-10476
单	-10477
厅	-10478
叙	-10479
启	-10480
哈	-10481
失	-10482
官	-10483
审	-10484
律	-10485
怎	-10486
拍	-10487
捐	-10488
普	-10489
横	-10490
玲	-10491
班	-10492
甚	-10493
秀	-10494
筹	-10495
篇	-10496
置	-10497
股	-10498
蒙	-10499
誉	-10500
词	-10501
请	-10502
趋	-10503
辆	-10504
辞	-10505
适	-10506
遇	-10507
顺	-10508
须	-10509
鸣	-10510
丁	-10511
买	-10512
候	-10513
六	-10514
冲	-10515
博	-10516
另	-10517
呼	-10518
坦	-10519
奏	-10520
宾	-10521
属	-10522
峰	-10523
忧	-10524
房	-10525
托	-10526
扬	-10527
拓	-10528
挤	-10529
摆	-10530
料	-10531
既	-10532
星	-10533
朋	-10534
木	-10535
析	-10536
止	-10537
润	-10538
潮	-10539
爸	-10540
筑	-10541
纯	-10542
绍	-10543
绩	-10544
绿	-10545
耶	-10546
肉	-10547
舍	-10548
若	-10549
违	-10550
配	-10551
钟	-10552
闻	-10553
附	-10554
静	-10555
预	-10556
鼓	-10557
乌	-10558
什	-10559
介	-10560
伊	-10561
偏	-10562
击	-10563
右	-10564
坡	-10565
培	-10566
壮	-10567
夕	-10568
奶	-10569
岗	-10570
帜	-10571
征	-10572
恩	-10573
悲	-10574
惠	-10575
描	-10576
援	-10577
搞	-10578
朝	-10579
朱	-10580
松	-10581
殖	-10582
毛	-10583
泛	-10584
洁	-10585
浙	-10586
渐	-10587
湖	-10588
灵	-10589
煌	-10590
离	-10591
秦	-10592
税	-10593
竟	-10594
童	-10595
纽	-10596
综	-10597
脑	-10598
莫	-10599
萨	-10600
语	-10601
谓	-10602
谢	-10603
赞	-10604
跃	-10605
跑	-10606
载	-10607
透	-10608
雅	-10609
雷	-10610
休	-10611
伴	-10612
倡	-10613
凡	-10614
吨	-10615
听	-10616
圳	-10617
奖	-10618
妈	-10619
孤	-10620
尊	-10621
尤	-10622
届	-10623
左	-10624
差	-10625
师	-10626
扩	-10627
找	-10628
挑	-10629
换	-10630
授	-10631
摊	-10632
板	-10633
桑	-10634
欣	-10635
永	-10636
沙	-10637
渡	-10638
滨	-10639
灌	-10640
瓜	-10641
疆	-10642
病	-10643
监	-10644
盾	-10645
秩	-10646
穿	-10647
窗	-10648
签	-10649
简	-10650
耕	-10651
胀	-10652
脚	-10653
苏	-10654
获	-10655
蔬	-10656
血	-10657
衣	-10658
贡	-10659
赠	-10660
遍	-10661
键	-10662
阅	-10663
露	-10664
C	-10665
°	-10666
‘	-10667
亮	-10668
劲	-10669
勇	-10670
叶	-10671
吁	-10672
吴	-10673
哲	-10674
喷	-10675
坝	-10676
妹	-10677
妻	-10678
季	-10679
孩	-10680
延	-10681
异	-10682
役	-10683
彻	-10684
循	-10685
忆	-10686
忠	-10687
悟	-10688
抗	-10689
拱	-10690
挂	-10691
播	-10692
敢	-10693
核	-10694
桥	-10695
概	-10696
氏	-10697
沧	-10698
沼	-10699
泰	-10700
涨	-10701
淡	-10702
渠	-10703
烂	-10704
烟	-10705
狂	-10706
矛	-10707
秋	-10708
租	-10709
站	-10710
竞	-10711
细	-10712
缓	-10713
羊	-10714
翻	-10715
般	-10716
荡	-10717
董	-10718
衡	-10719
触	-10720
誓	-10721
豆	-10722
豪	-10723
貌	-10724
赏	-10725
赢	-10726
迈	-10727
迟	-10728
逾	-10729
邮	-10730
醒	-10731
陆	-10732
除	-10733
靠	-10734
骨	-10735
鲁	-10736
付	-10737
似	-10738
例	-10739
倒	-10740
兑	-10741
冉	-10742
净	-10743
刊	-10744
卷	-10745
压	-10746
呈	-10747
呢	-10748
味	-10749
哥	-10750
固	-10751
圣	-10752
坐	-10753
块	-10754
堵	-10755
塞	-10756
够	-10757
宗	-10758
岭	-10759
幼	-10760
惊	-10761
懈	-10762
执	-10763
招	-10764
旋	-10765
末	-10766
杨	-10767
梅	-10768
棚	-10769
森	-10770
楼	-10771
欠	-10772
毅	-10773
毫	-10774
沉	-10775
沟	-10776
津	-10777
洪	-10778
浓	-10779
涉	-10780
涵	-10781
溉	-10782
滚	-10783
漠	-10784
潜	-10785
灯	-10786
灾	-10787
疑	-10788
盘	-10789
竹	-10790
笑	-10791
算	-10792
粉	-10793
累	-10794
练	-10795
绘	-10796
绝	-10797
缘	-10798
缩	-10799
胆	-10800
脸	-10801
菲	-10802
蕊	-10803
览	-10804
订	-10805
训	-10806
贯	-10807
贴	-10808
贾	-10809
趣	-10810
踏	-10811
邻	-10812
险	-10813
隆	-10814
频	-10815
鹏	-10816
‰	-10817
丹	-10818
乱	-10819
享	-10820
仁	-10821
仰	-10822
佩	-10823
俊	-10824
偿	-10825
册	-10826
冒	-10827
冰	-10828
剖	-10829
匙	-10830
吃	-10831
吗	-10832
嘉	-10833
囊	-10834
垦	-10835
堂	-10836
姐	-10837
宪	-10838
屋	-10839
峡	-10840
崇	-10841
幕	-10842
库	-10843
微	-10844
急	-10845
恭	-10846
悦	-10847
打	-10848
抢	-10849
择	-10850
挺	-10851
掉	-10852
掘	-10853
揭	-10854
搜	-10855
撤	-10856
撰	-10857
攻	-10858
旨	-10859
昌	-10860
晨	-10861
曹	-10862
枪	-10863
染	-10864
校	-10865
植	-10866
毁	-10867
毕	-10868
汉	-10869
泳	-10870
洋	-10871
浪	-10872
淮	-10873
灭	-10874
灿	-10875
炼	-10876
煤	-10877
爆	-10878
猪	-10879
瓦	-10880
盖	-10881
硬	-10882
礼	-10883
祥	-10884
票	-10885
端	-10886
绵	-10887
缺	-10888
耀	-10889
肯	-10890
胸	-10891
芳	-10892
蓝	-10893
诗	-10894
诚	-10895
课	-10896
谱	-10897
跌	-10898
轨	-10899
输	-10900
钥	-10901
铁	-10902
阔	-10903
陀	-10904
隔	-10905
障	-10906
零	-10907
页	-10908
饲	-10909
鸡	-10910
鸿	-10911
黎	-10912
黑	-10913
默	-10914
龚	-10915
佐	-10916
债	-10917
假	-10918
凝	-10919
凯	-10920
剩	-10921
叫	-10922
吐	-10923
含	-10924
售	-10925
坏	-10926
塘	-10927
奔	-10928
奥	-10929
妙	-10930
妥	-10931
姑	-10932
姜	-10933
威	-10934
宅	-10935
宏	-10936
宜	-10937
宝	-10938
宽	-10939
寄	-10940
寡	-10941
寻	-10942
履	-10943
岛	-10944
巩	-10945
床	-10946
弟	-10947
径	-10948
忙	-10949
恰	-10950
恶	-10951
悉	-10952
截	-10953
拔	-10954
拘	-10955
拜	-10956
挖	-10957
掌	-10958
插	-10959
握	-10960
操	-10961
敏	-10962
敞	-10963
斑	-10964
旱	-10965
昭	-10966
某	-10967
栋	-10968
检	-10969
榭	-10970
欧	-10971
汪	-10972
泉	-10973
洗	-10974
测	-10975
涌	-10976
淀	-10977
添	-10978
滴	-10979
漫	-10980
濒	-10981
灶	-10982
炸	-10983
牌	-10984
牡	-10985
牵	-10986
猎	-10987
玩	-10988
珠	-10989
男	-10990
畅	-10991
畜	-10992
番	-10993
睦	-10994
矿	-10995
禽	-10996
秘	-10997
穷	-10998
窥	-10999
篆	-11000
篓	-11001
纲	-11002
缔	-11003
翁	-11004
肩	-11005
膨	-11006
艳	-11007
蓄	-11008
蓬	-11009
衷	-11010
袭	-11011
覆	-11012
试	-11013
详	-11014
谨	-11015
账	-11016
赛	-11017
赶	-11018
软	-11019
辈	-11020
辖	-11021
迁	-11022
迅	-11023
迪	-11024
途	-11025
遣	-11026
郁	-11027
郭	-11028
野	-11029
锋	-11030
锡	-11031
闭	-11032
阻	-11033
陵	-11034
顶	-11035
顾	-11036
颜	-11037
飘	-11038
驱	-11039
鸟	-11040
/	-11041
A	-11042
B	-11043
丧	-11044
串	-11045
乃	-11046
乏	-11047
乔	-11048
乳	-11049
予	-11050
仓	-11051
伙	-11052
佛	-11053
俗	-11054
倍	-11055
储	-11056
允	-11057
励	-11058
卉	-11059
厦	-11060
否	-11061
吹	-11062
咱	-11063
啊	-11064
喝	-11065
嘴	-11066
址	-11067
坛	-11068
坪	-11069
堡	-11070
夺	-11071
奉	-11072
婚	-11073
媒	-11074
宫	-11075
寺	-11076
封	-11077
射	-11078
尉	-11079
尝	-11080
尾	-11081
屏	-11082
岚	-11083
峻	-11084
帧	-11085
弃	-11086
弥	-11087
弦	-11088
彭	-11089
徊	-11090
徘	-11091
徽	-11092
恒	-11093
患	-11094
愉	-11095
慎	-11096
慧	-11097
憾	-11098
懂	-11099
戈	-11100
抵	-11101
损	-11102
摇	-11103
旁	-11104
昆	-11105
昨	-11106
晤	-11107
朗	-11108
朴	-11109
杰	-11110
柏	-11111
柱	-11112
柴	-11113
桂	-11114
梦	-11115
棉	-11116
椒	-11117
残	-11118
池	-11119
汽	-11120
沪	-11121
泄	-11122
泣	-11123
泥	-11124
泪	-11125
洒	-11126
浇	-11127
滋	-11128
潘	-11129
灰	-11130
炮	-11131
燃	-11132
父	-11133
爷	-11134
牖	-11135
牧	-11136
犹	-11137
狠	-11138
甘	-11139
眉	-11140
督	-11141
瞩	-11142
碌	-11143
祈	-11144
祷	-11145
竖	-11146
绕	-11147
络	-11148
网	-11149
翰	-11150
翼	-11151
耘	-11152
聪	-11153
腮	-11154
腹	-11155
船	-11156
艾	-11157
茭	-11158
药	-11159
蒸	-11160
蔓	-11161
蔚	-11162
虎	-11163
虑	-11164
虹	-11165
衰	-11166
讨	-11167
诉	-11168
诊	-11169
诸	-11170
诺	-11171
谊	-11172
贤	-11173
赖	-11174
赴	-11175
赵	-11176
轮	-11177
辙	-11178
辛	-11179
辣	-11180
逊	-11181
逛	-11182
遥	-11183
邦	-11184
酋	-11185
酒	-11186
钢	-11187
铺	-11188
镕	-11189
闪	-11190
闹	-11191
韵	-11192
颇	-11193
饮	-11194
馨	-11195
驶	-11196
驾	-11197
骤	-11198
鬼	-11199
魂	-11200
魄	-11201
鹰	-11202
麻	-11203
乾	-11204
井	-11205
亦	-11206
亭	-11207
仆	-11208
仿	-11209
伐	-11210
伦	-11211
侠	-11212
侧	-11213
倘	-11214
借	-11215
倦	-11216
倾	-11217
催	-11218
傲	-11219
兄	-11220
兆	-11221
免	-11222
凌	-11223
剑	-11224
割	-11225
劣	-11226
劫	-11227
勋	-11228
募	-11229
勤	-11230
匆	-11231
卜	-11232
句	-11233
叭	-11234
吉	-11235
哀	-11236
哪	-11237
喇	-11238
圆	-11239
垫	-11240
堆	-11241
堪	-11242
塑	-11243
墙	-11244
奠	-11245
妨	-11246
姨	-11247
姻	-11248
娃	-11249
娓	-11250
娱	-11251
孝	-11252
守	-11253
宋	-11254
室	-11255
害	-11256
宿	-11257
寂	-11258
寓	-11259
尖	-11260
尚	-11261
尺	-11262
屡	-11263
岩	-11264
崭	-11265
巧	-11266
巷	-11267
帷	-11268
幸	-11269
廉	-11270
弱	-11271
彦	-11272
彬	-11273
彼	-11274
忽	-11275
怕	-11276
悠	-11277
惜	-11278
惯	-11279
惶	-11280
慨	-11281
戎	-11282
戒	-11283
扫	-11284
扮	-11285
扰	-11286
披	-11287
抱	-11288
拒	-11289
拖	-11290
拨	-11291
拾	-11292
挚	-11293
挣	-11294
掩	-11295
揣	-11296
揽	-11297
搭	-11298
摘	-11299
摧	-11300
摩	-11301
摸	-11302
撼	-11303
敲	-11304
斌	-11305
斐	-11306
斓	-11307
旬	-11308
旺	-11309
昂	-11310
昼	-11311
晋	-11312
暗	-11313
杂	-11314
杜	-11315
杭	-11316
枝	-11317
柳	-11318
柿	-11319
框	-11320
桌	-11321
档	-11322
椅	-11323
欲	-11324
歧	-11325
殃	-11326
殊	-11327
沈	-11328
沿	-11329
洞	-11330
洼	-11331
浜	-11332
湿	-11333
溪	-11334
滞	-11335
漾	-11336
澄	-11337
烧	-11338
烽	-11339
熊	-11340
熟	-11341
牛	-11342
狭	-11343
猛	-11344
玛	-11345
珮	-11346
琴	-11347
琼	-11348
甜	-11349
申	-11350
畔	-11351
疏	-11352
疗	-11353
痕	-11354
痪	-11355
瘫	-11356
皇	-11357
皎	-11358
盆	-11359
盗	-11360
眠	-11361
眺	-11362
睹	-11363
码	-11364
砖	-11365
硕	-11366
硝	-11367
磨	-11368
私	-11369
秧	-11370
移	-11371
稀	-11372
笛	-11373
笼	-11374
答	-11375
箫	-11376
粗	-11377
粹	-11378
糊	-11379
纵	-11380
纺	-11381
绣	-11382
绳	-11383
绸	-11384
缅	-11385
缚	-11386
缤	-11387
罕	-11388
罚	-11389
罢	-11390
羽	-11391
耳	-11392
肖	-11393
脆	-11394
脉	-11395
脏	-11396
腐	-11397
腾	-11398
臣	-11399
舆	-11400
舟	-11401
苍	-11402
茂	-11403
茫	-11404
茵	-11405
草	-11406
莽	-11407
萝	-11408
萧	-11409
蒂	-11410
蕴	-11411
蕾	-11412
藉	-11413
虚	-11414
蛋	-11415
蜜	-11416
袋	-11417
袱	-11418
裁	-11419
裂	-11420
裕	-11421
译	-11422
诞	-11423
谦	-11424
谷	-11425
豫	-11426
贪	-11427
赤	-11428
赫	-11429
跋	-11430
跳	-11431
践	-11432
踞	-11433
轰	-11434
辄	-11435
辐	-11436
辑	-11437
辟	-11438
返	-11439
迭	-11440
逝	-11441
逢	-11442
邀	-11443
邹	-11444
钞	-11445
钦	-11446
钻	-11447
锐	-11448
锤	-11449
锦	-11450
闯	-11451
阐	-11452
阴	-11453
陪	-11454
陶	-11455
隐	-11456
雀	-11457
雕	-11458
韧	-11459
餐	-11460
饱	-11461
饺	-11462
骄	-11463
鸠	-11464
鼠	-11465
丈	-11466
乘	-11467
亏	-11468
仇	-11469
仔	-11470
伏	-11471
伯	-11472
估	-11473
伸	-11474
佯	-11475
俏	-11476
俘	-11477
俨	-11478
俯	-11479
俱	-11480
倔	-11481
倪	-11482
偷	-11483
傅	-11484
傍	-11485
僧	-11486
僵	-11487
儒	-11488
兹	-11489
冠	-11490
冯	-11491
冶	-11492
冻	-11493
凤	-11494
凭	-11495
凶	-11496
凸	-11497
刃	-11498
刷	-11499
券	-11500
剂	-11501
削	-11502
剥	-11503
剪	-11504
剿	-11505
劈	-11506
劼	-11507
勉	-11508
勘	-11509
勾	-11510
匠	-11511
卧	-11512
卯	-11513
卿	-11514
厉	-11515
厌	-11516
叉	-11517
叔	-11518
叩	-11519
叱	-11520
叹	-11521
吟	-11522
吧	-11523
呕	-11524
咏	-11525
咤	-11526
咨	-11527
哄	-11528
哇	-11529
哩	-11530
唐	-11531
喊	-11532
喧	-11533
喻	-11534
嘎	-11535
嘘	-11536
嘱	-11537
嘹	-11538
圈	-11539
圾	-11540
坎	-11541
坤	-11542
坷	-11543
垂	-11544
垃	-11545
垄	-11546
垠	-11547
埃	-11548
埔	-11549
堑	-11550
堤	-11551
墓	-11552
墟	-11553
壳	-11554
夸	-11555
夹	-11556
奴	-11557
姆	-11558
姓	-11559
娇	-11560
娶	-11561
媚	-11562
媳	-11563
嫁	-11564
嫩	-11565
孚	-11566
寞	-11567
寨	-11568
寸	-11569
尘	-11570
尸	-11571
尹	-11572
屈	-11573
屿	-11574
岂	-11575
岱	-11576
峭	-11577
崔	-11578
崖	-11579
崛	-11580
嵌	-11581
嵩	-11582
巡	-11583
巾	-11584
帅	-11585
帐	-11586
帕	-11587
帘	-11588
帙	-11589
帝	-11590
帽	-11591
幄	-11592
幽	-11593
庙	-11594
废	-11595
弄	-11596
弊	-11597
弗	-11598
弯	-11599
弹	-11600
忍	-11601
怒	-11602
怜	-11603
怠	-11604
怨	-11605
恋	-11606
恍	-11607
恐	-11608
恤	-11609
恨	-11610
恺	-11611
悄	-11612
悔	-11613
您	-11614
悬	-11615
悸	-11616
惨	-11617
惬	-11618
愁	-11619
愤	-11620
愫	-11621
慢	-11622
慷	-11623
憨	-11624
憬	-11625
戴	-11626
扇	-11627
扉	-11628
扑	-11629
扣	-11630
扭	-11631
抄	-11632
抒	-11633
折	-11634
抛	-11635
抠	-11636
抬	-11637
抽	-11638
拆	-11639
拗	-11640
拙	-11641
拟	-11642
拢	-11643
拦	-11644
拮	-11645
拼	-11646
挡	-11647
挨	-11648
挫	-11649
捉	-11650
捍	-11651
捧	-11652
捷	-11653
掏	-11654
掬	-11655
搁	-11656
搏	-11657
搬	-11658
撑	-11659
撒	-11660
撷	-11661
攀	-11662
攥	-11663
敌	-11664
斡	-11665
晓	-11666
晴	-11667
暇	-11668
暴	-11669
曙	-11670
曝	-11671
曼	-11672
替	-11673
朵	-11674
朽	-11675
杀	-11676
杆	-11677
杈	-11678
杞	-11679
杯	-11680
枚	-11681
枸	-11682
柔	-11683
柘	-11684
栏	-11685
栓	-11686
栖	-11687
桃	-11688
梓	-11689
梭	-11690
梯	-11691
械	-11692
棋	-11693
棒	-11694
楚	-11695
榫	-11696
槟	-11697
樊	-11698
歼	-11699
殷	-11700
母	-11701
氢	-11702
氤	-11703
氲	-11704
汀	-11705
汗	-11706
汛	-11707
汝	-11708
污	-11709
汤	-11710
汾	-11711
沂	-11712
沥	-11713
沫	-11714
沾	-11715
泸	-11716
泻	-11717
浅	-11718
浑	-11719
浦	-11720
浮	-11721
浸	-11722
涂	-11723
涅	-11724
涛	-11725
涝	-11726
涣	-11727
涪	-11728
涯	-11729
淌	-11730
淳	-11731
混	-11732
渊	-11733
渝	-11734
渤	-11735
渥	-11736
溜	-11737
溧	-11738
溯	-11739
滥	-11740
滩	-11741
漏	-11742
漓	-11743
澈	-11744
澎	-11745
瀑	-11746
瀚	-11747
炉	-11748
炎	-11749
炽	-11750
烁	-11751
熔	-11752
燕	-11753
爪	-11754
牙	-11755
牢	-11756
牲	-11757
牺	-11758
犯	-11759
狱	-11760
狼	-11761
珊	-11762
琅	-11763
琦	-11764
瑙	-11765
瑚	-11766
瑰	-11767
瑶	-11768
甫	-11769
甲	-11770
疫	-11771
疾	-11772
症	-11773
痛	-11774
瘠	-11775
皆	-11776
皮	-11777
盈	-11778
盎	-11779
盏	-11780
盲	-11781
眷	-11782
睛	-11783
瞒	-11784
砂	-11785
砍	-11786
砚	-11787
碍	-11788
碎	-11789
碑	-11790
碰	-11791
磊	-11792
磋	-11793
禺	-11794
秒	-11795
秤	-11796
稍	-11797
稚	-11798
稻	-11799
稿	-11800
穆	-11801
窄	-11802
窘	-11803
竣	-11804
笃	-11805
笋	-11806
筛	-11807
筝	-11808
箱	-11809
箴	-11810
篮	-11811
粒	-11812
粪	-11813
粲	-11814
糅	-11815
糖	-11816
紫	-11817
纂	-11818
纠	-11819
纬	-11820
纶	-11821
绎	-11822
绑	-11823
绒	-11824
绚	-11825
绪	-11826
缕	-11827
缝	-11828
缭	-11829
缴	-11830
罐	-11831
罪	-11832
翅	-11833
翔	-11834
翠	-11835
耻	-11836
聘	-11837
肃	-11838
肤	-11839
肥	-11840
肴	-11841
肿	-11842
胁	-11843
脂	-11844
腊	-11845
腕	-11846
腰	-11847
膀	-11848
膏	-11849
臂	-11850
臆	-11851
臭	-11852
臾	-11853
舒	-11854
舰	-11855
芍	-11856
芒	-11857
芙	-11858
芜	-11859
芝	-11860
芦	-11861
芭	-11862
芹	-11863
苋	-11864
苗	-11865
苹	-11866
茄	-11867
茅	-11868
茨	-11869
荆	-11870
莅	-11871
莎	-11872
菊	-11873
菌	-11874
菠	-11875
萌	-11876
萍	-11877
葡	-11878
葫	-11879
葱	-11880
蓉	-11881
蕉	-11882
蕻	-11883
薄	-11884
薛	-11885
虬	-11886
蜕	-11887
衍	-11888
衔	-11889
袖	-11890
裹	-11891
觅	-11892
觑	-11893
觞	-11894
詹	-11895
讴	-11896
询	-11897
误	-11898
谭	-11899
豁	-11900
豌	-11901
豹	-11902
贝	-11903
贞	-11904
败	-11905
贩	-11906
贬	-11907
贱	-11908
贻	-11909
赁	-11910
赋	-11911
赐	-11912
赔	-11913
赡	-11914
赭	-11915
距	-11916
跟	-11917
跷	-11918
踢	-11919
踵	-11920
蹈	-11921
躺	-11922
轲	-11923
辅	-11924
辨	-11925
迄	-11926
逃	-11927
遏	-11928
遒	-11929
遮	-11930
遵	-11931
邕	-11932
邱	-11933
邵	-11934
邸	-11935
郊	-11936
郎	-11937
释	-11938
鉴	-11939
钓	-11940
钧	-11941
钩	-11942
铎	-11943
铣	-11944
铭	-11945
链	-11946
锁	-11947
锅	-11948
错	-11949
锣	-11950
锲	-11951
锻	-11952
镜	-11953
镶	-11954
闸	-11955
阂	-11956
阑	-11957
阖	-11958
陟	-11959
陡	-11960
陲	-11961
陷	-11962
隶	-11963
雁	-11964
雏	-11965
雯	-11966
雾	-11967
霎	-11968
霜	-11969
霞	-11970
霸	-11971
鞋	-11972
鞭	-11973
韦	-11974
颂	-11975
颖	-11976
颗	-11977
饥	-11978
饰	-11979
饼	-11980
饿	-11981
驰	-11982
骅	-11983
骑	-11984
骚	-11985
魁	-11986
魅	-11987
鲍	-11988
鲤	-11989
鲫	-11990
鲶	-11991
鳜	-11992
鸢	-11993
麦	-11994
黔	-11995
鼐	-11996
龄	-11997
